layers 7
layer 0 Dense
20 20
[ 0.20760637405440097 -0.44650781467514206 -0.5825980844737995 0.1851590735238277 -0.13533432589218936 -0.21978045403845684 -0.11200594125558401 -0.20890111582611354 -0.1230743217431982 -0.678778813959969 -0.3889459368468146 0.21607835718502477 -0.02810500290174644 0.38532820741474794 0.41169944866203084 0.48822601613542477 -0.22730845391063328 -0.09037273605429863 -0.27373880131504164 -0.12019654889347366 ]
[ 0.32734429310248764 0.2824691839622715 -0.36648430972071155 0.027618345744278024 0.02477009563964935 -0.15532317368440898 0.360924589146288 -0.1265915616736932 0.018351182989865288 -0.356661065623882 0.12046414448263532 0.13666786154227809 -0.3511640721502609 0.2511934490276547 -0.07399656574236728 0.14262284192608604 0.25673576908008144 -0.37801444573400467 -0.2759591170406369 0.25005169097070584 ]
[ -0.2276652509506374 0.03168958237306551 0.3016558571921362 -0.23604133353416754 -0.28614357594468975 -0.05845850973269529 0.10334619558855541 -0.35884619122391914 -0.3144696153921422 0.34270355875236713 0.3095701474128946 -0.03789005753092597 0.008575046456804349 -0.08305180657518933 0.27805212069945723 -0.18504831273920164 -0.25345246203233335 -0.06519225814018659 -0.23905789317555842 0.020986808924429144 ]
[ -0.20176610582097335 0.04699456490990743 0.020707783789567117 -0.023283611348909578 0.013390558923354449 -0.07241380185070687 0.19057139083049604 0.34235168609412936 0.25982661888991554 -0.3410493806890815 0.3663671018241287 0.21342176999528337 -0.12846566501258364 0.02494202726859379 0.3211658585968606 0.2584897611985117 -0.07163788990419312 -0.08940329896771819 0.09881734584727529 0.23782217576346443 ]
[ -0.06457218209080715 0.11328930546538171 -0.19183888014191916 -0.07312492739504393 -0.34991677810324057 0.14639083794080693 -0.32568084988824314 -0.04250214108443392 0.43998382614128745 -0.039163411837847696 -0.22611525715555109 0.886685073508328 -0.12119571626951296 0.6450781611531365 0.43968380618678116 -0.08310836809809839 0.43549832271788075 -0.34872718194379887 -0.9003332992181863 -0.17471305856831054 ]
[ -0.09401358824115746 0.3605841626860862 -0.04231029387732434 -0.20706085191044682 -0.2049496398688438 -0.3739813409142059 -0.3101377164047097 0.38183325305957777 -0.10322473039051872 0.06520259018019367 -0.27203168206633155 -0.03793174196066895 0.1269415028038832 -0.08888419603013901 -0.33854473512636263 0.3392620447204085 -0.036029323646419135 -0.18048076852769301 0.3119594281161645 -0.30641641040145645 ]
[ -0.058339236080059864 -0.29828897858733205 0.13281504062887153 0.18279277986592019 0.07341472428768497 0.016622318610664672 -0.3480737936036995 0.21038931594707563 0.1084084370641351 -0.3222735882257203 0.06076635266162162 0.26647099669248975 -0.36578019434383896 0.14319737325476303 0.34143754301607926 0.12219855965483378 -0.3115883967960462 0.36466474909909835 -0.218839773074619 0.23856082692037028 ]
[ 0.0237270388342429 0.3819513140524513 -0.2893102075582583 0.09243367535391271 -0.0102170018488845 -0.03898520858893139 0.002411821047426119 0.05980267141904153 -0.07405566209517672 0.2569204745199244 0.18261563530190972 -0.1654348581201467 -0.20372546404496425 -0.14486983556155988 0.25161194537523357 -0.17670201934969776 -0.10528242150335687 0.1152774429145293 -0.1616245564441333 0.19870758195734953 ]
[ 0.53174380304442 -0.4074827451152039 -0.004959479771067132 0.36101655212230693 -0.5314907664067218 -0.15409846670525978 0.44560581200653604 -0.4799644336078351 0.3395586980902641 0.1658517821518515 -0.37065437542512997 -0.2049452954478958 0.08606615521776363 0.21302706737902083 0.5675685107931285 0.09245027598655411 0.08475515902915605 0.30263833024800607 -1.0005773627032077 -0.5154501831679636 ]
[ -0.48372448418356306 0.033068588671736704 0.24520568563801515 0.3079843276025662 -0.2049206933848636 -0.23860630410134342 0.3170886168765275 0.14670216535913472 -0.2933900952970326 0.0023711037689586253 -0.6016572394407357 -0.05524156698625393 -0.4179638039207724 0.33555674009410813 -0.2605615645576996 -0.10024980124068322 -0.1926837694682862 -0.6254655772373275 0.20561334739643713 0.30340992482697476 ]
[ -0.15908940738659635 -0.36782300530710227 0.08204535944469601 -0.4168203749783338 0.34331965464075365 -0.15303604760100842 0.03873167555450754 -0.5009466802529132 -0.12824276834424897 -0.14717063174574235 -0.42292385337398763 0.07915813235128465 0.6325978938733685 0.4068170744121592 -0.3807195010083788 -0.056293103018144476 -0.6013335909770214 -0.18853211140598825 0.16468000857630616 0.24254038982815096 ]
[ 0.22502353454753793 -0.07401163310021681 0.21084818765493077 0.5873001861227263 0.03590663377836162 0.356313925212038 -0.23450776439337312 0.14511246700679162 -0.07633490006766434 0.1387097756958679 -0.11035440352350338 0.5784763194933665 0.07483445344549221 0.22406366899713873 -0.09205094098989965 -0.7034432790614706 0.0644207777120803 -0.2244652743880249 -0.1607376429288491 0.20903087450039537 ]
[ 0.36244632734704246 0.09624324473533463 -0.5970201643316603 -0.0023010443155456676 -0.4502874241880018 -0.35160987662154775 0.17066535369275107 -0.05841344443912629 0.2156685698388684 -1.0457489006902434 0.28078483061308546 -0.5827379985968318 -0.2530719448130855 0.7912874609344236 0.1725044179612642 -0.12260262047265431 -0.5892663821718629 -0.44910446586584674 -0.4719894185407777 -0.0694093131021304 ]
[ 0.9932794172310453 0.14367992043350877 -0.8475591745735827 -0.9589765821176531 0.9266363378603352 -0.05873543927961132 -1.0244849524547133 -0.1748829429866744 1.0470537518783825 0.2554875196789887 0.6460423225607331 0.16119413600253554 -0.24453879659580557 0.13085868226275035 -0.4040588806775881 -0.09231200221505408 0.2655659399072438 1.082181487212727 0.026511352306826975 -0.8939303599934455 ]
[ -0.9904098980725702 -0.5492064693813857 0.2557724336798344 -0.21925370271917327 0.24048207457422444 -0.05156485403536718 0.4874572912430655 1.370508039798451 -0.5161189005457452 -0.4245800624751805 1.3304553200516498 -0.059978532119518785 -0.7087638800024983 0.24369920551503219 1.0464398679811089 0.45645362326722816 0.8764711164941977 -0.4053607623820478 -0.27650302535901755 -0.36146785052117286 ]
[ -0.4805639385970825 0.36435332561973405 0.1583975080513497 0.4713255092197257 0.4767635789275807 -0.087001943666009 0.4070158924739681 0.6958050267263568 -0.45048971709155156 -1.7943673727410145 0.5796728569644031 0.6569427400305565 0.3152087185418116 -0.5120227071720599 -0.7184045177039795 -0.5163269275631808 -0.9504254778605721 0.6316661735301345 1.0341920548899497 -0.009699955294463497 ]
[ 0.5336677589711759 -0.454956346948847 0.007772684821092481 -0.3324575856169172 0.29273130047979684 0.03697221700463483 0.2772828124717904 0.17079000343880973 -0.08111563725013977 -0.730100504440992 -0.18357376048207158 1.089302246770584 0.03330502882903951 -0.18701399581158668 0.43145353215046106 -0.07525395740423978 -0.2798802125841649 0.12091281948845164 -0.46671067959729645 -0.2241297673927934 ]
[ -0.22266468421802615 0.009861161759230627 0.8861336696421945 0.339544529352753 -0.9915829082580363 -0.3074517137508713 0.13845410166478847 -0.18725241249637714 -0.73918369372664 -0.3218734623417087 -0.5753670788576276 -0.514298780748079 0.37904618552910785 -0.5638309673811459 0.139622592637382 0.44371448741255287 -0.4216527652893707 -0.5091208413599302 -0.7461281449318751 0.5719714536470702 ]
[ 0.2882029217665536 0.14550586243478283 -0.31769359566146516 0.510869635587764 -0.4169707187329941 -0.49289862291152037 -0.15645205053887223 -0.7189437516614702 -0.061105445237207116 -0.0022850686787906547 -0.5117397637181408 0.08876861017654705 0.4303519996528348 -0.19011771360944724 -0.8895448621263904 -0.7662464849961659 -0.572439492814328 0.15193112932465466 -0.22061043608748768 0.30928087311859126 ]
[ 0.3097108977955085 -0.1011772443306735 -0.7998428349703514 0.28375860060854313 -0.25045197106778866 0.22137831862724594 0.017761646032970476 -0.41639687760953026 0.49971836797130065 0.4492663227657793 -0.8226569829962008 -1.0779640875703764 0.02530689491273081 0.36910351712266243 0.19133319288541228 1.0852786775151582 0.4448870396112516 -0.4950727947190004 0.08327122652293353 -0.2938710385631956 ]
[ -0.06211469035104364 0.059930143027978264 0.023674776694105372 0.06570987826818009 0.2423816672661777 0.027438671528662337 -0.1554095206624516 0.07192434506464235 -0.06395218047517917 0.2120839913172092 0.09103530842124474 -0.0010632217858968377 -0.1414411391359946 0.032038040329849804 -0.1899301258162573 -0.0022304150662855213 -0.05173748432123024 0.0337957394610585 0.3239428768582098 0.05011163788398857 ]
layer 1 Activation
tanh
layer 2 Dense
20 40
[ 0.20552285320115593 -0.5850870861146347 0.7095335550144354 -0.13420602719012584 -0.29178404197702285 0.12543003589684282 -0.04946468742964693 0.5571596200020494 0.45722570644279265 0.24932557103823164 -0.535783334305731 0.009240556936778471 0.15985958473282882 -0.24402138399733156 -0.2717017618568657 -0.29011645527033947 -0.44695520380685155 0.28974235636943313 -0.09961461996577897 -0.5920020635118082 -0.48478518972389867 -0.1474074097628807 -0.3311037007943127 -0.36855952091009075 0.22160563052165785 -0.0293744717591865 0.16938790224999353 -0.4885090764665186 -0.1880099866171295 0.27089763351009805 -0.3197720741752787 0.32377205736382936 0.07690264254531942 0.08815370368597346 0.18991140042161633 0.32711820333918656 -0.25029158506664007 0.3284434866869996 0.39856507345442466 -0.3099228512281314 ]
[ -0.395177495662299 -0.310134544541496 0.11174736973511769 0.17902107282534008 0.3421820702341428 0.06509514318100108 0.10334845530399028 0.11754268074519741 0.20884956008250763 -0.3317159398704626 -0.13288468908228876 0.2028053560668149 0.07900067160134927 0.07852095529071623 -0.21713431305461733 -0.06996984188697582 0.2087432103337461 -0.21896668816502082 0.04757678007798107 -0.07326573942028564 -0.10090662639751573 -0.0600646839936289 -0.1805294558492969 0.13195284564439594 0.1850163470942841 -0.2899129105656299 0.05707968969848056 -0.1791823548035418 0.13522189790445543 0.2815068205105667 -0.027774484580115038 0.0727872302352425 -0.030482538763185647 -0.13824109941564866 -0.031339611627651504 -0.046903886396038215 0.20396205429769715 0.07699794107462518 0.26011012249931714 -0.8748272367589024 ]
[ -0.0023274871881793996 -0.4895748697497085 -0.07513201782264418 -0.12314732112295684 0.6170797653809875 -0.21908226485499108 0.3603810974269788 -0.008258996232381736 -0.600571745037791 -0.6683718945603663 0.40261144756274103 0.18372499543989984 -0.2742808771087101 -0.1011338745782412 -0.052438068388011766 -0.24874733340487304 0.18102135960432025 -0.21815248877936666 -0.006221417935115525 -0.007721670856195526 -0.19263953364014508 0.1134909805847016 -0.17407070119012305 0.34313072610542894 -0.018352944591405615 -0.18495284941504037 0.2345975873069196 0.24264516484581392 0.29107736272351786 0.2982284378951367 0.15711073170623718 -0.018572770004642292 -0.2776545375243528 -0.3787846803355302 -0.24221561918454232 -0.23168068255125057 0.41481074756234104 0.20307259214747234 0.007243504645126896 0.7802551343094964 ]
[ -0.6630918121687821 -0.11192604611051953 -0.03489539544054767 0.07968901150511998 0.2336135715207793 -0.12713378346438517 -0.1989345024833612 0.3221407394101113 0.08587179606069253 -0.6077430597918279 0.19959706495215715 -0.24375576681956784 -0.3879780033373769 -0.08180424319723756 0.10046985791977396 -0.04604235932175582 0.1912235722036624 -0.3406436462987278 -0.14076834408253822 0.4294665910438309 0.20234257269930497 0.23649332774206283 -0.1833232565309066 0.05366158232122527 -0.2408642872797491 0.005524157587315717 -0.026374936075105992 0.24553793704654706 0.20962718080631537 0.12603162020054084 0.17867485891467155 -0.04476399197208856 -0.11667901824641055 -0.2656680353076727 -0.4953590344704266 -0.5831285154526724 0.4065323375285401 -0.24572905103801584 -0.4143226358315291 -0.07011578009242678 ]
[ 0.5889374441887364 -0.04454215823162069 0.19327793580627983 -0.21974325448542248 -0.2120684273106901 -0.23413124996459345 0.06629251910536642 -0.029315899663659172 -0.12431662853938559 0.4960730096000604 -0.1362203717742269 -0.1727489008122431 0.683788121211023 0.2675560815360367 -0.09895424029739495 -0.6774074428163633 -0.2968678867338077 0.2265273394006525 0.0492193130218381 -0.08665980275652847 -0.2764162462004653 -0.43227628000890367 -0.11815720684113618 -0.18749492340579413 0.3866045840718842 0.24361490012383843 -0.04417297363795315 -0.4716614221061517 -0.27671224492816127 -0.012820132856517482 -0.08665181283745091 -0.19431751156622729 0.22480669207483964 0.46429317024616684 0.36046824923100373 0.6602258373325294 -0.3645835739650963 0.3042201758636053 0.6614303908366139 0.11605822065493503 ]
[ -0.010486152354605358 0.11472196086935038 0.39429688429284293 -0.3063476250369978 0.1323869919378954 0.14885074806946946 0.11490313345140862 -0.29267422605891685 -0.021739376327500254 -0.18563133624097647 -0.20436795125139912 0.04583392365375525 -0.16626388136050368 0.21438337813925462 -0.06116753371046165 0.09359820007984436 0.025759465340793014 -0.046722270396554834 0.22475229399847726 0.27719863824930613 0.028739923477575532 -0.15001156240906596 -0.25286349822278603 -0.22896926754165425 -0.10218402552399554 -0.4028327522101926 0.02444748297990558 0.1722734568217782 -0.17060192544386288 0.3437635852674793 0.03002388732181832 0.03800079387762863 0.25926572135708087 -0.11405680708996127 0.2168941623218006 0.5272245234238566 -0.3983904873530886 -0.19023816070628283 0.025569394176696014 -0.14901030905955417 ]
[ -0.0233993344701776 0.29434114658538363 -0.5129621236959893 -0.3908063305217934 0.06896847465893892 -0.01238476225279267 0.26377806046650265 -0.04691819984604005 -0.6017494785257128 -0.0993345982058843 0.6754431821049736 -0.36240412736664057 -0.35444604545778624 0.020325128090890526 0.30297543233995594 0.18690087573792244 -0.002147826642494013 0.17057831193185305 -0.03178010650251536 0.43165631993637116 -0.06150592156684169 0.25464469887722935 0.24934224679512332 0.37315623385388064 0.04454978874869299 0.20901209639727744 0.24659990586439967 0.15968295256848603 0.21488936658867536 -0.0751093442992329 0.08650958785493774 -0.3191716164428707 0.2367048185062376 -0.417570941885859 -0.5191802389793897 -0.5761236724051281 0.11904157806834428 -0.42601271611051883 -0.2768238827222715 0.09014049788470681 ]
[ 0.18594414403395307 0.4688178679363571 -0.6147575181393162 -0.20207257025309996 0.08008064044804043 -0.12735907146014014 -0.058979419730307514 -0.7665773589998349 -0.5891027903745809 -0.0614382866358276 0.6641273349903584 0.08488317848495418 -0.3134429026481183 -0.20946487867483532 0.08555155573945775 -0.29652748595535044 0.3051687442730527 0.0009375602871473394 0.0416171155421103 -0.13747734561637953 0.24176207647030754 0.26218982207562314 -0.22104413202333997 0.7733805570567368 0.24433339629010148 -0.058391663598757484 -0.22924368089536154 -0.3918903102280137 0.18951453474979732 -0.02613209380140238 0.22151744970430637 -0.8636328231953909 0.4414196699068634 0.16861083518890085 -0.13726300853029869 0.3849628754447669 -0.03374703553328606 -0.3298879292115437 -0.00649549379264198 0.26399597111102846 ]
[ 0.2620499505176834 -0.05173597654872058 0.10017424363795992 -0.0352869548791133 -0.33421753910613167 -0.08192219384484135 -0.3994661595014306 0.20050439449673224 0.7214925045230005 0.22460232852144302 -0.10812221370000642 -0.18481461863378015 -0.021449890030723836 -0.2402449664349207 -0.27742571969582885 -0.30882614217537124 -0.8208757302018388 0.11343030814503291 0.3008896952728556 -0.2724631841402773 -0.4509846010672417 -0.5221198850479942 -0.12256445561318467 -0.5651704230094562 0.24943062399042615 0.6153642150129168 0.47618803428117595 -0.37617186860927987 -0.5538370420687296 -0.15664007357821455 -0.18207630572266606 0.3578339008137169 0.2831211940084212 0.18842658640314297 0.14965605378557342 0.1869872332608619 -0.2516820877815552 0.3016500840196333 0.11335968897711952 -0.13023494641287736 ]
[ -0.4735743430804864 0.474333762566679 0.12559468499745793 0.37326534385192717 -0.2580128756988363 0.05648264166352272 -0.06776271357423194 -0.10858921394079692 -0.09457292372316813 0.37520834013016774 -0.5372422055844193 0.46243935557459676 -0.319106329449217 -0.2640566204810351 -0.2574028998369797 0.30526823410038467 -0.41029672545518886 0.32646422634051764 0.35011480967128883 -0.10734169619695033 0.09396185462202673 0.1746886208785433 0.004985036309011725 -0.5703107498180159 -0.05838294688247142 -0.11413176378229106 -0.11442095870076098 0.46968582375169754 -0.2943302169632073 0.009129079902897245 -0.1935093242739418 0.4094164518660845 0.48029573365318945 0.4553308011634367 -0.11260382009386083 -0.44418322388613085 -0.20939320357507143 -0.4521428001449009 -0.15878542386456435 -0.15697862249584627 ]
[ 0.374468715024271 0.2982343427379945 -0.29108606632496553 -0.41212366660446625 -0.1178204921874681 -0.2273823092581856 -0.05562793747393118 -0.4377732482782354 -0.5600646018760284 0.26864780928302356 0.42872004886267445 -0.14620900490835873 -0.031176425973504392 0.15792169932779324 0.060379910064258815 -1.2159213849914194 0.3557845313119155 0.00854160136408596 0.06006956675119761 -0.04859223902512595 -0.17664456469011167 -0.5254743080159535 -0.5489594436247793 0.28235139038671636 -0.021616822679634027 0.33769587164332193 -0.04767394132530863 -0.8487954951100893 -0.017088555625306534 0.09357386598236804 0.876281804199179 -0.9712985734391854 0.2096306880360929 0.5265206956239753 0.7682079436197619 0.8994268872925519 0.30688308496997824 -0.19287165171434187 0.6378960201292875 -0.7311552825104768 ]
[ 0.4091332936075671 -0.4772379123979241 -0.49084870755355325 -0.42739644573842095 -0.07599736727562097 -0.008890523344182121 0.4921126481685915 -0.3945228461926404 -0.30791297061144296 -0.14609513721371095 0.43770148124213704 0.08854541939716074 0.052699333583053856 0.24352686498178525 0.016716025677083916 -0.5521409262992708 -0.07767921196395665 0.19715304881444703 -0.07344547543719922 -0.5473439879682953 -0.22398105258454998 -0.4299928940582758 -0.16609159074021246 0.24946252737658212 0.04943675790106004 -0.3298806762888694 0.07948330554345119 0.004584797400605618 0.11877226137118424 0.11951065052794463 -0.1426662839104495 -0.28452050963178 -0.01574738484588943 -0.5293908182668808 0.39406831498590056 0.3284280609825218 0.12649540127410808 0.371888255678296 0.03350262830960447 0.8775906546201836 ]
[ -0.07198371210787222 -0.5161484724747016 0.3799715493230827 0.13671064289140125 0.533181999293771 0.09040624471119339 0.2949473892340803 0.1654104886781755 -0.0038317893369755967 0.10145233668916669 -0.024028359472399462 0.1421420746220597 0.07055995573406143 -0.27191931197176267 0.279435839606442 0.3286801954860175 0.03714830386649422 -0.4357410155811007 0.2596437490712611 -0.20081313870850478 -0.055537157006401536 -0.37246700891728557 -0.03191542853294149 -0.3715843790472075 0.1842878852097125 -0.019682100630513507 -0.11397879819512534 0.0448720726989071 -0.14839269979012917 0.031523597310500785 -0.044538919663478053 -0.15991407689504392 -0.12195068467348086 -0.2027452786925266 -0.06546559629842168 -0.3643449517137534 -0.07735918832805029 0.07253482387525688 0.052891587518973424 0.3871907832199628 ]
[ 0.2670248476827345 0.1083872689834238 0.05097355745689368 -0.10727253777565642 0.002049205715606867 0.02425927227135198 -0.09171482937947714 0.24944546925003414 0.08386188621644959 0.301806124230678 -0.07362045115566856 -0.014763012699104601 -0.13172782650979886 -0.2343585513136853 0.29964816328858845 0.2200748246914349 0.09961281128845235 -0.32669744215760277 0.1938002669516215 0.05156243275642315 0.14979615617512987 0.014703001544707384 0.3682426208093295 -0.0470574411845958 0.10462692019485201 0.6603200736301107 0.019430577059417566 0.22240637973717645 -0.30556759440348225 0.3291699135232068 -0.30179687294785507 0.47442567919527934 0.39535928147054966 0.07854792520627572 -0.2896636098493211 -0.6643633370224861 -0.3723391049356213 -0.21577878319869043 -0.14350663165950808 -0.28074893565999254 ]
[ 0.4917930488007756 0.8104745263139342 -0.19819546745171662 -0.3363932210909244 -0.23384352450973697 0.0860055162820401 0.5243857474457385 -0.21897653770601516 -0.21953008071015323 0.31894302677930164 0.15399998910041365 0.18234019017104347 -0.3050099650719059 0.014770657359266012 -0.08112214776035687 -0.2219287941120844 0.002959891379801913 -0.12272834932666556 0.2720136924379845 0.5594948258994424 0.12229292444325786 0.2708090095088163 0.08488067937209713 0.23482020511647334 -0.19819653288348021 0.28816870360710334 -0.2094222821743308 0.4867597573845616 -0.10203526558694329 0.30662221681602203 0.28427113678337435 -0.7962877362122269 0.5232290811173668 0.4237860361829568 -0.32155405442531276 -0.015990617569057314 0.03003218728251271 -0.47688042949228615 -0.346030628771517 -0.040215842152832526 ]
[ -0.3837830976511637 0.3101300268870484 0.22387884564147162 0.012637397364940595 -0.1685347384572509 -0.4146049069782835 0.12347263541757789 -0.0711597618411076 -0.1695879163934039 0.5568959538172671 -0.2632989341219877 0.06131993098969884 -0.4391650816415607 -0.0842645360827948 0.003999482551207727 -0.25559022299684175 -0.09602148912593166 0.0005544327894075805 -0.06061652387528764 0.35495439960101494 -0.0341405381294731 0.528806947257269 0.3626313667496194 0.0761460809368058 -0.15179498171740596 0.5816137082323712 -0.2606329537518014 0.03283054681177804 -0.20726759515161736 0.06408826735612176 0.2258535831322024 0.09865228558809326 0.027632371836359467 0.2576344103961367 -0.4095669253021893 -0.14647146924245455 -0.37555594702448714 -0.34576567063530583 -0.25865465537151594 -0.4535653816744038 ]
[ 0.011113170487333726 0.7905442828105078 0.45041524898222324 0.07806195022835262 -0.5083725554769543 0.11415646452871016 -0.06588297349201813 -0.16065597539066506 0.33177514945420494 0.7763670677315363 0.3152049808530962 0.588554163535414 0.10425863455622653 -0.007510876488549875 -0.47125973376576974 -0.4878378088862861 0.19078119452948425 0.1032474302282152 -0.23152624005448938 0.6293399138169741 0.1787716166173396 0.37617731980498903 0.02875089386621755 -0.053724237731229904 -0.3592635793490126 0.3073373600606533 -0.1515215370113248 0.19976381191058085 -0.3442422316768249 0.07176636438238956 -0.07472813097742863 0.0849205588318531 0.10610892904303842 0.6230284004845223 -0.34821978207937376 0.5380561013958709 0.02623513584278 -0.37925202314321166 -0.0970487877656566 -0.13452673309095117 ]
[ 0.3790617117632551 -0.5613465946146963 0.37430437900213004 -0.20905264838799248 0.06859299606791612 0.12459560783333667 0.3022545198995442 -0.06279857247055252 0.22076701085605455 0.2908923875878713 -0.0388903589623822 0.052477137189600495 0.5239288260899059 -0.26451011433185123 -0.2994291730104451 -0.4988739271686381 -0.5119166703706973 -0.012235589396195911 0.1715393900345458 -0.3465104232267258 -0.5356974010208155 -0.6562632970868462 -0.40667556488058 -0.11571951100266274 0.5140594161569303 -0.05167007636071712 -0.3589705656606811 -0.6341747772543262 -0.2825162001867357 0.36618943472348425 -0.24135947287308332 0.3269745966996135 0.13769878283110207 0.015033736008426845 0.43382416743036745 0.37660507255476666 0.1805935554148781 0.4416752021047178 0.6231295605860094 -0.09797962667317911 ]
[ 0.024798739406953336 -0.25488110729845415 -0.5462511749567162 -0.16398988776008 0.2659556323409731 0.021430789695796305 0.008317186898016514 -0.19573075449921123 0.19166304124223796 -0.6608720761429223 0.019633699663424018 -0.44667487360612396 0.0160559891547566 -0.24446486355394867 -0.06539296209815995 -0.12570742776117944 0.23048846551265803 -0.07097662180753404 0.14251707941123015 -0.4644652350424311 -0.2362055157697283 -0.2957366643926795 -0.39361039576105933 0.06198346065038901 -0.13677577757710446 -0.3862059584602697 -0.1135032082564018 -0.46945020564070417 0.03507281744450224 0.25283839102608574 0.09012401080163776 0.012633426804162719 -0.39125546641254483 -0.21576853405706403 -0.0011362354991409822 0.38583186050312196 -0.015192186267441878 0.3788128190690558 0.25747700507995064 -0.6201822889658567 ]
[ -0.37119658082984786 -0.27037837580443397 -0.12410165829621606 0.18648026183356922 -0.0462100038905118 0.24999759579204806 -0.1843974145054093 -0.1433898595082144 -0.4320946767495904 -0.777483464624472 -0.20090600046226806 0.01589687882656291 0.15944379084175098 -0.28210714261312 0.3917718808407921 0.10921830847264617 0.47820903758913447 -0.07889032485439555 0.17200364765995907 -0.10566640763561601 0.37394960228120794 0.20468737699136386 0.23784541835387563 -0.2522500727552421 -0.05227454677749861 -0.3147555139535323 0.2783844125874108 0.298997315083716 0.23638635310208467 0.11115731411342172 -0.13255159072779704 0.2449324565306579 -0.27887561387611964 -0.41527001114905304 -0.4970601148581834 -0.27954208516398954 -0.20082468696918876 0.0669293359498089 -0.1881874931823272 0.17354797676317968 ]
[ -0.05205834155385485 -0.0070084906329380865 0.1221813611974218 0.060718972244669676 -0.12289127238741643 0.031122400913073993 -0.19816124517159975 0.10163767369868093 0.3177305890789313 0.11048598165134335 -0.11181144900301188 0.015249999048305055 0.2573424887893666 -0.09985148011243906 -0.06717808621969992 0.0528016243508637 -0.15860030549862875 0.19623919147908087 0.05123593315626278 0.03921646832109744 -0.05354375619533117 -0.08925882338848157 0.21827464087879492 -0.11760178702532598 0.012104091138448039 0.3989385394799305 0.15654127109892765 -0.22253829362945413 -0.08820800698198394 -0.1731348990630897 -0.07058577526529057 0.024728753099593184 0.05056642026397281 0.06920446994031738 0.005742306339653363 0.09394473148954606 -0.09707271014083811 0.029116728365045617 0.12982933977748318 0.035649541918225745 ]
layer 3 Activation
tanh
layer 4 Dense
40 20
[ -0.2511809078593014 0.15261587744476496 -0.2981481026011531 0.03993702241868884 0.006146174413576713 0.009138767207865637 0.44104538656428205 0.19097109741677468 0.4643000851706579 0.39940820313238024 0.1419008991909407 -0.1058501614723317 -0.34525808419952764 -0.014408973356063 0.011558746635121218 -0.1506153535571952 -0.5544758494000027 0.15043156032149668 -0.03386785472473045 0.029923954096838887 ]
[ -0.24912738189274428 -0.003417064924604798 0.2510747310837336 0.20930460988794702 0.4656477692848095 -0.6094652318605018 0.05555767160258533 0.07170350221257421 -0.3697574806864985 0.07439248985325266 -0.0855266156870158 -0.6407569203973743 0.43907352386967513 -0.1213115218188758 0.6049469413266751 -0.6169746242222075 0.7133047539035902 -0.6301590278239931 -0.06917584871886759 0.2665777488062646 ]
[ 0.24756800846653215 -0.0528539519056584 -0.04282985700485044 -0.33143226255577346 0.41117494859821996 0.424897997320922 -0.052577421640650004 -0.12254065502009535 -0.28511763703658816 -0.12694267582455107 0.017420319369613003 0.090994503848162 -0.4020058005167662 0.48080920674627814 0.30351856827118584 0.31832628114381795 0.26113541978885874 -0.3076524483525346 0.09945889228661223 0.17644527096752724 ]
[ 0.34023831972084795 0.20413340934223753 0.23180831040734234 -0.16198520515261206 0.21338732494905271 -0.3654356743134229 -0.2843482028514427 -0.4923528020542321 0.1111318932106943 -0.6095148812785925 -0.13535116369727188 -0.3239708107385238 0.16580115996390232 0.2772888446795692 -0.3661872269569558 -0.20783006364177425 0.3469967912627297 0.07141871269955878 -0.24225043303437532 0.03259238605482569 ]
[ 0.011667686766729274 -0.44404911371723627 -0.4377589211392255 0.05041950346849137 -0.2202124638045733 0.1548606243841534 -0.24678117681203504 -0.24803804564997892 -0.5170021885654523 0.07211461162554408 -0.06891628456286912 0.3228890256376586 -0.1296688021976207 0.226889180598983 -0.6292146665649676 -0.07230171859537701 -0.42145156525831295 0.24528161062604942 -0.15158884403872955 0.22818989911704385 ]
[ -0.05987520020509031 0.30714289361751274 0.06489821558070258 -0.11522083862729174 -0.08925053658645297 0.1759001818670641 -0.08069226059929444 -0.36796085467808026 -0.2684192377138709 0.03102670722070595 -0.20075159618549823 -0.3083701097786052 -0.17882756467411356 0.21779664490563364 0.2144069134798323 -0.03825046971656847 0.032058743603694206 -0.009377101148976358 -0.1792063128365513 -0.23784276107702917 ]
[ -0.06696773650650063 -0.15336947790062141 -0.05332119298646986 -0.10921311338956596 -0.25073322283084903 0.28482921249330795 0.30876015950489594 0.20241452260981085 0.23314308672354286 0.2392488337206159 -0.13702928630254305 -0.13836642297143315 -0.14818229992609103 0.052370219254858484 0.07399165264331004 -0.08496590748887815 -0.19660410189776087 -0.05974947414234233 -0.2859508590186888 -0.09852424077888011 ]
[ 0.1740567663776114 -0.3655008101355004 0.16175936596361395 -0.25621607079071473 0.2760408622123085 0.2864048174400715 0.07077408536423714 0.03492109533867985 0.05206408838515857 0.038130851024879814 -0.11768970738644957 0.026098294357676053 -0.18279217748337154 0.283308448805971 -0.5218669899077649 -0.21517105988282054 0.16036122745169384 0.3158569862318673 0.21284345162553056 0.24802534891189548 ]
[ 0.2812243760060843 -0.16114566763906205 0.10964155851360025 -0.28202208686554836 0.5249345394533607 0.08808200491875416 0.11957070093458869 -0.06615715867516672 0.28106469979726223 -0.6797698303130618 0.05689590373811816 0.17193240569074197 -0.28606050332242106 0.3182639428368245 -0.03884516514325541 0.18832749378632035 0.3703369959147581 -0.25101165252716423 -0.10942943363987341 0.2103745688585712 ]
[ -0.3850124238075805 -0.19893248204637667 0.2813889513440599 -0.2970940036678618 0.5580131362188289 0.17825346358193206 0.17456026078104528 0.47407236185805174 0.33024465520091334 -0.37185416413544836 -0.20881944632151242 0.1474850165450721 0.0036579295257584306 0.1537306986917569 0.6126794360556452 0.4396394742435351 0.1851082951099164 -0.4140721128328514 0.190180836659403 -0.25894168794489136 ]
[ -0.22489733820668045 -0.08817249589068307 -0.32418556918007607 0.1751987030712359 0.08408102508994611 -0.11887709871543596 0.3311964994156669 0.404718489553469 0.0529272270803398 0.5366528379574382 0.3701232087396269 -0.04608361395310253 0.39619292866499567 -0.39819857907932044 0.035493302567221295 0.30925556977035185 -0.2842887605342684 0.06384367059524299 -0.0058859354790383985 0.05918877501823087 ]
[ -0.028134099993100674 -0.09242580285114699 0.11531110502317697 -0.18668346228795316 0.15487113233500371 0.09701385061563735 0.19116713308577357 0.07952007623444456 -0.15727283906407166 -0.1751722683831252 0.04114347522247006 -0.16398305115899475 0.07878709675792456 -0.03640370645156975 0.20706147352753304 -0.053752246243867284 0.3499978217864597 -0.11449613996070301 -0.2567466492803168 0.09352036576956271 ]
[ 0.02669545734159458 0.3125594010530722 -0.03718374631805473 -0.16536292639901146 0.3353308523662864 0.31469529441328525 -0.008172006543743449 0.056205740457556316 0.17371014184385863 -0.4980616038515824 -0.13581542554269233 -0.06312698447505197 -0.4481579625716524 0.38416605098507633 0.10945591547270601 -0.016234610463654757 0.09455555828242998 0.01711568671432144 0.3286280345125732 0.08624824967706521 ]
[ 0.15032344988553617 0.2708579918811258 -0.2218712647595487 0.11317068735976295 0.03569671173586749 -0.33010564082255217 0.15763416798567215 -0.06941649150760486 -0.19643732202711708 0.30317513232275695 -0.014850355337608583 -0.09911042675246369 -0.2720029482052359 -0.17353885641892539 0.4906977205300441 0.1244013854487553 -0.3108662357549872 -0.034077894969096766 -0.1845402070497264 0.05693455971094172 ]
[ 0.11870386398004829 -0.3833835117990285 -0.15610846276664692 0.4398681732665106 -0.1217265636360647 0.0781158555877517 -0.008785489002425654 0.38035492495359885 -0.07034440897664507 0.2555728279319481 0.09394283906746438 0.10273497873174019 0.2292850637691246 0.030721675696365285 -0.17655170461897965 -0.09011309955365018 -0.13049651871056883 0.07042986413943532 0.0008574815071188972 -0.0936209092727066 ]
[ 0.4700301991430856 -0.20345286898345813 -0.06551877336446327 -0.3975515967883675 -0.24926917206745935 0.2107458532234273 -0.4259374437439435 -0.4009910299055018 -0.04616148542766957 0.21156650804841212 -0.08964091234362333 -0.24515942563285956 -0.017366021442716244 0.24136261496279726 -0.14605140925146778 -0.2433094491136236 0.38562778041268 0.10168530960928654 0.1804290852630484 0.08893757251908391 ]
[ -0.1493855075223334 0.2363571636943164 0.033535105295462955 0.05891214887540137 -0.26113945364502533 0.10525231317325034 0.03695808938804549 -0.12016616445650287 -0.28352752946917636 0.3440534302204206 -0.34207780513278896 -0.25062562620048157 0.03819177082062508 -0.38982843778540666 -0.30716853699418195 -0.29553651233895895 -0.14988718596107542 -0.2845256451327714 0.11624964577586236 0.33923557170214313 ]
[ 0.15011605380000473 0.15049534055544975 0.031750534974506806 -0.07548615873549876 0.14873995144720656 0.030050738951774323 -0.14057551835726304 0.3170969504183208 0.23439468936971997 -0.3216775969288243 -0.016540748189238754 -0.12727249221979853 -0.31911302934780017 -0.15498586470911027 0.008952174264211653 -0.1493052931172471 0.26954113558645554 -0.19870011485924316 -0.2049406368237765 0.07487128132943167 ]
[ 0.03485642125484986 -0.15247858639701808 0.05199346152014936 -0.16033176650603728 -0.02018992998871616 -0.234203584472295 -0.26412109438888265 -0.19338226316024607 0.24596269071303417 0.05513449009555793 -0.037132743618941394 0.49287936801871485 0.1561766717622329 -0.20029921391913577 0.007998883465307562 0.045817943400275375 0.050254139739035995 -0.06310804943358987 -0.07225612517259557 -0.17781792759375753 ]
[ -0.2276930317650941 -0.2698273529855325 0.34680697337046273 0.5474082535611939 0.02506300474231272 -0.24883013233318485 -0.09767077434035622 -0.1856597461231338 -0.31365386003250634 0.2708030810693703 -0.29818502017764736 -0.5331283310842851 0.37449177727158867 0.014868952564025477 0.03310087757315141 -0.4345434031398311 0.42204795668821055 -0.2729124849501914 0.13937712081148457 -0.08633207691798547 ]
[ 0.05888942620748519 0.006444479311234351 -0.16050006360133767 -0.03350189891325846 -0.23070005356977194 -0.17591690371545404 0.0027918863464740148 -0.1958232611329646 -0.15649189535570787 0.40811966042178205 0.1895839647869745 -0.18719354430043736 0.010126470596641964 -0.047356822901921544 0.43422286068403043 -0.2444984632027516 0.16177951266399818 -0.5558501164566535 0.03374935531036424 0.16208467635428336 ]
[ -0.3286392520191748 -0.11619053769010444 0.018577696509003358 0.3204906769187106 -0.2933570803070755 -0.19063550676294544 -0.2556433534768298 -0.16571776827659027 -0.04556774299645429 0.04918872400661324 -0.39192375197858753 -0.45043416681120835 0.15761742875090723 0.05812333943710228 -0.4018831103051002 -0.22554119741468165 0.22927007412319814 -0.24638366754214952 -0.15645268525291353 -0.17050462189843685 ]
[ 0.3938466063911975 -0.13851040616525623 -0.20852210256276316 -0.1694652058404262 0.032044484330262815 -0.24019722187129014 -0.26489814409119067 -0.5522116688596403 -0.29774682779235595 0.4105701654087254 -0.05380005249100879 -0.31236238021609447 -0.10962844104350405 -0.11064317411252654 0.22801839274654834 -0.2279303659767792 0.3860084949730751 -0.034452345994019536 0.23596892473627284 -0.2780505470240602 ]
[ -0.2833309491155949 -0.24781327120146734 -0.14965563399584467 -0.013323469238091069 -0.10479403192253103 0.22836690472900373 0.20272583547866987 -0.2203158424762205 0.10641389417285058 0.14341860230726852 0.1374658986769446 -0.13096020248982146 0.39549163761366113 -0.3710522378649923 -0.0576905968046935 0.21229486610157716 -0.26112616571481845 -0.1512101187541971 -0.10769311516532808 0.06694159819283665 ]
[ -0.05661488767840249 0.1870060730036845 -0.029230453348988994 -0.0774068512506556 0.028210475595345924 0.0009577653832757926 0.07869320473901845 0.24322391498879006 0.34390786870038753 -0.1532234180683914 -0.04635535482675679 0.21229282477849104 0.14324756121600044 0.12956464770609039 0.11554737663895413 0.11526237888706604 0.08010604489770232 0.332463519861108 -0.2394931731624808 0.13794031724093284 ]
[ 0.10980583734214372 -0.4720130523696002 0.12082754788976025 -0.06709194111519831 0.4083237899870617 -0.247561533085365 0.19243421462660196 0.0753804967744724 0.29458221389073436 -0.16251013152931 -0.1191336876037906 0.09947681657387639 0.14191683784753767 0.1990028168101966 0.40588407223656753 0.1777156456407127 0.5124584018000641 -0.39879936981828507 0.05905525210389612 0.19155899514576388 ]
[ 0.11670078568181967 -0.4205515073944778 -0.33708008425630764 0.01493425723361895 0.20924789242949526 -0.13320139651871896 -0.4992389629004178 -0.05980979188026128 -0.2688975047374232 0.18475512116343124 -0.32742900430505084 0.3021367176757087 0.1880409843730074 -0.054805092823053486 -0.02585533212619736 0.13211253003185122 -0.1621137679707893 0.1705637775140519 0.17535894164248247 0.1023014421373513 ]
[ 0.2083603089247697 0.17667527992909904 -0.2963975032093417 -0.062401743332474384 -0.24508573898904515 -0.2280999666282711 -0.3635321503471069 -0.4834239271463859 -0.5562670565078068 0.4015676484667922 0.051671860597603696 -0.4473737144282858 -0.27637456522409637 -0.07479003316122831 -0.000828330535430188 -0.5173937296758937 0.27696241065344174 -0.2451234000664771 0.10714500852073355 0.27535424921488555 ]
[ 0.1420373692243453 -0.06035980255411958 -0.051354586353409754 0.14453614841936932 -0.0634527955541468 0.3039406300756999 -0.18950700786292154 0.03464907295375449 -0.18457600121989332 0.4693779121986979 -0.03776855918066103 -0.3163378008213283 -0.047715606742871695 0.009258385374052543 -0.3710234298121196 -0.19951347327914953 -0.07206301648624892 0.031164371521120404 -0.3759739531761595 -0.19098748870583673 ]
[ -0.08284885167295647 -0.1741773842929179 0.0880603031580167 -0.05048497155385525 0.06748379563715298 0.2526986570965388 -0.02737187056993879 0.07881618257409716 0.07118104297874923 -0.026604877493572182 0.2863363450945301 0.16981431093321478 0.1166203871234405 -0.001601301058062026 -0.1159427851310968 -0.06271919824509056 -0.13353951833441807 0.009630507353861286 -0.20448190391430981 0.2303459061108097 ]
[ -0.3334874924898107 -0.2277878554868508 0.2509427786349425 0.28983873821671874 -0.045757794851788686 -0.1564241414074611 0.004845681491534342 0.43321562635406075 0.4299086285169013 -0.0989352143088826 -0.11300112445198454 -0.140538978428739 -0.03441426984308289 -0.08888391344417686 0.20227333903407307 -0.04657031133570924 -0.20835905504385713 0.027423784339783996 0.03155454164757977 -0.15120575393216065 ]
[ 0.38649303972810056 0.17611148137209923 0.21627143944323754 -0.21477604628328914 0.22608521759273678 0.18695581642042813 -0.13469729831290694 -0.465148054969477 -0.4227483887690107 -0.011679302314257983 0.18306632741803738 0.09598917846172719 -0.001584177430871676 0.26006913884369864 -0.029594035963103046 -0.34348158872140927 0.24237882096351432 0.2764746623579616 -0.021634917239411376 -0.21503243229067753 ]
[ -0.4516069692927723 -0.26693852971897086 0.06410065003223947 -0.2233012237870896 0.1928712388214044 -0.056520436757606526 0.1408864472673712 0.6800980137661857 0.09242553907968201 -0.10776618622077143 -0.13501450826621897 -0.31495314977990313 0.2733339658402607 -0.05131602647341328 0.3191316503533496 -0.03143321244462549 -0.014743942260082084 -0.2704932548062761 -0.1618587945639331 0.09292212323069911 ]
[ 0.09081625007009038 0.3739576302518543 0.35797182356042223 -0.33000608825350125 0.20671787981506562 -0.03313936352729572 0.15596173608719371 0.20108208406962053 0.042994518557911005 -0.42785905723711487 0.03517685443714628 -0.3339256703825846 0.23853098335945558 -0.05848655127890734 0.7573818592823437 -0.0446203304135674 0.6917078305684107 -0.5585582926210675 0.25512689964674884 0.10858765412157369 ]
[ 0.01839692740570489 0.20297213159607508 0.19041272449917437 -0.3455470938492849 0.24961335091675863 0.1916240615113961 0.06496605255433659 0.1354640414761256 0.5534371148744602 -0.2838461969733806 -0.2444947953600146 0.32978882351067557 -0.5017134324957211 -0.07351292559079757 0.216850138227997 0.2623271489816631 -0.5178880962678781 -0.10881614597266442 -0.3861379460484741 -0.23350607565650258 ]
[ -0.44495684903757643 0.5950906044125388 0.4167062998647288 -0.1315054636757525 0.40570702661543895 0.0637960571706549 0.04098789358423893 0.6018230894339461 0.5194807384373483 -0.12072611821733793 -0.08192687134061441 0.0905032697883839 -0.45950975558563983 -0.18679833629777468 0.5316237649820599 0.14059936900858214 -0.001563815718873805 -0.5891872462467954 0.19147393561183024 -0.18242233110850878 ]
[ -0.1006576410802143 -0.0436457841983315 -0.12955106727358418 0.30002847921990833 -0.15498715510300756 0.28513864493628965 0.019637647457119975 0.14466930671424283 0.15279970315050223 0.05681878916194216 -0.26642506507029357 -0.09596777507842885 0.27874095041496144 -0.18027814509015302 -0.3960215721806206 -0.21055293240519302 -0.1813522414731748 -0.1325622880400319 -0.1818124605879507 -0.2998717963443448 ]
[ -0.08026292018641237 -0.1353300480354936 -0.1825995608802575 -0.47608581423259555 0.02128584623819555 -0.03181783859730236 -0.1332355626167974 0.002380062751449755 -0.0839638139987619 -0.17123167454798954 -0.10707319676368801 0.3048389314234673 -0.38401920498305075 0.3059823948175267 -0.4238502683686007 0.07505223340702068 -0.1467653545739881 0.20246959284762794 -0.16145524707109518 -0.2629111805231999 ]
[ -0.017971388828374908 0.0729824187414033 0.31182037283496167 0.01774816872458567 0.31649639098880983 -0.03830474723889947 0.13842963854173107 0.32220026883454245 0.24365918836116557 -0.29600359195274106 -0.08341758388564625 0.2667912464035994 -0.232703752203841 0.36197005801096177 0.011682714779300643 0.1695835167926492 0.047210543534841706 0.003427625202138673 -0.10312169314478087 0.12089276801957961 ]
[ -0.2850899537402219 -0.24274861774163528 -0.37329047284887035 0.18401278287476838 -0.07559953142919154 0.30693605835504517 0.18841373305960177 -0.05427948322007703 -0.08378791576157209 0.5224001790220876 -0.0777754754539861 0.1322636013199441 -0.11932439713329397 -0.3095012680301656 -0.7993431532748029 0.19137381895757247 -0.6367218092755244 0.3653168339231925 0.15569045277245253 0.1524826309719862 ]
[ 0.07328386956704035 -0.19215862347473167 0.053893736304959826 -0.07740838854568834 0.10320201273827388 -0.11712056866456254 0.0052583055161874274 -0.1400711370582207 -0.007765175186463266 -0.05447342912255767 0.10483399471062248 -0.019094809814214412 0.04921218176611522 0.071025109606468 0.08954848611463369 0.019880103579234375 -0.33583433075217173 -0.04612565109651376 0.189902758586057 0.05488433056329327 ]
layer 5 Activation
tanh
layer 6 Dense
20 1
[ -0.3401417167954239 ]
[ 0.1526587924450202 ]
[ -0.3714639385542794 ]
[ 0.5020844870456853 ]
[ -0.45477874386872064 ]
[ 0.20647299180700251 ]
[ 0.06438958171115523 ]
[ 0.21783750183232964 ]
[ 0.19127775457786045 ]
[ 0.11357385028198104 ]
[ -0.0009983935308137486 ]
[ 0.29036666748609563 ]
[ -0.32427390705187187 ]
[ -0.2935376607237957 ]
[ -0.2076640092390517 ]
[ 0.5187610415666437 ]
[ 0.16905009438737603 ]
[ 0.27046999008746825 ]
[ -0.11072955332366363 ]
[ -0.019542765150881526 ]
[ -0.03734385889477111 ]
