layers 7
layer 0 Dense
20 16
[ -0.6607762047205726 -0.38903777616138124 0.32659833000449423 0.3760676261789622 -0.08987985919356418 0.5949414662678462 0.6712848425032504 -0.22496198546251903 0.16697568350015649 0.6970057595484563 -0.13746992294642335 0.6639064857054464 -0.053643105076800965 0.2027249925323753 -0.7250934278490453 0.11434449151709931 ]
[ 0.1519920358127079 -0.7033636851979859 0.09003002818930417 0.20126634694881343 -0.3183735071376131 0.41304052220201126 -0.40907466261335856 0.46542161527553594 -0.2570902547616085 0.16061542224830322 -0.46211866752609687 0.0766590301313178 0.3727858370523938 0.3174445796302602 0.5943019741573682 -0.6800844052751505 ]
[ -0.021123420672255293 -0.7368487909791198 0.1950796934563975 0.08770337800372184 -0.40288414415146223 0.3823732851319499 -0.6923668831488009 0.501758738675235 -0.46923147938770327 0.22168724433731135 0.007078755432956244 0.03129326876647251 0.09980747581669408 0.1200439071518067 -0.07701848709231733 -0.23847744631539786 ]
[ -0.5879512121670994 -0.5163636888142433 0.1935733604667194 -0.009355939461958456 -0.185091578210446 0.437049542231617 0.32182435029787926 -0.426292618173401 0.3365398046736098 0.13635850154572657 0.4583109821615446 0.7694371546280322 0.24944988462566903 0.5286813138551463 -0.6573440918510383 0.18527848151053797 ]
[ -0.02592582064828628 -0.3358628407849199 -0.11432549515760944 0.06182382627296137 0.6970716657453199 0.17658472146344834 -0.160883400071585 0.3066404922046242 -0.3812344151514832 -0.10821879671645526 -0.5435049719199261 0.045976876583286544 -0.7299196909370186 0.35512167268524947 0.4344741494716778 -0.0888668749422795 ]
[ 0.10315879355093384 0.43046475552506563 0.5147405628190248 0.3535870516338713 0.43084380293443525 -0.826097081915536 0.4352108787345312 -0.0677424772592729 0.047708977110205025 -0.21052134660747054 0.3792658660855988 -0.19404346400808964 0.03115469716613644 -0.11363829386470221 -0.6424155550784961 0.23603166821733632 ]
[ 0.007698198927948756 0.7768180550220875 0.4207927078347176 0.35905824116752366 0.022040941724088114 -0.07916285069787579 0.39430302034621384 -0.058855818884919565 0.4351606606732975 -0.12478833876703327 0.759868541965636 -0.330901245119836 -0.4895261640810788 0.1892886974459916 -0.20114987105217008 -0.06414157141388709 ]
[ 0.5796724214037897 0.09907435985000623 -0.2945504309344874 -0.29383733902997206 -0.12791307784955736 0.2348679306085777 -0.5018286473076604 -0.17018038165021687 0.20918133448059104 -0.20643241070679155 -0.4981651327840349 -0.4489509753304409 -0.3184564496171037 -0.4337341534389198 0.47490636697830074 0.2319320807658522 ]
[ -0.10673323383810379 0.44293262230100816 -0.21932378975558914 -0.26596420324953796 -0.06602907233492103 0.027054563524467477 -0.28365548089201637 -0.3740940759424124 0.386214272144567 -0.12689349802724992 -0.10351007552927768 0.16029050234586859 0.32343740829199535 -0.04766328072963414 0.552186319417671 -0.5764876668404131 ]
[ -0.03777850979248912 0.025127066552002898 0.2410263532732503 0.11896395377948324 -0.35755626866530504 -0.179566246750113 0.04109576957538908 -0.5161916273418465 0.23208932781706787 -0.4364023750636002 -0.43275380649783485 0.18868848647800576 -0.35667748599282534 0.07330379646691533 0.16145441153506068 0.4814088746588057 ]
[ 0.19059509195939273 -0.3338918444597919 0.2772492771929939 -0.5944212736408141 0.08233898928074074 -0.3734859835607704 0.12646057754654438 0.24734696265575057 -0.007606226425826814 0.3415594553874198 -0.4388803753167558 0.20422738516303077 0.44771793464625537 -0.13053518871599817 0.1221445972740577 0.03392668321538697 ]
[ 1.5850647515315466 -0.5723689082175503 -0.1613562260086439 -1.2189299033754795 0.8218072209767779 -1.4356471714522319 -0.5409265434177162 -0.054930711587203564 0.0918481758053646 -1.2350792865925186 0.631520077388818 -1.5835778335137418 -1.1326996758951235 -0.7785968226137162 0.28596605070886727 0.08214306677351263 ]
[ -0.26690131420360785 0.44860554929123037 0.05111125517253162 0.39319644084626154 -0.30418203675018723 0.1188782932372179 -0.14754359734413225 -0.19483487141533445 -0.22100677309921735 -0.12887703890407884 -0.08296798415674494 0.21908858826078847 0.08732708769854763 -0.03486653584316077 0.7008585464517517 0.028657792956226814 ]
[ -0.040773432760911665 0.20457192293797963 0.13897798000447426 0.1012632925172641 -0.0584328492928824 -0.17398125544342066 0.009092486101801123 -0.3638612883093249 0.3112240885498376 -0.48089221574342517 -0.35674855241361914 0.20745402881694336 -0.2565882304680454 -0.2366794501703143 0.23933129901223374 0.2876740240901649 ]
[ 0.2799618170751165 -0.6562395893060666 -0.040676791944823404 -0.21203578289896896 0.012836797454800734 -0.041360197034833464 0.13238867342492763 -0.0015665456029682091 0.3584398164609555 0.3576222921363464 -0.5840877116759368 0.2127680904359437 0.2643559912707969 -0.20589939840675267 0.10070921434605679 -0.06662616664992015 ]
[ 1.5793402622246364 -0.45729588339815835 0.37484015445754487 -0.9987121348134212 0.5951510194353764 -1.2327589236440253 0.144976619194212 -0.09320542013542411 -0.9020984384146358 -1.1637276590227845 0.9100777190738315 -1.9211051324264947 -0.9351066623686044 -1.0081552221442915 0.39034473043207707 0.18559444057893829 ]
[ -0.38938857245297015 -0.02191630320812314 -0.031041108457439237 0.13928841254082697 -0.01379246428702318 0.3096798841015604 -0.6721076767308166 0.7324476119287411 0.22722595570275225 0.8660424078368113 -0.0931656351319658 0.13698156087639263 -0.28190743347634506 0.3228347416649969 0.1695644943340157 0.19835748404756848 ]
[ -0.15736912207916226 -0.27324611255735615 -0.8089595436569941 0.6046561507556741 1.1618592183574097 -0.5894348171168386 0.008878753993407934 0.9230228745092821 -1.1587239156293336 0.8719173589741478 1.3625374361929061 0.23340300079303408 0.08973290812136904 0.07109320974813696 0.16999629855878925 0.0024832137886095546 ]
[ 0.31474383767467967 1.2725072857117825 -0.21042682198774865 1.017376104592701 0.21700781262190047 0.9504358806422996 0.11882426302703035 0.1315986368654855 0.2500052976112101 -0.18188596458966602 0.9498021484154385 0.12820807758860805 -0.5057146699947311 0.05116571032865956 0.1408321195474193 -0.06386521808754353 ]
[ -1.3422357348981637 0.6705908716671052 -0.14183000351847344 0.6925932727810415 -0.706355995815974 0.9018810305074821 -0.5473397496886749 0.32982613940781524 0.556054835485588 1.3475232956083218 -0.6691564613435281 1.1525709110654065 1.253930742198427 0.8819864795040308 0.4434082813942761 0.060996246726204344 ]
[ -0.23536334092195377 -0.16515612836144256 0.04898264755768336 -0.09453665756521358 -0.14667523244254682 -0.031674361648834276 0.379887992487294 -0.261091591728821 -0.06989009893820447 -0.08585693502482977 0.2320282852256321 0.19062902668571993 0.04393230172520057 0.11652229290536423 -0.4896313841892765 0.10231134119606679 ]
layer 1 Activation
tanh
layer 2 Dense
16 32
[ 1.3028076441772367 -0.22984728525997689 0.17699866466368955 -0.3594550126313688 0.20629667395261844 -0.13769114809665328 0.43120996701122244 0.3834686169036166 0.44961675480092417 0.11071188208526407 -0.030232358918052097 -0.25781932096075333 0.3122041707255454 0.8107239763970439 0.47319624138571037 -0.09033476971492624 0.10563507846868884 -0.2528382815406096 -0.927867435582251 -0.4097474904624966 0.41753082793509994 0.3779839169175294 -0.4457465476157813 0.05241864154955919 -0.27824034698910827 0.14350612929877882 0.05761891583038486 0.3186700615882235 -0.24314549140507527 0.17307144331891236 0.09660164010648793 0.6553440269300436 ]
[ -0.600153355478503 -0.062218266377012284 0.2877268277692145 0.1920879271057058 0.04100085290336106 0.5513392916912441 0.39044902907991663 0.26100435994419174 0.2354749483748001 -0.059532873293188925 0.04116018159359155 -0.1488016021393268 -0.73366295694361 -0.06494294210467463 0.2982529782111193 0.3829379151502316 0.5889880725615113 -0.2865404145311672 0.2595839677855563 -0.0027905777023645877 -0.2573768018767671 -0.3463978908133531 0.3483231384934311 -0.303395457765232 0.26706407589315806 0.15773907135860174 0.192491889870437 -0.45136370861877917 0.3713216097256347 0.22468633091179016 -0.28616536892582795 -0.46522566734534165 ]
[ -0.07705932200998192 -0.06902572690979898 0.21735914135926837 0.1195565352658012 -0.08355868824716002 -0.2640813851444488 -0.23971379100664544 -0.5629802528838399 -0.4254704572032678 -0.2194086310979611 -0.27113807672161483 0.27017073298280847 0.43022492272497775 0.03229840119029668 0.13096202653046607 -0.3811914605152429 0.14172654796881481 0.3188953179728149 0.12586760675483918 0.3985564308208869 -0.2779170497484408 0.05655977577773307 -0.23785627661736344 0.3679063839448022 0.14607287889205872 -0.07874166652091243 -0.18967516253343844 -0.00879848272647051 -0.14741093066899008 -0.12379690478111598 0.1411815158446311 0.3861873685430379 ]
[ -0.15751692343052212 0.2572038388595398 0.9466107038742495 -0.3262721173413441 0.19658255110717188 -0.031593685832950344 0.10152814707300509 -0.27030800874597977 -0.23414231209568556 0.004388389212353315 -0.4717864056218045 -0.08589254714922522 -0.09190093934088216 0.0754295683208043 -0.4487317831283941 -0.22204881340275978 0.24824121544563515 0.04008468104439673 0.3766063218424349 -0.1702426821571044 0.3035653658943326 -0.351334587088492 0.17952550188796632 0.012495753333978642 -0.06349539684944841 -0.009645691904854547 0.12905922681886253 0.023226542915886498 0.41972579646346964 0.12457097252236361 0.21339468516528165 -0.10326394105665826 ]
[ 0.1393426210517979 0.527150531310245 -0.008309916873989593 -0.02416220239155689 0.20313754096068085 0.033992918058270497 -0.010561708374823595 -0.38965435299878465 -0.07994393504391314 0.1683737491531577 -0.015666448487275036 0.2125912925292473 -0.5164392622501621 0.3047890278871987 0.08674004990472339 -0.17011108114515802 -0.11836243541926461 0.1495972642784361 0.0649001588352319 0.005710925225769687 0.5505050764329938 -0.0016116476336398464 -0.2210427190031761 0.3113154047757759 -0.16385708750500202 0.08571373471139516 -0.041247291806905756 0.20446031284687305 -0.32339829890510957 0.04543934831499936 -0.025129012556272264 -0.3579201180029522 ]
[ -0.4197318588694632 -0.5729638126135784 0.6347869602195513 0.3474053667019645 -0.33343956278917636 0.05427633517338751 -0.2020697179070133 0.08978133953540826 -0.23898530983805732 -0.6140955040958969 -0.2621614870927142 0.28675837333230975 -0.36346760250462623 -0.17213316419943664 0.09245192383769538 0.0565001544979936 0.23616299159155565 0.23126674671431272 0.3297723128009071 -0.1263209180449755 -0.34964747895614084 -0.47953326517450995 0.25125862208881894 -0.25534912109002783 0.25350562831216344 0.2597204137932107 -0.20777885011758773 -0.2949596421684674 0.45837343331703434 0.18208345595496764 -0.18221271468385827 -0.004915388462132837 ]
[ -0.15529276680372747 -0.20757927322704978 0.6592571413106212 -0.24712420202275048 -0.5741727783686353 -0.14439182282434648 -0.33043286566660424 -0.8296127312957955 -0.6775846719024584 -0.14032477361428536 -0.443011225815203 -0.18970690339084173 0.4769336445947655 -0.3879595509731643 -0.5200250172277728 0.08123793107005942 -0.4464742207008123 0.5011336962349038 0.7532779575584699 0.13124397869407164 0.030874224983218696 0.02984694407525793 0.5206856589199278 -0.037628752006403685 0.10708049773796147 0.09922194372110281 -0.3019361679503772 -0.3889591168479767 0.3772774628296088 -0.4467877653773705 -0.02602838916433117 0.1355417409596959 ]
[ 0.2576134417791852 0.08334285929933126 -0.24832125616550332 0.5184973622118004 0.3118426307426175 -0.06483345261260325 0.055151216948970676 -0.02389422073017513 -0.09627727464199072 0.20856929961401618 0.05279507246923233 -0.08364492214031198 -0.6842684339510391 0.0509532237644196 0.15251809850445822 -0.15200184502165234 -0.06673336960844226 -0.009922110767268594 -0.12906634238472456 -0.405463184684032 0.620143986666426 -0.4023601984358261 -0.2913804156319077 -0.14123662001685014 0.19096926395778643 0.39255087219320733 -0.03061881584232182 -0.020352661805280874 -0.03200066733362348 -0.0036098983466758866 -0.17464252851619483 0.14366952949254305 ]
[ -0.08760349462592062 -0.867187352431343 0.2641142399532668 0.13850989112648956 -0.24227457875398187 -0.014088909923129077 0.11603746033517234 -0.2883133267556102 -0.07665323290830714 -0.35547593110514597 0.14389256841970888 -0.06841368047878725 0.06008296429418039 -0.2768123278937711 0.13344801944401033 -0.04760611831826559 0.26691727070086185 0.24528766409664043 0.0021253095862207934 0.06329927875539525 -0.8145422888571802 -0.060010496568891354 0.2959915545890431 -0.17660862651924927 0.1299735873082896 -0.19183632878166618 -0.05083322063506877 0.164749849813049 -0.048050309824814307 -0.09347259319226603 0.23336619419307097 0.2386400747193997 ]
[ -0.5753044786455622 -0.1904622708309115 -0.2290151383041225 0.49889091049590145 0.3235281217022546 -0.3525161654047384 0.15565289939905522 0.0578827298949179 0.07885484138015027 0.08609495990214631 -0.27620336286932545 0.06071916027117205 -0.4626381928576268 -0.35403880439822905 0.062394185750230195 -0.15980715253336758 0.08069648684591067 0.33301263025145883 0.3370122170998232 -0.5322407760783973 0.4808633065928401 -0.5893156528796156 0.4817355320496332 -0.0009546062020571103 -0.2595305148798303 -0.11107751145810753 -0.13294857414702627 -0.4154759419008659 0.49688162131966523 -0.1806571413029594 0.2375394671033162 -0.501563827024365 ]
[ 0.36776774039579496 0.5207986984297126 0.883901461230524 -0.3663156594398759 0.06948789600087366 -0.5282089931071013 -0.32104067802458863 -0.305726712683264 0.0727811167096231 0.6193472398728027 0.4012462281650738 0.09155315311678293 0.4863684800527652 0.34745820192046895 0.18838903429991902 -0.13378299612237304 -0.6331212147393344 0.11554815019912558 -0.27289557204060033 -0.06333846870162008 0.27543998552992954 0.3017075397377299 -0.4609089333238209 0.3048952092784977 0.023728739675179723 0.08274880871535699 0.15098940076832457 0.41214795706452967 -0.12576395518766295 -0.1028980551115385 0.03780390342448847 0.5487876452808191 ]
[ -1.1436477408406844 0.2865498754009286 -0.11117797304647743 0.3561418620683743 -0.2543795324619296 0.3531689830814034 -0.248051713841274 -0.11952906145162298 -0.2109138110345554 -0.30602780367827054 -0.1569462498976189 -0.09995406805452886 0.18678476904441635 -0.4018187118365954 -0.498814260196199 -0.08752051580319525 -0.22136643703296194 0.45996482330934124 0.7767741252493894 0.23395576769388254 0.07609448907799128 -0.13150035384405911 0.3991404162452339 0.20747873857679014 0.09300261893974486 0.2582605071747301 -0.3241097807846362 -0.6965376217851893 0.3350024202497505 0.10590429867950771 -0.24382233371913492 -0.36556388944036244 ]
[ -0.573474080711207 -0.3132995946332268 -0.44668854468478203 -0.09077651227856727 -0.058326388982436965 -0.057224627419118275 -0.08342138263957438 0.17171419804913912 -0.153155441477474 -0.36048592397322743 -0.29587908466103363 0.11834127865327894 0.5838208578013342 -0.25339769256227856 0.09093008805374017 -0.07855348896573326 -0.150114819034844 0.1967213538871685 0.44053375624802354 -0.4572841977752129 0.6459593513953564 0.19108741344947164 0.6756191108612387 -0.10342796394162311 0.3589024647004148 -0.04064466035326284 -0.23571577481191375 -0.248847875117554 0.4473953523183781 -0.12477341427846819 -0.13441409974794144 -0.14702903450363017 ]
[ -0.25098202798862224 0.3450795934585481 0.5027772129216587 -0.19299630718243851 -0.16603057285689282 0.34177788569736334 -0.21411827611488557 -0.4253747754057127 -0.10514442197764864 -0.07493410531896788 -0.196983618680346 0.11692165050319807 0.27261105342526504 -0.2885562281571261 0.277539660211062 0.0575368951562916 -0.21307705789466425 0.4695237183237383 -0.17473452085661434 0.3117703387648296 0.311122844109054 -0.453091653059914 0.326312063030864 0.2163665079375787 -0.22675967499960784 0.2045732445913423 -0.21137193481291847 0.0945844699467817 0.2545192380186965 0.17584258050104132 0.01818438426816178 0.21898603215275986 ]
[ 0.8782913004574278 0.22508631731248022 -0.36373357453050154 0.010131196101379926 0.07259691335600066 0.30489580834413765 0.5162127260855616 0.48205853924900366 0.4066297827162 -0.11871128527657465 0.3468014368060407 -0.1663980904936128 -0.40752345293954106 -0.14874259064609763 0.5790278749521544 -0.02448060208549648 0.39688443191934525 -0.6176531312198942 -0.5643448629377865 -0.330073788730275 -0.055994440698875714 0.4564486307563473 -0.2901331120813187 0.03644112728017264 -0.009068824648047463 -0.04430768673064029 0.45408101760186165 0.6278671162084245 -0.3420501885020896 0.21591227991128756 -0.2140375275239652 0.34370099722714026 ]
[ -0.0019405547885341786 -0.16499264074960335 0.24293909968942914 0.08065503266324975 0.17431946246098323 -0.34853622853504596 0.11439362367035694 -0.2063384716524537 0.19472176181643336 -0.004045907935117261 0.1350680065736456 -0.022216294475502475 0.19700615750645573 -0.29042010995850615 -0.1308539934523784 -0.12933329636728283 -0.0545058209787975 0.1833915984618096 0.3229261591902221 0.041664922276856406 -0.6488959245530228 -0.2491281220579444 0.1747357346528877 0.14670542087763552 0.07530899122120921 -0.0021114187455438926 -0.18493475832308992 0.07900532453161231 -0.013738264097430671 0.20833933199116 -0.13092499528038312 0.2534755713709121 ]
[ -0.6165160960361813 0.1338594568182459 0.15146924060654687 -0.042145781775250885 -0.28696619570979875 -0.1269161051536982 -0.4639120034967401 -0.39696950935279524 -0.3054032018276667 -0.09270191933839465 -0.12561390267220493 -0.05450953306669745 0.24145419502556797 -0.08836072357870547 -0.24223456742794625 -0.04428463685471398 -0.18460464328236315 0.2993790480709067 0.5741516649245558 0.4157745136920294 0.021676463451325362 -0.22154329867633787 0.29069722228230804 0.1066946250366403 0.10567837610933883 0.1335034453664492 -0.20581938397574973 -0.3710015063202533 0.20455282390451526 -0.0998963565010767 -0.04484139547870643 -0.04682540607901185 ]
layer 3 Activation
tanh
layer 4 Dense
32 16
[ 0.1022636083331718 -0.21294079093536256 -0.005783278469229107 0.6561646778167424 1.0872291176047237 0.20397943543602617 0.40872615884769625 0.2215711384848554 0.661861352314024 -0.4244002080143815 -0.27134971966879373 0.31582910599386677 0.28591767239272275 -0.19519795661250272 -0.1590081813993134 -0.8875501602648617 ]
[ 0.017481472658958025 -0.19160983305365548 0.5544273445349585 0.2859641233246152 0.012467265190426834 0.4361920696306965 0.14500991610610975 0.2890205431230088 -0.00434132583361138 -0.10917770964809764 0.1375687403238515 0.24135177424622364 -0.04898861302857101 -0.3248094650142494 0.16342985247319305 -0.1902406154286781 ]
[ -0.18688923867098658 -0.2158582807578076 -0.7770054312390438 0.31069606111921444 0.3038852218111084 0.14774136797549983 -0.26598771643857744 -0.3144882441431041 0.17697884589235724 0.3407850222364699 -0.08098110538531979 -0.3827812895614379 0.22071709595814037 0.06857179567563754 0.3246959427452211 -0.5147365173608461 ]
[ -0.2542394702858596 -0.12019802964323412 -0.06969346305981373 -0.07553274553282764 0.041417742745822723 -0.5054946206035739 -0.10539946069759357 -0.17524999553716145 -0.21552696892459403 0.1400229159296713 0.1141800502666496 -0.3784751578458934 -0.3142566184550124 -0.06769461621924994 0.12130564935552614 0.20024239028264193 ]
[ 0.1700059155849017 -0.17659322940147662 -0.056336018300606604 0.20048301242719627 0.1420437253036198 -0.01648088241347699 -0.08217117275961124 -0.09266010480632494 -0.19199726279129278 0.06546656419048219 -0.1806331422107227 -0.17898126389996943 -0.5080812177299486 0.01070864277285227 -0.18317107885112177 0.05281141525073855 ]
[ 0.31764984225494997 -0.2897358418417724 0.36909338451009904 -0.0006811432297976124 -0.08030316245587492 -0.3073106781847232 0.485883133397999 0.46413095205174965 -0.08913774466660448 -0.3389384406023848 -0.28067396803289923 0.7609544955872897 0.04312956269607091 -0.5420473437974375 -0.04700245370805121 -0.03689218829072913 ]
[ 0.5301940707956653 -0.5117005687676279 0.1914916993010634 0.0023763667236169324 0.5271171441514301 0.08130276752009069 0.38081194406974267 0.49610952532532443 0.0730596014974631 -0.15627765314724432 -0.1603594674458158 0.7334962201408025 0.39640522767842157 -0.5493427740686435 -0.3945395419383799 -0.10084552912102215 ]
[ 0.5103236959831572 -0.5191703880704855 0.018622939138077717 0.2679766686800548 0.6405136840667799 0.46738099471731737 0.44675455113355855 0.5198418752705204 0.45239156086222093 -0.3939420864938453 0.1881669715475531 0.5483276328285649 0.5020323671460699 -0.35367369521368663 -0.41616955960501895 -0.32034866725191274 ]
[ 0.2739428009563671 -0.12708040473222842 0.23869563578484324 0.24221971050952626 0.27032225232726526 -0.15146269733365259 0.5317609525524317 0.44415696408229866 0.3923229070684404 -0.46366700874059624 -0.2783582404900326 0.4841538277231205 0.20292447644036365 -0.2852039763004514 -0.5615491861953618 -0.0498073616266471 ]
[ 0.38436934203321016 -0.3476096274385865 0.4598925780159129 0.47479282321239136 0.3461935082657711 0.025244851663781206 0.18048687108447306 -0.07820499922089028 0.36575544952725003 -0.25218455276157775 0.07621335525499684 0.35808196888815863 -0.10689794159045878 0.04788523619659281 -0.19590900406003386 -0.3669428516587441 ]
[ 0.08375976600104294 -0.004971913716536362 0.2574031427313387 0.034768364542200926 0.3594325038782774 0.4791363963757783 0.10506065331668733 0.37958051856569014 0.24325835019436928 -0.13706764730626217 0.00963327525780391 0.7082485725821104 0.5536302198699788 -0.5483225693926624 -0.2935538641804514 0.0859246649396808 ]
[ 0.13768880221265106 0.045118049816122906 -0.13922961180394477 -0.013681695205376088 0.05272593590046677 0.10826706794767584 0.021313650731730843 -0.27242005143249975 0.08138282465874662 0.05929345414277359 0.1416029698876693 -0.015781366094914356 -0.03355322368018371 -0.0595088504297902 0.2538584577692486 -0.11139849297009481 ]
[ -0.12860258494690718 0.02021227357156612 -0.5821906696710129 0.3457128835837409 0.10292158364257127 0.33108455408074566 -0.08790442032681897 0.056840641884754586 -0.06480348654800319 -0.019796363575252992 0.7026494768505345 0.14491267673975244 -0.0869283518103485 0.6753055682074353 0.407323667878298 -0.14586367447536236 ]
[ 0.04930501361840031 0.011473102026787753 0.2161021499515138 0.29040955841557353 0.06685966944865392 0.4762959568394673 -0.18924817071896793 0.10270220017885805 -0.1029533189249037 -0.04043360433378089 -0.1522213748282944 0.1469839296995421 0.015777515988795912 -0.47309013204094774 -0.2789199672411039 -0.1553206377166699 ]
[ 0.49040124851514194 -0.44190958487277376 0.2594957170399186 0.14815676101288727 0.28314862278627284 0.3267965694733449 0.5475822655534902 0.3833378632537 0.4013018225359508 -0.4549701541987991 -0.21880763107832205 0.5872593016031832 0.45975140203110887 -0.6635881195363404 -0.4840273103127098 -0.7636904256176568 ]
[ 0.11704417077507256 0.04392589682365353 0.12250866692612646 0.02009979341010314 0.17712829584520481 -0.06271895612951171 -0.24363244028301093 0.04743831054702622 -0.38219052131518977 -0.2731272360226733 0.028874039542345922 0.48038915236495533 0.055433721058496865 -0.24085255958918866 0.04762190980873458 0.10146390380177288 ]
[ 0.30125037886150696 -0.2445566624481183 0.049657326255498895 -0.25069622456075447 0.073882690975836 -0.45266380555718194 0.4588493400284785 -0.002609932277820419 0.0046125003873298265 -0.3523918053149141 -0.17581644285975212 0.500734916787986 0.018933676910912002 -0.25740566555594624 -0.3863991625527888 0.13780790338067114 ]
[ -0.31800598501708516 0.5251112054383442 -0.06381642316448022 -0.3783056242364636 -0.26270207736909573 0.056854673493921995 -0.13524218696905624 -0.23824181030619626 -0.20296591277850082 0.0012985508611875157 -0.06873087340357666 -0.6221495595216944 -0.49158165773558454 0.3345063017732854 0.4323574184750792 0.44660150705703977 ]
[ -0.3325153796418258 0.1342870568042353 -0.3643439443259423 -0.03570541588443313 -0.41794914878346023 -0.034333653100202546 -0.18969341007399393 -0.21598778017457287 -0.4951534877154589 0.4816184278111462 0.19045941895711543 -0.6165051671265264 0.011774009898283923 0.008884772448731662 0.4988138461208504 0.5558407837001508 ]
[ 0.1858712241659489 0.06471186609368994 0.3194711375869846 0.09238359843212944 -0.0005055819460213244 0.342693655431446 -0.0263219816387188 -0.09499016629648957 -0.0677475028467977 -0.12288877403981027 0.24925893757586964 0.0103546130766638 -0.2933788165978273 0.07883580215539962 -0.004460530243335773 0.08314116828442844 ]
[ -0.026831464501430518 0.009282927798872858 -0.5824194231421296 0.0424200714291129 -0.2177057294080991 0.028323655895755143 -0.028617781267810664 -0.14634143162681074 -0.0518112372377956 0.13979335016199565 0.02991195416909888 -0.3995739166924197 -0.23085221004524625 0.19336453376761092 -0.16543100314721734 0.1340966849667631 ]
[ -0.016968564963117484 -0.05004241356850572 0.2359513165265025 0.15159312850768428 0.18923457678380184 0.34417093427442685 0.19386904579356748 0.02854644173238093 0.03274147493672172 -0.2365363600417296 0.07236719389577705 0.5469487260567869 0.002740942984632963 -0.1584985700787896 -0.377788904019645 -0.18146599805242414 ]
[ 0.2104642754151214 0.29014319474685424 -0.08045378515309157 -0.546015585317061 -0.21838796353171647 -0.3883463619420323 -0.26466514617496023 -0.07144342573157335 -0.31159586425617536 0.3871470100525602 0.11077685610004592 0.009375831306195117 0.25151203165891833 0.3018806272152884 0.41967478517819135 0.5492198347836904 ]
[ -0.014674005362873905 0.2489387277573154 -0.0853953436851289 0.18718960260806755 0.2380757281469464 0.04244387293585276 -0.4170221679469338 -0.34769722265175834 -0.023453964307335883 0.11840510031381571 0.08268711309665225 -0.38647885538367893 -0.26146743730179134 0.14314134856275687 0.07840572470002181 -0.004208177572597103 ]
[ 0.16948470290685533 -0.21991174946615144 -0.10671850978297306 -0.016955040676357017 -0.4717981016119022 0.09905513454854817 0.2314083212728449 0.01782942760493101 -0.1958652969506945 0.20205928843468213 -0.020098475886643482 0.09038120455153756 -0.0979574707552237 0.362076778640604 0.24994806002223047 0.13006515361660365 ]
[ -0.11097259901819921 0.15728181578261843 -0.20850842942343395 -0.07619189071880186 -0.08264533917377134 -0.10932270319904305 -0.19397459654924484 -0.18540928343569793 0.15282591917494942 0.1730186576350725 -0.13755363610280982 -0.6203939707430172 -0.11143534939547103 0.24987154681033558 0.16047313809013203 0.11898399376528834 ]
[ 0.322837228394646 -0.3148124047314815 -0.014113705082732382 0.09574090019545506 0.21863265581681024 -0.0856075741140526 0.2185157792245761 0.10983920972130075 -0.06098430284994017 -0.3090572401441669 -0.3119299313709314 0.22756646233898206 0.49093810506277813 -0.45900297225264375 -0.3628486884684759 -0.5553146122999356 ]
[ 0.2501643581572692 -0.540608576555795 0.11205084597701313 0.2356107453909778 0.5520134337877494 0.1078745631157077 0.3709526136609289 0.24142709206117283 0.4895727865502125 -0.04754094738469525 -0.0824603306337432 0.3505028441747898 0.3524662443045752 -0.5609365912067662 -0.3486771896828445 -0.2795646929057883 ]
[ 0.068939400721126 -0.20067833181005978 0.05687361757102198 -0.30034348688368 -0.5834380248917287 -0.2710402580183078 -0.295698662534168 -0.014006322595985462 -0.34764484739165585 0.27438337440975535 0.2397050505035503 0.016074259150402437 0.07845216550054568 0.2288780904614416 0.5130937991414798 0.8366847890752123 ]
[ 0.3806057205897269 -0.14553092163253803 0.27076887290945767 -0.03760294748559272 -0.014026000598237874 0.028256049029718164 0.4885066510778506 0.3036161426269817 -0.22448787935701522 -0.3255958242735636 -0.2348538199121345 0.4011909430400548 0.44949024617898237 -0.1783860814498052 -0.3224865966103695 -0.41094553976979803 ]
[ -0.03094188746338019 0.3455657860040125 -0.11396486401982392 -0.0003694494900288297 -0.40813573836495787 -0.0838679885600146 -0.24887292416536183 -0.008529170187879685 0.19248994806792602 0.3037111367700167 0.06826617826060305 -0.699406425065933 -0.39744180115956224 0.26190680650670173 0.11710560916523084 0.41613399605509027 ]
[ 0.031220279543424625 -0.11872304356183568 9.427641770302892e-05 0.7376282666432129 0.024087644856077253 0.27138796447765823 0.15436852622483413 0.028683803961831723 0.5189458742065102 0.26559724828221765 0.05636786416534752 0.1979557513314992 -0.0349740776221498 -0.07277240439918675 -0.3818737617435361 -0.5893895454592729 ]
[ -0.16118802182768596 0.17918814640162525 -0.1761759138644395 -0.1067727488284866 -0.3987836882414924 -0.07679972252891845 -0.3963849147314903 -0.1629172093473805 -0.20285547795463085 0.24215485458632116 0.11140496380840177 -0.4859110332575189 -0.2687058245532197 0.28976722587395504 0.2860013912620725 0.48600181749766863 ]
layer 5 Activation
tanh
layer 6 Dense
16 1
[ -0.3252024560357734 ]
[ 0.283577057295418 ]
[ 0.12549675944012373 ]
[ 0.08228067716962896 ]
[ 0.07193849301670487 ]
[ 0.030015179088353217 ]
[ 0.13532915792734782 ]
[ 0.2997346248003867 ]
[ 0.08907702525102923 ]
[ 0.1397255674144632 ]
[ 0.1440915001800622 ]
[ 0.17124907177419232 ]
[ -0.1657951854175348 ]
[ -0.024525804615987367 ]
[ -0.08942268873637804 ]
[ -0.04502882873610054 ]
[ 0.06822868560883048 ]
