layers 7
layer 0 Dense
20 16
[ -2.1984701931067803 -0.06061750942044135 -0.07586197232151638 -0.5173418036794107 -0.205622505722976 2.2296116160343735 -1.2847586607161747 1.652868738221631 -0.12126306873849477 0.399374597616619 1.740329145407728 -0.07645318883250468 -0.5532974612948863 -1.0134582926723235 1.377755727182073 -1.0667733383099498 ]
[ 0.31416524016926495 -0.20900286837507512 0.33193905414829006 -0.20204994230300777 -0.10191466551855999 0.2267921631045235 -0.7938819507378545 0.35898403906630205 0.08555598703539459 0.30801764146639776 0.4913145185774547 0.15873023850508597 -0.9012489828205399 0.8200430049161526 0.25456474277207625 -0.6690854231961539 ]
[ 0.03206487701761081 0.25584558415658143 0.31377470395191004 0.15631422564685782 0.6592111380454844 0.2160783683968565 -0.5474106541493823 -0.2206757741144262 0.0036721208660647152 -0.10147202182617447 0.5707949941366404 -0.5632252259445947 -0.8171804052952752 0.8876289067745229 -0.04341020027939738 -0.8052185468474994 ]
[ -1.5585926087234259 -0.5510186162604068 -0.12143123888771212 -0.12871228158296985 -0.22358472975540764 1.3292749931178978 -1.361197628711758 2.3688244599589745 -0.05384893008461115 0.6422581706261493 1.9538727401822313 0.07881549316284063 0.1289142414799287 -0.47596951160763273 1.6625989915993273 -1.575685223104367 ]
[ 0.08981583955500735 0.9731185342914065 -0.6105676396186469 -0.263247654085118 0.7074094481104843 1.9745937493826264 1.1959476178214326 -0.22989474594660744 0.7419325893644441 -1.1379117978464908 0.6446400367932471 0.7098684567019574 0.16495647668197738 -1.9611161620910105 0.1240877546160302 0.34678100685892693 ]
[ -0.03363023774927913 -0.1444934012582765 -1.0144427841213035 -0.23235545152281858 -0.022962281761908555 0.05681452833554186 0.7202089552359439 0.13869933479561922 -0.1879967007982838 0.2956987182712627 0.09921716975869423 0.584273513098217 0.32977046793828385 -0.6324058695532517 -0.11712748255426882 0.09152097652035404 ]
[ 0.026947506912078093 -0.2268637714488013 -1.1095352822309317 0.17661114331898642 -0.04545235683759881 -0.3521768326442497 0.05904789589755955 0.11711965264867508 -0.4998470234443913 -0.19101078700259694 0.2888958945337157 0.4399952645907185 0.5635237392351647 -0.6967002339417306 0.09057289166462869 0.09831183858607201 ]
[ 0.980278407637144 0.45446783465234364 0.5329228997873579 0.033120529106750805 -0.10461824846833981 -0.6746034933833502 0.2779965204275963 -1.7448539280284747 -0.327475403878438 -0.40686174081128407 -1.3024055574287492 -0.33751726927490344 -0.26531846960058486 0.31780978415112654 -2.397228110825487 2.760837242394164 ]
[ 0.18242157540421697 1.7216945607267518 0.7696456122553453 -0.6505061547955752 -1.1142429413897645 0.6830392190742093 0.16756424490272254 -0.4175456699992844 -0.8858017068774082 -0.648803544676287 0.6907507787179202 0.12056169525739271 -0.05371627893150254 -2.082068856426741 -0.6244178192768378 0.47900082451583187 ]
[ 0.053411372612479115 -2.2337791428540656 -0.633047803819597 -0.8263562043891505 -0.3482155143344322 -0.10219287753619825 -0.1661631387086321 0.08812252199722738 -0.5654307372073824 -1.933855295221032 -0.24248077878121016 -1.9951591961041801 1.5298171122490274 -1.9608067905074968 -0.4732596035886087 0.22183076532236404 ]
[ 0.09498856305425708 -0.06896264636702908 1.5812243630296887 0.708718693859259 -0.4024414839132307 0.29809366732330256 -0.06853597037622829 -0.02601599156614275 1.9088704482385639 1.4713922826668329 0.0060256029031628446 -1.2149745507858742 -0.05329460333572441 -1.6955060746448702 -0.8636930969797265 0.39603296595334536 ]
[ 4.644326366671107 0.30435981615764063 -2.3681282359295954 1.930235127147385 0.4085566963615923 -2.4910389801326422 3.0167109044020246 0.9125634150410742 2.738576200792837 2.1080155511090886 -5.159703994917259 1.2671409486349177 1.9780858903341383 -2.7442078545414876 -0.452655995979818 -0.7415147695923873 ]
[ -0.20304627972730743 2.5295006565927416 0.5840568612506382 0.1073429168064849 0.9349853296545068 0.7501792750074582 0.39407769953984934 -1.5523564382199595 -0.9255798349582401 -2.2547037197225603 0.5664624888013136 -0.6077648091491563 -0.6753937200344324 -1.3814601951353032 0.019981578965104194 0.0930058072925798 ]
[ -0.11091309955607653 -1.1273680611954602 -0.9141828178887057 -1.1755019890077512 -0.6857238251068558 0.5497067434938716 -0.07993496158346122 -0.31536397963735974 0.2812615676006601 -0.6815047733696904 -0.24347482970837545 -1.6922994383670658 2.612499057219051 0.7524700117564677 -0.6043020267098346 0.557088190417338 ]
[ 0.04606360502213464 0.028225445120347338 1.6647279072005494 1.4882165954365576 -2.052307794059445 0.17726332849143672 -0.08585634867147372 -0.18679706764147663 1.4117697985477384 0.5533909685906822 -0.2447753823572248 -1.116623323860628 0.006410650235952687 -0.6855782332422401 0.4396565103282761 0.0754094693623209 ]
[ 4.193316723659717 1.5742039757877475 -1.711357988148762 3.0139822218950125 3.7384823775105365 -3.380074948148766 3.412083674547505 -0.7625630284445569 2.231836986413367 0.9423103548958063 -4.839346233987012 2.6327729067401506 2.794833277369553 -0.6982567670517872 1.5288787865023568 -0.4867245390035918 ]
[ -1.0130440279745352 0.5263325822543311 0.2797881565942553 -0.7664572428412154 0.40809653012236236 1.7948982880288407 0.47022420199202997 -0.8458234747438648 0.2880638342731779 0.8116124921441707 0.5555580524266298 -0.3734096068941573 -0.07391734736912664 -1.3664505143715862 -1.4488973404457468 0.27997427221424676 ]
[ -0.42393933431536424 5.723302636541779 1.689170143481887 3.729376526581526 2.1091240914745537 -1.5288294484414815 -0.3544550626805749 -0.22409023460623467 0.7952394378396466 3.6886495454679893 -0.1747169910765475 4.012449147910372 -4.83818982399703 1.4037407004908866 0.2502731511383807 -0.44767446064006633 ]
[ -0.005707837661122677 -1.1906949218036236 -4.130879729868606 -2.678067235167501 3.0782173208418677 0.07488408276734096 0.06664297181613127 -0.13826188248666754 -4.08900278512544 -2.441514682127633 -0.14602483184146103 2.8449900043120766 -0.725490418832244 3.5272189062563455 -0.17852576553801755 -0.08986496964162856 ]
[ -3.380009712170978 -0.38021516998699145 2.6869021840776077 -3.443379702467572 -3.0964684754347576 3.146628390467207 -4.078889771207002 -0.7543041738488081 -2.849127888507617 -1.794764207293538 3.2374445341709457 -3.1286405837872264 -3.303758942985733 1.7201841453083295 -1.7296065670514953 1.15134155348715 ]
[ -0.6644150274059196 -1.0298667435346776 -0.5264043264715238 0.355145934659014 0.1455436105727265 0.18643136489954465 -0.6566696944931444 1.3941185082976038 0.25759103818596646 1.000246404311023 0.9519668443682808 0.2852770689279102 0.20413717585871663 0.14001135018281957 1.7552560085713755 -2.1636706095529292 ]
layer 1 Activation
tanh
layer 2 Dense
16 32
[ -0.3987150852616338 0.7289513313651168 -1.4570448411834318 0.044064146943286475 0.4038922440638736 1.302897390845491 -1.0221467086130227 -0.7080260255405976 -0.7972655191355112 0.28942466931748506 0.29610210287982 -2.266186998902205 -1.0613723619363493 1.2413963319138794 -1.0190679733797472 -0.10786764987161088 0.8744967356719069 0.7949184612985879 1.7979018487615497 -0.22192497777213024 2.059730626068551 -0.043161762353065874 0.44671148289677265 -2.1808184965129715 1.742314821001856 0.3280673511804362 0.7675800670158047 -1.8479885954904232 -2.880325110371068 -0.8897691113053281 -1.3507671569666015 1.235915317910936 ]
[ 1.2341268953965525 -0.035857986150243375 0.7254842430527617 0.9015061532293781 0.13533421846715227 -0.12460563383076338 0.4633102330988746 0.18183939592223877 2.757892277482165 -0.007418321741121563 -0.7369357107138558 0.5786001234048858 0.3576030286654057 1.3452156035606486 -0.6505107217980806 0.30215365166718045 0.14207353860306227 -0.45432538619770546 0.7150834386830248 -0.07438539628179952 -0.6911556924546939 0.16270934203648763 -0.30580101674057314 0.48013120675740534 0.5024111322109056 -0.2205457049997094 0.2881213862570071 1.3032991123083915 0.0808622124087151 0.048978179266045946 0.42130902021312794 1.750210516854108 ]
[ 0.06610836581237257 -0.29054055446813865 0.5841589053730201 0.6532090312662949 0.3939965960092479 -1.7196052799056378 4.037845689148779 -0.14428473196869432 0.8025138523904399 0.3607297673785215 0.45442042341563565 0.3792284593395338 1.2638837123595503 -0.12348632609339821 -1.1640293965693222 -0.4740568644669577 1.5686000212120004 -0.7238024897166129 -0.9327121689736215 -0.32557219757889844 -1.6728403300115333 0.21635848392074364 0.2550099083782013 1.3800547135389085 -0.1598600000881005 0.5878674324408399 1.8120946492543477 0.19609911540924282 1.7943135476143286 -0.5761039342208529 1.551206536350054 -0.9033551063730916 ]
[ 0.7901163985408748 0.4269830629287645 -1.4803269798818692 0.03296176144234046 -0.19360632432631486 0.6095430294113563 0.3493856052629617 -0.1156647357904027 -2.4224870977751847 0.10741949142467153 0.09713137852523784 0.08563669887630185 -1.5313697645269828 2.4319002369730587 -3.1358610587962805 0.2649558987598171 -0.1246856702788568 -0.36868880892789335 0.12406917031686661 -0.10922648151952687 -0.07287668764305784 -0.10349088747425571 0.0112938833403169 -0.29340729770326457 -0.19584756641211537 0.14799376063359898 -0.5011851225645265 0.8457257954442325 -1.2491088971034447 -0.5984993153196053 -1.9539653157243153 1.9290970999791937 ]
[ -0.3204945757623105 0.43356705979450827 -0.5604793317956014 -2.0580785940780557 0.9310876484589317 1.0342805252618583 -2.893829841517253 -0.24333229548166568 1.668736988871913 -0.17855864267561344 0.14514037659750428 0.3950081250491778 -0.5716041912633771 -1.2117446211569143 1.9069525504649207 0.29333326989966474 -0.16163621925401722 -1.166247922713711 1.4952407986895468 0.03385953382811766 0.8560823932571943 0.5160223412730616 0.26401307519261075 -0.5963847313896479 -0.7358837315434273 0.016501904152063974 -0.7361723534313075 -1.2770721881893972 -0.5431942844252635 0.22391641390203465 -1.9196903586976115 2.0520284728271743 ]
[ 0.9019831182721847 0.0074098209391972045 1.7060837618452178 0.2412725718324762 -0.21514706126642494 -0.5141189791869654 0.11778408788603097 0.7287918146402441 2.068769991828634 -0.8627812087517371 0.7637882640949694 -0.08256687696954379 1.2680871421765392 -0.1197198739673644 0.28020602599459177 0.6139095660395192 -0.7241921197354317 0.03340437924138204 -0.32729576404430977 0.15795175975459172 -0.17556443080264977 -1.155809181943836 -0.9596918953541441 0.6298798570806737 0.1663767974008744 -0.6610108259241125 0.8306084929143872 2.399900547672208 0.46784206339649215 0.1189643978921747 0.8819226521028085 -0.3085481229682166 ]
[ 0.4919726275135894 -0.9910058576406142 -2.3813052584470276 -0.9139659416441032 1.0733899908749405 1.1535098089866136 -0.218303357868884 0.22586809595754992 0.44250724767892613 0.12443444021392588 -1.105529394426726 -1.2415508103709911 -1.0593631854459664 0.5856167761154493 -1.8241171665996136 -0.017775396531642024 0.44105395219390237 0.34566700263757166 1.7386567961172534 0.1671900882833511 1.9692383994713116 0.43482368633778923 0.059546444273446665 -1.7042665358938058 1.3574542279891588 0.1914391484068205 1.256803210142493 -1.401569365915303 -1.0812985876421564 -0.19441798419755532 -0.46008432265640814 1.3161776530598148 ]
[ 1.070950849933437 2.2251828448345456 1.2125709885512397 2.3513553057352654 -2.4162800759131606 -2.9227721339952173 -1.481353021489258 1.7514089493521412 0.1042691203721161 -1.4686172052554138 1.915413477077703 2.2050192029863322 1.1084962371743605 1.2832395555531477 -0.18350404968714903 1.2897267585675003 -1.6649177636912935 -2.0402966201696864 -2.2746739185736273 1.2934782432955727 -1.8772414866161538 -1.750151605054549 -1.6335051851413964 2.4081988635431144 -2.4106895402945203 -1.574424849418073 -2.3599303839063057 1.4381818081544462 0.9431120691781499 1.4478685390913602 -1.2626948224940873 0.9254381070820532 ]
[ 3.2108582889164756 0.699689296036171 -1.140090485401667 0.21874751951882046 -1.1669879641745844 1.1152006337627078 0.5339590030328961 0.19805310344687926 -1.0140715191337601 -0.7533053209744899 0.9506284795116321 0.19825693162374386 -0.8557868696155922 2.0816300061819213 -4.3084002981897225 0.7726118189052468 -1.6367964559558443 0.7856658721966743 0.23903185027463855 0.8240540299926246 1.1048033570376308 -0.8390126781728086 -0.24637264901261763 -1.2985872878334537 -0.025347884762161578 -0.5616921073345317 -0.8604057130428174 3.3307382736467663 -0.1463942102500318 0.869357645272846 0.05665932914320619 2.215144855882793 ]
[ -0.7252334565389463 0.16864138402826886 -2.237683683878877 -0.7909357262146308 -0.0401857809442076 -0.14583670767238452 0.5441812693322436 -0.2573192237391446 -1.216908789125116 -0.16026182280907392 -0.30807400545827957 0.4885915500682425 -0.1293497893610393 0.09290078352107513 -1.0682556958306175 -0.1756353618039951 -0.25413004409828344 -0.8285607900231302 0.44128442425650777 -0.4088478826534675 1.7150649011320815 0.42859744365935365 -0.026182273277945856 -0.7224009246947678 0.9838095736873389 -0.17822230512890447 -0.21609985078396576 2.332244655539132 0.02188770390400885 0.39387534489291764 -1.3305545018712737 0.686732440095423 ]
[ 1.1877879036496548 0.2662645288587667 3.1609176966063055 0.7438752647555839 -0.7876777458307439 -2.051704037994614 1.4900159972914084 1.318680225646053 2.435353570437302 -0.7085017289042428 0.19468510614165063 2.183506276118858 3.1693512168746865 -0.14381574717275844 -1.2277498303312766 0.6283383351741306 -0.4274259523922729 -0.38118240213616733 -2.5716734394118745 0.9155353954956896 -3.059314443681063 -0.8420456840000606 -0.8046735024299939 2.4978342668881344 -1.2585743897463297 -0.44819335508819036 -1.1991318559497068 -0.04746977787117153 3.9999073309220137 0.941382328043487 0.6958524640817013 -1.2353740226237637 ]
[ 0.31048069235788145 1.3348823340748401 -0.6666371462311196 1.9703554357560542 -0.6869624590980992 1.7722745979088306 -0.5470101025945164 0.04889561779215851 0.5460836177539952 -0.2695661832695361 2.0499253424305826 -1.731134783663151 -2.349784707863261 -1.2040145601187893 -0.7890825090466025 0.3604092139638856 -1.1674867316968114 0.17581489917197093 1.419444043036727 0.5543081873556186 1.6629715160070184 -0.4829734558364857 -0.18365078865151419 -1.6164272145813012 0.1602496061252165 -0.41621866473985164 -2.2765276934639718 -1.7201019158569169 -1.2823155424080654 0.2179750665949407 -3.2024360178938434 2.825354249319289 ]
[ 2.5430951426671524 2.0097198977608013 0.04142341280923222 1.768869730518248 -2.737305663346819 1.4109097331752822 -2.05778557072881 0.6102632044995516 -2.7148789567754035 -0.8076793932951584 1.0216091001526035 -1.1335660701059995 -1.4190009567952433 3.8549180735709467 2.315528200513439 0.7175655317529216 -1.5872747627164232 -0.880825870190347 -0.8809811726835145 0.5650959720551779 1.5278485999324098 -0.5727100802051525 -0.4664772488222725 -1.3027154580400708 1.8831080593386083 -0.9063048137594932 -0.31771482901954806 -1.1354632857893237 -0.7444875120463662 1.126277007034142 -0.8032950589959885 -2.449670999963569 ]
[ -2.09644415857554 0.889284424578135 1.8180100519745057 -0.6106446895558824 0.04908154788182322 -0.23617978042440077 0.541474340382738 0.639592634813644 0.574877757790773 -0.7895921594590958 -0.28457665222346573 0.061501504896797406 1.320451707920185 -1.8355806119918594 0.2040930900627743 0.6087066408393756 -0.6742046266002859 -0.7190980578678917 0.004300952455597618 0.25038005634754734 -0.08132109956293296 -0.5918431647436921 -0.6022695158101882 0.25203804696504173 0.7957243491305624 -0.6289295970339432 0.17352505971002277 0.26076938571046154 -0.36571099718645156 0.236971958848516 -2.1134411658940526 0.7813953971610981 ]
[ 1.4526885138577772 2.520040048472833 0.3363951986735919 1.9403484166235798 -2.3383943150016493 -1.141373867172779 -0.570771453548725 0.7298370480319133 -0.5499033147139628 -0.6212303216725593 1.9929611821855049 1.5776399954715694 0.900911965144884 1.6312184264423655 -1.0343375695314032 0.3866003153642364 -1.9949719195893616 -1.8753658762054317 -0.9982005104855157 2.588917728814707 -1.282959584443189 -0.5574378016997107 -0.520954406343486 1.479409939179053 -1.2548009917091878 -0.7238737391433245 -2.427264088349643 1.6423484490355083 0.5968608625161532 1.878835760083822 -1.1246302160452626 0.11381685262330947 ]
[ -0.9126949216348866 -1.9418621375004832 -2.1370486609847323 -1.9259128565789545 2.0077786588892432 2.5576350816227595 1.5521781456385497 -2.026510128490841 0.5538022814185463 1.7055886267585973 -2.0635039736130887 -2.044433116282626 -1.1876366936121616 -0.6265598687366215 -0.8890928794125177 -2.3926489657794954 1.7698608028961658 1.922383116940042 1.9183733219749055 -0.9943470947963959 1.9939741340137325 1.7718023286780058 1.8211863776950599 -2.499758262267963 2.45243968691923 2.320366246449214 1.8848586422436382 -1.6547036550308831 -0.21581621271165516 -1.4062401518536896 1.2202328608707014 -2.0775363624277388 ]
[ 1.1613108078963845 2.1938859005991223 1.3220444089010503 2.0897585892397004 -2.554765059593657 -2.6431217537367786 -1.410220953961407 1.860249104962575 0.0020459230632299545 -1.7030105675519422 1.9624126903120325 2.14439787850183 1.2022271903416795 1.4245079507399923 -0.10832449132142104 1.6861081933950204 -1.5643086320464683 -2.118668996056965 -2.29929931998707 1.4726386728020482 -1.7329360000178555 -1.8571840477947124 -1.8990213496870043 2.3304700039410005 -2.3384701088455624 -1.3251551986671815 -1.8749802041650319 1.6475944247089636 0.7501880858082909 1.5820111936801944 -1.4521845059335585 1.1424401289748487 ]
layer 3 Activation
tanh
layer 4 Dense
32 16
[ -0.0686749938057164 -0.07095926511153658 0.09593985947961771 0.006393677030743779 1.4736190206630764 0.5751341797669761 0.3909950991024235 -0.31498764224797754 -0.3647490518305703 -0.048170703792512225 0.3477713657780244 -0.319478890210804 0.12023091092313606 -0.32146077595905176 -0.6713265013306791 -0.3113488843099942 ]
[ -0.40133885927481583 0.06448363549016121 0.7950795911920029 -0.20841140297032362 0.9938321857462551 0.923554347306066 0.17415174773059786 -0.4673738949434857 -0.23152232729925315 0.08426846407429886 0.7629466520992803 -0.16708244269625502 -0.04972408674874766 0.20843595410827626 -1.0864287016062124 0.05235578747410637 ]
[ 0.6011359361715816 0.5595391198366353 1.4020772394051215 -0.42283068058172835 -0.31303320790575523 0.40709026475368126 -0.9191142157844316 0.5125958139400272 0.605557734019289 0.6152332456015287 -0.32521217521604845 -0.5202325276862553 0.5735010542697059 -0.8576489151023947 -0.38384356814148024 -0.9782165059011341 ]
[ 0.8034353109692844 0.7565650258511482 1.669285954195853 0.23817218552428315 1.1483820427471696 -0.23245939234981142 0.09716698466465735 -0.9806575402632752 0.41807915596944745 0.23864093570254596 0.7031544723978603 -0.19231844177499482 0.8618767673551322 -0.5541746731139864 -1.2376634885048516 -0.25587780919430697 ]
[ -0.5976824287113026 -0.9980827001450344 -1.2354265636988238 0.7334799202136522 -0.667819940783292 0.22651718289948158 -0.5876280355269703 1.0126898667397035 -0.7914840045537033 -0.5178217786103901 -0.8928089766573303 0.9813647453712774 -0.18356710225805214 0.5804439595044466 1.384288384006998 0.40786401292463803 ]
[ -0.4061587679467088 -0.19204796435859803 -0.3067494394180931 -1.958029823621217e-05 0.5804798078145675 -0.4847546731421856 3.263190991757071 -2.8041708216647905 -0.7681437492579352 -0.4326199426250131 2.3299547777070635 0.6819185876019817 -0.03526747160469085 1.2314659799196344 -0.034366766707353225 0.09867206042721534 ]
[ -0.6176038209300189 -0.6040271485945072 -1.178755647845377 0.5215694538449688 -1.860817745790507 -0.6155148216796587 0.06776991299347948 1.1916331815517724 -0.07637611616135861 -0.4495809765232391 -1.229748345147929 0.35548008234845563 -0.6266366447344414 0.2025418058677493 1.0147936393691637 0.5654156825944904 ]
[ 1.0608928080506284 1.056638044405877 0.8919906719010037 -0.958738396185891 0.34788309861912287 0.6426399392285469 -0.5230152820771409 -0.01379241316202555 0.8727404591796262 1.285340286280258 0.0018023093745629653 -1.3743490142523265 0.5260603355711613 -1.6011013628829176 -1.0424918222691026 -1.3129247223597698 ]
[ 0.15467372529199397 0.01461933388795783 0.06981333518779177 -0.21653849984816773 -1.3619280205789965 0.015318594536881735 -0.5777399918791872 2.2379462103684986 0.23893219091667625 0.34971529946771884 -1.181429767339308 -0.08376772216286925 0.07698623394406603 -0.09398757296120118 0.4808125051494459 -0.48995153625089916 ]
[ -0.7833198381954471 -0.6780493140719134 -0.581548280266789 0.8948607332818008 -0.36347105430203724 -0.5969561626987909 0.20479686977274358 0.3220662044878883 -1.5146052523930558 -0.9230195980793121 0.21525316174163764 1.2948005722119091 -0.6702730916184346 1.2347567096136922 0.6179224503561063 0.788629364798955 ]
[ 0.3413060259518285 -0.02635402060199711 0.20842409669632347 0.566394061482065 1.7150895463314324 -0.42492546080340937 0.058119966745988155 -0.6637994850781962 0.4173496777752056 -0.007410136779334598 0.5070525502632063 -0.4295529314413037 0.5643027600317274 -0.176760911590426 -1.6596079727455118 -0.3940307423402889 ]
[ -0.12923890304669822 0.6093910971113563 -0.1267668211598399 -0.28256981967315464 -0.6675344592587255 0.3587796691388849 -0.7774148076360453 2.0416793611467536 0.0005574504815848784 0.31983041502707227 -0.645553246200651 -0.0327425430185096 0.32380414268864094 -0.2629538383700891 0.45951406231712894 -0.15455384498857633 ]
[ -0.10979795493112053 0.022492389622587837 -0.321428751280415 0.2690038144789263 -0.8854169795726567 0.6396046435133581 -0.7846698275247577 1.140595728788997 0.15415046266643948 -0.17158717560367576 -2.0960173878729527 -0.09687403881267466 0.5673529691314523 0.04986974492401768 1.4463863340683585 -0.025767119042445313 ]
[ -0.14226060879619387 -0.5554257308518632 0.14714318726471176 0.07838304929957317 0.7940205933689174 -0.017439123767347305 1.1008109226867078 -0.4810496057249423 0.04929439782486013 -0.042159518408173356 0.5370166230498904 0.2850338891677017 0.5085306520214957 0.21899930404428253 -0.8003798731009362 0.27261900152495055 ]
[ 0.78610544715766 1.3298353356329715 1.2383224071494272 -1.024362676646953 -0.6911074566451959 -0.25312445223054786 -0.21774792604398288 0.5957678956578885 0.8557403950905228 0.7427390013753099 0.2637690519167489 -1.1018111850126504 0.4571804735602372 -0.34491122236097976 -0.7556372493508261 -0.7213538553294607 ]
[ 0.9645204819975417 0.610589881572137 0.775540731260057 -1.1354056043827412 0.18325629237143573 0.6922814475728919 -0.3887927071035767 -0.2019984425513744 1.2336508694211707 0.8557873094462486 -0.11343678159383763 -1.2582965909964312 1.1652196278073512 -1.0628747402983967 -0.3253056485201818 -1.6661632057199838 ]
[ -0.5023143110116162 -0.9058174431468893 -1.267405299005476 0.4381243951331556 -0.8491237266479479 -1.5270556019705164 0.30182549541418385 0.5748299852404993 -0.7636719037185611 -1.1013087879298473 -0.3739170364199163 0.25828172472259797 -0.7033074566163047 0.1411086728551457 1.1610969042051105 0.5354828184989093 ]
[ -0.17085684627318595 -0.43607377495719907 0.3542945581182422 0.42605374352636566 0.389718612846813 -0.7735244429893753 0.3706397962494043 0.07690394559730948 -0.6380804026476915 -0.34896777305955534 -0.24377438744244762 0.24874091855798047 -0.5277068099170578 0.13110706622042376 0.27686362027653966 0.21528677573181762 ]
[ 0.13013673783710483 -0.3560746286140519 -0.055551690192724344 -0.09795575196715837 0.31754814890279637 -0.7257717672616957 0.3730875650230669 -1.3883602754639988 -0.26609816567653755 -0.2028208525894222 0.5612485829679308 0.12540471988622393 0.14113487016151965 -0.16459997502863394 0.05947615928093593 0.11948242674605636 ]
[ 0.5463666860878625 0.3558423346225051 1.2568841608408252 -0.4258065689917228 1.0391366246050542 1.662953266381625 0.4127129988124692 -0.478719380225639 0.41165922824588824 0.14370765362921273 0.7646619913924145 -0.2633068062632374 0.6863260494137453 -0.5412791788551965 -1.857629872888727 -0.4520262109635687 ]
[ -0.25299738982075715 -0.16550019441621452 -0.5687992207685789 0.3524755084048909 0.745671904297188 0.07190065695008649 0.6349338325788436 0.06586996478708582 -0.44975353195878154 -0.6477487024588601 1.575455336353782 0.3195069964083222 -0.3902038451242376 0.2843805946255609 -0.257609036764952 0.3495096042423786 ]
[ -1.1394732632375093 -0.8861112796178197 -0.9739126912394066 1.1987258493157484 -0.11579824631609734 -0.480512210400294 0.10506425534947555 0.04743772904477931 -0.8511830845853559 -0.8770248213142713 -0.1330476869469619 1.0378407034762567 -0.857187167284986 0.8264423511496564 0.9502681358349206 0.4796239718197882 ]
[ -0.8114128241123507 -1.1195032120261958 -0.9907109005133764 0.9828331442217252 -0.22429774898567575 -0.6943066950210128 0.4642485715968222 0.19027451071533075 -0.5976373966382121 -0.9387033812870332 0.15275543196311037 0.6487737941848865 -0.7253780212077747 0.7917897741978006 0.6117187809314535 0.8749537845693076 ]
[ 0.48280595767691564 0.22607042490793405 0.8805600015044805 -0.38528463637822497 -0.5613124437755322 1.3218779778934757 -1.2928645290501202 0.49873003165951324 0.42266168193473974 0.4450819041528407 -0.5594982136549456 -0.3416571004016365 0.544267368153702 -0.29797047967106954 0.18728686946108503 -0.3476900887278321 ]
[ -0.6374919035260694 -0.49825364036962355 -0.20134847437174488 0.6156071461521783 0.30954742920964157 -0.40277681006890653 1.1528899846906966 -0.6124110581026609 -0.2802625316339621 -0.4078418913239965 0.9959615746126427 -0.17353177271432205 -0.32703547127653354 0.2610234299541085 0.12524573489718993 0.4374994893820719 ]
[ -1.108791778058738 -1.2043940943260343 -0.519705741222606 1.17976709377603 -0.30614849261083205 -0.7879526927599562 0.1523018874247786 0.504198345522046 -1.4566208171494563 -1.225391944749946 -0.2743616431769839 1.217266567793188 -0.7567497341320872 0.9835998548720395 0.7359829518655482 0.9622958600227502 ]
[ -0.3278561470115695 -0.31954630118072463 -0.4423209497388881 0.43129275433734154 -1.678789377981821 0.26827701425511474 -0.3403008871688846 0.9192854175153394 -0.45664098448307366 0.07019085103345982 -0.43310991826786666 0.8443840027675437 0.4450053089540839 0.7179636047829506 0.680731536594583 0.30677279657518414 ]
[ 0.393332579513062 0.5639363901737553 1.142299332917897 -0.5000747921538631 0.4351263087017016 1.0707939545911747 0.15472462164638512 -0.04062273119667112 0.721608046530207 0.4874185620726082 0.34076141982509034 -0.40359828150341304 0.23797682400306908 -0.4982843160522837 -1.5872268840635264 -0.21712884340310676 ]
[ 0.08798476550276466 0.03273763419731864 -0.613946066102577 0.05875440537837373 -1.436481978468024 -0.03609839312245925 -0.7457753642129901 1.8216287604195756 0.12251467052160506 0.35539488530280966 -1.7198557917534438 0.2078808583331388 -0.13966440758904058 -0.09661199710014205 0.20078147727828896 -0.040920991190754985 ]
[ 0.5948448436266985 0.3865750334102675 1.178536833547725 -0.4718564844464063 0.8677974048000963 2.187358574419344 0.010437159858110834 -0.6162650625923997 0.2794037631087803 0.6379058060833971 0.5345562344123699 -0.9073112963399109 0.5663900665952104 -0.29972494375038167 -1.3855989650958696 -0.978207173758993 ]
[ 0.377935591095147 -0.03040136424696213 0.5480258872108289 -0.37059664691180616 -1.0855127499077508 0.015442516515710665 -1.1873113909213742 1.707332997711723 0.6934655387617273 0.2081644255211775 -0.567018987783976 -0.2521193373093035 0.5189826114907556 -0.29193702298452345 0.3537569228107767 -0.32986671533014794 ]
[ 0.9438833196701176 0.8272110933641444 0.6246409692130934 -0.3171926432012263 1.2686730732035318 0.5520311331904995 0.9035919670711712 -0.6624176149237228 0.5703422952979085 0.6680278433903202 1.0353826046576418 -0.5122171027426816 0.5790813791281211 -0.21511744658049883 -0.6254799022089466 -1.1398797238981595 ]
[ 0.9812142739630442 0.8490018297895533 1.0412846258358688 -0.9970692600948523 0.4848688101826991 0.6793099592480503 -0.3061628380396418 -0.25880152325680483 1.0623473793766829 0.878539584492062 0.047112232427943435 -1.0762358495860676 0.8090890616069988 -0.8880568553043482 -0.9324378579445394 -1.1749955094337912 ]
layer 5 Activation
tanh
layer 6 Dense
16 1
[ 0.2595288035982653 ]
[ 0.049807470313990784 ]
[ -0.0701722656193889 ]
[ -0.417151920369303 ]
[ -0.14006497812925858 ]
[ -0.12499713721754391 ]
[ 0.1995250245431029 ]
[ -0.02811792612581632 ]
[ 0.2714439498265028 ]
[ 0.007889646026403014 ]
[ 0.06738978078314192 ]
[ 0.2375916163456132 ]
[ 0.04316620887845315 ]
[ 0.39224275073448034 ]
[ -0.09174514186669838 ]
[ -0.11104810296447909 ]
[ -0.02218132780696277 ]
