layers 7
layer 0 Dense
20 20
[ 0.05735706701396092 0.35278011203793586 -0.48884416137014636 -0.43408730018664904 0.035530971999128955 0.5212715497536421 0.6624043595003932 -0.2627732354778859 0.26003857853361445 -0.42475033540313833 -0.09501145520800663 0.060071411606261144 0.17281050227756148 -0.6886055526294862 0.5209050991123845 0.26926080143534864 0.09580869338121797 -0.3058759018838101 -0.304159259184429 -0.3069621032402454 ]
[ -0.008226941701808993 0.3173996151762825 -0.08893364688814663 0.05025441407597925 0.26738653777151306 0.12232698713867211 0.28967950344735255 0.03165005068864688 -0.28657342144279313 -0.06998555402940392 -0.03983169696687109 -0.07712090200387842 -0.22998141258737495 0.24543744951862206 0.10871900978908829 -0.27171345827689697 -0.08004524501907145 -0.18205517416959885 0.1526656793199549 0.04561118349125374 ]
[ 0.15439820619778977 0.309303884963933 0.15931279574622137 -0.2800188428826882 -0.2562040854704281 -0.37648239453683713 -0.3315972629176438 -0.2552291745526548 -0.3730712970362691 0.30359251601688475 -0.22066652777807852 -0.028149380539215684 0.28420059320484803 0.14026645329937157 0.0697791664160266 -0.14384230787736957 -0.019473976427650835 0.3872152854995965 -0.17883445518963662 0.17745071206215496 ]
[ -0.16550891554182087 0.3320289645080298 -0.6360789354015562 -0.2649447235153406 -0.36349356828227497 0.3938261875592068 0.59323971160165 0.18876156979781245 0.18858433062204624 0.17266914784419685 -0.32232971493335205 0.31595889369933117 -0.27007258539616524 0.06273737373965166 0.5007568342923738 0.09193407475499098 -0.22503002910436387 0.2969117098652765 0.0010129654548294534 -0.22202229753518848 ]
[ 0.5675572861749923 -0.24001440513768454 0.32223492794562003 0.10206775651283205 0.042927667770185536 -0.3118352585996524 0.13329471998724124 0.25710096865394855 -0.2762007043899209 0.1729455589858766 -0.28588018644685464 -0.057996620291128266 -0.004743903278629056 -0.208623848789569 -0.21579684259166 -0.3302970989427348 0.05503217898317453 -0.17293533917792414 -0.0029466893364687623 -0.09477559309787671 ]
[ 0.10033401791262211 0.34139961514732636 0.14880539891963782 0.1929404145789869 -0.27138963507057984 0.12596361095212819 0.17226526877273915 0.3771682333616397 -0.03565561743006439 -0.2891958124557153 0.008623127357898797 -0.24097239061838843 -0.16321127022330037 0.3510304535304094 -0.05021976431517167 -0.2490145763459282 0.3097389396987889 -0.13291871426318494 -0.34924309834616324 0.2699794189030632 ]
[ -0.18334399006222882 -0.36508343661712234 -0.07036191561806672 -0.33470951992178477 0.009944948549615357 -0.1256616492199655 0.23849368910967905 0.011975825448876149 0.13190546765938727 -0.1451641479743932 0.049642777771871795 -0.15126291438094946 0.3638566019338685 -0.12235094900599326 -0.277569324728233 -0.25635121839240754 0.30831097607315666 -0.22289595088700373 -0.24290887314855114 -0.16826344794687928 ]
[ -0.8189771039727827 0.5331877655668312 0.5346198286602425 0.9583525303841807 0.55652982935887 -0.5753632291411482 -1.0512306221808594 0.3231447267607449 -1.1464471336797226 -0.3293744815591938 0.14476471522117682 -0.30059860070229005 0.06074768835883517 0.6056521164162989 -1.3352628484693236 0.1613861268196179 0.0385582770842288 -0.31849883946899743 0.8155304178915213 0.8224515933050803 ]
[ -0.4569021660245948 -0.01850577915843461 0.11009677267168216 0.17868464287790248 -0.06412408886635496 0.4294735573340628 -0.2186805255773201 0.06985744351843139 0.08739238372163302 -0.18349170968762796 -0.47232268614547795 0.45006487273880774 0.1464771510797434 -0.6234467607114078 0.012810871188235918 -0.044677439900731995 -0.04516009925115107 -0.3608105227231689 0.2752567739234044 -0.8234275281131013 ]
[ -0.9736787330524012 0.5259989034313423 -0.15987044135224748 -0.12462401075600915 0.014866047447021856 0.05320612685183955 0.19812434371398768 -0.2615358675778328 -0.350602778470034 0.1232550230126303 -0.598577975482903 0.5861146983344667 0.817545915662528 1.5418950420510042 -0.1745969226876047 0.11422627324391993 -0.2684827937871632 0.24055045057985772 0.570464710629533 -0.47311249387615834 ]
[ -0.3579288890738019 -0.20373631319884875 0.12850907273367562 -0.2862794820121484 0.7941558320082451 0.4827870365506059 0.048821531732410106 0.37250363900106487 0.3484080826180447 -0.3008541066497025 0.5891857355907113 0.6268973343979612 0.7239017463039351 -0.41143908921039124 -0.0012781443092850582 -0.6928421523838403 0.20377731639504046 0.04631077229758088 -0.10834825477826937 0.21530182006204754 ]
[ -0.3249089209781709 -1.3088589349790962 -1.4200570928193579 0.13244305131984807 0.7818982611750495 1.0967844445905848 0.8868275309971713 -1.1708650307863384 2.6485098474547293 1.0123981943670817 -0.7071350212849846 0.21306955109730802 0.20199917664922012 -0.9198064944396681 0.191743575233416 -1.3114011819998608 -0.18986528183802492 2.307354691525707 -0.08792757493299058 -0.34480591291377505 ]
[ 1.000421998402009 0.055022895718743324 0.8313565469592894 -0.5526562740642288 0.4342911346766166 1.143925391463836 -0.29225681525744407 -0.1382909300369724 0.7223631867325175 -0.06054004643086298 -1.1801566207603436 -0.37221662324070187 0.6448332728302946 -0.9205809913961743 -0.09568198209973117 0.01710121576920037 -0.2005386889909379 -0.23580824325813537 0.5854203468600914 -0.5906276735851331 ]
[ -0.6069280909420383 0.5967968426803879 -0.0786941536990719 -0.006825409614491238 1.0438865613340715 0.28369892464350427 0.18177936307099146 0.6307578038633614 0.29544096144798243 0.6719037110491936 0.46402579048356196 0.709164311886517 0.4072710583268587 0.06543075280940619 -0.14179870170785952 0.23471856987445802 -0.3153633919510245 0.1926199278324624 0.11959881164286841 -0.534343801710082 ]
[ 0.3170439825275328 -0.4978657908045415 0.15948856571207545 -0.38016333079157444 0.48703999848972157 0.5569195876696545 0.13044664776426645 0.457815520940594 -0.0941017954341201 -0.3960353485172163 0.393918118232925 0.24972410600651354 -0.06368775630104105 -0.41395099577848304 -0.07998749456750101 -0.6137939951669931 0.5085255966924018 -0.5020980701339698 0.2025369042655459 0.4752611053147265 ]
[ 1.5202152265169007 -0.6846347455409414 -0.580689542327182 -1.0461203808178638 -0.49815832808326355 0.8520860721784673 -0.08911789173482212 -0.8446102055224495 0.5378951743486092 0.9088272774682281 -1.511203594781923 -0.7711405779371411 -0.37172347823078866 -0.2954902006048117 -0.25827605808694576 -0.8244681880280826 0.330566673989724 1.5372019912268067 -0.5199483091186475 -0.06535720386159226 ]
[ 0.18659679391635423 0.2533155771834516 -0.3845438435262056 0.34506193859398543 -0.46699472565456784 -0.7190913829039914 -0.1847790574772238 0.4615806828750286 -0.34076173684724426 -0.30640090431108535 0.6344734388558336 -0.2859085693709757 0.20364792358969436 -0.15623569948142768 -0.48955312360229764 0.44156581520365884 -0.19987792521895542 -0.12703073217619631 -0.4442819957986011 0.3320566030869274 ]
[ 2.0862929373835155 -2.4836623595157303 -0.18160529802172454 0.696190336700682 -2.2556636473941563 -0.9513272366906685 0.2125757366819326 -0.5192864241161049 -0.3382209952172632 -1.9152030473917105 -0.47118015749013425 -2.171107775414337 -0.8367754437632322 -1.8494279765819954 0.036758190946117375 0.3564348799695103 0.10497852753091809 -1.5436330994626895 -2.231992512513181 1.6370067202005614 ]
[ 0.9179689415211097 1.595943592819072 0.17618520992036799 0.6093295302872749 -1.640124368394262 -1.158776992465833 -0.0041687125249713535 -1.834116951921125 -0.5126644691407931 0.973577848970473 -2.090156157365626 -0.5291160775039778 -2.0722023318237857 1.0700751634616694 -0.22877615428208617 2.152754455748529 -0.673099803771746 1.1217058096911687 0.9065999353180412 -0.3004743714107256 ]
[ -0.7298359649800288 0.8265456021372656 0.15914484928201406 0.5537442288299137 -0.06884740408220295 -0.8592650614885354 -0.9606798994609775 0.5855274410669894 -0.5027385809352902 -0.20655807496003417 0.5112465952794334 0.463185999606354 0.49115174216909285 -0.21060180217865723 -0.47897867707396546 0.9911645001156536 0.619300438409967 -1.0033680501387237 0.6020799553441438 0.035906637380402916 ]
[ 0.1727211757474162 0.0047999586599020705 -0.27745409319564346 -0.5172076880106607 -0.018564175847815077 0.4337134905633331 0.5500975720170659 -0.10656228070382646 0.5052046740051985 0.15708159752292186 -0.15230046048139284 0.20074563948921936 -0.2188590981698957 0.10635146081327852 0.5810133341495544 -0.0008717627273073568 -0.19710468674924783 0.2004046176156021 -0.4182813296852876 -0.4157011382547831 ]
layer 1 Activation
tanh
layer 2 Dense
20 40
[ -0.7090336528869281 0.9500102021368239 0.7028253680327123 -0.15082057359547132 -0.4762651729585341 1.106762912125835 0.4836565970132619 0.5515187797860697 0.5124698210158936 0.11769544398175782 0.17012753734415517 -0.7338141787184105 0.7862393171818228 0.19082530040953968 0.21651009724540873 -0.35624920488095285 -0.18482422383458125 0.6927843212497384 -0.024908509964087625 0.40879300241994354 0.7124181001426789 0.5758165005498617 -0.4955509258752505 0.1240198590315969 -0.4794814220636939 0.6246297344984786 1.9444036856471054 0.4772973435431881 0.4675259817497576 0.054480144220361355 0.1506754452071885 -0.25973494466329833 -0.36739453755664336 0.2332341511747362 -0.19702826660435854 -0.6793715787701825 1.121553069646677 0.9178381093708413 0.7608178853198067 0.23077169406918 ]
[ 0.060263213953506894 -0.07834365378575264 -0.7976458410255871 0.007152699799936905 0.35388240031860185 -0.3776720212847107 -0.3063196216150472 0.06659159744346171 -0.6174214322563727 -0.30551949981440113 0.03016273595237394 0.35297091325142277 0.05661376193576583 -0.9752943799078283 0.020856900734093856 -0.2234356349627206 -0.365906257699906 0.03650912880777077 -0.3548369334703705 -0.21880584319539373 -0.058138510688459655 -0.6914359698253635 0.09576927797010597 -0.3009262428305943 -0.3593104243114197 0.05619056204725919 -0.5558098810531468 -0.40821466255574945 -0.25050256933087917 -0.396018802814401 0.24881064020063196 0.3995511067029374 -0.01486102665764084 0.028089733876339798 0.11453952224978166 -0.11869358359398047 -0.7569946941263401 -0.7131673068888651 -0.31231221298309375 -0.5754678118951693 ]
[ -0.014057946641512288 0.21272093339610085 0.16752257287125308 -0.29774272717702543 -0.07518049617209041 -0.3180792710847313 -0.42018744514941486 -0.6504595636016871 -0.4418885782241052 -0.05345355222524074 -0.04162698580602434 0.7800089174450209 -0.10308433419563462 0.3405323886865349 0.6219232634458627 -0.4128306371362625 0.7237517809545552 -0.553119895565382 0.003436147758568282 0.27442844850901515 -0.7221137200165175 0.2143389328781571 0.13900122274659282 -0.15786773509892932 -0.3299897690429071 -0.1319637645904313 0.016719902079869658 -0.16964159003402599 -0.18609747299282636 0.6638078334712909 0.7767526642140534 -0.21830463650187146 -0.41736866385321364 0.18178595638843564 -0.5770987454438727 0.8670331153434784 -0.13558409282360676 0.16807831806918314 -0.3196708918730904 -0.003799473130757519 ]
[ -0.10195720080342191 0.3265604066905039 0.5195243898304015 -0.206445052352806 -0.469485921492563 -0.02304913814917147 -0.5279980833235907 -0.09779129396074111 0.09521883366870394 0.035878887768194395 -0.1562209608425254 0.3384178029521173 0.13167360850899673 -0.4055574508607261 0.5018199800736918 -0.03433829895462921 0.35213144165931864 0.27344223130715495 -0.10406560143013423 -0.16646763947969856 -0.1462922998311542 0.24326471494688792 0.06597078329930582 -0.38975018098145947 0.16404580087398407 0.12564741188419545 -0.21267276789019757 -0.24444728852491224 0.07291010149973505 0.09578487072807061 0.5254990018351756 -0.9162090957698384 -0.48450781704199847 -0.06538971740985709 -0.056546197399765005 0.2951779979298208 0.0326948314260074 0.23700874945218742 -0.01516601885938302 0.512518203378326 ]
[ 0.6504003065418681 -0.3463384616666747 -0.3592565216827712 -0.3881692432019329 -0.033755434013594335 0.17672068026247917 0.23103110168771118 0.6271851538740668 -0.38287013838617173 0.0539917678271501 -0.21229589419725242 -0.04303016001886077 0.4285706059527946 1.0747668909791919 -0.7098660229607384 0.12090994661525016 0.27581147593458943 -0.8871864986839094 -0.34738460791764175 -0.6942366235462901 0.6530677846888282 -0.7091713077093356 -0.1330204196351721 0.05044547368359719 -0.10612819139557082 -0.9197191725550959 0.1322439459622415 -1.0600836065422723 0.16176272399125916 0.9149253804215475 0.6076895062949814 -0.3644499832726838 -0.47720429480836934 -0.03993277579261776 0.5136436471178117 -0.4023978799782169 0.692909220321895 0.18498100849725146 -1.0706237457147225 0.47794319105634603 ]
[ 0.735096618290746 -0.27335008610247097 0.006333235415555729 -0.029702723782542417 -0.14494365832808875 0.1847203907227518 0.448199899039866 0.6073784046818692 -0.04062016955295251 0.7969905374522184 0.30567689652402535 -0.43287720615084047 1.208532759458575 0.9163730446414148 -0.7619960473136423 0.19209504816571593 0.028954672398123705 -0.06766844667229531 -0.34859725014347825 -0.1812158503506312 0.3962957851686256 -0.4147972897201058 -0.3048155974502568 0.14048916142674311 0.03836833874097998 -0.4576265021169177 0.48877906652523684 0.07781320354300475 0.13626050560398792 -0.365294559233162 -0.3506041820005116 0.5367238882335101 -0.21343065920633983 0.14820806892430077 0.9576293761191172 -0.30592958588979624 0.45845700750590984 -0.09502782912179258 0.25973940579799665 0.05911527999414693 ]
[ -0.2550885021912327 -0.00987826467528334 -0.05114012799547939 0.41913510912643787 -0.0033096035142640796 0.17803700808636252 0.3436506955257952 0.585667513330797 0.46772091961541956 0.45263804423978754 -0.11637524459960838 -0.782020733539049 0.4318269815133177 -0.4828357091852341 -0.4425733448882111 0.1356990070364147 -0.7087604327079644 0.7483492499167173 -0.4545631883787681 -0.046816909356848686 0.6341269046398003 0.10599827534957075 0.026893740324605484 0.5229255112883437 0.3390870975990034 -0.11021955559515637 0.003787068776125133 0.5824769002668683 -0.1467856486795368 -0.63372097887143 -0.7459480327874023 0.4827389203027101 0.43169474520535894 0.27656514620447475 0.3823391412987457 -0.7374666830328338 -0.018165296640166174 -0.12594837905893053 0.2257143848348737 0.3910256996569112 ]
[ 0.2829445174224017 -0.167431006909911 -0.5033885644201201 -0.03515340130395365 -0.09873270950939998 -0.21192653700975717 0.5155068300201455 -0.3752388561989586 0.024279398386142414 -0.4028775885721393 -0.22814025053394746 -0.03134686069874103 -0.7457815189992568 0.024542944429925072 0.44259067368130295 -0.5897351569895393 0.05323154181205736 -0.1271603695386784 0.7053632873340238 0.406672940708881 -0.3082993383560442 -0.6054275189910895 0.27440102243604625 -0.594114556203975 -0.30003503877385856 0.27639545318843806 -0.2565974731814541 -0.4163914854762059 -0.03221270246717652 0.2175125449209597 -0.03290525104345652 0.24422354856375042 0.2249368073340816 0.45017636925846877 -0.7745340356531665 0.1817306537159919 0.33893782773861436 -0.09861371409668672 0.2459816258886938 -0.38968412947729913 ]
[ 0.2774877554262193 -0.27808611137802136 0.22582372256480693 0.296794784528067 -0.2900232180943148 -0.5023243130579698 0.08947957242187964 0.5878009293751505 0.12042062342758907 0.21130670262804407 -0.19533999826857273 -0.18720716736320775 0.4651254388017791 0.5559103468048932 -0.9563928544715256 0.5625054791662201 -0.13906975953527392 0.019854087244265014 -0.5431120046636015 -0.2516449485845045 0.41614283914222283 -0.32045515412295095 -0.02646067267505079 0.38902581555340476 0.16271891457596707 -0.019038685281458377 -0.5159316316236332 0.24623124725697046 -0.40843604289653873 -0.3543964315977471 -0.2354201573731079 -0.4209109400464283 0.33322278557755125 0.1334947898221345 0.6290997102530644 0.11417323353268963 0.7423315508208023 -0.29137590970948196 -0.15007830247660212 0.29728385624296894 ]
[ 0.5574585187656826 0.3943112506654829 0.511213075962369 0.21949468034921946 -0.53380814351942 -0.18827935500284743 -0.606295035933514 -0.28014950564927665 -0.5418669559357561 -0.6741379998179872 -0.5789100596773175 -0.2828293870240824 -0.17616522182994043 -0.4827407130757264 -0.6139515661591183 0.6187607626467386 0.20222492561686356 0.4336258532884201 -0.4439222999616926 0.22149865675070954 0.17510905285567502 -0.12216248212379818 0.08441401629750518 0.17950356334108297 -0.06319536067178957 -0.7027117549987552 -0.2323658883938671 -0.2616509854414552 -0.3883873130939833 -0.7642508025315582 0.10726758820067395 -0.1707271576089481 -0.07351340958658836 0.26535514864816967 0.6986388688687222 -0.2188155229903132 -0.38903813892067024 -0.5037762125202782 -0.8366893125692002 1.0748709319468106 ]
[ -0.1498937492180922 -0.0920805506070211 -0.3239724569101533 0.2637427421704428 0.18867676513100143 -0.6794012144333919 0.6277479058595132 -0.7310722625104928 0.48233905982338293 -0.41121959890800774 0.2654886885947878 0.6796376839210724 -0.5579781705711538 0.140986389777306 0.6976712107827545 -0.44266362469599124 -0.30562465577695486 -0.18873177354914492 0.3974293352381058 0.3063166544441054 -0.9823676032198263 -0.8410382587662172 0.4793201478249599 -0.8186780223928442 -0.08093056039074295 0.627531781204599 -0.8348058556034863 -0.24858594876076862 -0.005203959594313663 0.20750813699798068 -0.22417621350052871 0.5635945985779897 0.102589647448487 0.07312702183267888 -0.7243656261195781 0.2809809349946523 0.38059495554884665 0.05485316731410173 -0.1501557305686287 -0.4207935359924231 ]
[ 0.46978644131169484 -0.3855345697733109 -0.5031480113973018 0.08889278367366271 -0.11248035211401641 -0.5164814902769993 0.3007134674760084 -0.3851212450708288 -0.5028564268835364 -0.38358024765682486 0.015415794161550663 0.03388700983017684 -0.41704531518807 -0.24755751338122448 -0.28894860380884646 0.14675670975929364 -0.15617013636021215 -0.26444921629611795 -0.06582526782412712 0.49409849820577034 -0.12399155112537849 -1.1214143379248545 0.4357190894267443 -0.19079368475576391 -0.06838480946281353 -0.36728780176333153 -0.5844553164054863 0.1019995352513619 -0.2893770940893721 -0.3877802606401062 -0.49807123808169734 1.0955478173656108 0.0015194307658278762 -0.28816337355713706 0.20038529093841542 0.18961988329912147 -0.21389374514002668 -0.4773835424182131 -0.015274239027099547 -0.5155507549285443 ]
[ 0.26322851546393444 -0.621357715978009 -0.43137510396348405 0.10739106997022882 0.1753309796147103 0.12827666832726142 0.159752612705837 -0.1671278910920311 -0.2396790975734741 0.2892392237979674 0.3972513834384161 0.12140167313877254 -0.21079160610653525 0.9045988910677805 -0.4408722709731277 -0.16668579850577087 0.1430338773541229 -0.6249836814705031 0.5008259239131901 0.12491151942278779 0.17099485681211096 -0.6482293937039086 -0.10776048591180533 -0.11014958267666725 0.20620217593252962 0.2716208210181309 -0.438142129818714 -0.1475044624466986 0.6782080156024429 0.15505991054354623 0.32005011767440755 0.3344837491965413 -0.2683251631668959 0.38721151558602707 0.3535380192418905 0.2864178667927958 -0.04557807662925843 0.008417719810669806 -0.004840922538137763 -0.2318259552278355 ]
[ 0.14249213511725303 -0.3669655334555924 -0.1666238017285692 0.0508913534591118 -0.57522053396149 -0.20665246872219004 -0.3428957035001891 -1.0446010718167882 -0.9193569352506743 -0.8164085254421509 0.022407871805682215 0.39045575566701857 -1.2005742501719496 -0.4898269007361975 0.07728468306136532 1.0506336080753587 -0.05433515988969982 -0.37330595200440136 0.08865866552298088 -0.2750680687511897 -0.7226517590822255 -0.4916280608964797 0.6092842603862869 0.3608979377000783 0.020223643057334588 -0.19951467331281605 -1.0745224486261589 -0.35414125429803656 -0.3344003201592312 -0.23004142907930736 0.00763295175311128 0.08362824535192996 -0.2776314913534298 -0.2255099348399038 0.17497073529939558 0.2684393889021054 -1.7421087961642412 -0.8413122376191855 -0.5244903007117926 0.5335352281856803 ]
[ 0.19358134860912427 0.1489173225404628 -0.014696553589818473 -0.14026474216528456 -0.049826432230954155 0.10786433114910185 0.003287801118381017 0.5370981503998292 0.3917029373001477 0.3900628074412905 0.021896424037211655 -0.6850105789336786 0.8301131558111972 0.3118790160748337 -0.4114175602845549 0.3318925094453919 -0.5626571093497696 0.4230648833336291 -0.4769618967866266 0.038208989848379636 0.5493001819774745 0.03960778941648265 -0.06638410281246833 0.314760800587416 0.6862390183532865 0.22631695970882446 0.16304171574402543 0.7256091457484176 -0.09252872723040424 -0.11308155151272563 -0.3537495757435261 0.6739937122035948 0.4573960755592905 -0.28950439308080544 0.3114963197738111 -0.6964387318293966 0.6133174047156005 0.07997110757087778 0.20896450087144813 0.1714971993518985 ]
[ -0.7632443540133492 -0.37265273289174816 -0.330470864575056 -0.1423836864552997 0.19034820662882562 -0.5581029688224725 -0.8038206230350353 -0.454271097210506 0.29369747551740766 -0.19222727196612033 -0.12741004431604938 -0.10507286322633423 -0.49980707014592973 -0.6144154486016958 0.6605214885165761 -0.793259570486943 0.13495979005326988 0.9864597204766128 -0.4282380097753568 -0.11998330267505121 -0.19011760911414224 0.0683574195990241 0.053456695240990115 -1.0852820296844294 0.4266741048964163 0.09327415126068034 -0.756487484654192 0.12372819904955779 0.49379841776620786 -1.3615188626434793 -0.20607608956257123 -0.5982055688553323 0.21370893233046812 0.16429446964786257 0.06419762489723406 0.284568096983433 -0.6962024628010468 -1.3172504703288401 0.8247006763769116 -0.45383909747883305 ]
[ -0.21815254370657233 0.17950321258969443 -0.34996357009951934 0.15026298906473845 0.1736523693924291 -0.043409717725739205 0.19455011644859382 -0.01895950204074851 0.30934172214430283 0.523815062212085 -0.09913406514763219 0.05471943817198543 -0.21182803640281872 0.2571316149543764 0.11978279244205171 -0.4312328374917499 -0.13480387073674263 -0.38189279695483164 0.3913722475357389 -0.4410620518781637 -0.010259905652354573 -0.12499261836204226 0.27264706490456697 0.03853421289626007 0.2752737479051162 0.052052726333099056 -0.21168150586973852 0.26127476579894265 -0.4016611021880919 0.31143924594862854 -0.0005460614528380832 0.19010916655471657 0.021624027217118633 -0.2548819927620874 -0.3714288639694905 -0.06283744750445325 0.013676297928222867 0.009846480481558438 0.1610281414971887 -0.4308064961579471 ]
[ 0.4986761457684392 0.7523915194791496 1.0126547301999644 0.08597336643273669 -1.0508920297031077 -0.2200988157175691 -0.7166852319855475 0.3774476303748357 -0.6624614524494519 -0.5612305074870777 -0.24968097292738906 -0.09518658602644393 0.15389584383414168 0.22368599439199416 -1.1001583680906857 1.5204381663564515 0.061514506409225275 0.48398193259142197 -0.6112778901475424 0.19232621602834926 0.6210419281257354 0.25261106425903584 0.1919957371960734 0.9800943506011551 0.5948980447195699 -0.9744792992809735 0.265958366186116 -0.5918703779451684 -0.3737293642196709 -0.7698815802801315 -0.4347520261302258 -0.023884970758064564 0.30860065265149267 0.18782576817368246 0.9384348458643298 -0.15971248821627013 -0.34085119070907305 0.4114313032762858 -0.4738748746498843 1.2906515247429466 ]
[ 0.01903102121411297 -0.6233347160196283 -0.47946037033263644 -0.4741535383592477 -0.11446459965439122 -0.05292452120706853 -0.33550778846563106 -0.2769596970172923 -0.9008739999893718 -0.2561088847921067 0.2176698184302566 0.22644933087588873 -0.1557754603227524 -0.4006920139557602 -0.10912893097847637 0.06283049868789478 -0.023134059030190047 -1.0370287187862506 0.186162856411549 -0.09660990431196442 -0.08190696139391028 -0.04997864344088743 0.3704810258079986 0.12967745496100727 0.2946952462454577 -0.6242929147398488 -0.43491911832896635 -1.1290890783217702 -0.40810931665436445 0.21072581750998043 -0.33581551816953054 0.39706614481832797 -0.2816577704396733 0.3927297318313051 -0.023513191275053972 -0.0571845134156214 -1.1540191669756448 -0.7281773490900562 -0.6182475859375675 -0.6208610819376826 ]
[ -0.36167812636136787 -0.04379428558141649 0.315263207963684 0.20862169310496265 -0.30148125071932486 -0.23312143076349487 -0.2774532524734708 -0.05780726314410099 0.6666949881154419 0.10184564330838936 -0.4473392718622562 0.18415006910091716 -0.090978399568736 0.0235625838959871 0.32943094771912323 -0.1551621988421282 0.04772211021931605 -0.22041799392950848 0.07389578854792371 0.0015595223537683734 -0.05251813757255426 0.8767569813515976 -0.35213102471951735 0.12082732320606794 0.6037479310650202 0.07180067736725715 -0.036887420552248674 -0.11588847608271875 -0.19171729867483261 -0.007205494682025512 -0.4407120213087138 -0.6128073355636519 -0.12004675178257011 0.11656258886297081 -0.40551538982426144 0.08251519566967226 0.20687931936593515 0.3271179367077256 0.2152918287390671 0.09716603009472694 ]
[ -0.005600080942985971 0.08629489905375287 0.046186255957053314 0.17561446768818495 -0.07429065384213318 0.05595741675808776 0.02542893938054632 0.49978106029976044 0.14798258515761015 0.42627044926350127 0.08445869174744436 -0.5652456941596081 0.5890593622764175 0.04253301594716086 -0.40846347207720823 0.4507872062012701 -0.3726327942754121 0.23946147429229164 -0.2666774478676279 -0.0354977898666822 0.5745307739720733 0.07064076566564843 -0.2728745089812256 0.33382340525090465 0.5002275316580154 0.20403704284780094 0.17831161090243675 0.38980020028464735 -0.044231133446636754 -0.28654346491014554 -0.5858383174598594 0.4418690270475521 0.3654714153807386 -0.05876788990739883 0.31196748608552316 -0.5629331087236148 0.3890862660962672 0.054474196919355976 0.27006889504675363 0.13487590129398871 ]
layer 3 Activation
tanh
layer 4 Dense
40 20
[ 0.3069240182611744 -0.1785791946214198 0.2691264571003597 -0.08900590606054785 0.2008051726008457 0.10789298275462922 -0.3067492966165778 0.2719275528126892 -0.03921119244989922 -0.131082507795245 -0.29228907184398545 0.4063784916148847 0.3421538606650033 0.49055690732388896 -0.7261029118753807 0.17971110817075275 -0.5416622021133985 0.4094510726360055 0.3287837360403823 -0.273427454745307 ]
[ -0.06841323404665996 0.5492857908559626 0.18445699888875688 -0.1316071490725654 0.32838707344286727 0.2845118968273034 -0.01662518168689319 -0.23604937129617942 -0.023226406846815338 0.43477348919521674 0.10467478391003407 -0.026721026308880694 0.3952581632229708 0.344572623230282 -0.07494079345575994 -0.23318375762489307 0.04296082047499913 -0.005724102806672178 -0.09656640256290754 -0.18503278210517055 ]
[ 0.5319390214391657 0.13434641957106241 0.42795945269330815 -0.780612335700584 -0.005611974911376303 -0.2680317939167151 -0.3380474122725391 -0.5441827107802106 0.49816838736734803 0.45632098546118116 -0.24069445704261447 0.5450905092733589 0.7148834494866892 0.4320446774286187 -0.27919033959889733 -0.5893813658400501 0.38823268282428275 -0.18292847840082505 0.0858930536414219 -0.7213005755602792 ]
[ -0.10624995107389329 -0.13119860224006705 -0.35803528623951986 0.15774194689200996 -0.07005434613390245 0.0030936306529660996 0.16074652802393602 -0.035268769835513046 0.03109403379857424 0.10823750572391617 -0.07212493815428542 0.27101120631789616 -0.05584552848575588 -0.13061753620077995 -0.15219045240182627 -0.22029515368735655 0.27075091169313054 -0.15355120131807862 -0.02058751217365767 -0.1938867825651842 ]
[ -0.035868121046487664 0.0013267374683783775 0.3139506577831 -0.05094064500631788 -0.25207669269147615 -0.2033171945301308 0.05491809200551033 0.09810577638506275 0.01773078422325281 -0.11724734785435706 -0.0010171461551655198 -0.25724951014006214 -0.14976888171746633 -0.12429276688932858 0.34238559530851925 0.13189045968744043 -0.2534323588935065 0.27679540706119704 0.2766490165153911 0.35082970454946105 ]
[ -0.07296264522521016 0.17266228966747027 -0.01646464588564585 -0.17630170824984967 0.0013966961802733741 -0.08897556809333751 -0.11231758161623635 -0.2691173146271134 -0.34182310674687116 0.2923059092979983 -0.5411315581502991 -0.14322959965365373 0.37859006655631283 0.05857849647748566 -0.22555610951778926 -0.3070578566657799 -0.40046194069925206 0.38557176151403955 0.03492898303254648 0.14623554875760966 ]
[ 0.39182279424132144 0.38796445860927825 0.03705432358122929 0.5415515858467931 -0.31719131218543906 0.2823298798069604 0.3058536388220379 -0.5243510121482797 -0.34970397527870345 0.17444841982393208 0.31945424932014843 0.02819844471859787 -0.09949755531271084 0.16800796408215182 0.17205884419432846 0.1388686262416315 -0.13392946200445596 0.01594283492356805 -0.19006404403124863 -0.008424687721199227 ]
[ 0.19260850331392176 -0.9324664622623563 -0.08304762110822084 0.1598266060872732 -0.1634358670808181 -0.17543296516038193 0.4345957019562617 0.19639892130313827 0.23234054458504344 0.39810011004710893 -0.6413963284115225 0.21048309349778177 0.34117772487403764 0.40918048655124484 -0.6700850768475104 0.15935150740372686 -0.2113260411971276 0.05134579113714642 0.3014344554647643 0.02295172516481642 ]
[ -0.28555707525862994 0.009670532287474344 -0.24457726662555862 0.19889889735709237 -0.7150550194480966 -0.6300441021372531 0.21334282005609195 -0.128967012805987 -0.1484682879532296 0.4995130631590238 0.23884956922650225 -0.3461101919856426 0.08433891056841086 0.2827359627149659 0.2958312675137411 -0.11730882623686992 0.02473775384191122 -0.2699012665342234 0.07637602777047785 0.20816555498903047 ]
[ 0.2835751322850531 -0.5682735603604635 -0.11178122033380378 -0.04690994977731363 -0.11433017448114202 -0.37578019913199096 0.1934098966213564 0.0615901361481266 -0.3330535853307031 0.5740194667751409 -0.3056745521735325 -0.09485647296897244 0.32351869428918023 -0.15207988987953483 -0.3910120134806913 0.14971518120025026 0.10925481023810553 0.20069751006539271 0.1588937073719423 0.21338633384439018 ]
[ -0.08747845566829442 -0.11242572773385914 -0.2192546512126075 0.22315767772493028 -0.2155368548321535 -0.1911648303145022 0.4172403784660889 -0.029673030450488972 0.0810890257916343 -0.13425745268900754 0.10664382614073918 -0.1198663018400118 -0.06976919508880493 -0.2805051110557326 -0.14280453744754523 0.00048518707869348395 0.050110574683068294 0.2219333923155265 0.13877293414516023 0.1813417477116522 ]
[ -0.04671028314579734 0.06847670718010958 0.2576679329313375 -0.016666656755842554 0.08213470397690507 -0.25148053719916136 0.13559627367993768 0.02631711236710387 -0.06683497094484618 -0.39193237647176254 0.6505976559926332 -0.05585517326108908 0.32034467639935615 -0.10862349175860071 0.579953022767949 -0.24696426229311286 -0.2727691336072616 0.10076347550956347 0.3016597544466336 -0.016632281298058965 ]
[ 0.3737440162445409 -0.8830709291242224 -0.28580277715596997 0.10634878121885288 0.11773826916365576 -0.32975908233932993 0.4534235451130996 -0.16289551713214034 -0.03737464056063044 0.10631318163520889 -0.6474985297264803 -0.09462544244326529 0.1825250984074979 0.3631639681655246 -0.8387579232083041 0.0955395600637492 -0.028905111105710035 -0.11350729425617459 0.2527522820784883 0.18762002697711536 ]
[ 0.6671328120197153 -0.29533786161843484 -0.3181296135622873 -0.5519365664858457 0.14937214972857393 -0.6811191119831149 0.15226534608153686 0.19833058365497436 -0.6006880863015746 -0.027722885867707485 -0.49080498883503276 -0.16783571598446206 0.26822579538914054 0.3237351061397606 -0.2868930764236176 -0.3888714498798017 -0.10241856336024834 0.5734422983910606 0.2613283028855584 -0.2411386505280129 ]
[ -0.37822960043674103 1.0667165911272019 0.5944721082667482 0.6583961264117664 -0.1298788970235393 0.5597876716357131 -0.27457740703227823 -0.38392019139873534 -0.12090165952945318 -0.08290465480746649 0.32132737727302696 -0.27558461840221543 -0.6469390128043548 -1.1149597791500916 0.8075660119663013 0.021471409926527834 0.2552472720760639 -0.012591840139686384 0.1670444535301297 0.1251075580083315 ]
[ 0.04548514653563789 -0.7439456902807993 0.2109470779319455 -0.3541868167394331 0.27859256583095593 0.10746058304159962 0.04179787274212401 0.33889254779242467 0.07029413472317479 -0.04770763022126923 -0.15810049658785247 0.828579970229657 0.08224708181146383 0.5592004076234786 -0.3332739752085308 -0.4025002959076142 0.27421993734081396 -0.13759290380129138 -0.5747390856673283 -0.6621109584176752 ]
[ -0.021516360886186754 0.3490126540538541 0.11588079754004534 -0.3803531358658744 0.2235767220017105 -0.353826339547896 -0.5797262262317259 0.38453253206459365 -0.02244482611260119 -0.42636199833306043 0.6756632083916583 -0.23937468344797938 -0.059304381898602064 -0.5433945065829593 0.47747054855355364 -0.18812424353687263 -0.4173572289460725 -0.019021766997481693 -0.12071461087084846 -0.1783446188393233 ]
[ -0.5874411501606339 -0.37108410056252494 -0.09912830364628342 0.598230084879812 -0.2690967140805694 0.326317134677761 0.25878579249780886 -0.6070235473229647 0.07430820858641857 0.14100699285746557 0.14728170636230017 0.39099854544616336 -0.07416587550953828 -0.09479648568656561 0.06516189010110622 -0.6561210898545908 0.7853788276423019 -0.8199656239868474 -0.5999657184060179 0.23458360028775954 ]
[ 0.012108098059644598 0.3348727498480877 0.20722434225915856 -0.19687793479010848 -0.10346559762271654 0.08667257932451677 0.04524333611658131 -0.25987885439846276 -0.09138658100223195 -0.05029741540213948 0.2766713282092134 -0.5486165471450225 0.18019988360454406 -0.13249901544486128 0.41273584848123285 -0.4091441419809281 -0.4390581393328104 0.397070885110934 0.16547926866009324 -0.003928046545695257 ]
[ 0.05996918180082383 -0.0374428654360912 -0.26212980909783085 0.18477086829208667 0.39590087177579636 0.23854062181273458 -0.19496702280567718 -0.13030481461118917 -0.2398090545798715 0.28419029816813896 0.31145634821762974 -0.20161750086357108 0.17516687445903667 0.15259604297117021 -0.017211084815659035 -0.3871815784936966 0.2097223449573588 0.1749045905244256 0.11154900612250226 0.10568117297684948 ]
[ -0.2275287213673333 -0.8385339987235058 0.04548355603784212 -0.09866038252704928 0.02260041213730617 -0.18507104905673635 0.29929667990680564 -0.08475524540241786 0.32007226627991153 0.07907972335283212 -0.6389030506642721 0.36566484566835084 0.1610073094284703 0.12254072473305713 -0.6690829978660939 0.2376963067341109 0.2944935947711357 -0.13348209757053894 -0.23858369641998034 -0.0540294683090034 ]
[ 0.07770159322663069 -0.09763083301963502 0.43868726263162794 -0.8005661860439218 -0.33695436059892725 -0.7056183421380816 -0.3422854019902533 0.010446662835384764 0.3934964473068446 -0.06374268941898344 -0.44020580483432076 0.13937048884962314 0.4492234918700905 0.4213805414240944 -0.6316689753670818 -0.04100384873215495 0.04451869952868997 -0.38597179676957316 0.5372685686175253 -0.45058759329326203 ]
[ 0.04589940923936616 0.1599839789992978 0.07717198325088616 0.17996821754239445 -0.0531535517774921 -0.0467769590911814 0.23436071945949655 -0.029260446374092763 0.08292929666539516 -0.2645631713757489 0.32009959319781844 0.15592079484547455 -0.3078651259929508 0.0928223864086688 0.3367916923569057 0.09797720568601939 0.018309550976421965 0.18334488723195355 -0.10382204680810411 -0.05226160561394428 ]
[ 0.10548930575059087 -0.22490998833448686 -0.02522012752142759 -0.28933206373900033 0.13919945561850602 -0.35648815369289066 0.15449423361247122 0.5062088919649653 -0.08708474957852497 -0.17389781312661837 0.029611819329413362 0.21696208953353405 0.08889982596402547 -0.044437714329886066 -0.5629240103717077 -0.38816344000155445 0.25346636357448243 -0.2226581672254275 0.01866218784571928 -0.27121042604782375 ]
[ 0.20401556681092634 -0.05674316897437412 -0.04036773826741845 0.040296468171636714 -0.2445194462853789 0.0718467828108795 0.3374400194529395 0.034908663849743324 0.03931142085318764 0.27323841869887433 -0.6024416931238252 0.23452865894078523 -0.09643409752783066 0.14820688480805116 0.08865611544667264 -0.1414616370890714 0.4594784567325124 -0.19500419480707737 0.03146524902818325 0.21951734852487942 ]
[ -0.20256937843067074 0.3692948784112472 -0.41958546134762215 0.11583728011614368 -0.47969734494055266 -0.4234360105298682 0.2860301397338875 -0.21821227286089634 -0.3802654802108129 0.38787939993635656 0.4596211127645416 -0.2662410675803234 -0.09624879855207095 0.02297862672772627 0.2824176005813827 0.17665689782522756 -0.19892442620941894 0.3094192045522473 0.14122377505952305 0.12088620558886479 ]
[ 0.8124461787671713 -0.5270248168521798 0.32462341254531557 -0.5109581203635051 -0.16566936558970397 0.021425645128868808 0.007399398168406414 -0.3874598442553505 -0.16650403784415768 0.4505848351354899 -0.09411712267243384 -0.17847265506720153 0.6069543431892516 0.6917853616529687 -0.4778852698364539 -0.486209254323652 -0.3982098694262776 0.3736315304128876 0.3746422093288981 -0.07361490726107839 ]
[ 0.12445762983980871 -0.08820656055074233 -0.33599848369010027 0.4349752520886687 -0.2942492025441915 -0.10175136545082034 0.6930765194289414 -0.6257313835997282 -0.622036128973551 1.053242046763928 -0.26289122458115666 0.09190677610277181 0.8614932748186848 -0.01427896393889113 0.10399533407285795 -0.3700585439146118 0.05720999011736548 0.09921767774004875 -0.29527215318242256 0.4135731665211324 ]
[ 0.14264728841546354 -0.1756475478092044 0.155469077165325 0.3930698352809997 -0.04081615072238055 -0.14168549696589255 -0.16604467009180038 -0.20070469854459894 0.2724677633094256 0.18914651766745694 -0.009190187299511076 -0.4024990742996792 -0.07660670439125437 -0.09487322766328989 -0.22072478088016706 0.10514187351339459 0.13602088625408246 0.06183502506145211 0.2601932741663121 0.28516694942200166 ]
[ 0.7470994789830167 -0.32543361279006355 -0.1521967566684224 -0.6155016422070732 -0.03467079809016285 -0.4914863034670115 -0.400481968521147 0.4592919924858156 -0.18233228160084472 0.12267130627042253 -0.09039549639480429 -0.4634670116648763 0.6538589914790958 0.15180951294552278 0.13136874744537372 -0.10758564210129565 -0.3534561566443233 0.5948633151190897 0.4832801489276012 0.45981147182724935 ]
[ 0.10938750065957871 0.6339735594818 0.6991528774265193 0.10398848576850966 0.4431759708821086 0.1557065761461318 -0.3448202922242337 0.010846131212774482 0.24006128285445338 -0.23723159763115081 0.2267020605496387 -0.3071460494084859 -0.15781711360629497 -0.40973529738680725 0.49780450790579855 -0.3889107858168428 -0.5430125299761169 0.49206473235942544 0.36823084231788 -0.0587800622264715 ]
[ -0.07532454819458574 -0.14343799519341252 -0.6502976142181497 0.5715073721013181 0.2436365032335844 0.4542963462841896 0.2544679795327813 -0.06180374155696624 -0.5096675563282436 0.28788142783786413 -0.14973854610972048 -0.49269255119059613 0.01433008260087294 0.044923369898129305 -0.10425170268258327 0.4820431803013885 0.1937335179675689 0.014895216801291794 -0.47782437818887175 -0.16267469661092787 ]
[ 0.1554931826431605 -0.27784047342885687 -0.557116457927 0.3856655972727567 -0.2727234037141964 0.10571861882483187 0.4703756180447221 -0.05709484323417334 -0.3684964834239351 0.21812921741583058 -0.5464015139090422 0.22056806872469506 0.13780893597326851 0.36890694156498594 -0.35976831329667935 -0.18695868602107768 0.5568098098794271 -0.5427575581880157 -0.4053093538697138 0.241713156811239 ]
[ 0.03142915409867112 -0.474315109879368 0.1042047183764456 0.3724715276871854 0.025713648919106574 0.03247691175355548 0.036650680227705824 -0.14405862615863652 0.26062186985152747 -0.16190451802063263 0.2751167171619698 -0.3030873624986357 -0.07299193100324859 0.017835284158977886 -0.20003152093611665 -0.11094160129689747 0.04207492323798001 0.3312200761970894 0.00791349048474965 0.12305495026311536 ]
[ -0.08906575926136084 -0.8224294439661193 0.06078291140679895 -0.3338592073056151 0.008033285188500989 -0.4811575374460804 -0.2666047495616716 0.49454156122122533 0.1076344390571499 -0.4431460850228368 -0.5190126169934766 0.31350082026418585 0.11730804276402829 0.7489158285577846 -0.9385831135683129 -0.10607028187468545 0.20190673263443568 -0.2637541809187237 -0.2819019379803578 -0.3711265426959586 ]
[ 0.23512475839392843 0.08121810877589021 0.40790527611716065 0.09359548852113792 0.13139451166988708 -0.11792963601525215 -0.17852688348023435 0.14149567242006217 0.15406372018639775 -0.10467750962431314 0.7832000962278128 -0.3123977429030238 -0.2357033431611621 -0.5037517441935715 0.3960623144615648 -0.34912666729932834 0.03368333516442975 -0.03995960590745285 0.19504971043199665 0.41912274566939284 ]
[ 1.107351680640787 -0.9177613412563007 -0.04772849607129296 -0.5088336878681938 -0.3055246804517606 -0.4259940916831843 -0.046038980265385845 -0.31563052395443253 -0.9647350867119228 0.46920114038505345 -0.48787629609743716 0.2564624728683039 0.4810464583580215 0.6424882033666786 -0.33958295651497344 -0.4143274009116857 -0.23201282693797423 0.6137101099502063 0.2763112269362149 0.05714872300463273 ]
[ 0.9913562469738003 -0.366207746589486 0.3922452953834341 -0.3432572417356046 -0.5683332821040953 -0.40579799439225334 -0.3169623561025974 -0.22745177286209922 -0.4199971374592485 0.11834638883127112 -0.4654988667516685 0.48672892927628064 0.29239667282501286 0.32352264635017386 -0.6174519942947031 -0.4912346395390018 -0.16166421001532083 0.5378095769199503 0.546562392085843 -0.37485279342496725 ]
[ -0.22536570617748988 0.13039316819324964 0.044818510217229206 0.5472685704315221 -0.6438032673647377 -0.5141072658606293 0.41659949032005616 -0.5603152948983156 -0.350206782611422 0.5697950051582508 0.17476571420466744 -0.33333047719596715 0.05736913947980023 -0.11813967973575233 0.04344734853684892 -0.5741315244905028 0.07619401032098506 0.0350717372902985 -0.04874568203629718 0.6466035658041847 ]
[ 0.24515691309102255 -0.1310957209404281 -0.2190147563960394 -0.48441305576962285 0.5366191586028702 0.006862297084031488 -0.2619881495172298 -0.20027414012327194 0.275035738901357 0.07155736399489364 -0.29828476813443994 0.48351004720334706 0.2882185369153931 0.18565193018311854 0.039348256539515035 -0.42661472050264687 0.23925395404192823 -0.7695959163913889 -0.09830653176593653 -0.6079436638554655 ]
[ -0.012745798763333026 -0.2786153409976838 -0.31748847785254963 0.04168274822412263 -0.16460933452974416 0.055001570548324094 0.27412261651579733 -0.14165548933338115 -0.15340702024100145 0.3496317861741508 -0.4191830212911907 0.1485675136304701 0.0017409359578013403 0.24671400736998297 -0.2771124240350243 0.10419138544487525 0.30597981550600833 -0.2628909170550896 -0.13115688965385314 0.06833088771802287 ]
layer 5 Activation
tanh
layer 6 Dense
20 1
[ -0.41844926671378707 ]
[ 0.650705482930615 ]
[ -0.8357227627266421 ]
[ -0.07715517645486958 ]
[ -0.6581230383645345 ]
[ 0.6929174851885231 ]
[ 1.1176347514898888 ]
[ -0.8352251453428993 ]
[ -0.5116767955177779 ]
[ 0.602317353832901 ]
[ 1.0593222182704551 ]
[ -0.6756856374249585 ]
[ -0.6543896008988705 ]
[ -0.9052074706279402 ]
[ 0.9066714379214208 ]
[ 0.8497917228251878 ]
[ 0.7824470474773544 ]
[ -0.6053322196758493 ]
[ -0.9060159275244224 ]
[ 0.7948339161993735 ]
[ 0.689472296451444 ]
