layers 7
layer 0 Dense
20 16
[ 0.8469389931841335 0.3253852257018732 0.4045961903118266 0.3505311089332337 0.08073475711155242 -0.6422173006774177 -0.6352994814544455 0.33544624718076366 -0.3432362668728296 -0.03492457428793177 0.15742197654483603 0.2404870362116213 0.6450840774451517 -0.2717037925642225 0.1978225699720147 0.041289338289406334 ]
[ -0.233094436046508 0.4894019057933704 0.12410427755311666 0.4663426036823786 0.22488890166910153 -0.14981186302766888 -0.3086582661424115 0.04718114471584296 0.19469805930771494 0.2758053027178683 -0.3369729944031843 0.47260370367154414 0.2502942623410678 -0.08042441715063625 -0.2086125332065487 -0.36283705336248756 ]
[ -0.03239226610621683 0.2650850843973143 -0.2679761427670696 0.8310141956681585 -0.049940345637331754 0.2641595907417187 -0.49773409320536144 0.3062107241307539 -0.48926496833998123 0.35334924886624525 0.34819163624489613 0.7088825327628432 -0.09341424856621859 -0.3399141537752298 -0.009289899731619157 -0.5748076774934099 ]
[ 0.781200800060937 0.19383381271028177 0.22035559389518442 -0.19109749747076935 0.4271643856681009 -0.7623677103958509 -0.25537329847571083 0.20777442753390646 -0.2923072166936765 -0.15624779764711555 0.30544348406790356 -0.3273694069190898 0.42570172818018304 0.10473408258859322 0.28538533736351906 -0.4438727391035207 ]
[ -0.10046760714702954 -0.21464388112874971 -0.1540488540400581 -0.37047244782922556 -0.19662011888118255 -0.4951104982373486 -0.4397193190194788 0.6536125851803234 0.37420579275144283 0.02487812325808758 1.3399223750849256 0.371534600007684 -0.0005500978130872627 0.8309703976619836 0.05642511338118008 0.3412121682117456 ]
[ -0.5192453568371145 -0.3936200017058692 -0.22017609245758668 -0.8686682473033752 0.09031272514740822 0.3519315584987498 0.27027643189530787 0.08828011344208027 -0.010922923953330761 0.0020481983408334563 -0.10089297363561148 -0.6627107127962212 -0.2467465794004604 0.3640931678201887 0.7258311447071965 0.4679237461702415 ]
[ -0.10198554709979084 0.23250532651890038 0.5593421844213817 -0.8095006678445557 -0.05412202199548439 0.1784874436760695 0.06099172722654142 -0.563570551677271 0.25946497970971405 -0.766350937439031 -0.34793992334746693 -0.10498220675824324 0.03473889254066451 0.90213635036905 0.3016992913077201 -0.17178009504593986 ]
[ -0.35481988884323284 -0.1042290122664667 -0.01812596577981696 -0.2569625584909291 -0.08765935305051065 0.7162380205344607 0.4389042153260741 -0.434088861033261 0.09708205313573204 0.7170115183824392 -0.6752497744002085 -0.3499060238957762 -0.5804424874208908 0.4627457659073134 -0.35487725973223216 -0.40019142084413095 ]
[ 0.1943192080673449 0.9732696721484783 -0.101955461239213 -0.08609952649689877 0.006458904844366191 -0.34306751679174086 -0.3429627085531943 0.07500995332459601 -0.052640684355785755 -0.13430713513378195 -0.16912223926844452 -0.17513531552943726 -0.1310232777076344 -0.009986074172373797 -0.24251674921175417 -0.514764542509729 ]
[ 0.13670342873050428 -0.01940858502476899 -0.9218790065609361 -0.04317438030613653 -0.38685799325788794 0.15653344014709544 0.09694537871914707 -0.06070683331900757 -0.6976220927238826 0.12732746314931426 -0.26719690107929533 -0.28886668085386025 0.15101152658115238 0.35958667292550267 -0.17831382009235805 0.4728550994025027 ]
[ 0.13168603354471187 -0.7741355844586928 0.6621104922296345 0.5291124140602376 -0.7196917700417621 0.016077042599387678 -0.04239426122139688 -0.2535362474081098 -0.3348280598861637 -0.3698212844352109 0.34643345649487184 0.745589583746692 0.05993244534655536 -0.20940056606507004 0.27577499334073224 -0.13726479472592348 ]
[ -2.6913624196856247 -0.28062532671196727 -0.9800228156249777 -0.5613454454383828 -0.8143426166183987 1.7911178933939393 1.1190998421945186 -1.0417656771503572 0.8600719717814668 -0.8634861711985431 0.44958446503639404 0.7749990745480722 -1.132874133246205 -0.2672242241792314 -0.2285614922706808 -0.4261789204652564 ]
[ 0.046300307329276515 1.0836426188984867 0.31015460117716404 -0.043390337957012554 0.5789154242613291 -0.19064400242074972 -0.3326790489730822 0.04164582438765664 -0.09152088060154442 0.4721414365315081 0.07982297852695143 -0.5540403599807638 -0.55047509319035 0.3467930297546052 -0.3680350974901346 0.13587165141376326 ]
[ 0.06653234861406808 0.2649831896520712 -0.5628491921687122 -0.34352524322787414 -0.3829931482102351 0.1605553965060331 -0.29185851764521586 -0.35883914162292263 -0.7687497818173796 -0.4169000972525072 -0.3731667606388214 -0.17651106377352255 0.17411918735625503 0.4135643817457487 -0.0939894965652852 -0.09563894709737401 ]
[ 0.12369661628395773 -0.367150673302086 0.19700513956958518 1.0094424876614014 -0.6920244054805145 -0.008566331852335778 0.2076715108179315 -0.23243356932653256 -0.3031605328864524 -0.35786094598537227 0.516740938322878 0.6798586782977192 -0.13658436264018667 -0.7566990777472812 0.10383824114672664 -0.456343187847348 ]
[ -1.9557430444316533 0.4686682616869861 -1.0593214772733945 -0.470506056354165 -1.091932122767525 1.7496317179504393 1.8142048010420697 -1.269288745822476 1.06950071516721 0.16894924447632406 0.8238326136899748 0.6220434359383582 0.339591179084312 -0.5068796439323509 0.022808668693979274 0.0016038856106860074 ]
[ -0.23924602421138494 0.12067088932899354 0.46533592308763466 0.45193990321135213 0.5216738538372502 0.06957089213487401 -0.14575835394632997 0.8506251545412763 -0.4486733179106558 0.6833961150681163 1.135005872148938 -0.3552693378887894 -0.40808204784079366 0.44308781408606895 -0.6915603122446021 -0.2078798029571379 ]
[ 0.08303237945032778 0.2242924145015658 0.6461234595506902 0.6531586336201216 1.480860739655596 0.07296742852308247 0.1199727397514923 -0.13630087634720373 2.134323952128779 -0.32806275871848617 -0.20141070140383555 1.2754705060671245 0.11023187503460288 -0.460120620743544 -0.01808133496740325 -0.7633037748875974 ]
[ 0.1289611128500767 0.3183588145298761 -1.2275905448736089 -1.340178861337873 1.264592542351671 -0.027935845645232295 -0.20131441705756806 0.1268546169802527 0.6715764159111415 0.18322185939240337 -0.15651038427661285 -1.7527470501190734 0.08841428141737745 0.27003510886784193 0.07039978117286218 -0.033451562931585466 ]
[ 1.2315130876473916 1.0704230879703083 1.256059795545849 1.6588941901159708 1.7483208342009757 -1.634448225437349 -1.0213440413334725 1.0615937778244566 -1.6308378586413506 1.2693980455398548 -0.7528895300060446 -1.2999349332221155 -0.09915564012677414 0.6759067500578427 -0.9922173531306951 -0.44810888224254913 ]
[ 0.25735927771785355 0.13382300019507057 -0.19755333334095762 0.010686623834054217 -0.034642330766202586 -0.20163074457622943 -0.06041541698996737 0.08330026067581614 0.10946652590799795 -0.4045264115912921 -0.11436772192969112 -0.019932375582714806 0.43487000029265993 -0.27664996808784753 0.5498839482971776 0.03206882832445102 ]
layer 1 Activation
tanh
layer 2 Dense
16 32
[ -0.43560832299803237 0.43599321213152176 -0.47300123326398846 0.12928141952873393 0.3343513041679165 -0.19814887305040588 -0.11599919603199246 -0.0005213320514504659 -0.12708866805357116 -0.007300300716487499 -1.3112196891989152 -0.3053012023825454 -0.1575570697153473 -0.07467141370469771 -0.10805149828199347 -0.06257527233556129 -0.6675388185305895 -0.17474794909155958 0.4509957764375648 0.9189314058489568 -0.04073353018839918 0.6534289993048157 0.6729770919787853 0.06819543071316696 0.16685707428829372 0.6821831173406083 0.7162566422916113 -0.27146220619248257 -1.1979958147886223 -0.2713485349991891 0.22985606091028113 -0.6179389434308263 ]
[ 0.04806160999071993 0.4891225549176833 -0.14015558169839964 -0.39410933390709 0.07075045776497671 -0.029209673469669965 0.05203054161295699 -0.3141805214616419 0.1595192903816602 -0.04914679661299431 -0.17436827104291905 -0.6794124606672507 -0.1375708354800028 0.09250006985673875 -0.2111198609365188 -0.507068235249696 0.009341510907090449 -0.23086162089016302 -0.10897426137866024 -0.05617852629775643 -0.0813621975008905 -0.05885869601106976 -0.7304529501989477 0.00686337954563228 -0.30690668925949316 -0.009241958229924956 -0.15186713527753537 -0.38562334333708775 0.013546046352667802 0.711821958587912 -0.6153994056506044 -0.1604169945174894 ]
[ -0.29467110377100814 0.4152788984054763 -0.45003040523292465 0.2009018714541039 -0.08060779935038541 -0.366317478471208 0.48718334377992434 -0.34461086161611554 0.5233005195793357 -0.8896213645335824 -0.2358190384042293 0.9996242789726562 0.6464206213489205 -0.07015285322835806 -0.08487965287081972 0.05792165618316366 -0.5695663074008231 -0.33776959589488764 -0.5543605645246211 0.26643223460816173 0.3364623222333404 0.6251366091202519 0.2077568359919453 -0.6162453021359809 -0.44123859781573593 0.007199793207738166 -0.4456047627184889 -0.5078461563220436 -0.35312981095809304 -0.7871531595193526 0.09935020890824824 -0.20335444072055975 ]
[ 0.05251702037532018 0.40620643424368297 -0.14083304433385446 0.293043347144067 -0.18277004630943175 0.10328844343538938 0.1396222185969108 -0.7359645797948642 0.5930624365829339 -1.1794998764663618 -0.13678796480751193 0.8784405032561491 0.715367007382417 0.1903790451753683 0.3732554928974162 -0.01838243073730373 -0.5510872535595769 -0.37983255187464043 -0.677864861419513 0.3363548173431349 1.111904488223734 0.44464965757558444 0.5749521332217347 -0.7986198303511864 -0.9454156639158949 -0.37786500064012274 -0.3929834734242633 -0.26646962084800063 -0.6640200728950415 -1.11940932718084 0.36334461202833485 -0.356724332969532 ]
[ 0.07611908800080862 -0.0014917208627165555 -0.33573105272820786 1.2612012088052804 -0.062375682547872895 -0.3739359201325017 -0.8109578310211825 -0.7027020157491012 0.5768230292500305 -0.5925361565905453 -0.5283572472683286 0.6851312374035814 0.7109165776582476 -0.49924180420315084 -0.9596189218286673 -0.5204499250094516 -0.8693396062090246 -0.3933300529079709 -0.6803372068574767 0.3956379903862141 0.42791500242589764 0.8763615185663904 0.9802005278458632 -0.2441293215613555 -1.0220236999983836 -0.22822726692585435 -0.02780952365384421 -0.17023036217219192 -0.46616713891358424 -0.37149599502682285 -0.08551932520920304 -0.39310154013553905 ]
[ 0.4014048005817931 -0.21763776837267232 0.7019684836438854 -0.19750179448915936 0.05030156618583886 0.5842941065512952 -0.039020315281971446 -0.2078036910001769 0.3397807034215798 0.14812226579498203 1.0141000172556636 0.08505702878998421 0.19034065214944107 0.09983270437341273 0.24316411496429516 0.2710427032778833 0.880928155753332 0.3866099207858927 0.0968783207101883 -0.9313034168402424 0.17785924107289447 -1.007360884180085 -0.26103130342701075 0.06776757368071352 -0.03631442361620294 -0.49354340196842533 -0.5848169573748725 0.3601317403101304 0.9762192955020943 -0.14446967615066703 -0.4698356058620151 0.35895932286828186 ]
[ 0.3367459467321514 -0.33064554398645224 0.09536670979636493 -0.45335237710427745 0.15480000523331994 0.2653349423366825 0.19141006113836576 -0.028388961688426837 0.01180342363208676 0.23963815721865886 0.3625692788396159 0.03394317740446593 0.5040942317983197 -0.3850386686777048 0.6475786704602459 0.19111132776529607 0.3548937893288045 0.3963864672643877 0.24674185507030036 -0.3190209083930669 -0.1913017245932446 -0.1223316872996454 -0.04074303350909037 0.37651750039864834 0.2317203393319006 -0.6559277755776252 -0.3388662482967777 0.42293149647395 0.3361804090166111 -0.45278093982404455 0.07918141634425271 0.5715860044484427 ]
[ -0.015398762219314344 0.32115213319750774 0.07696422985553981 0.34428818391372573 0.10822803725494827 -0.2546365074091501 -0.07881751178191541 -0.33874945661164363 0.22932686420987605 -0.7140252925477181 -0.06423238494544817 0.3877707153503437 -0.4836340484352661 -0.12188482931165437 -0.3323684265902753 -0.8490102571154972 0.03510568862101183 -0.9183222054743032 0.1291125336886279 0.028487735247486927 0.2114458586366778 0.4226625337592927 0.48514222164789783 -0.42941349099283227 -0.2691022671565035 0.3631985758599219 0.15097883844814436 -0.8620120892559426 0.23004541018452518 0.06556442592762096 0.381659859668154 -0.12970486235721748 ]
[ -0.032265781260626146 0.21968846150751065 0.2728828128782581 -0.28025062044134774 0.06220668069625178 0.9676657850821532 0.9144692332885688 0.3841782585562983 -0.7300590688195285 0.30827912909056676 0.23952254756370162 -0.42973359903974206 -0.6291341547365307 0.03404308950575579 0.6717319188317005 0.17841055519928006 0.6630135552450598 -0.12682796804751165 0.6465551769304889 -0.1767224637418471 -0.6902744057739832 -0.6069948126563047 -0.193256720895654 0.5733721422180408 0.3384371405665149 0.17780709588348528 -0.04283042938455275 -0.07119673482450031 0.3135328558563597 0.8691774423228892 -0.9375903157860607 0.4390675345618488 ]
[ 0.18316496115199818 -0.08170722316742446 0.31045198424653164 0.04391496151299042 -0.33011339128743644 -0.423037990585146 0.02639561659743327 -0.16491821481357058 0.5917721911431464 -0.040296565366616674 0.39999397394583475 -0.018772518408834288 -0.08204493655699084 -0.15338795983692535 -0.008381031439741156 -0.4126647579617047 0.32570230290551383 -0.3499800637156351 -0.3887782871166494 0.060733748106089704 0.6905496798626859 -0.33038786902381845 0.06798780306728902 -0.5426294505245672 -0.45549492158683563 -0.7257261655020153 -0.25457616628516866 -0.5320791069800739 0.09796956837515376 -0.16824106512764261 0.6376631578272619 0.16179516007258712 ]
[ -0.07112223759099758 0.015498978726014738 -0.08522877298487412 0.27440760408608184 0.20876382604311627 0.7398630444855732 0.13729445426326733 0.633716235476216 -0.41577504571344964 -0.20289454192907216 0.06856711032632759 0.1608070420180194 -0.8846520712966262 0.2834018176208769 0.15390242785952307 0.08076948992743838 0.4024015146488649 -0.11249405825320233 0.5009244794261991 -0.6465900951493688 -0.1352432508499669 -0.33977267216287216 0.17559100558695484 -0.20564600431352356 0.21193341333208499 0.13158237660504868 0.20988973166584526 -0.20819010560330417 0.42975462773073625 0.06218159862656473 -0.4303963407895655 0.5648958268434513 ]
[ 0.012660891461311283 0.08571859567780181 0.02351581317246813 -0.3491277057283366 -0.3211643467457523 0.3163475711325937 0.5687395950655884 0.44705351743973437 -0.16735264809933173 -0.4772314096823949 0.3448418819779888 0.20009207875713528 -0.08162074144888266 -0.1953107036965651 0.5500486856040939 -0.1072313115874947 0.3898496387272113 0.39520992219957013 0.37777866746749483 -0.2600855887967594 -0.30201634607355077 -0.6055749796807864 0.06823353313409629 0.13369751271529887 0.03161051410993872 0.2235624366055935 -0.007250387748591979 0.1938386108570293 -0.10649798298203605 -0.3338627829649812 -0.3586719841518147 0.3681877392114392 ]
[ -0.3893504891235905 0.39204796191868474 -0.32722600087725895 0.14759329868967122 0.10767737362445719 -0.02023187266103298 0.13241959068941078 0.5010568180546653 0.05141385922289604 0.0041622177940799305 -0.7260588532483084 -0.22189924931149202 -0.22873500872805036 0.17621721808848598 -0.05532103271279643 0.020637611380503514 -0.6753286941841435 -0.31244819233736304 0.1787543059312367 0.43453807930570976 0.30458787569440404 0.6749671181994038 -0.10060424672755432 -0.07448121453101884 0.35904472598236536 0.7026959975366235 0.35695603753601046 -0.013827633728583722 -0.03722500432446336 -0.18007034012727516 0.17040101246076872 -0.6009113199077638 ]
[ 0.1795247287693996 0.7094740931031434 0.04114660805409549 0.14379352781579735 -0.2514416894560916 -0.44170325297087193 -0.38540178606326153 -0.45515532109100226 0.36188686198826353 -0.021575767566816142 0.04088458563047105 -0.4647097416301996 0.011338098178412186 -0.3844772654208291 0.05917083570773802 -0.5913318674236747 0.1944994674263497 -0.822304611797551 -0.4620343075883999 -0.056900498452335906 0.614045459662186 0.17655315914557587 -0.12613591531377488 -0.5504902698060877 -0.3896265872110502 -0.049063687007258765 -0.3945049119850362 -0.6195917976858283 0.032147882026012375 0.11986112981886426 0.2810128830929625 0.22032931210744025 ]
[ -0.5883370435205167 0.17453491593214734 -0.05577966961456547 0.4677493603931822 0.19355038608155894 0.17503320221035287 0.17536167247726842 0.12611772748193442 0.09983932340381538 -0.11962240853907533 -0.5278353067987768 -0.549289206603327 0.22705158078292928 0.22720370991172367 -0.24348171178674072 0.2804003958164081 -0.43241791976906174 -0.027798029427768527 0.02941185321516387 0.39099022448342907 0.1017602567799065 0.8133604994358408 0.036676682162332275 0.27977517883743114 0.16005094414070137 0.2725685296164796 0.13846616679575882 0.14335578960063872 -0.053680852052562615 -0.08341262211662 0.12902178200741415 -0.3117058220910465 ]
[ 0.05106618299288822 -0.33988081453733987 0.16638811775412585 -0.14021672219676964 0.310721611230184 0.37961597810834224 -0.5877834982018874 -0.17591536018329565 -0.15281970773728915 0.09764263191589062 -0.34671537096127225 -0.19859695792122928 -0.07412481020352073 0.09831440304762795 -0.008188156374874047 0.37392727947888216 0.02903504380003354 -0.17098408257814873 0.06740744729252622 -0.07811728676957673 -0.04493302205886233 0.1570765296006367 0.32899191714557163 -0.08038759868310343 0.11447292378869248 -0.504926289419247 0.08244191173853319 0.1755019157282731 0.43620186776245545 0.1316440277734101 0.29599645099943456 0.30567800639586057 ]
[ -0.36093899575779304 0.12969395020484112 -0.4626266257553067 0.45072797628292066 -0.018535315907522273 -0.12412399866180159 -0.15562467002785957 0.3059531394227583 -0.0706313298301062 -0.1548769026378871 -0.5697716989404054 -0.05389531651634083 -0.18290040056610735 0.08526466269769063 -0.2736926155928742 0.07323385434082848 -0.7320685214896065 -0.10018283573050316 0.12330994524613588 0.5118806566924567 0.10216917234983991 0.791061628756531 0.2888846166182114 0.029116767106494523 -0.03248125103146156 0.7609460492320255 0.23165453119991147 0.0640026852763068 -0.4718440043932418 -0.10257047069682809 0.18881668697431567 -0.31506261682425135 ]
layer 3 Activation
tanh
layer 4 Dense
32 16
[ 0.05207809953104341 -0.009988474767717116 -0.6962222692390919 0.03235840541030178 -0.30867885195432704 -0.40438219102578177 -0.4971893754266393 0.18824571001241128 0.1268045607641358 0.23184141706462896 0.12280833113168546 0.6241495334141623 0.2769595988925619 -0.08974944986982514 -0.33071119108391256 -0.18058406601860202 ]
[ 0.24212340930834322 -0.09164391774644973 0.4749014430967 -0.545392301039392 0.5415878149399402 0.019265340915768852 0.37123813698932495 -0.06070443167668083 -0.13079439726464084 -0.23368954562762692 0.28838945886685163 -0.39371813243768783 -0.4918671630930809 0.5934021151376084 0.21922489951158058 0.023732023077747452 ]
[ 0.0498725306741208 0.14523069408632033 -0.599114945219455 0.29796206594314023 0.0035266370885563923 -0.1241794500621813 -0.2075988280599273 -0.003528133752543772 0.08079001386362346 -0.2520403699674077 0.03410076518456158 0.20839962955027536 0.48854820497511325 -0.5120617302026126 -0.389331959832853 -0.3139217647374721 ]
[ -0.5847300816835708 0.3133860613264329 -0.03490580562883236 0.015847812413370625 0.12009301541577637 -0.12418488941368833 -0.2467152421637482 0.29493687344726716 -0.07729733497081982 0.550017336401139 -0.26888854958686326 -0.11544623326127501 0.020178088952861953 0.041192564566659866 0.2325663599696739 -0.0015076338366677453 ]
[ -0.2651339524202088 -0.14284266905653875 -0.09983290436764262 0.3075815687504667 0.269048152960455 0.2998201431514821 0.021050093691821023 -0.1423822806725169 -0.022398999850161548 0.214511574700208 -0.29096161229256523 -0.010882053813766375 -0.3148073169085485 -0.335865773852496 0.18501223412226858 -0.07997653067126018 ]
[ -0.08649627091301706 -0.01141316552193855 0.2869084888681593 -0.7761098076056816 0.13312654598714146 0.16899458686572458 0.3798484552021878 0.016543728690174894 0.7357744641122067 -0.21701638512907412 0.1981982703208509 -0.07574262767814396 0.17796537321659284 -0.3753305650508835 0.17404402959739798 -0.22884113048144453 ]
[ -0.13309371720428143 0.043716076332508375 0.22734297498383646 -0.5842019044195796 -0.5233402640224071 0.3057872080975611 0.17689578977662712 -0.47129096025592 0.502411044560584 0.4507489398412152 0.5559550682034767 0.39281335166521175 0.10562492813680335 -0.2049589741157307 -0.023017215121361668 0.04635864523403252 ]
[ 0.30960166550787677 0.041245980703949484 0.5726931420268354 -0.014396169080272657 0.06646056602010932 -0.0958236195772587 0.5903028393687446 0.458776151733175 0.43376795963093334 -0.4082685753803466 -0.23199276484071835 -0.40026735898701155 -0.07254800028014007 -0.022924667408134147 0.5950810385092242 0.5653562410781415 ]
[ 0.3692478916391313 0.42401649019989107 -0.2127832993466168 0.6719790203309455 0.054941443587958536 -0.4430970031556631 -0.07940224319658845 0.049474910400674865 -0.738649902517116 0.031526272796168736 -0.09671827753942269 0.05829647858815883 -0.19488722653789073 0.32214378828786094 -0.46090712633151826 0.36961904423126857 ]
[ -0.07953463819388931 -0.4659540543881245 -0.3807924354731757 -0.3689636699891968 -0.02985640363246402 0.5543014236559081 0.24588269128140058 0.11458695068549724 0.5673156075433657 -0.44516049756970927 0.17768664296174425 -0.047165726495759744 0.39955952656491617 -0.4067987021094117 -0.23558112308945478 -0.38590997567707225 ]
[ 0.13844922682429606 0.16718244970178606 -0.5379006552513168 -0.1643822683474603 -0.061270370782098835 0.13650462255849752 -0.516833332562805 -0.2783979130930012 -0.12585655637345358 -0.008867056449838056 -0.007475825674678597 0.5307901501415679 0.11533967102933691 -0.5803160784808347 -0.2982132415413192 -0.0975367057502272 ]
[ 0.43302379395416357 0.5957696826243805 -0.17182199956645292 0.40708941701084145 0.22462066034943062 -0.5992029529835823 -0.15034834827049373 0.01458529312586012 -0.2643823322152213 0.14623985874899223 -0.20896326483593858 -0.257806514732176 -0.2556427129849262 0.13246985722900184 0.0933894528835378 0.07799697703086926 ]
[ 0.3482422350801767 0.25184547179525607 -0.24230008531654237 0.16839658023561607 -0.42432030766893897 -0.1989535142871315 -0.5635005551727619 0.08016017689608068 -0.04192711083235735 0.45850254797151535 0.043316624782694754 -0.11525995124573771 0.0892014491192742 0.1520761724590089 -0.3031603226033255 0.20711227679721328 ]
[ -0.25114186362396623 -0.1458587874410701 0.22538838871519618 -0.49018978782500633 -0.356621060013525 -0.016337967510392452 -0.018884730025230962 -0.23586467991004972 0.139859670666811 0.0022959068234738203 -0.07460539897600423 0.05500820213696866 0.17947972807452542 -0.061854811607005955 -0.26936177992963145 -0.037828554919735365 ]
[ 0.29805862722180865 0.16133523470629138 -0.03681322266079052 -0.629003724318402 -0.30618010573565463 -0.03084064252594599 0.31950356142613495 -0.19359720898818683 0.4142076625583799 -0.1424091450117394 0.3528294843150562 0.28941208149223574 0.1594178250204865 -0.40618419204619627 -0.22632352833363198 -0.2305199700942045 ]
[ -0.19748897782936084 -0.13877619124977028 0.14232605268253817 -0.258043800192661 -0.653652226425234 -0.14374830467999972 -0.3067929445773658 -0.018898994696806087 0.25483440033947413 0.5098906448948197 0.31637312655671096 0.19411150026060314 -0.0016521758680091247 -0.6414754432920715 -0.264048841340023 0.1808498114516498 ]
[ 0.40900906865354003 -0.14032022661762383 -0.48494209840130337 -0.06769342456738343 0.13401459933722198 0.2644373537679753 -0.07053057329031752 -1.0143161699130214 0.030453236480896123 0.015079699427265421 0.7352805938881513 0.44216506412979106 0.500330481392308 -0.676949788003803 -0.6606006732531444 -0.408850722100193 ]
[ -0.14034586403484092 -0.13946541692266398 0.12261360026710137 0.14749983387343182 -0.647730286455868 0.16454332064054358 -0.2937184140372913 -0.08473896745609427 0.08002698653206924 0.43127039405817574 0.38884050200684855 0.22717794277008888 0.3847460141865541 -0.5921195223244913 -0.32421186508348226 0.2978109595573157 ]
[ -0.11062608175657383 -0.26537187158134484 0.5284270513866403 -0.35528721697425925 0.37213121848600583 0.19353163816604638 0.2730303345358634 0.5548097926937577 0.20477418803293196 -0.14488062661581352 0.07588738403919694 -0.22267873012233286 -0.3597059441434278 -0.37037356193327914 0.430026581386053 -0.12560826931913419 ]
[ -0.17364303117032392 0.24733234373623836 0.3365373688450709 -0.13025584034663962 -0.025270184435064777 -0.26838341304690183 0.05124352610647741 0.4764728955392285 -0.025693896486305656 0.38702005272871837 -0.24517048412367978 -0.5375594037709626 0.026762652472461637 0.38498046358547033 0.6944538051464039 0.6549810478891636 ]
[ 0.2520497193826806 0.3523085264816524 -0.06797181924935579 0.5631989000070382 -0.11751824070695407 -0.43121740932285785 -0.09564377040622833 0.18873512981678034 -0.6126070701503087 0.11684612195814308 -0.10560961233762428 0.1431532980296088 -0.30367754907405525 0.10439462006634839 -0.20104667416391386 0.20271986503709405 ]
[ -0.3760090549971786 0.15126700582757094 -0.1675974265024726 0.03180359349631649 -0.03703141362328001 -0.29444038139809303 0.17066089286296712 1.2399611944526072 -0.316521753518951 0.17795600321810143 -0.7722365990534947 -0.44075975797401945 -0.10407462242203754 0.38166984164107715 0.49313772908876047 0.56743012452775 ]
[ -0.40362415703404403 0.4116817728418798 -0.12251884881142146 0.04782215228324545 0.26062922701116414 -0.17338896718619282 0.001989323360828194 -0.15171126977972377 0.3903729033461975 0.044940813543997864 -0.2926842620051363 -0.05829412241726164 -0.17586412537545756 0.06217322427842607 0.30415499890854913 0.31303271793468473 ]
[ 0.01760665926286601 -0.6098869010043442 -0.07132637990848475 -0.6733160517034775 -0.13803903570819973 0.6915995299329386 -0.198121691178296 -0.11005292754558071 0.4132230011533788 -0.11221556972044605 0.014176092434604836 -0.06275391208397643 0.016193780907990795 -0.3458796292773185 0.3050105543151629 -0.14995030139734158 ]
[ 0.031141014484407037 -0.4059769952356881 0.27821206332828086 -0.6390422490670357 0.2672688652425686 0.5530289117426274 0.37388291915625854 -0.17748093372470922 0.7187161113097981 -0.13560370027282725 0.22289358703037107 -0.37749886229393725 0.07434255382619478 -0.43167486952330214 0.39880564786924244 0.1816690468016247 ]
[ 0.07380325271888671 0.11733213126688655 0.863093487874272 0.15336778400182507 0.11002082885942968 -0.32170199469897737 0.6074202726675234 0.10031850490608953 -0.23393528053768023 -0.260748321447014 -0.38682236323175784 -0.8943956630693596 -0.6227246437070192 0.040776956171036334 0.5104200138747901 0.596991750537289 ]
[ -0.7143066276602676 0.050723426530825906 -0.122396303478487 -0.08474991670417159 -0.3220488755363072 -0.11191277552763797 -0.07468219357304229 0.11514218648719705 0.22439164920596033 0.49429416374507695 -0.025883308765037204 -0.11979836587227649 0.20954907085607272 -0.03889130851920152 0.1991899242369025 -0.01851744939394014 ]
[ -0.10708814882281126 -0.054154141026236884 0.4019241522595572 -0.1973396437952577 -0.6878418506867219 0.1634057437579974 -0.28095554559981384 -0.0013269315760185306 0.10279265656277121 0.5077477945994083 0.35733586541231777 -0.0743112695333509 0.34158380958121637 -0.2337207142568053 -0.22796460317487136 0.2349512227527695 ]
[ 0.04278603500132849 -0.3621639295405416 -0.22027532969149602 0.08588240992507827 -0.22521797659434636 0.25024137524419343 -0.31060725439329345 -0.5499667901059099 0.1906236417280579 -0.08754909455150064 0.02748326972691072 0.45031022561280937 0.2520108484517074 -0.18462645280612597 -0.47984641042349785 -0.7403911549334025 ]
[ -0.4557310205184885 -0.6364230190078043 0.0015411660700690862 -0.5735771187060025 -0.28661563975507803 0.2926851931232053 0.15331104703464796 -0.12164804200985618 0.3351080828317221 -0.3041676311632963 0.3511451380253115 0.403126967703865 0.5123383714824842 -0.3779093171585351 -0.6170045666751001 -0.6010440891632381 ]
[ -0.004171831843336491 0.12732093192941768 -0.10768194857405909 0.5046515235879804 -0.009868484617225767 -0.3695823953368583 -0.1110827616642305 0.2763440767742064 0.20278149666930115 0.08782085429472074 -0.30194331881800834 -0.09813640349697232 0.031851001940854246 0.09274007386890538 -0.047773475200285416 0.2960916732302144 ]
[ 0.3611459324863402 -0.1295543997270031 -0.6239278531093572 0.2609882364802682 -0.3028912212024152 -0.17383120144344244 -0.1799128283974671 -0.15109070315138198 0.09576776830357153 -0.1733230067645852 0.2233626304388829 0.4071998482183141 0.20479509186846984 -0.7530832867436597 -0.5259595725098232 -0.3540860991160743 ]
[ -0.020321408442899397 0.012991917679425527 0.537578934776124 -0.1342353564812484 -0.019555738887238855 -0.013041647765726963 0.06167617035141413 0.19335386339064578 -0.11446030902074646 0.016880983450342293 -0.10595208031103256 -0.44757881730308646 -0.30063884051646633 0.36401163132491793 0.2997618150507741 0.32008454060100416 ]
layer 5 Activation
tanh
layer 6 Dense
16 1
[ 0.07987690893459488 ]
[ -0.002781614342673662 ]
[ 0.21725780852221172 ]
[ -0.008074410957189146 ]
[ -0.02562319395909128 ]
[ -0.004946975346096226 ]
[ -0.18341434850817334 ]
[ -0.07025763620900398 ]
[ -0.005382184753200258 ]
[ 0.009415660220029537 ]
[ 0.015699401069639275 ]
[ 0.12012303554994296 ]
[ 0.0202370455378606 ]
[ -0.02909963523626734 ]
[ -0.13667625229186695 ]
[ -0.02950354253440728 ]
[ 0.4335142417105006 ]
