layers 7
layer 0 Dense
20 20
[ -0.012945255655889668 0.25698327602779797 0.010773913323290559 -0.35363442815420565 0.5268083878914476 0.4736561229481462 0.0964147507373535 -0.20774311512489407 -0.005654961424452202 0.5440014944544946 0.3186830081239866 -0.2966048455442984 0.003623544841754536 0.8027837450433266 0.33505036713069675 -0.6379820771278335 -0.12234011780457958 0.47394616045301036 -0.09028817352841302 0.6943108607832734 ]
[ -0.1244985552097608 0.06905142121782461 0.01997902552563347 -0.025477718501332413 -0.17334282968390025 0.1554751536708211 -0.23741139439956652 0.021314465350094385 0.280925988019611 0.1268486848983124 0.087991855611498 0.14068118859953435 -0.1711110587165709 -0.10391972492146132 0.16378272869718258 -0.09430416640434791 -0.11468766076082358 -0.07613169795415992 0.09016733192948992 -0.35669442562842574 ]
[ -0.004460566177558225 -0.179871414622686 -0.36637093970227036 -0.28669829090668353 -0.3789250028742167 -0.04728173084794404 0.22686504940818558 0.18138913024223627 -0.046536061099369 0.02915545047314159 0.2221162832376606 0.09072394352432728 -0.1143806478600825 0.04789142912391711 -0.20000016083331687 -0.3502108351587173 -0.32125658091834786 -0.09327092991929561 0.01534699560691176 0.09521848097675586 ]
[ -0.30094602555204925 0.04926579684005528 0.3163733743711573 -0.34729747125144067 0.13725948001878846 0.06662790082336213 -0.5133457411015137 0.0399629830292676 0.5274639889353 -0.05790713725138421 -0.29763734214465376 -0.07119512263150558 0.3207058523211889 0.28852313267750607 0.6577895217799612 -0.7454321283645462 0.34420687756571633 0.8727264411403428 0.22858780506374846 0.7336100725599417 ]
[ -0.3369873781004816 0.11422789644828106 0.0799317440710414 -0.734134301125826 -0.1466583608091563 0.0906145515144222 -0.03739171309967381 -0.10921737715112832 0.6940007319765389 -0.18239909525576373 0.13261316219583413 -0.07181961177902937 -0.7983158293554397 0.19170209752852 0.004866240196119134 0.36978442227113706 -0.10451574589703794 0.15361887623083748 0.11941675458062377 0.5472765717252901 ]
[ -0.1303955369727077 -0.3840229154541412 0.1384301552617522 -0.24263731149199722 0.28802179267320566 0.30540597396096897 0.3048589615943606 0.07376761293106184 -0.0406120748402761 -0.08978448550079252 -0.17884695076689022 0.02368889201182308 0.1706157020760235 0.1943979329456737 0.353280283626936 0.31324051002986475 0.29860941799194984 -0.1798360969341387 -0.2976905151205861 -0.11634872387692465 ]
[ -0.04139891888305055 -0.09828998901628906 0.36651611432078646 -0.04931645985464733 0.26685492051613163 0.08029300720849847 -0.2683783493575217 0.059839035025290116 0.28592100921500746 0.2929332026767717 -0.1018411004785573 -0.3666215304534421 0.17422045166849323 -0.29975381588170896 -0.20090012671543106 0.3006650850513606 0.22585546654680783 0.09350039357638099 0.3837097494725113 -0.13494725639933441 ]
[ 0.2456051955007953 -0.035309580914524234 -0.07533938314128069 0.22533246743586563 0.6949910723454048 -0.5877612103941581 0.4430492087105373 -0.4355272673562145 -1.5353038585061496 -0.1833334022616747 0.4451350588097372 -0.17313478580630062 0.02530316837266402 -0.9734863894355982 -1.0820183798682121 0.8286140529492783 0.5069968048244581 -1.1608561984058383 -0.10898565934405431 -0.8096216985097139 ]
[ -0.2358742287101006 0.009705140311271523 0.40707824830904443 -0.6934428852266205 0.06868532365045818 0.27031637598993724 -0.22306555761472097 0.3067806043082182 -0.15422488726743427 0.3332839176496113 -0.829914471809296 -0.2869756209766567 -0.3601466422888553 0.6096852112409376 0.545527106835216 0.28850378688650385 0.05144910358683828 0.5987046742155526 0.3896392818978893 0.5071288394680941 ]
[ 0.2682201507209179 0.03135786810490844 0.7350069692896696 1.5783966816095063 -0.07481228030325261 0.7606661128650162 -1.0969927849553132 -0.6015254134299869 -0.17535272747884217 0.912693478546565 -0.023131283481097203 0.3403114623869424 0.34229930601948716 -0.6769049654442694 -0.18304996152913824 0.0015180887981097388 0.419898878753984 -0.47333984349814945 0.5469521626289252 0.23346894383283062 ]
[ -0.7521767188262762 -0.7254425538954451 -0.5662763145592798 -0.18936350450246775 -0.7122680230746837 0.9112535765222755 0.23710517928313174 0.09396461551860381 0.28229635956991983 -0.05641720847514914 -0.24065831520366657 -0.4542978038492276 -0.5133204039509452 0.37221982835338807 0.1567293839635954 -0.02076445369591907 -0.5714513702737892 -0.703576881142746 0.8774575214100608 0.43660984522699436 ]
[ -1.7299923480920236 -1.9742179555813195 0.34328540758927784 -0.9799019174393895 -1.0957339987439312 1.3139001369192749 -1.8482646793800759 2.1873830733379735 -2.3477741462685437 -0.16161047647024498 -2.1487682269102972 1.6896329768252776 -1.2507306571718406 1.9034853721892717 -0.48616776070261475 -0.12595963885172853 1.445353979702635 2.641924193325364 0.22463197270936766 1.6109996068603203 ]
[ -1.082289428506703 0.22359333129872014 0.8358393617071493 -1.2877604691308384 -0.10348940599555315 -0.17967676711539846 -0.9438659388806915 -0.5187363104956831 0.677031830485207 0.005480441014573757 0.1865039276791092 -0.13766871955540086 -0.2480753040934263 0.6715095343884318 1.002982563413858 0.7490171486357639 0.5311855741448046 0.23156647716871964 -0.7304477054680132 -0.004239041595267272 ]
[ -0.9965388626192252 0.46531269378281354 -0.5484041054758482 -0.5659199546339138 -0.11114312737579479 0.1229858151680085 0.49188638025806325 -0.06778394869835352 0.7039927288991754 0.3427415275589388 -0.9662016249397909 0.3022219535530537 0.3313812910118225 0.2615139383077481 -0.8566198453500443 -0.07595867328467441 0.6269298881676232 0.5388544147237487 0.6472695733714878 0.3548683645505892 ]
[ -0.10377203780822375 -0.1952134096502418 -0.9078995585593254 -0.017585507902413637 -0.622723144649442 -0.4596789703005697 0.515620224393934 -0.5491627688270005 0.2460968712912514 -0.4075007010083417 -0.5504049597009111 -0.7274989822751524 -0.13112151222221194 0.6307483076516996 -0.026112977680895863 -0.27698866052604004 -0.1479049394719275 0.18399996444553376 -0.6008538395832602 -0.4170199245015398 ]
[ -0.5915984938114383 -0.6292679915325687 2.0637298934882833 0.43602429379568197 -1.0757950147575783 0.008960083528293401 -2.1039672561605953 0.08948713755517029 1.2469659526313437 0.2598794459277242 0.3454684726500024 1.747350920797485 -0.13294111505275139 1.046404922897584 1.50687851449619 0.1677356166231493 0.6106739968377418 1.222546383283572 -1.7750689337108876 0.5538545774639433 ]
[ 0.7155785690643479 0.4972866747200879 0.05985654557451136 -0.1325051688622639 0.027772909595228903 -0.41609943577143554 0.3837768216153871 -0.16607496210981 -0.02682168908117675 0.37686622246723156 0.544140919326839 -0.24297324078723073 -0.9025413985185585 -0.22235127953967937 -0.6034750408171464 0.5604728469626079 0.3906192738834717 -0.3435683025598771 0.032558763927781655 -0.21054578349094116 ]
[ 2.1896959671402514 -1.7296558310303167 0.6281769391851794 -2.9018911067662647 -0.9258174063646292 -1.6120740834611187 1.221593534721159 0.5928635809780727 -0.7955734078303554 -2.7978203985391223 2.39998740003624 -2.071658740484312 -1.1751051858730943 0.6756770879686363 2.1200856679754896 -0.038597418666716524 -2.6735149555815862 -0.5052703270564504 -2.109083742666254 -0.8083449284710371 ]
[ 2.130071450287638 1.8451270132257316 1.9463844772071333 1.2331592948766152 2.1799798755260587 -0.28803209113169714 -1.6354135795087466 1.6802761846645402 -0.2119350840847021 0.4724224072876529 1.494816063896338 1.825440338652868 2.138355577152401 -0.9957272492846386 0.6978115664494485 -0.22350616725945507 1.3194637639947475 0.3217227503499062 -1.34149583857656 0.20191324083351878 ]
[ 0.38007016281465555 0.8930727093682461 -0.4847447472651254 0.2981452148299141 1.362820327638379 -0.6799956471254454 0.7537019132964514 -0.7537826560740157 -0.14057290724696206 0.6150780399263257 0.6936112901983321 -1.196749248198409 -0.12397778945769142 -0.49063806787676056 -0.1442522398938882 0.6184845969454679 -0.3445514746164958 -0.35781486768422793 0.6118377783264509 -0.5875780651268148 ]
[ -0.2275078904401221 -0.1099360554275902 -0.023671925363607262 0.09489732344556433 -0.1550740600636587 0.4131416695868537 -0.11899987335939215 0.1758797416953352 0.48886472061716507 0.15197840708380383 -0.15596185482365119 0.10946603282289792 0.29629422819311546 0.394227251343646 0.4104349221099231 -0.7249780397494409 -0.1531840512445582 0.6069644899652293 0.1147858990754597 0.30705277869197434 ]
layer 1 Activation
tanh
layer 2 Dense
20 40
[ -0.023647820952639266 0.4014559193751665 0.6099141496646117 0.18195266398506404 -0.4044342040236405 -1.0239663671339707 -0.46503967628100623 0.041091386070992976 1.8746388070076516 1.0330596543284543 0.38238894073168517 -0.7447638988926215 -0.25917577838626593 -1.174578477840916 0.33325890559884186 -0.20678016360863782 0.2497430496784279 0.14217282081379468 0.36376349243829376 -0.5756242025438556 -0.6176852635932608 0.6206172442944032 -0.2425980288048373 -0.3942041558163398 -0.12620451015700912 0.020134067512615574 -0.26120347534834926 -1.1271699873933216 0.10070599561586235 0.9199422158856189 0.7611100142836523 0.4590747814337134 0.4131592119051725 0.08833062011156603 -0.522372364715438 0.7583339204534608 -1.5335874157727105 0.30383469478309544 0.26136430479824746 0.1558152103233608 ]
[ -0.38996748074532744 -0.21234359064148176 0.06530595349202341 0.03956910917652372 0.0697279913405172 -0.3508332613140747 -0.07948343650723948 -0.050432774798910285 0.5715766792144601 0.03635046761489555 -0.32325129835648453 0.44555240866761747 0.5470878313446552 0.7248153596354644 -0.39722614473437384 -0.3138267533871596 0.02269247155300286 -0.012163018913042825 0.028303063289576318 -0.04870937997496887 0.17627470064142864 -0.33568533256689354 -0.26168810472832627 -0.18146630717881457 -0.028248191914924805 -0.2999304106527061 -0.06407363490568739 -0.20200997429733625 -0.13615529154743722 -0.2390231090078457 0.6676410523546409 -0.33841204662441027 0.5742008079464235 0.15208748324399876 -0.2607129186873236 0.6291915325863144 -0.28703192363755425 0.6029190078401423 -0.6665051412845986 -0.5352641470111693 ]
[ -0.04648086813616701 -0.593964022288774 0.07883302878469929 -0.5772531671020747 0.983338019061392 0.16824597689442414 -0.5747928887359501 0.04822534600238285 -0.10338900378942444 -0.558554230942072 -0.6801504078423563 -0.29326895963365085 0.040686768310160035 0.13650896032561627 0.4252711926436457 -0.5527250841162622 -0.07834410502589494 -0.2325447112324891 -0.22730077374092955 0.02256977011988108 0.3083898664859241 -1.0895365165013902 0.34310839882205635 0.614360336122071 -0.4133802952018758 -0.07920393386888573 -0.2832620497135253 0.137626785049807 -0.25383781043708803 -0.18034734088060655 0.3948055290610248 -0.7413773107132046 0.5054521750033675 -0.43204826248175826 -1.0731916748377288 -0.3345827074907556 -0.17399608627687652 0.6907418341930687 -0.4675419459050113 -0.8741257245378746 ]
[ -1.097348177929536 0.8532207694521982 1.1883066059762997 0.4211463945392358 1.3025031272986356 0.07995212129496669 0.33465882514510314 -0.40513796896087456 -0.050148039118692464 0.1647530948142653 0.24698926161539367 0.7822225481645672 -0.30032568760361594 0.3732562797185983 -0.6107628343268382 0.8303126659364117 -0.3760686111893151 0.3540890452144628 0.13722506587190028 0.1914412730961694 0.10084591925982925 -0.10633825782307972 0.28865724855054414 0.13782713889490636 1.345743694520557 -0.059686794420395886 -0.1720286770255867 -0.5599530957159107 -0.1606245308123462 -0.3571843760616188 -0.07765630972306341 -1.5071499484544775 -0.4009791635645096 1.516548323853934 0.6201197139154593 -0.3205937275122372 0.13106905110839884 -0.08232642326809725 0.4292710493361018 -0.534708590267646 ]
[ -0.9658194493761695 0.7089288675261952 0.8770747981950269 0.4332726893779321 -0.5939832265519259 -0.503174419519009 0.6742445667754131 -0.29187775583954273 1.09108531984479 0.15840200931153048 -0.5628698275525122 0.6812110227900372 -0.5866761287675578 -0.48747495147692166 -1.0469001906483744 0.4237498105475158 0.2644009325374967 0.18743203091151242 0.38650219566916344 0.018492014605302656 -0.059032585742092504 -0.7687481639586805 0.21591014761476626 0.047038219770886944 1.2700634841464602 -0.23844688571647504 -0.4025301037250505 -0.0865277020955072 -0.009063513173134433 0.2511659402408478 1.4195754870875559 0.7053842827907919 0.4463410903831629 1.0569301851503268 0.38552841230691637 0.8247947050074216 -0.12438052429718033 0.6377932940126718 0.11964524781487555 -0.28729798271966467 ]
[ -0.980736067675983 0.2750592866026408 -0.18345407108507059 0.3353596555394169 0.5700024328695539 0.6564512788319147 0.31686433428669086 -0.007882005372611512 -0.518228629878758 -0.5772296542785555 -0.5750297918593114 0.16525351715325418 0.27307463878151317 0.7482304567766286 0.10937638587824501 0.013773397684189607 0.48288477298737725 -0.3763111286479114 -0.03769724143752366 -0.354536799050578 0.8257745275137557 -0.2482262030976422 -0.2942589756327381 -0.30544154174648885 0.6638366341569832 -0.2535446030724177 -0.30682585518999833 0.18085230561927373 0.35248475133865126 -0.5633423344415399 0.230616042401266 -0.7532477743976745 -0.050474037562117685 0.26482093509510035 1.0372640571938847 -0.847587146093823 0.6431436387655632 -0.07829215815773458 -0.13321891636021901 0.07410216011606552 ]
[ -0.01900804651708579 0.9246450766658191 -0.08248806626934989 0.46718595477033775 -1.1614691465655207 -0.5737965438428232 0.7128319674004178 -0.4694105172386987 0.19380785084054397 0.6119973205129607 0.4514964797521676 0.06296219564597179 -0.24972952034097629 -0.2579065788332227 -0.3519092903413811 0.4055046111692095 -0.276227939250501 0.32785628508282766 0.0913904709286159 -0.37307267805663547 -0.9885249315936069 0.5513298708297594 0.06278834329468114 -0.22288581927193465 -0.21705860166238744 0.39965517968454034 0.25000937463697226 -0.1772635080380264 -0.274163777760374 0.7477390182077486 -0.13625330373078964 1.0147940393455424 -0.30743143712245274 -0.352371511337443 1.0115644164931423 0.8728166923427214 -0.1615674812219189 -1.0203739899046158 0.4553931078768207 0.46428925601522447 ]
[ -0.03149817942638186 -0.05126784693575858 -0.5638223219768588 0.42819454396105705 0.15850950781332315 -0.16729075866801352 -1.0433273691620086 -0.10201702152344916 -0.01035062701741859 -0.6062241164335157 -0.2537595898899584 -0.7726951812353201 0.1271244706998533 -0.5083824210688241 0.38095823385404326 0.1217876406441222 0.15662730225285543 0.188294676249146 0.043202292677953225 0.132027586081461 0.4303308646357826 -0.29054777368998974 0.15920200852897468 0.24893058817932107 -0.20310737903861584 0.2591286093161718 -0.03966671558150612 0.3620055965114274 -0.053541452690349337 0.5006381242334136 1.458874480258871 0.331829823905785 0.28661591559506305 -0.053955213040783746 0.23225067413283923 0.4930834719345934 -0.15828261009820382 0.9169919415471234 0.04415322249805123 0.059047958084597556 ]
[ -0.03428267626486988 -0.5051175685461761 -0.15342221873760428 -0.5569245812752971 -0.2840867010926642 0.23546988245341227 0.4871923665518486 0.48908931875264183 -0.5456523253579436 0.1063786960807701 0.017226264802389254 0.714785877431702 0.1410563522380961 -0.10263493402347325 -0.24478727828041716 -0.6372569766028293 -0.07355727164808261 -0.23500800060198634 -0.32521374582076684 -0.08235661089864173 0.07780999807386117 0.02544653649424451 -0.07280285806795413 0.15714120449294686 -0.1037394778846112 -0.18358043624746945 -0.09286943346823742 -0.30863120348662093 0.4283245269422512 -0.5148387700942478 0.6037741041195579 -0.009587224435904783 -0.16726433837139396 0.43417328028692137 -0.5022136721984064 0.38306777073209347 0.4535824207169967 0.08917367528496964 -0.4352305311589774 0.3412196580605746 ]
[ -0.7961180118704382 0.22697722159339387 0.35244079426714897 0.05373182966523788 0.27625750370458435 0.39361598982906126 0.5385841485623433 0.05194308014310654 0.289616695121015 -0.21046891917362623 -0.6310625255529522 1.0369405698899543 0.11512006003277507 -0.3776665804738718 -0.6239868170883552 -0.30032808205071393 0.1121158290416743 -0.3044075553130577 -0.03038724818131393 0.2642313963518892 0.7912725809290715 -0.18410479404090946 -0.323484403175047 0.1015459674579974 0.060049689539720466 -0.20530324328263153 -0.5290741685731638 0.38320593482442056 0.24713971204899876 -0.47831783847571174 0.30866521190743695 -0.43445101135062414 -0.053736649198401855 0.6365091010801259 0.6148724474815852 0.3236158600898629 0.6917878441653973 -0.12652949421812978 -0.2661169828689117 -0.15712479985430028 ]
[ 0.85887842852105 0.3593119995883853 0.18549530685406052 0.4401345963603639 -1.0924116782549769 -1.1423185602921797 0.06548883452074833 0.19645668597509608 1.4189997484414902 0.7656614143464244 0.5342399357192122 -0.7922708614464458 -0.358959830478494 -0.4399212016629224 0.2605547390142328 0.5109192226501925 0.4156961630898576 -0.4585156788764712 -0.27219541435445677 -0.40078739966444615 -0.38020946881294365 1.0387605147222352 -0.25286381926531415 0.20647500317024808 -0.39749338641804627 0.2215315247162435 -0.16682677461977466 -0.9069655753806174 0.3056662205940752 0.6719936871752724 0.06514786016854944 0.5876799714100821 0.4182087439570419 -0.2710277098226956 -0.5304669668963173 0.02771188751525361 -1.0489965909917933 0.054867146750333336 0.5769656418220647 -0.1521797465707653 ]
[ -0.21319996767168325 -0.1468835301398079 -0.14972063583531214 -0.2133867092601768 0.6827113265614861 0.8016848529691599 -1.4151061268633485 -0.22004649108777924 -0.6498331933235585 -0.6229708569747406 0.018268852836613697 -0.7657877110196452 0.1926995734492601 0.10706226522692854 1.071476295827738 0.3661029099971895 0.07959050569924739 0.3816538291553209 -0.3586774227763075 0.11745953365050374 0.49506740258517495 -0.4163894764943389 -0.032755504787482174 0.0551305491971359 0.4384396183737151 -0.32508048941082307 -0.3507667455500884 -0.06494979320360933 0.05628489077433331 -0.6461807300838196 0.5055965525782029 -1.2969016657980015 -0.9543474516940385 -0.8723288054433577 -0.746472037683364 -0.77036291922645 1.5530926039897825 -0.2981682291102681 -0.12813566154812525 -1.231735820843831 ]
[ -0.16614295315905853 -0.3304743497195216 -0.19726851784224703 0.055668457317697075 -0.0300221126953708 -0.0564406810179276 0.007343385711889961 0.4636887766547963 -0.04170377318667051 -0.08168618335849855 -0.060810270522430036 0.142007483942065 0.17335038940619027 -1.1656570963486672 -0.0010693323228403314 0.292838000949424 -0.047043470326322806 -0.3293659823919198 -0.32911811721344914 0.26562062371508827 0.13684565359075523 0.43658755785955533 -0.4179653338482245 -0.6610034391642392 0.2142107382830388 -0.376181531905419 0.2753093144922104 -0.7629822017811281 0.2595697621870722 -0.3724589457180204 0.6764373348393249 -0.052753728411659234 0.02722051520153485 0.34505584492500424 -0.4343272357991812 0.7201524839262338 -0.24128603696015227 -0.02762016998862789 -0.08058053744399399 0.30067025453803564 ]
[ 0.26106928291179443 -0.6440813213893537 -0.4854102719710367 -0.5184655521944198 -0.3857392715457455 0.9851423224600641 0.31049922927904133 0.3768777107098429 -0.8616417947778279 0.24895717933832423 -0.7389780740708953 -0.06027724442222133 0.7834626839831306 -0.05366218738304975 0.01496659789121432 -0.5444585601148445 0.32036091404672695 -0.03669684723722023 -0.4116825263720943 0.1513331957948526 0.9606845639598454 0.4151956048533621 -0.149185045228588 -0.24879034124733657 -0.25409675632679507 -0.4063889992693871 0.12109088079137785 0.48105162966621257 0.19151737543970207 -0.7477064672761595 -0.16608234371637456 0.8023207396031771 0.32811771324923245 -0.5974371971480625 -0.23187298925521072 -0.41646855229532925 -0.08410387247550451 0.33943070592721575 -0.35607922010894894 0.860185307308067 ]
[ 0.02618953635066925 -1.02084156746206 -0.47704870910048447 -0.012601174398515403 0.15586657887059088 0.2238499983516331 -0.2207186769630406 0.39386448208800123 0.6461992001027419 -0.1633001638307319 -0.687867991588518 -0.06862200985667649 0.6423792471429939 -0.4333882949523995 0.13764007512269114 0.04098693645891868 0.2704748991608386 0.3176599313867205 -0.17760760639856504 -0.15411090709160977 0.4352586916021213 -0.2126054522111686 -0.6151881918224368 0.07035209876001727 -0.7414209645410128 -0.2729247886115995 -0.7489560342596249 0.11251016403558219 0.40453550397170324 -0.5823586006233936 0.2964112018700675 0.5619008563348826 0.5163597180249477 -0.26382092978952043 -0.9752788720924408 0.4913853520273073 -0.4783148003249335 1.0429192909938627 -0.34449072333834696 0.144609376864685 ]
[ 0.24416902344902605 0.689870645179915 0.3438325320621323 0.9418101526514896 -0.5962445776390713 -0.8420179315230891 0.14112668929983016 -1.0643335329713186 0.40813973827536015 0.47803823754697805 0.8195129375547806 0.04342083799262911 -1.1528370960636662 0.652497075260548 -0.6893200989977436 0.3012144487956932 -1.029358185495346 0.7917225272001978 1.0365971838948047 -0.38768966092539053 -0.6493219407331238 0.17730389779656267 1.409840744681798 1.4402678708408403 -0.015696823902218483 0.9251657855538089 -0.8517082323224707 -0.3584756234596643 -1.030256694267013 0.9386761362239139 -0.5242369313962042 -0.18848601271822338 0.05269688813868689 0.5982674818905314 0.38002096766749927 0.6498259353649813 0.22121709601755019 0.010625697763365844 1.0133646180421148 0.0838562347845809 ]
[ -0.5914646989453486 0.6351067577332603 0.7968759309671368 0.16798307446762364 0.552933413554448 0.4094652875926153 -0.47316384141617834 0.011403248166208479 -0.4497307686677568 0.05565213878288876 -0.17889533356233467 0.08802774938745499 -0.20526823037087252 0.4023621219616757 0.07514953567847192 -0.2542733092961398 -0.4284055939710089 0.46059010641067155 0.1430098024212729 0.023134223316540987 0.126980945285954 0.028979755967444697 0.6234433793467591 0.7254515229645941 0.9084635434706008 0.34116461519750046 0.19305888015969858 0.3318738347119466 -0.3635108335940557 -0.18553640665985666 0.41914446331280636 -1.280265481330355 -0.6652713362967907 0.6652818825005072 0.3498673533449873 -0.4273786937837356 0.9009900948272184 -0.7940513985839529 0.3697036131653761 -0.5605697934597269 ]
[ -0.4352049225409348 -0.5441382882378399 -0.6445279617271727 -0.7561130403273387 0.6403027081164662 0.6745239139169658 -0.10715170307155211 0.5126775094949192 -0.15923518400707082 -0.6428827625233509 -0.9191239076190857 -0.2905639894589846 1.3095693893075886 -0.32160059175419103 0.7528333012908436 -0.25518761608065244 0.7214871116365174 -0.5289614542193972 -0.5598776477932403 -0.009490664352684655 1.1372615079859087 0.00140172807432167 -0.7561172761727923 -0.6885970920627307 -0.5714992041618516 -0.3900394696074221 0.507107813379631 0.310050132550401 0.5320651297427018 -0.9467268373237989 0.6150418432907715 0.134949389393554 0.054175552617609674 -0.8686418164505685 -0.3859633590884217 -0.17052612057268515 -0.12217977853760874 0.14968341174446984 -1.1137322612314988 0.42754945773252384 ]
[ -1.387027107457482 0.7954162784827971 0.6233874662812497 0.3826750037118484 -0.5900119654469397 0.5137392919698586 0.47038629375236285 0.036838193847088384 -0.8031548246700404 -0.006886001252460408 -0.06348581661231888 0.6598034205277216 -0.20725543212627276 0.5697850344121294 -0.3960994214995677 0.4671689367637299 -0.13071441562119362 0.07124223236137225 -0.18515231504545018 0.5747779540803633 0.7621193828629547 0.05119719768997998 -0.22218087407383783 0.39246947481553873 1.101595126791301 -0.3295073122841148 0.031218024231290498 1.3716039162097036 0.13966531066087473 -0.2971167531532818 -0.3075158323470774 -0.36144644296305817 -0.5765132638872903 0.14999766405604412 1.664716271412218 -0.5625689243577916 0.908662496021984 -1.06592676290635 0.16630654329221156 -0.05934573899131978 ]
[ -0.8028760282217944 -0.004091444938054246 -0.1849291363976272 -0.28893951029843995 0.24744565821591336 0.5594629821675229 0.038428489288105945 0.6716763381089513 -0.39650906070613384 -0.5769841444200876 -0.5177913082669028 0.24120461843667795 0.3697083578892404 -0.29481043179767735 -0.08141692068806464 -0.553676831069154 0.40664747659999334 -0.17713912174080054 -0.5748873409644725 -0.15000282977496898 0.5791863200173567 -0.1684105327138712 -0.14438265827938576 -0.4838893861019477 0.16778620905197136 0.41945858703671396 0.39324808382371895 0.014745513846537517 0.18134888594060902 -0.5915432820935755 0.4529288269692739 0.28888935966046514 0.10322088677717392 -0.20276040339946097 0.3666428254042267 0.15149241426525042 0.2174233880392539 0.2126286405521824 -0.6987421323603438 -0.0023588520084133523 ]
[ -0.3807155424000691 -0.5743277245408539 -0.40987207906278417 -0.7243093844667527 0.6284802145179653 0.7240226026520017 -0.11410512771019896 0.9666765441384016 -0.31611954193769337 -0.5008849499464789 -0.622715167248342 -0.1792147014326089 1.0019686336157951 -0.46197545421675396 0.6470851630043928 -0.16411498457133625 0.9113096140961032 -0.5311402580121233 -0.7986447157798454 0.1981422070519078 0.8317446051223968 -0.056813215152607746 -1.040849734603023 -1.2445175085886104 -0.22825685472093274 -0.9054978287340533 0.6454667498206846 0.12392333664825675 0.7210348422268811 -0.7450271741680573 0.231467727361903 0.1486291116062943 -0.22876314297491807 -0.7118429703416885 -0.2131314423306712 -0.48188534958268037 0.10999846806612701 0.1005015539437955 -1.0125412146482269 0.19750311498467404 ]
layer 3 Activation
tanh
layer 4 Dense
40 20
[ 0.7381884296159308 0.4708436758902135 0.1725415163850313 0.14899973718622045 -0.2445153720154579 0.628439780447408 -0.43226593480200426 0.09995369069783093 0.22642740356116228 -0.49679882338943643 0.4882660927900196 0.37106144469322455 -1.2145920208014631 0.41147027351725207 0.5510957765264686 0.35777368601111403 -0.43124063386009326 -0.5784153990877621 -0.43783932327479425 -0.6234990503665357 ]
[ -0.07478207739833577 -0.39385650305280406 0.5883209409258866 0.06428632663590737 0.4418305920377612 0.6129049477114543 -0.011553066585286183 0.4668853886660531 -0.01013169101421637 -0.18593927992311596 -0.3380202340546542 -0.35350622650660607 -0.003984241854133057 0.2178614469514151 -0.4097764874033851 -1.1604313525851653 0.19833896631431935 0.49712804251329284 0.7526376958484771 -0.4174490314521981 ]
[ -0.6329573920827728 -0.15642989654555753 0.5773070804975212 0.1922914462198345 0.11848244801855368 -0.00820167582759087 0.19276628532383697 0.7591349589750701 -0.1812154890592384 0.32068892143668404 -0.6007416608112832 0.0891532044273366 0.2288388693575541 -0.3580293884112486 -0.28004013042186976 -0.8159816431965023 0.07833718326413756 0.4094569273734686 0.358668800841315 0.3983022942021998 ]
[ 0.2314010951379695 -0.0636759223978435 0.10789827954034954 0.11956874847362377 0.48717322640293126 0.4608506983456343 -0.19364657737280033 0.5003559467399691 -0.38068157262593405 -0.7630208550308146 -0.4421546381356031 -0.47105461525953696 0.8325194771228845 0.5387034636694323 -0.11657261044500204 -0.46032176544385023 -0.7195238913032789 0.08206986531868767 0.8508457331183134 -0.15751976767335676 ]
[ 0.13727539616826345 0.2221289071039566 -0.8394282734108112 0.055714738239233945 -0.24158333025444134 0.35368543262455593 0.3881921529150106 -0.39205515123397605 0.08255344210605778 -0.18090783024541215 0.5807189700796543 0.6904009421910734 -1.0245816884825505 -0.1575114654226998 0.023714742020155534 0.4756805220385251 0.3570460843101586 0.42874200727207556 -0.8944714781371146 0.12506445582841783 ]
[ 0.42104291404703376 -0.3609151194408245 -1.1146378968671866 -0.2738486848111236 0.03806295716982627 0.3072376057490266 -0.2042128295180111 -0.5082639807987416 -0.15976057528790924 0.18096042478921878 0.46961414843342025 0.6313944511272844 -0.20432645096922086 0.2974388142394711 -0.14290995494109052 0.6439534629020034 0.3052860018403812 0.6585832521371721 -0.08502342236927293 0.08324268445129954 ]
[ 0.0403403775918584 0.0525213249135063 0.7531724117421111 0.10351283201431793 0.39204693734213336 -0.16548594012251827 -0.6504131037012572 0.19827000271014514 0.6042870902419232 0.2611820325665841 0.0734579975009484 -0.5786400414212826 1.3946662387032271 -0.01083972293513951 -0.23230718168628528 -0.0004862056147324049 0.07236671635734973 -0.013935170400737999 0.2857232724046103 0.3147562701845974 ]
[ -0.10146526272697644 0.3421293276696507 0.11578890737000282 -0.3273420770789329 -0.09167295303668453 -0.2496722821492707 -0.11572746314529087 -0.6943802910667771 0.12080375479341043 0.628351610073375 0.6395376405361887 0.8497077136475679 -0.34269423929862597 -0.22769020049669786 -0.22294582435990248 0.21431838776889806 0.1992897964899591 0.23948066043098556 -0.3495222700802626 0.013700198778609226 ]
[ -0.6018128204444148 0.8258405753076163 1.3244386241562864 -0.012431934910894504 0.043716698206394206 -0.40285528343165433 0.6852787979703445 0.1921961478161004 -0.5795636183869607 -0.18015029458243406 -0.32594254829762 -0.5352794065653474 0.40526023066550165 -0.3265903081863952 -0.015295556566618658 -0.8460641109027904 0.29075372387265624 -0.57389859692069 1.0214130009991111 -0.48159235370668957 ]
[ -0.597431795461823 -0.050264129666816516 0.6481564455950831 -0.017199140922071563 0.09095826224904502 -0.11353992540567491 -0.07015212964176687 0.5964470848167033 0.048365020912934154 0.13641085318740034 -0.46380779190538923 -0.31325809358380985 0.11261288742460691 0.23393588006254226 -0.03384692487609176 -0.31427802264695187 0.0192367023229563 -0.34723424025983907 0.5305071087259164 -0.17014374739813415 ]
[ 0.22430180064185692 -0.0671854415679408 0.003137494606601671 0.0777301769304336 -0.03488711656737827 0.49394167736903616 -0.13948255589950703 0.6148442371937564 -0.26110719603020976 0.041899803682702824 -0.4146622385434028 -0.6407252852009474 -0.05831769173157193 0.06151543340467906 0.2959784225987808 -0.043880624394781735 -0.29336081841009964 -0.07139474996946393 -0.02376894990842956 -0.3655756118594201 ]
[ 0.2824681854214813 -0.2739310564176525 0.42616005719304045 0.0020351759231850186 0.163487616795122 -0.29493040154481054 -0.3411525024896445 -0.40353196602762575 0.4054390021099453 0.422911410862788 -0.11645627068860594 -0.40788500139873085 1.6302560781453652 -0.48520136569050853 -0.35772594695725124 -0.16854843810102377 0.3107334494144915 0.4912567530996804 -0.20226998989504807 0.4076247601565854 ]
[ 0.4048793698671836 0.0058615719762948534 0.11851554632101022 -0.08459870960803245 -0.4861690789901677 -0.20663034597149782 -0.3629837078383626 -0.8865726226038726 0.22108401342627876 0.39704143961959937 0.6738592105749963 0.9468238790289331 -0.2735896146242667 0.015815524636113777 0.19825306987321192 0.19722120111123959 0.14932907861364972 -0.30914461829016887 -0.4773272874686156 0.429866487696771 ]
[ 0.4932673488279046 -0.3994643690367041 -0.4660607905624128 0.6549071245107134 -0.22685983714088853 0.38235007112898706 -0.2522271365236897 0.3897023520672672 -0.29931887601078705 -0.7411389210116446 -0.1527122047187416 -0.20994787160652625 -0.8454406637034851 0.1457424594457604 -0.44254328499346723 -0.2173148380221144 -0.3740130901390684 -0.22360035444954113 0.04865315500470968 0.6755157697326452 ]
[ 0.22849734826863247 0.12453254454895285 -0.916625330593515 -0.08085488420826836 -0.32982001910191305 0.008134208941557248 -0.02799407477136173 0.053497642832493024 -0.3292646375635679 -0.1884868580242013 0.2422952480236256 0.4540591099305388 -1.467057174130723 -0.23449554362184363 0.47217183995176504 0.45107940316797723 0.14415604162353635 -0.22363757393496056 -0.09174051330440765 0.38467171502741343 ]
[ 0.06764929353858236 -0.013355827869883699 -0.13865979582289828 -0.22033705522094163 0.3955916877269893 -0.05608785986572723 0.01350346322324633 -0.05688894039830083 0.21319538082755599 -0.10982053564592323 -0.016550887210536144 -0.06653909016747332 -0.23202781665067979 -0.3130135943822304 0.04985899373811575 -0.5067251456072238 0.5691746510603745 0.14933850421952008 0.7039844943135103 -0.07990258442389794 ]
[ -0.2898573932718014 0.16445450415929952 -0.2460676508589661 -0.22306317393906538 -0.34528588628518797 -0.5881718104037722 -0.3136234006156641 -0.8375192342529895 0.4924327490164207 0.6868348025707774 0.7680913192442519 0.9739062044342075 -0.605461502194312 -0.3257192765892899 -0.429895125108861 0.3293461322354964 0.21850608125253307 0.6705629563616735 -0.6236294715607367 -0.46970052045359423 ]
[ -0.26034243018380754 -0.022950966444364115 -0.28984621160544516 0.38285325672152376 0.5635104263082547 0.5300584427926744 0.42846082604897423 0.580388758575779 -0.0839081089693311 -0.5778672507689719 -0.6616348882467494 -0.6988413626871741 0.12519551144415964 0.4806821845867991 0.21131399145527718 -0.3740274264996635 -0.24517858454965943 -0.45748607722065904 0.41144630921869874 0.16319901583447147 ]
[ -0.17533253597866316 -0.12850665670722322 0.41273757781002524 0.08847711817102542 0.3323290581924108 0.2924777750319421 0.2278482145747844 0.12309222747725809 -0.029729032225155064 -0.5094981848277044 -0.5166198075200814 -0.6374981351181723 0.40613244653313213 0.5155716780429289 -0.05130511415295968 -0.02613675034907588 -0.6055365656482837 -0.08542915984545164 0.5614597711434954 -0.2572033710737961 ]
[ -0.09759201635320361 -0.17337957773859666 -0.2385792342891025 -0.049017352446058815 0.04931762199347607 -0.15694004047123228 -0.09046486977119214 0.11417707830289452 0.015216972311873859 0.5612158162920308 -0.210030574811511 0.20342534960371095 0.10893010198459267 -0.5656844005545651 -0.04151953183514406 0.013231005376354603 0.05618406732446055 0.11831225712144725 -0.12519188515730198 -0.008163319532792831 ]
[ 0.4160296336348008 -0.47499862146099725 -0.3175957217203622 0.024676817417559196 0.13886919407900872 -0.106693393002984 0.2905126368949686 -0.7773006858995353 -0.18663117947036317 -0.1807559873140401 0.9322706237994732 1.0946507251708135 -0.33008416487409603 0.3260325194990179 -0.32687619932058254 0.2466814075815472 0.18943529830312503 0.38721041673475604 0.08488855090280618 0.4508661789733377 ]
[ -0.0544607965505856 0.10378165341387996 0.22262050791452426 -0.12672040996733877 0.06008832496321907 -0.07575248587686013 -0.184990925460883 0.3629632342049418 0.06851401943359123 0.35197816264281184 -0.31824569218456905 0.1816838754261256 -0.43280174429424545 -0.14884844082656026 0.27024915248662135 -0.13217079268490067 0.012394683786670368 -0.08488519421844774 -0.02066888214646394 -0.46895334585716825 ]
[ 0.27564501443195827 -0.18839644002821382 0.2579856914069345 0.4286665412151953 -0.024980580268668194 0.8897522838900431 0.5377354283656008 0.8415177979503947 -0.3338604538749368 -0.7506136721458495 -0.9165374329140124 -1.0527264583115248 0.7498095982127393 0.39342673873584566 0.33829929845355483 -0.4731685096607704 -0.6129778952051242 -0.6671903022512152 0.5448127022797796 -0.1378866702313004 ]
[ 0.20732356991568587 -0.44118762066148176 -0.1320741516417749 0.3841279016730898 -0.018476918142593297 0.3963441824293373 0.32712824460355033 0.8631551627023016 -0.2801514749242101 -0.46593339277949614 -0.5685841842433557 -1.1355416515248193 0.8221548950231579 0.6109096618554214 0.22860269709314054 -0.7274451169743569 -0.5028889620317818 -0.6812744057031938 0.2864520889074469 0.23698433327958845 ]
[ -0.3891719924963675 0.504196275286475 -0.030291111654627965 -0.2746960425252933 0.6612254426547309 -0.19236828888506738 0.5624161464431998 0.6021608636327048 -0.3153902395226771 0.18619826221453245 -0.28164558116360355 -0.5056608080829275 0.20918855430748076 -0.5111665004273 -0.16022910523009476 -0.8159158006717319 0.2551635348759027 0.34655453812354403 0.8849556699898807 0.46146115621100064 ]
[ -0.2707254785127091 0.19225091422453852 0.3446195036130799 0.5439779971965242 -0.011292115193811285 0.6849153943947044 0.27635479672834445 0.31495574517291297 -0.23224322140004464 -0.8854879383125588 -0.5119438259453881 -0.5613151618060988 0.3532495946549868 0.0956249362811821 0.3662538061406686 -0.6895517329175297 -0.504612645704459 -0.3662398591167392 0.5613937215351569 0.1497661076078573 ]
[ 0.40456093000264015 -0.054075600132395873 -0.20971233825334454 0.022511275915234143 -0.4312842507546002 -0.024438480652452993 -0.3219494770801299 -0.067235177687859 0.14537631236936244 0.006104586407575686 0.3532543006358627 0.23854842393993875 -0.5284114782426514 -0.2132711721187464 0.024145585683588225 -0.013056302370405498 0.2600655672411064 0.048644225529898756 -0.5882818188836723 -0.4720617114083397 ]
[ 0.3225667868385615 -0.26358029621173545 -0.3107793515153482 0.2287029590197333 0.17526320848603352 0.05356213032618187 -0.3744372830324009 -0.007987150282499 0.19738615043173405 -0.29996073474833607 0.0051037270182251356 -0.07277310755385548 0.09676093526801618 0.18344341534958947 -0.2987885754478678 0.24013833926068046 0.001694170177789305 0.35308296895214447 0.05671265155547522 0.46435214205969894 ]
[ 0.0954141594073707 -0.049220194375244955 -0.04885469645544688 -0.40602895050261023 -0.17611051317077012 -0.8572655848673822 -0.3262973540691152 -0.39714768812206136 0.29672477474044384 0.6580372469806486 0.7429102649386184 0.5712565901954008 -0.2035699196191209 -0.5224455321320505 -0.22515536404068964 0.2700165176304653 0.3562556871610771 0.22811598152500218 -0.7617691090072295 -0.17743970831671405 ]
[ -0.4495341634640621 0.22422993353095572 0.6322136462640011 -0.22190592247595012 -0.1876117250196765 0.3996995280185344 0.0779854489641545 0.7497905881525346 -0.06573366534241311 -0.05721197974605901 -0.47930354581507595 -0.5564139313007471 -0.4920709368648708 -0.0890318222766541 -0.03011186673627847 -0.8158635829331375 -0.13244937129166773 -0.4284927436382082 0.619082655809976 -0.5239775350176423 ]
[ 0.005361856805396552 0.39042686710441693 0.2571441876725287 -0.10908520737351793 0.5386553516732601 -0.276459997680202 0.033535523597899096 -0.1475270148958917 -0.0031957576686167475 0.09731061381882149 0.27812643646420326 -0.14238259882326393 1.1924206442784333 -0.12846245779570237 0.161783777305568 0.1561568149112328 0.04191036161762524 0.009429892351609081 0.27555521332055993 -0.4495356082281189 ]
[ -0.044479806271670155 0.5656018302282836 0.29696493410654656 -0.13355182418412434 0.2917145434067371 -0.41156309584123696 -0.24872097430932044 -0.16451284127068125 0.3826431112756933 -0.07529624617524323 -0.2751198573674114 -0.675909872339813 1.575307930901872 -0.07655327962724953 0.6452867615724995 -0.13006432984603625 0.3750505674092755 0.09571864081146648 0.6018342931731725 -1.087558807869899 ]
[ 0.025350077793302367 0.12544308709299085 0.3352326662634092 0.2172968082840157 0.07742088447728812 0.09116068461982269 0.09744975576422568 -0.10276382224798902 -0.06536846476042131 -0.30164444427702963 0.11560149792005762 0.01885758605004493 0.6425374002612838 0.34013784000406727 0.07812377990718575 -0.004897858747689016 -0.4673175343501063 -0.038915506285241916 0.30627293097183406 -0.160238479611783 ]
[ -0.48882413287363197 0.2826734765650158 0.35068306751917266 -0.1049133705872825 0.17048523351373382 -0.29193357180144125 0.2222886415127962 0.4005764446712254 -0.44813486447580864 -0.20479731329521036 -0.0756837858390515 -0.6235789897000025 0.676613304483763 -0.049210725438891906 -0.4300671081361311 -0.6158585263939956 0.055491258082117946 -0.05783024460703088 0.42734163654091756 0.0858050611373261 ]
[ 0.5395452633190524 -0.17828036262824232 0.715771362333246 0.2797040785622249 0.5607454898613897 -0.3159966506946988 -0.6011354746690616 0.7842820275880785 0.22298681624345057 0.174443603456098 -0.55102737913412 -0.3151392150567677 0.4373013302043629 0.13171310524699173 -0.19950751376169465 -0.8563586847015641 -0.40102610951935064 0.5104381431625563 1.2997932770470424 0.025658436506380777 ]
[ -0.5309189724989521 0.14478258078812356 0.6415434435123702 -0.03028843059328679 0.5380660461210004 -0.5931226172763581 0.4464096515737922 -0.07924707182262997 -0.2892580262377709 0.08157143917474846 0.06954365869750907 -0.2826364537952691 1.2132984098059807 -0.28635960390283693 -0.003070955032731923 -0.12276552871970967 0.17848088141157048 -0.3392154811625961 0.3078613794713262 0.028429239652155137 ]
[ 0.47813325123385203 -0.39704480218364924 -0.7526820639648936 0.22589055963726584 -0.03017396192136365 0.3212039277102308 0.06992149839133675 0.00953959606611133 -0.20812801957783209 -0.5210890565469248 -0.13691245490554688 0.3202083281590229 -0.7277285545728881 -0.07560684222409018 -0.5295577072678402 0.556180146243937 -0.1671468358359359 -0.3468942410076831 -0.11108391308429948 0.9297710702180679 ]
[ -0.09148687504062258 0.15664390225986624 0.11256397399236277 -0.11757969928122729 -0.022853205624409356 0.44602746635024193 0.02865001729348625 -0.565142641413393 -0.14131267156718896 -0.1801763755057306 0.34071664305580457 -0.38786570735283393 0.8848693964711839 0.358485765909943 0.12741024086346944 0.2481972063096699 -0.1042497588030854 -0.11494776199779967 0.048551964357246784 -0.1331079574094187 ]
[ 0.16014115750904448 0.0010232930807108985 -0.07924026675532513 0.10111414480074261 0.33781963025006656 0.4660658570552141 -0.06576061426182178 0.9626817240543986 0.0934371327741031 -0.2918291992161545 -0.7082832144454111 -0.6774044024003286 0.051423094858665926 0.20604493790722986 -0.1011000504778307 -0.3732356740667234 -0.12153447095436598 -0.28021314770499595 0.5295607752822447 0.004952115546528351 ]
[ 0.28759691691574185 0.3834451888849298 0.3925908162870053 -0.12648959989931202 0.4274110082786554 -0.44621788527883244 -0.20923946322074344 0.010596691487785874 0.23546238064879077 0.44183401636335573 -0.06640576945090393 0.18767612714492055 0.9653578037646978 0.12656879569168614 0.14779592146177767 -0.005551891173775783 0.3018133123022223 -0.2455975527206845 0.2128691401681489 -0.48729862426318493 ]
[ -0.0998739061414278 0.20938127311716262 -0.027166792467388064 -0.3704851039578281 -0.2685844820017376 -0.5494404949326066 -0.3087038968709596 -0.690756623721111 0.2677409712552468 0.4306617521284094 0.5586631016698477 0.8095753054842525 -0.5013673365333793 -0.420120642100709 -0.19371715372517886 0.38149316385664983 0.46651000993365355 0.4671734835965031 -0.5031242315437563 -0.23902873323879092 ]
layer 5 Activation
tanh
layer 6 Dense
20 1
[ -0.643508053732018 ]
[ 0.8454856485306732 ]
[ 0.7425656442923343 ]
[ -1.1586528973354722 ]
[ 0.38531508805881337 ]
[ -0.9743010399818433 ]
[ -0.7891942064128695 ]
[ 0.6372086637454231 ]
[ 0.7264543193993065 ]
[ 0.7747168431417876 ]
[ -0.8726166794028097 ]
[ -1.2422030161068363 ]
[ 1.6298718248409974 ]
[ -0.8558549897544917 ]
[ -1.4031981544465348 ]
[ -1.2158037380079765 ]
[ 0.798614147081431 ]
[ 1.4450167279294133 ]
[ 1.1396968032426253 ]
[ -0.6284973765598806 ]
[ 0.9037684686269386 ]
