layers 7
layer 0 Dense
20 20
[ -0.134093074464297 -0.11089142183975499 0.24259154400662167 -0.21669116862327797 -0.1085305905265057 0.04353337156849333 -0.6769989999819225 0.0027917208351944042 0.1419492388276435 -0.42086580688788267 -0.25751776598569937 0.08458399523797853 0.16813477887195563 0.17986169445244707 0.010878686609996267 -0.1878322899037951 -0.23162748843518885 0.06754901909646226 -0.022128341096165884 0.4551025251579764 ]
[ -0.14659312658306867 0.2405330645542083 0.28690152284561726 0.11926231728636266 -0.37721723803236695 0.22392810487962383 0.0076166535037501815 -0.33818109823399295 -0.04995679173638944 -0.3446237381337356 -0.10815450438023586 -0.038656906168812406 -0.33327712606948495 -0.2502197017030755 -0.13349355547272007 -0.3087156923341793 -0.21389329406760507 -0.21921061692176122 0.06454068293506689 -0.29886232706647287 ]
[ -0.17275846428590697 -0.2968483520002681 0.29062577872740136 -0.041078365364852494 -0.36752265268370343 -0.23159356623332336 0.16332792575749627 0.13156778635134034 0.17621308771998864 -0.19891875811552348 -0.36714175564122825 0.26221966817346776 0.24865328319616065 -0.16822677601645614 0.05180322427394704 0.22739631923664944 0.0025014816807339365 -0.20556655424919643 -0.20561555573685086 0.29953744394057363 ]
[ 0.1532204746706735 -0.17565879345775826 -0.38524625056172285 -0.08718455257884508 -0.04707537145784361 0.08744023101489627 -0.4692892069718411 -0.2575738228391972 0.2183464185076324 0.18630483860636313 -0.33929128108660883 -0.2689842987984969 -0.1673201096783468 0.04837790061057729 -0.1209668891197035 -0.1851201524637545 0.15461930188608802 -0.32787932766421585 0.26878144479380356 0.041899954651605266 ]
[ 0.31039418596728163 -0.33648698221296236 0.49463840939864895 -0.510311600219205 0.3291570731142198 0.26378729883878227 0.08523779385785937 -0.6289658505042451 0.08137534595794267 -0.4159899228945373 0.11565803459990151 -1.0120473866493604 0.15922928167219091 -0.09605905383082196 -0.9194189947108875 0.17081541665913944 -0.45109147556785895 -0.011006428699496262 -0.03556912176798895 -0.09453290523713005 ]
[ 0.05001191904144497 0.06393212992270342 -0.1231217869231956 0.04991348950823619 -0.3853150022101879 0.3340862450018237 0.2996671230822348 -0.19474772139703686 -0.20817980096069685 0.12834209683843045 -0.1956551679017434 -0.3160773281206452 0.05561609145333262 -0.09625994514806437 -0.02842861004399495 0.12635574688784867 -0.2914831118212371 -0.1906512521440435 -0.01924892080288011 0.29442292976312245 ]
[ -0.04535997798717879 -0.062362775660521244 0.33479783282474584 -0.15829514309213338 0.3747675558471594 -0.17570952746219856 0.1975477262186182 -0.11360990848953906 -0.013986794925760397 -0.04048700521205309 0.09333861484063226 -0.04101840480300803 0.039159227596299334 0.29953355935988835 -0.18314084801195776 -0.21040797928305244 -0.32247723900932906 0.024318519062078058 -0.003785422374803503 0.27855929454676914 ]
[ -0.17884967708666852 -0.12780789283695465 0.2668719475461739 0.1030288599101599 -0.1694425602193914 -0.30939086395768983 0.38354985264522773 0.020349512206318917 0.19841070907751973 -0.10849867356188826 0.3868057179350827 0.27605711073852424 -0.26194487392805765 -0.42598950990960444 0.4140714855206805 0.41359046727548227 -0.3608588698056676 0.12069423636630781 0.19768191011866867 -0.05563372939467426 ]
[ -0.5273684037941603 0.15785570048108627 0.1282804253859053 -0.24476154156161142 0.45022160536157074 0.18585922502163135 -0.5084250100048802 -0.265403445937925 0.09551336229487274 -0.27598082714898226 0.29268017555117165 -0.11245238151917929 -0.0648411819469073 0.061281814131808145 -1.1342488964092068 -0.06310025784094163 -0.14466888241769257 0.051861323574906235 0.3318520089239897 -0.6445111552640993 ]
[ -0.4963091026819423 0.3106910858444648 -0.02387922874606059 -0.8340916091840187 -0.2534016209490431 -0.28852240875349905 0.40477510740834705 0.46948893633419597 0.3970465161212589 0.9258349187343556 -0.26232675161355573 -0.39861558747285514 0.1098893870974745 0.10551377116820033 0.014268488505870732 0.36908267036492703 0.6698222371602058 -0.8933430420594758 -0.136284581576337 -0.9543879955940221 ]
[ 0.06963601006596631 -0.47447160173503117 0.9378210289961257 -0.4832854424244557 0.061139013285655984 0.41950307659949304 0.24117292624180703 0.40812886294976064 0.02339366940576195 -0.6802273059852485 0.2421885416070873 -0.11889201743439204 -0.6843113348488116 -0.3236867068154018 0.6422798441744063 0.054773018056287134 0.6833392335288434 -0.4474509502802485 -0.8443470800198831 0.017888082002084353 ]
[ -0.16763245246505548 0.08300282619318032 0.23719651779643772 0.21290042864278935 0.7477280002799417 -0.5852944304994487 -0.510615632093657 -0.9325369044853409 -0.532918095153728 0.43302007196006076 0.7602404170347574 -0.4216841854295262 0.4636246713442187 -0.5013240020133057 0.5353989663518264 0.3169179765040169 0.2892819796171614 -0.2999349277516631 -0.8760799996943632 0.13698966396874082 ]
[ 0.18588725600269687 -0.41438558932207364 0.5946317606514439 -0.6435755124449463 0.23567831142139375 -0.0038968750634659514 0.05511137448045618 0.0416846543083008 -0.2633716072498285 -0.2482142322401005 0.2577490234771685 0.48546768331470236 -0.2694515243929921 0.7608278945656559 -0.8621421805721053 -0.5861533223957693 -0.12411603927911379 -0.1387566393965591 0.1812627175290816 -0.22956267272808326 ]
[ 0.5083613006150245 -0.19072582596602317 0.0887765230750516 0.5695187653095576 0.13494145982774053 0.8038223160649279 0.3343364559167071 -0.4763342574192083 -0.24349899124770832 -0.4862261521434977 -0.3476337741872586 0.47054601567929005 0.23241898528439375 0.09984279635603809 -0.020588554339773964 0.17619203625295884 -0.6793704710921544 0.40629350881101184 -0.46589607814939393 0.7852166690596297 ]
[ 0.8179037265111537 -0.1004738746349472 -0.5986130737913178 -0.4464947727584798 0.37986925836985064 -0.7275366201205561 0.07494002251089489 -0.4484509801232851 0.5995164190316767 0.03863373819973713 -0.8647422435312868 0.020658771359866664 0.7577022939239838 -0.16895583400775108 -0.7743967479386349 0.640278735326448 -0.5259584881213744 -0.148653215628723 0.7123824409456868 0.36967520250136154 ]
[ 1.1726669677688648 0.11486702398201223 -0.11890090928840236 0.5247724743986042 0.058665028049271095 -0.1985067565208351 -0.1829404560302565 -0.9128065979378002 0.20064575633157317 0.35656485036262164 0.8734551548972963 -1.1228685887947536 0.14741005854921074 -0.1233982588996364 0.49050340992722624 0.6307242217135385 0.22192456317404785 -0.3641952856184486 0.12444130000610738 -0.3202791001230375 ]
[ -0.007239120569511794 0.6143326126328906 -0.6023800118464808 0.3126897544471243 -0.18653002737501087 0.14123754482327755 0.3961422774468317 0.3868755444603903 -0.35501568363736136 -0.22689379251070457 0.1396540338461632 -0.8578717656650892 0.0984391976510348 0.04717082577825807 -0.5056349092360944 0.4164114311757375 0.6804544267657877 0.5047593755938538 0.27173318771165095 0.5214800446107825 ]
[ 0.008675160942098869 0.2027126160271735 0.11732004849470748 0.13391391102973438 -0.009836102792383637 -0.3672113000574759 -0.43049797426579745 -0.4536216543631436 0.24078816673547732 -0.4457706527581117 0.17046053205603925 0.13490375540713567 -0.29952435431274244 -0.13709202085246425 -0.01402266044698757 0.014811584599515764 -0.07453434024275 0.23380597957396904 0.09177841793049006 -0.057171690097605865 ]
[ -0.2014037560616722 -0.2534168035449948 0.2653873248461958 0.38081327769088597 0.12561521189349623 -0.2592566282987034 -0.11107934980754468 0.3709483587528159 -0.3216508789091535 0.46074600691712486 -0.04651051389211965 0.029779964651793323 0.15267822543222523 0.4005279709431239 -0.04039584805307061 -0.004840223572447398 0.0021851859403094077 0.06212954389147058 0.2978323124391396 -0.005566051848861553 ]
[ -0.5096779818445584 0.0773090506601666 -0.3949837462169721 -0.5346001934958415 -0.8966601538303327 0.61028588141537 -0.16410635383169456 0.5729823262485575 -0.35974560430343466 -0.5028894319224931 -0.1279557979397785 1.0756182676793151 -0.46111249229473134 -0.21912578257176737 -0.3130358069871685 -0.24501231702947718 -0.09822873102150771 -0.17755237186115103 0.635990261671298 -0.12657891193734952 ]
[ 0.04616572540527248 -0.09227673519973749 -0.026761261119904886 0.034065063387703806 0.09068113528288328 0.03389029968546203 -0.04965452620772551 0.0983436672872316 -0.021888574480299346 -0.07628098101481383 -0.18407352135374444 0.04193457955995672 0.12703709630997254 0.06412498080748189 0.07617459436492219 0.004366672942301658 0.046455476581639114 -0.014151269710701572 -0.044856520482805265 0.10889212173815874 ]
layer 1 Activation
tanh
layer 2 Dense
20 40
[ -0.37805618504230387 -0.6386528064397705 -0.21270048156361848 -0.5526256619198885 -0.3215520237125429 -0.12076037887691503 0.10017828168727287 -0.4608707961125809 0.09458815221613726 0.1915697644851569 -0.14237865156980198 0.1985419795359381 0.1829540993189469 -0.256361506459864 0.4688452809834788 0.4474827170121599 0.10936158891919052 -0.2983843409804782 -0.2585085755548219 0.3347620284003999 0.09914963634987736 -0.5133949665767786 -0.2747227915645929 0.16131275911953594 0.155605656613669 -0.1798517419562817 -0.1914871913892658 -0.15725365552700787 -0.27901897371083456 0.020754166520246375 -0.6278570592337435 0.04025788014784056 0.38962728042713346 -0.11367856195503953 -0.2128964171646566 0.05815608128587506 -0.47517586302466164 -0.1622602727708444 -0.08693633324151749 0.23019699115497552 ]
[ 0.42505812744581617 -0.0892003164348777 0.04721362176255269 0.15192529120463175 -0.16703838293994275 0.30032978827343493 0.26346322911225706 0.2447133943383317 0.07076015237432909 0.1328614831055715 0.11219920293065404 -0.1439834347207018 0.07676385561354084 -0.008070783558336585 0.09584073886414671 0.11456831524556518 -0.21719781658425225 0.19832037201236843 0.04444696451818886 0.00398315400398867 -0.15379873164934618 -0.32453849322689143 -0.0578027678913116 0.1401918148215697 -0.39074582132412256 -0.3445107138767656 0.15948882280793833 -0.15178954369805958 0.14947443133916935 0.05306759736951964 -0.023283959725272436 0.06232085916407601 -0.1345840288499943 -0.1642110681775251 -0.3620800263207403 -0.19928817169643426 -0.2141125843928799 0.10708307784029142 0.03105512961851565 -0.36372291559126946 ]
[ 0.23333591715853752 0.33398809517446 0.24739415024371472 -0.2140908247401995 0.45026139510399676 -0.31935533924355564 -0.09830593229310941 0.07213438622245628 -0.40171514301810113 0.48538503191299437 0.2209448063072816 -0.3282283205201056 0.2545141796194685 0.05570422276262077 -0.7030072463981516 -0.3364678562698878 0.2231659931225869 0.18741317452356637 0.21512689847151245 -0.23895298109841573 0.23390466716202507 0.05026578703260862 -0.049916875989384046 -0.1570342898386684 0.4348411332984169 0.3181188528967382 -0.16444585839060818 -0.16624128924112683 -0.476710873907601 -0.3663932202658437 0.07939955603236534 -0.5621613758887527 -0.23871374216992539 0.3633461667430793 0.01554924367034083 0.05376840875189166 0.42586920319426436 -0.3859341958037126 -0.35575039947068393 0.6572053009834009 ]
[ -0.06477233594836267 -0.6300953190488614 -0.11161217183267275 -0.015436330458536884 -0.23519005234461407 -0.1778219227456721 0.21415081655850202 -0.7443549880090318 -0.22788218044797334 0.4075711740757953 0.3083215863826194 0.02578159219669273 0.21531679412744156 -0.041461120829218726 0.31757867264491035 0.2616082649402899 0.3416853815239693 -0.4351208498104792 0.3401686724590279 -0.11458399498192816 -0.38389647514368735 -0.13909418063863996 -0.13019322466708727 0.15947039899045584 -0.001388668652257748 0.2071834555233915 -0.32185915010040944 -0.06483535050642882 -0.25597984492417913 0.576338464876828 0.022952168067843483 0.008809797892821733 0.2528187447900458 0.18853571407103578 -0.12518736800604605 0.1912550419026785 -0.009165710390719381 -0.23470812536569566 -0.09049799434949747 0.07470840096427904 ]
[ 0.07629317921533894 -0.02066302137615838 -0.13971900632728243 -0.4367490962234624 -0.019052908472020156 0.07137326143547139 -0.1149020906767911 -0.16479292511079813 0.03180267561269332 0.026779341691741183 0.37445310064285353 0.1282567752756932 0.07877333624286283 0.20218724311742053 -0.12345668541877566 0.17892589369114295 -0.18644026332651184 0.151697316011029 -0.2652250332659145 -0.2649657180684268 0.24137511553904287 0.09986359700663205 -0.2932654223903656 0.11997318080338434 0.27639334375348595 0.26329435861164574 -0.006983697316565698 -0.24870614938602406 -0.19737494892040133 0.4864319223439516 -0.33747192470653237 0.1188859886670429 -0.2207851398480227 -0.08393709037592716 0.2572437553969425 -0.02289731922617968 -0.11497352469116523 -0.23112225907018832 -0.4482745888293512 -0.15935388941431294 ]
[ 0.2831712237566857 -0.43753198130050575 0.30651904298066607 0.2475044623357565 0.2548224640769384 -0.20955271173771572 -0.13232469044034345 -1.0460824398660433 0.18156774360245628 0.19828637417612016 0.32836459594727313 -0.48862144279617187 0.28829216345559955 0.06000321747803771 -0.26323975428340246 0.09598608769287001 -0.17062287541993493 -0.2075830959800242 -0.44747018244398246 0.24064660868656054 -0.237174599240299 0.2565229295353821 -0.29698992078289277 0.10258407935320198 0.19940351503387968 0.6814231500953646 -0.23221396063483923 0.32973515224727934 -0.0549572630604676 -0.2297504606701353 0.5371250899268761 -0.23603713317749173 -0.08508251584971402 0.2588389439171271 0.09089667394908534 -0.1760086811547287 0.2411789498887859 -0.5843585661320827 0.33472055812227824 0.05300615943063521 ]
[ -0.40278294160573214 0.20689648872719224 0.045891074461618685 0.21295830647977515 -0.09468218334828207 0.20734724004464739 0.3448254397581046 0.09447034231884806 -0.27014922254387624 0.380359241808578 -0.37584205146017735 0.20400389357988274 0.41332584639937114 0.13289117794467545 -0.22283127603148306 -0.19634681091945388 0.1100946916621135 0.15318072119560272 0.3313241008560052 -0.37086228213070843 -0.22538387111619373 0.0887676562623031 0.07176692315051024 0.3246814726389279 0.18221790687198391 -0.033527935900937306 0.2977236820802218 -0.15103568189334662 -0.2835919739955585 -0.24129896792440636 -0.19875926288737744 0.06231652910276242 0.12789192724732046 -0.12632330641870607 -0.2609785755710437 -0.2199669247487257 0.1958962083457282 0.331011615242945 0.08054095818211224 0.34669249418214687 ]
[ -0.009045645541614529 0.0021110369464898563 -0.2662294142891914 0.09968695676870808 -0.4367988822204366 -0.30243115988262287 0.4891424420745309 -0.22943470085488182 0.0024789100718806563 -0.20146119027363593 -0.3719860163828374 -0.029645516825277194 0.41508502368724964 0.13965339523677994 -0.272112396249745 -0.35372146626466594 -0.22529975490270618 0.052874751637179376 0.3186256222726985 0.15229692545564869 -0.05759382238475436 0.21518260814390427 -0.05509845450860984 -0.20807409876462715 -0.2333506281712948 0.3194610325637366 -0.17951241104566615 0.22431763841822402 -0.1243597384003067 -0.1669483162054453 -0.1005589018868389 -0.07666373343364234 -0.14522160906322587 -0.29150235894030985 -0.07899018410417383 0.24513920479887905 -0.2699404888197867 0.32530575274954154 0.7233650046993908 0.3979610466029738 ]
[ 0.028838348825994467 0.06632985663576087 0.1437905783996536 0.019892813849980418 -0.2889963669516233 -0.10077507696872066 -0.08219679628532027 0.443248878274104 0.11524654762405416 0.18743437566864726 -0.10444629798464151 0.26640517141076386 0.09379455071892118 -0.09015381770187869 0.4957762520520623 -0.17971236599785564 -0.255555144703738 0.15390975800613507 0.18213792922163627 0.23706757178224297 0.010611798688592012 -0.10691373512447927 -0.2787774298539627 0.00820646114797 -0.18959497139595766 0.06240495842578975 0.05605589696591752 -0.35341520789984165 -0.1688035080560698 -0.19048853105609362 -0.46684264637529893 0.41350699007356084 0.03895636268248275 -0.10082474001703463 -0.17884921272822685 -0.04460156509157377 0.030791009027445235 0.28303435367263574 -0.2430335645981192 -0.09923803836549454 ]
[ 0.13796890498336908 0.1902482628797852 -0.26731788091648323 -0.3395103011807722 0.012383781515217991 -0.3283015277155156 0.047843271843500644 0.238888405224083 -0.06265617193890553 0.0329905127116605 -0.40460259528829007 0.25565850393624734 -0.14952866422869987 -0.1954472131900824 0.24446183527709864 -0.287308829767217 -0.46956093798148474 -0.027546194513652342 0.40407644759472783 -0.3345449674926993 0.39736595635840766 0.26840491020377066 0.3055817041190612 0.08171734256968968 -0.1787602496924216 -0.05135463572725564 -0.10845608325298728 -0.45999143036375106 0.3558954573355165 0.5852653995584916 -0.04102686285244627 -0.002462052147853411 -0.05146588730619111 0.021395690546975498 -0.3492107817819011 -0.29109831680175846 0.2640494853902544 -0.02298740943405095 -0.09180477799830247 -0.6320518079511007 ]
[ -0.22062526479043237 -0.3023926368300749 -0.03397193957136508 0.16965274576240422 0.1831873259890217 -0.40849513205256444 0.3536011792620366 -0.016772855125137303 0.008346413514762679 0.15553235235701313 0.053386952375230404 0.08403135889278247 -0.06083885626052489 -0.1859762624043437 -0.049669311177103964 0.14755285600777993 -0.3288161801503232 0.30111215130798924 0.15861233208920114 -0.344597178502738 -0.25571175951935476 0.22071941731477507 -0.377477101261373 -0.14164172696310168 -0.09847342636831605 -0.08423640732711511 -0.0009808271855791797 0.1284518654752977 -0.35302602262196686 0.23041393799906704 0.0973202637303163 -0.23203160951828067 -0.3971140393391698 0.08970359636760573 -0.006786103984876669 0.3646463206009985 0.29929917248718524 -0.019446159785144846 -0.15119537657510262 0.19266602073366726 ]
[ 0.1859913575209269 -0.2093094605319119 0.14572044891850558 -0.20412034859349545 0.30210774479988445 0.2621390029255205 0.3106463897832903 0.3186231631354741 -0.22245094366729876 -0.24457400425870474 -0.10170155721930545 -0.4319287493709371 -0.022469347642280417 0.06834068259822057 0.16040817165007015 -0.622576538121772 0.8658804460647778 -0.015763663667663155 -0.5136590876697326 0.6329069675652115 0.1973323635947011 -0.03846399701755567 -0.11967611737844486 0.14334281049788689 -0.054808310173126984 0.34470261954136794 0.05634612215517518 0.2956557665075221 0.39497613819018657 -0.3153176690163889 -0.21637951138158454 0.0044471099612526654 0.5438255793413916 -0.2969460807036559 -0.26953362581597723 -0.3025424975809475 0.4234990449019636 -0.41241413212208944 -0.008747445313509782 0.34777750821498776 ]
[ -0.24066050408155304 0.033791553182380626 -0.11805093449119179 -0.04644257955687073 0.11204467996684242 0.35027130128519846 0.1544468892108037 0.08839896463261676 0.26544409926801105 0.010507046568359796 -0.28543783721763955 0.2712128743058556 -0.5765185173361291 -0.22474121860606053 0.11202182405033127 0.30900651603793144 0.41117275754301186 -0.4694163195152358 -0.2508967590372583 0.2587459832631858 0.2433537633725136 -0.5500291448834651 -0.019517896240169474 -0.2023032053111628 0.231261642669716 0.10554594293185803 0.2746509875195918 0.11137577593322047 -0.07519018873248322 0.6168401698366365 -0.3692412013543911 0.23296842669079396 0.1663093267661346 0.1481165262327847 -0.15790306676546112 0.15445434552778053 -0.33049496505814824 -0.0257396683888393 0.2869422243395739 -0.1003573984994816 ]
[ 0.1831094271677803 0.3736020347640995 0.3829551992067091 -0.005255176005453738 0.20407854196799746 -0.15249936879238832 -0.3660157354599092 -0.186782509057328 0.1762838407833061 0.03178898417588678 -0.07110969191799028 -0.3842497570555554 -0.4863286757874132 -0.049962278699410965 -0.3694346479274728 0.22060157320993712 -0.2628729060496372 0.3317404507572276 0.5680864984506204 0.21250068183669904 -0.09141390757720039 -0.34655068556914526 0.0037032495364428116 -0.11079118787609642 -0.28019012606260274 0.3977327821113768 -0.19947894169052957 -0.15521439308319432 -0.05721894029549543 0.333355257685853 -0.15275598464621928 -0.19145746133208089 -0.10587985550677938 -0.22094729637989544 0.026244873756465042 0.10202467888568965 -0.08075924331489459 0.17903114028047656 -0.14329823194556646 0.18604206674375673 ]
[ 0.4511332488950413 -0.7086020030760402 0.3442172597684568 0.5504682089837687 -0.3557184607528728 -0.20770709913032082 -0.343855379012334 -0.7448357316632591 -0.8027617155606409 -0.07500095362134576 0.58613327703975 -0.10823407881745763 0.5083649152628654 -0.10628816934304644 0.12134448497452997 -0.4539897924385011 -0.3910542525465307 -0.060847132051633245 0.6729202139048953 -0.12373658416392026 -0.483757611938778 1.0567169785218533 0.07318356905799109 0.37429647436896213 -0.37138103348928886 -0.11212840958664075 -0.04984704370128122 -0.17313035756754577 -0.3782604389469212 -0.4448256410966663 0.417839123965718 -0.057260230651883105 -0.3212647197808663 0.02162906485247108 0.2426402974591573 0.204057897783324 -0.09088085380408358 0.3384138722220091 -0.13502917006385468 -0.4786140200614442 ]
[ 0.18447248127129878 0.15145389114903848 -0.005730671675900323 0.03619079006958053 -0.08046480534959102 -0.033136283556433256 0.29802440170359207 0.12746529149650276 -0.17346314152772724 -0.24212159491280694 -0.12505500885526358 -0.14477090146613614 -0.29215204612356005 -0.17059892507770855 0.12408356241667463 0.10059470266453296 0.19131488593302898 -0.4152046076205751 0.21832184778545927 0.12230280995726975 -0.30090954077054755 -0.1718636876116344 0.1893435796015953 0.0705247831568838 -0.34727834552241976 -0.3620146140405416 0.11488562026205881 -0.1818785523562076 -0.24642783259471293 -0.04835472075604217 0.1246483639134279 0.24114081483608166 -0.21806466579975053 -0.09426112034437416 0.05077996519731857 -0.04850454877323657 -0.243855881953009 -0.1390480665990682 0.06910646596281923 0.3755294369328014 ]
[ -0.03395261954527108 0.42719511047803294 0.18329021543787483 0.34070075097120817 -0.027577401514977253 -0.41921720813460206 -0.06017848084417757 0.002850690140963295 -0.11001320037594715 0.1782846716338736 -0.33216699265525484 -0.1743155712839739 0.5844510602932564 0.10059508809359374 -0.49677344642226967 0.008354553511019328 -1.1348999037758336 0.15925762725335088 0.4604245948642459 -0.5465670288104544 -0.057766948275247615 0.08605607657768105 -0.01940067629119896 0.030383139481866824 -0.24117812544052436 -0.38688032928985927 0.0001196742440043102 0.32077961404419963 -0.4667336378715709 -0.027250438603335283 0.19570325851984074 -0.2619939891497869 -0.25315498038445544 -0.0336119026381684 -0.331325533871982 -0.03818842803471322 -0.12240081152981215 0.38334119660943405 0.3121543739804162 0.3194569234582682 ]
[ -0.09545836082975481 -0.11866651279813603 0.28244177275858434 -0.0761791690254103 -0.1741731333009051 -0.018419643467998615 0.3816926077183564 -0.13768797601336621 0.43546248765747936 0.19799953141641685 0.10871709865427305 -0.2671226581861212 0.012056517734870808 0.13415706890400544 -0.2779897868291932 0.43351711588689573 0.5158419570211656 -0.3502428351170471 -0.21828992205186926 0.159747504860383 -0.28953975221076245 -0.25640136339864794 0.10579270030451532 -0.25817956587614815 -0.16236249080564708 0.253249353088687 0.018679800855202947 0.18224931368032268 0.07558899181864494 0.2961808734431835 0.10055310907316213 -0.08486975475836986 0.11389072660095363 -0.06902953698712085 0.11240394318519388 -0.15215695244324462 0.007179849446091759 0.08170645968890095 0.2438479460003419 -0.13066816947907886 ]
[ -0.4965198323350201 -0.27262250388444115 -0.2427768547744079 0.19309689617279974 -0.3700492242892412 0.39607316691511085 -0.012344062978592692 0.6194498462262858 0.44825203153663523 -0.30213989649803663 -0.36359965566519703 0.2496073133807531 0.03643482786595455 -0.275639733597613 0.15957849318705983 -0.1609216894151461 0.5595796259652811 0.18670265576017014 0.0006423341756161061 0.2760928023798348 0.20337109774484582 -0.6004049634990554 -0.0015626046738445483 -0.12224771505801155 -0.24808884376456403 0.012956651682223447 0.08113545018380465 -0.02210040477677453 0.2169827068180039 -0.02305463847598118 0.11916763237065583 0.3158203263525299 0.657016983443684 -0.1019037213800283 -0.11877246124803506 -0.2717222024990066 -0.4463655429868482 -0.2838770862503485 0.23261561125367494 -0.19967383067919767 ]
[ -0.2089561345910367 -0.8759309310999713 -0.1526627423828796 -0.047217563196162465 0.05702984217116187 -0.1873624669419051 0.171828801710103 -0.4913834903141039 0.46500182232610116 0.1610781828490524 -0.2605802707898817 0.06199728260086961 0.5592147800733985 0.04650957798745395 -0.30447100124418797 0.4399661183606195 -0.13662489646704157 -0.6091385141757187 -0.0068317509921200625 -0.21004618092983227 0.0388981077742479 0.14897292303737275 -0.14600696092963192 0.3082478031560113 0.15417599317876318 -0.03976831561080618 -0.4139159280831728 0.2948939674285767 0.15977101591715026 -0.08040438277868561 0.2697715456153392 0.030012474055588233 0.31821834048504355 0.11685568521466631 -0.09838765811825867 -0.2878124076657302 0.13700269964388767 0.07836953220323144 -0.5331120310909089 0.10505305605238491 ]
[ 0.03230353415217991 -0.12491521499706915 0.08444466527003086 0.12181207024290706 -0.03763687257209909 -0.022862157757050704 -0.2341399770115672 -0.07412208854244867 0.07858762271008855 -0.039546074845483815 0.03659938020412895 0.09991318454532327 0.03474136889323344 0.019687321702236433 0.2197797067520168 0.09913654068605775 -0.3863868322899911 0.030473594095127406 0.14824049990264754 -0.03921825482618059 0.003912388611671813 -0.09129182550534284 0.03137563795605485 -0.008777535385984563 -0.03392812872027431 -0.025758730482367334 -0.13771369848739023 -0.013515161506750037 0.07399769228294596 0.040344932510834396 0.07167238277909961 -0.05244775682046553 0.09258458327881525 0.006696020900228005 -0.03032503471093672 0.04544945305567408 -0.10873016941173409 0.09384306452521224 -0.1059458942959671 -0.17542784217414706 ]
layer 3 Activation
tanh
layer 4 Dense
40 20
[ -0.017096200543575638 -0.021394076350441087 -0.11507309226993415 0.07749544440852936 0.13530132113526094 -0.46728670102007835 -0.10912673096688176 0.3277244638341238 0.08565208991243278 0.21211779738101624 0.0418378184216762 0.0257766446942888 0.13649753176007332 0.12211872957868299 0.19775679372328694 -0.0012276107971754793 -0.07204176355221209 0.29421463867866926 0.03937964694304379 -0.08006957690926297 ]
[ -0.1465027948276582 0.3018378123429742 0.07620411987569013 -0.040124537173513455 -0.31553425036960103 0.16223640518332716 0.12083725229629459 -0.12914816874798113 -0.4758750810438656 0.10182927473073876 -0.20888278378526734 0.5216032276043227 0.22208688813057018 -0.11907048854045783 -0.10722047659634824 -0.08990746081817286 0.21755750486251385 -0.14105204440497013 -0.007876612569188635 -0.11146714754456945 ]
[ 0.32494869257519265 0.1938473318620092 -0.1348179091513665 0.3710545881659531 -0.13594219365181978 0.11451842438064104 -0.27890313294926367 0.1307813444514298 0.2107137223169814 -0.012990573024249549 -0.23316254252210605 -0.2560973786361692 0.2285783336315112 0.15746124491943578 0.18197658765797547 -0.029400958027643344 -0.24309091435333763 0.2885688145180452 0.17649242929474898 -0.24909606260577807 ]
[ 0.11955925974975512 -0.07905077226219162 0.09266435686005417 0.026939078606927996 -0.3815164627781854 0.2690065378166063 -0.27393500571143065 -0.05884017547252836 0.2184662758168767 0.10260925360947284 0.2915214463926384 -0.3047906294732845 -0.06535844909353333 -0.14652703980073611 -0.022337108650344287 0.20714299351690782 0.12212201490303917 -0.1258603284541647 -0.15750870961297067 0.010731276709503187 ]
[ -0.04583287076257292 0.3808892327176249 -0.38556161722324883 0.04145788976198774 0.011176611931848037 -0.10998408970834446 0.3141342239514333 0.1172203932163324 -0.32994197036640255 0.12589995032265316 -0.23895986913693565 -0.01514830499206005 0.10198153607492633 -0.05895505324514057 -0.15281679942331677 -0.18737347841735702 -0.006912885526276676 0.1056588215063587 0.16583350025616028 -0.17179822077392035 ]
[ -0.1530512592849608 0.044400219966833805 0.34758729586729603 -0.30932343338035573 -0.0941520598391678 0.11952795702736638 0.07245994684811381 -0.5397321608033342 -0.09704496509048881 -0.14008490499031906 -0.07304581491291427 0.14857500969574056 0.23048868483496224 0.1953748340958086 -0.22777582334933982 0.14046512844916223 0.06636092415516706 0.19383278473282126 -0.03277257296637604 0.2507143429777111 ]
[ -0.11407386052480697 -0.06088205941789682 -0.2066526497251997 0.0024002441619722847 0.2064811450363208 0.704117306925925 0.07709110510232295 -0.02985998617087075 -0.4287469749045182 0.16962675165424987 0.04081295522468879 0.2877277682400457 0.04707444248658668 0.232654475691422 0.1627859357431677 -0.04707221161812663 -0.21361808702887394 -0.024594170110419714 -0.05758208686883623 0.31730559506595857 ]
[ -0.44089744452593693 0.36948441100675045 0.293235571529635 -0.24919977625384407 -0.14816878240936873 0.3419014157204233 0.3474856229398694 -0.4443405647422136 -0.054507012933512046 0.2057148258559688 -0.2916074701597615 0.318876554556694 -0.3306868533775098 -0.32884547619205046 -0.25790664031726335 -0.08528623829681933 0.173599969464429 -0.21392948005345916 -0.23605983455121476 -0.15692648980713061 ]
[ -0.1403352098492071 0.029946783361663867 0.181463964097894 -0.27284381282285225 -0.09569425958720715 0.19020923487273758 0.08809458325388028 -0.019381782022401563 -0.09242638714174557 -0.1841311521389945 -0.0176944910728174 -0.34646221602309657 -0.23508472492612859 0.06725400643889871 -0.2540648808442187 -0.4262350640786719 0.007828217446979256 0.0003103395959423656 -0.10828575905841599 -0.25369561474518076 ]
[ 0.23908361245026138 0.2874146311243642 -0.07125852794274012 0.09251200967388404 0.2132634997772842 0.00024822257819965936 0.3090985007642799 0.22591052838475753 0.03692975917868825 -0.25903978434718833 -0.01796441604483392 -0.11155521883999422 0.11718090180532344 -0.1913647640939145 0.15665818005792564 -0.2408310989966946 -0.2957590657019874 0.18942224369588498 -0.35241962730395465 0.004386169705516122 ]
[ 0.05752242686867303 0.3929955335515757 -0.026708705375282367 0.12621485419083914 0.2757739218663395 -0.48353237221845474 -0.11309846016323478 0.27796183180916556 0.3867824913840305 -0.03579894113220078 0.3187435308518441 -0.15946709475163034 0.2690228161260792 -0.1326770983958996 0.18419500871596933 0.233295245853195 -0.10799631785795315 -0.1003468503211614 -0.01521206895402057 -0.2045673760112936 ]
[ -0.09552473508348884 -0.17556401017384798 0.2807690581029026 -0.2743776161214547 0.2423083341777591 -0.28040588513955755 0.0929146063189396 -0.17773390725803676 -0.09653633274291921 0.07332767940864482 -0.02245665344528243 0.12768523275118326 -0.27099520809559213 0.10064737175706938 -0.1235983498314999 -0.33055259134883946 -0.0754652747815059 0.23132825474724422 0.185242313978088 -0.06436004119871182 ]
[ -0.06157686471086496 -0.10329172207420033 -0.18742412812850257 0.23188953203968254 0.31839354009468074 -0.06485614270491549 -0.015478502033857837 0.2520998023766062 -0.0698338762582427 0.2683400652058831 0.30524159434478354 -0.1274057291459143 -0.3741795338539848 0.0033717983801732332 0.37659443813067695 0.4471867604479882 -0.215708148712633 -0.16318894634243666 0.03595220449932322 0.03536296093618288 ]
[ 0.4712781546392302 0.20669802111130717 0.12519895744944848 -0.0623723493042791 -0.0737633725070945 -0.03426197922271528 0.11862361163838368 0.14402612943865928 -0.21501004479993605 0.10969198566284404 0.09888197318605085 -0.15009823312244536 -0.10273070237195285 -0.059840467430895966 0.06576264863997137 0.18770411045208538 -0.1998750418184849 -0.27055576300593637 0.006337110767456112 0.19915090026186805 ]
[ -0.539791490295028 -0.2727054874766732 0.5050163129817716 -0.23061677972147673 0.39791545733124883 0.010937745869598383 -0.14012115288099794 -0.3541214742025545 0.3933382472649715 -0.10073625922449701 0.11360551099007228 0.13622945250225033 -0.08069862222317477 0.26623748898329547 -0.049641675921954904 -0.24219765174681812 0.2649588843558436 -0.18732007996126207 0.011064762606114607 0.24924274590700768 ]
[ -0.059569082145472754 -0.37962389957692677 -0.0030127785946059706 -0.18077205009165603 0.43441153149654066 -0.08391169455274852 0.22990635757577826 0.048971029703336166 0.2430889791809205 -0.14358755285304603 -0.410127776483104 -0.6019976746361017 -0.4520475559226974 -0.4572182262810694 0.06163749603111912 -0.4721212378509933 0.113243021419976 0.1963929745283907 0.2789979380400681 0.3986807818224411 ]
[ -0.3076672596120931 -0.01975640316892521 0.1920111071883714 -0.250791482644761 0.29578083536184907 0.1392066258517178 0.07630962677357599 -0.5764560573170108 -0.10122363531239388 -0.1235883064905826 0.10673792710385463 0.42160126388398833 0.6307914816075676 0.0990072711058208 -0.396060103428277 0.1979630405004967 -0.16826511357060406 0.22407043076683172 0.1839254843230663 -0.27916186092700446 ]
[ -0.24345883886075315 0.23100459394195713 -0.24407330716192177 -0.08886100271751694 -0.5088508624037189 -0.08797321073201386 -0.09258425379265071 -0.2356685310223565 0.23618297136728442 -0.30678668043489954 0.10041827093335831 0.39098048736526947 0.29220678651181536 -0.2710050063582686 0.36146996618953353 -0.040905728436839484 -0.08416663095047228 -0.016047466399156336 0.1857403455121489 -0.035750601409955576 ]
[ -0.14981877910147276 0.1469052543970119 0.331010959228499 -0.10130771154702402 -0.15583500091037186 -0.057845320393466855 -0.3617925043228886 0.1665170768597274 0.25848521015646964 0.23524425322630027 0.012305505954316067 -0.10154412623116062 -0.4964434242709795 -0.20034465837466203 0.4340973572124597 -0.2126906254083591 -0.16466763343555382 0.09341911844124853 0.04385160524055987 -0.09784774408827296 ]
[ 0.09544179285399634 0.03697730499767164 0.39847495099728086 -0.24195679668730802 0.1735098744706203 0.036543319458397415 0.4308832501206713 -0.43207401040580934 -0.19158657222413653 -0.01296672651193053 0.38266763776835006 0.4463916273011325 0.28028268044743654 0.30139396490055 -0.12268140084869213 0.34909430495449134 0.06377386526991352 0.1450039210024187 -0.06108860575801884 -0.05713060955677292 ]
[ -0.2980783526824191 -0.28049565627512985 0.18475357260341932 0.039311244278912444 -0.04632828235126084 -0.454438808538315 0.23370947429721262 -0.31050399922838645 -0.22889329008407205 -0.2852836887330218 -0.11971324879614743 0.3460463392808933 -0.3388680404806157 0.2609798719112606 -0.23653414059211436 -0.3238700730048239 0.1349606817713709 0.19103716609717825 0.0008461886848381778 -0.27279212082270937 ]
[ -0.00823732726864826 0.14160301499987732 -0.274428691578787 0.09332736972379894 0.19398608639609682 -0.12971853928107255 -0.20939437124453625 0.2997866274022814 0.10537032249293761 -0.0019359296768836334 -0.015200150942657654 0.1658997703977395 -0.04744514358033483 0.2653786134121658 0.36876890192424766 0.4676141173205303 -0.03736991360423636 -0.12996408513219665 -0.15616658438328723 0.2014560425123925 ]
[ -0.35875169327929607 0.06267649168305205 0.31597051259695924 -0.39821071321592794 0.15294897258761475 -0.30368671960171795 -0.29222919122433905 0.2132018838938246 -0.0742483603535478 -0.005875835371220165 0.036886000314205004 0.19378316231811896 -0.0937522719507486 -0.0172930971788283 -0.10181924170861999 0.2297070177419836 0.025383348150427167 -0.009985293017700044 0.3036721961209646 -0.004727363499013721 ]
[ 0.14058311978640617 -0.12309187499464147 -0.061575769466095116 -0.0026678420753082485 0.27505872154200445 -0.12255566514436238 -0.20704922037944262 0.0018551022895755514 -0.09009364566945716 -0.033921582325062316 -0.12416584365260881 -0.2408963748994256 -0.0966379565368256 -0.2091963657968825 -0.19981275545879024 0.5176726643796735 -0.03500917347908887 -0.08606632587703275 -0.16710498588844946 0.23114091898757877 ]
[ 0.026084275881480597 0.12682019868454783 -0.3118406637204721 0.008572460866868416 0.2557532530814608 -0.1313743052694499 0.38406484420573545 -0.31794548269062767 -0.08897219464432089 0.2760713682004374 0.187194866285464 -0.25981688973431416 0.2850894489671153 -0.2586268308509263 -0.023986507902605734 -0.31244338951454487 -0.16344984672814092 -0.25073307784144017 0.11477585930229799 -0.017430103571418932 ]
[ 0.5219994305088941 0.17685622869604806 -0.20101749895939125 0.019709004869967302 0.10074165438654224 -0.33716866421908653 0.4670788977202066 0.2490137550536383 -0.14732924690239843 -0.17669061339434175 0.3065343984216108 -0.1637109158654714 0.6100928715224196 0.050498900462692606 -0.2163064551760258 -0.07498759525298826 0.25282302213843355 -0.07126205236623573 0.05225908790114713 0.02910704361833764 ]
[ -0.36558941997436856 0.2553505172421028 0.05486068028520697 0.05649884995209451 0.15472684552040175 0.32068317067227664 -0.15005425592297583 -0.11918674118081098 -0.2647720641807794 -0.20061949614561292 -0.28199219515816254 0.11543383614816435 -0.01967847174265342 0.02776993509776297 -0.2255440833630493 0.23128440375309522 -0.030740251652569762 0.03853844526569398 -0.0949729935463054 -0.2442967738864328 ]
[ 0.5027796572227512 -0.08302071879456084 -0.09911383467932869 0.16243625373506923 -0.2650075687725505 0.30919851309556373 0.06949082072055549 0.23591545200447678 -0.3218461935628837 -0.14878586068465768 0.19991981743100148 -0.35255695423982664 0.07890758715938738 0.28361868979949795 -0.026413273684897275 0.14943054552142973 0.17383973478990694 -0.2718346158422339 -0.1431663041501285 -0.1680533304448462 ]
[ -0.3215780507792251 -0.42645595325169383 0.34539860607089834 -0.16748157287258608 -0.31081749109691215 -0.34154920725359283 0.2390194215777361 -0.12797538037567646 0.1941942536328268 0.011867841920275037 0.04545403665353473 -0.06974744033537746 -0.10790703129078498 0.23546459333724826 -0.5378619695827221 0.30418491192522684 0.059189500477765396 0.206763953046061 0.07339296469034545 -0.21720010709142984 ]
[ -0.5022443522738452 -0.3634731274553284 -0.05225628455247475 0.08003848758031853 0.019208086498980596 -0.2649204864274516 -0.17326440737312737 0.21936156284321542 0.6549926577680579 -0.2792196724488293 -0.309876104511244 -0.08100611804510151 -0.41215748452708634 -0.43197080833759904 -0.2759768151642275 -0.4434322950497902 0.04052554433438195 -0.1325098574470388 -0.15664021743148707 0.015144475107399854 ]
[ 0.09953781697468896 -0.028393478453093472 -0.07659383780104417 0.1499262476781976 -0.12806360502027994 -0.20110549987054166 -0.25036567996624776 0.4388480254410463 0.11626616460278393 -0.10202270447491414 0.25301612636823473 -0.25668684818710774 0.002307459603870761 -0.11710033060612418 -0.1389461914909284 0.22616818226611513 -0.08326627647405985 0.13650513673114525 -0.24683875940248645 0.026342986515235214 ]
[ -0.3002038929321391 -0.35517220268426986 -0.07418895372926959 -0.011477485359770886 0.30976827754562775 -0.02215640752361121 -0.2631648592868932 -0.43554889344649605 -0.08139451662149867 -0.11933175482612154 0.13036611496368855 0.09774446424601381 0.03673500762743382 0.03956516535303069 -0.2265655160533436 -0.09031888910866848 0.28121058761023937 0.20730171668865863 0.10263911952277749 -0.16013966307303767 ]
[ -0.06899462044208139 -0.30588656965681077 0.2526462215721774 -0.02474093741404553 0.2607339758115851 0.07506489637447757 0.13884984465744513 -0.20164418786498928 0.1180452967596689 0.29063964917446805 0.1760185577094887 -0.03068229592551619 -0.14827976206653687 0.09486774824856548 -0.35803589101209127 0.09117510472663883 -0.0694375921999819 -0.15482249138554685 0.016695818071928218 0.05062587395574339 ]
[ 0.5457185606491521 0.04751767151526277 0.0014957650569313238 0.17990170035108863 -0.10994665772498285 0.12070656411162112 0.213140913410862 -0.05332245114408165 0.2697045730562102 -0.05242140544157716 0.10627083931359999 -0.24697870239112454 0.20833240389176536 -0.12581303007326922 0.24410272659007343 -0.22132810243964038 -0.10039798552468665 -0.0748397818285546 0.17195886041492828 -0.08845076724422074 ]
[ 0.04893438893435618 0.28759697517953686 -0.1360649895869341 -0.12806341806120775 0.08996559920050011 -0.038097642952405524 -0.21901023188175003 -0.18246011594175868 0.003849343304407441 -0.08808139903333519 0.08802608865958038 -0.1272745916277153 0.20341561205370437 -0.20077264112644858 -0.1526632414047359 0.2355382755440023 -0.21622092301569307 0.08673402809348686 -0.01034901199750543 -0.08300163634611155 ]
[ 0.32101673717401485 0.10328098202001022 0.09135361024259779 0.24660890008005296 -0.11299759541119589 -0.07846423484037832 -0.11632221750994966 -0.10176990995730219 0.2036990010037621 -0.16045705153946915 -0.05624329610284731 -0.24520642897653142 -0.002719914480444358 0.006155629897454742 0.1235611366094005 -0.14184096751993128 -0.16259922726687176 -0.05030065622378429 -0.12602269414073733 -0.26884252161879696 ]
[ -0.01074243621529159 0.09850077950494344 -0.3724158840167423 0.14005338380747953 -0.19773119021488378 0.2662675584188094 0.31251328118581256 0.25333254010306305 0.19059434641386844 -0.07153105236836377 -0.1799612176452315 0.30272450270959583 0.2524303505846671 -0.03668592527349499 -0.2232855227404105 0.40255708472791935 -0.210748300545467 -0.30265259847800097 -0.07216239034230351 0.24974594014524376 ]
[ -0.35510879380979427 0.08582462433219452 0.31485440563546563 0.2919651809590016 0.03629613955372567 -0.06631093024721837 -0.26805602236391834 -0.23815100968257422 0.10155944331673154 -0.225297436315744 -0.28770488757707763 -0.12295809538664201 -0.3291665191950703 0.2351291397151325 0.24077826060466923 0.057105482944229034 0.12627526341364015 -0.11039666887546343 0.10667900040620777 0.11035447211009931 ]
[ -0.07962650438946597 0.023765096334593182 0.28308835392919973 0.11868299509184375 -0.3297940203798825 0.44002390444118666 -0.33893792780779775 0.2379386463067333 -0.2790408840670625 0.13342267164518987 0.0605868095896526 -0.0816190016718054 -0.06324440285793023 0.31273033881840334 0.07184860045098793 -0.15368084370906454 0.10247256563486093 0.10602319057741173 -0.029638087575218842 -0.1873830640112627 ]
[ -0.01803287257364376 0.1295871671975787 -0.2810937447917288 0.032201456761235064 -0.13816201287833435 0.4700123864876653 0.1711478502148694 -0.15257109997126636 -0.45211580217990743 -0.16447871023365057 0.171055527541746 -0.12280395928558098 0.28552556579040866 -0.2657911947567248 0.025731524028357707 0.06476472644721631 0.053484303403602274 0.2604402091405413 0.21394557340899964 -0.01410779790293156 ]
[ 0.026389161803827155 -0.026688871873395928 0.10420979179333599 -0.003291734904363784 -0.012633249360286767 -0.22442080130070027 -0.005133788631033543 0.10889288430176491 0.172419290131011 -0.02196055640966325 0.025135399835606583 -0.07848967928867533 -0.0855013291822908 0.08703511983325937 0.06352751444430872 -0.02662049297455801 -0.015256535070322267 0.004092085999952559 0.01673384894289337 -0.05040224873077137 ]
layer 5 Activation
tanh
layer 6 Dense
20 1
[ 0.03578504472337265 ]
[ -0.1496930135520078 ]
[ 0.07227081033421116 ]
[ -0.012017320581948203 ]
[ 0.08968658240098093 ]
[ 0.12834636303542651 ]
[ -0.09981345571983777 ]
[ 0.09525873683064236 ]
[ -0.14201801662378802 ]
[ -0.0038285978510915605 ]
[ -0.07652135900339527 ]
[ -0.26155667555140877 ]
[ -0.1968591411534347 ]
[ -0.10301335615959137 ]
[ 0.09110396006612027 ]
[ -0.047118163565467365 ]
[ 0.01173791649876379 ]
[ 0.00033146819161116624 ]
[ 0.026709270191791458 ]
[ 0.031572838827731535 ]
[ -0.007251738829539423 ]
