layers 7
layer 0 Dense
20 20
[ -0.05130930786822001 0.1865670689338797 -0.19088631236405856 -0.2530810398753234 0.04408222550248726 -0.0633327073006702 0.26877028017988286 0.044220424661537736 0.12814470273051393 -0.006176107907608459 0.37713781810281183 0.13448461313594712 -0.056816002465858086 -0.42024810199436763 0.16468366726448885 0.3649562827338596 -0.33368938999707476 0.23214753192524995 -0.24770424501920787 -0.06942123208587118 ]
[ 0.38488509541683047 -0.38045037914632807 0.22528491117339725 0.16464820124217516 -0.15638438130610227 -0.12088186134276534 -0.18747322547828105 0.07397653850877368 -0.007796241403131504 0.2620974528301589 0.14381530352419247 -0.17792771068174246 0.1684636819858208 0.26901149046884915 -0.04275072041761803 0.08212196791547469 0.28756335458443355 0.04709071947467102 0.30540614518283593 -0.043741556885148226 ]
[ 0.040087535086376073 0.15733129836434606 0.2647243206952008 -0.36843539496407735 0.28823860855252054 0.37704523562369363 -0.06329742807010937 0.337768083597536 0.020012818760882945 0.21393302776968642 0.3103155012048588 0.16030333310719685 -0.31744633843107595 -0.08946762445542436 -0.17205290862468178 0.24071855137990927 -0.086445649784706 -0.2373616899952017 0.27495856548056924 0.3695348176092081 ]
[ 0.25806628519413416 0.4564432994922116 0.2963432697784711 -0.161971519413029 0.04395841224468366 0.13488487117652817 -0.33675071150260055 0.2000588276246982 0.1705081011404603 -0.03593244101746363 -0.1655613726847961 -0.10678982335734528 0.050585149099595064 -0.16623864190237617 0.2260213420229383 0.10868152197170308 0.07722055930417185 -0.09715019801773218 0.2792318041093871 -0.1350121247242798 ]
[ -0.24805207813435418 -0.1050759888744203 -0.21276511612053814 0.39200514308105716 0.3336879859116957 0.3568156128893304 -0.14042543305139618 0.07625559812848232 0.12858488741425897 -0.4026797967980779 0.25838125402309653 0.017861294191348086 -0.07774361899403427 0.09535100660554527 -0.16377743763470615 -0.2524361262408446 -0.24239207014290717 0.12960510129558467 -0.17144122773142403 0.031248869627025787 ]
[ 0.29073929325325454 -0.17687654709603107 -0.07546336345439295 -0.012549577100858375 -0.05953664952507315 0.25490119062052496 -0.24567338127991895 -0.3213258934160106 -0.16364456754371948 -0.1089100581078968 0.01732117849756 -0.12937932251464487 -0.2481686343074497 -0.1939302030511711 -0.30687947647065084 0.15003294751783816 -0.06348306586860418 0.317366877687498 0.07710777487604074 0.35147228648112516 ]
[ -0.3518149208416264 -0.018131297887010473 0.22922025661209733 0.08658784762955828 0.36863984577752035 -0.28373034634780403 0.07193664745540655 -0.22796843162130595 0.3777779041069508 0.1285585716431376 0.17084347908187766 -0.029108525392420793 0.2647022915638134 0.31530775706773256 0.2813629093956831 -0.1174191467859748 -0.31738935409348457 -0.0965588997548668 0.007528108296247109 -0.25920127877705057 ]
[ 0.27948605388976555 -0.6857223601747154 -0.2960126975970382 -0.21829892742744447 -0.3836231466306015 -0.10313943589971038 0.022788502615447823 0.2564251668144273 -0.34828689935207185 0.4935311320589176 0.2966500165760806 0.1370510444379834 -0.018008587124744874 0.13405575376508316 -0.5411837583310898 -0.06390358278897355 -0.014457718920419261 -0.26213070446191844 0.5688947811604051 0.3836953027708603 ]
[ -0.10402094674630685 -0.5203548428497239 0.7363424598942576 0.4883156259537082 -0.6282190030962821 0.4264134316508326 0.2911455909902337 0.11222205130786873 0.4818192731486859 0.46869779471727163 -0.5332276597921543 0.0932467020582859 0.46566012765928516 0.3879834259062339 -0.5598954607055887 -0.8069969675984188 -0.5453381447998833 -0.3681633830944708 0.5646378547301443 -0.15745445171877745 ]
[ 0.11520803780487075 -0.1398432028325178 -0.043054295309287095 -0.16717386757225355 0.3297625570814264 -0.1316339058645148 0.3434975654181111 -0.31268329795548705 0.10818518698976518 0.420053928859457 -0.1351341112634505 0.40275841011475677 -0.2474880523079039 0.2157596253795253 0.25452972496063964 0.05152513827367785 -0.14176227985861872 0.04626071955648351 0.01430632393065562 -0.2746135441029733 ]
[ 0.09911336545898261 0.26012704411269466 0.1726639926372211 0.08819499002116112 0.230840075014507 0.10180880207998393 0.3252323001250233 0.0880745074744572 0.12964845142241488 -0.07896724717743733 -0.2899295925045436 -0.3926135622161415 0.06401570741069121 -0.14526211918518436 0.4058218446964605 0.09728551786298534 0.28410470829075735 -0.13872994831861243 -0.14683778973313694 0.07156722566425602 ]
[ 0.12559102807520633 0.007173026153138409 -0.3247873783085156 0.35247676532489164 0.19092955400384717 -0.3477633621341634 -0.031041740747389704 -0.38593906698166097 -0.3661731284137045 0.027397436934742222 -0.17422538263421994 -0.2244161455125504 -0.4627399600328206 0.1231289763244527 0.33767021738628505 0.06361253278839195 0.39141065474691583 0.553855891846816 -0.7307979297236881 0.21045383194437328 ]
[ 0.023965019063345545 -0.43099628091188785 -0.3054595902147324 -0.3680862265585844 0.08443054780328786 -0.1479168339974754 0.10595219986613191 0.1658687416162762 -0.5394733579567711 -0.07365840167588421 -0.10749880413177525 -0.2072656864437488 -0.43414661246085856 -0.19392428102780096 0.1943187412398838 0.24315601409564402 0.0008358757851378325 0.37422762444856 -0.3731371030501085 0.34753724183432083 ]
[ -0.3214677659782693 0.3306896708014899 0.7888081718352279 0.18357462740614874 0.4406045841968964 -0.08262365576837682 -0.81203201423411 0.04786530191431769 -0.6100718507527203 -0.32644190235404463 -0.5174091470441121 0.07809489128922664 0.01697898888802927 0.024129274284010408 0.0488543033653366 0.5260193933516049 -0.48084062028730135 -0.06090139417139449 0.3411733393183564 -0.1084862774932372 ]
[ -0.48499487779509365 -0.27069410865909155 -0.06615270245234796 0.17954475157348362 0.3313455655695917 0.0516836456138704 0.6369453006937056 0.61529867458401 -0.17522276330885356 0.5347522980734462 -0.06318108598108628 -0.6274588640626089 0.16553964167206184 -0.1429908584812048 -0.04545750702923384 -0.009048473095526921 0.10583167658074545 -0.4507828864031096 -0.3315554769681823 0.5835817317714604 ]
[ 0.0012248276056610575 0.09265552985521497 0.6356254158697379 -0.15617542456305655 -0.3069426320457799 0.06443755998546939 -0.15626079849489266 0.15717669502029794 0.17376097672973367 0.07981420740683032 -0.02218616079508333 0.15990002535518233 -0.29250184438536814 0.34452656095508577 -0.47431353424262046 0.38585364479015555 -0.45877467963975993 -0.29569162818582123 0.07083160659743785 -0.09026956134471265 ]
[ 0.2603820303974459 0.3980558953901453 -0.14395011631384808 -0.23762259221416365 0.3685386626575905 -0.40881278642235946 -0.33334552853432603 -0.17080136298302456 -0.39591621752095757 -0.5797302724181392 0.028058693743628474 0.3224915685138989 0.09192717583546546 -0.13924938127946643 0.2862632601931639 -0.004259399941676676 -0.016983329035278584 0.5441335117012615 -0.777373261037372 -0.2095959116567613 ]
[ 0.7531102820984741 0.19000903091592924 -0.5523354641518796 -0.13613810856383782 -0.6716206939271885 -0.1400528150725453 0.35663859894562133 0.3763995686447713 0.9979953221929274 0.22266751271299184 0.7081485605694259 -0.04133841583405507 -0.515244163582014 0.4465544290723343 0.11867165880178118 0.018241170312859163 0.5207686759410087 -0.16074992366797328 -1.0125844153562122 -0.08743695954372223 ]
[ -0.1685669686122137 -0.3270011046105897 0.47427058933956084 -0.5916854182655517 0.22424018938428136 -0.04090065765150822 0.12845351465649316 -0.7603300651695386 0.47023378724134346 -0.17934229310387523 0.3206338072014432 0.9365779792506996 0.007484131072801645 0.45077203177338054 -0.21421611155260745 0.12656548274698212 0.13926279211665868 0.6678007811969101 0.3495798574655253 -0.4431781128429848 ]
[ -0.43264217162027374 -0.5415325405923784 -0.040286293672199096 -0.32970523431631293 -0.12499715071650884 -0.06220940842987517 -0.3471008275503808 0.2655969335606864 -0.024304441588247145 0.9874103461007843 -0.027496396682024454 -0.5220813825536356 0.6196799595462492 0.3018984701968765 -0.4254169884882361 0.12504869970610136 -0.21239092103899582 -0.49549768921941817 0.9824892695154521 -0.3215818119937259 ]
[ 0.10740641109405175 0.24233941352971516 -0.018119318569864182 0.04538271562045577 -0.03961875524826849 -0.0016990435803922283 0.04430513313752052 0.04944979816588395 0.15362690270558949 -0.029094861077249262 -0.009215169260830665 -0.06717780551827163 0.04888153159621593 -0.11228314572237923 0.19537196686421204 0.025019672772534453 -0.010231959216683389 0.07802363588808117 -0.0467492802113968 -0.026255419210048637 ]
layer 1 Activation
tanh
layer 2 Dense
20 40
[ -0.08499516187280107 -0.05099450373258287 0.0362449865333828 0.28076517869095036 -0.31753492934753313 0.21424203416735224 -0.3458960634083466 0.2684084000614884 0.06838439048555249 -0.41275590276491003 -0.26015935739132057 -0.16708364210380314 -0.00435925546190558 -0.3755433409192195 0.04738048737537025 -0.3302765786044664 0.0805285963790405 -0.12553914810142705 0.024645133380064483 -0.004788827312890795 -0.4009349551783207 0.17334897782978112 0.05600973391928922 -0.48001318401082654 -0.06119413678308613 -0.2632789475329111 0.09454755899532723 0.0994483221587877 0.13970454439285004 -0.15918459682262687 -0.1438258853697623 0.20435239818153472 -0.000423620849834236 -0.07493884170227122 0.22749876324310644 0.14081814299300774 0.03844088372637502 0.34593638617218736 -0.23723644402868693 0.1045468753687516 ]
[ -0.0666730537501993 0.13417036793833667 0.11674493876739041 -0.1396677853152901 0.060431653718967596 0.21397010245303216 0.07164696684100941 0.08254830083158667 0.03303852598580311 0.06660827937080938 -0.2682072202383477 -0.18849146918357187 0.2568619268914879 0.2329954022668118 0.07846951780811895 -0.38784460312146046 -0.14494788844717127 0.25756192686180057 0.09597227184876844 0.3251258683202844 -0.13219374288176838 0.14974746242568965 -0.06341940138254658 0.14559975422528681 -0.10962831796690053 -0.18318469815967106 0.2772316963979947 -0.24159927095517283 0.43717157528874706 0.0804381438168435 -0.0996155124581906 0.3355132155670347 0.07601816680885709 0.10155728254969229 -0.045767338630603886 -0.22690247756987536 -0.13016682254656492 0.26979470316537185 -0.0382445194043524 0.38390528640087473 ]
[ 0.16213097568580362 -0.21011023936726517 -0.09225417322910982 0.22274895788009164 -0.3257316292669249 -0.2571806453582378 0.12189318311319164 -0.09792719566741188 0.048175365323580806 0.6821719108856175 -0.05015125913812512 -0.15917724392679033 0.1555107327889985 0.2692380479531758 0.19735935807712057 0.0566420959626989 -0.6107565598388954 -0.27463693799069033 0.2310162778114101 -0.07750034114368642 0.1724947949868306 -0.13958595785009553 -0.1534306255593625 0.2992491563757134 0.1985166357397313 -0.3303693555620488 -0.0011695000721103758 0.20304924015854145 -0.21256587170172048 -0.7350632357476422 -0.09170778916259871 -0.1935445847398201 0.12105366410652008 0.2554859799086634 -0.2731496248112527 -0.3948837220981698 0.14006080478852498 0.23184387501090822 0.28657925297459885 -0.16997037859812794 ]
[ -0.22466435897717077 0.305842339163509 -0.0525553269759896 -0.29830001883810137 0.08690941867514781 0.31591906119706015 -0.13357648889380044 -0.01784451672009334 0.12816864225284297 0.29686675568754695 -0.015853826993893448 0.0005487322607195251 -0.23880963593257526 -0.17069055389815 0.06959711879968941 0.29121421614671067 -0.3952283561152214 0.3228332279429248 0.30785656699204134 0.044929917555810196 -0.046925871337667686 -0.02727960529449548 -0.18317743867464428 -0.15962425659334128 -0.3417232403225527 0.0025124403572813025 -0.11788528846449715 0.26328529260935035 -0.026193269807228633 -0.17191761633570443 0.21026718236491598 0.19039243939891343 0.30425125983215673 -0.25955582316111775 -0.003552003847152114 -0.521288159781464 -0.23028131473861624 -0.052550319508467225 -0.032242108587279064 0.038106237157565476 ]
[ 0.44884645842797444 0.17952702520676508 0.055256366886809606 -0.08157299595510964 0.6771501743788053 0.00856081315933313 -0.05553317594580479 -0.06774524504907453 -0.3747468945918811 0.4723393881504807 0.4418333948116881 -0.03678967763533515 -0.18979846056669308 0.16847290800562253 -3.719151624954171e-05 -0.8261919483751545 -0.05928119544220443 0.16462389280476605 0.2692150662935794 -0.23048407797132747 0.550551549075907 0.14362493090678374 -0.3709592648672661 0.2813444659986013 0.09750735810881578 -0.14877321734529622 0.2551496762719483 0.20149015672856974 -0.22200542374365054 -0.1839962010989077 -0.014109408511360796 -0.3089210800068381 0.13006770975050352 0.30798478314947314 -0.44859440661765215 0.37924277316580884 -0.5205878220670845 -0.517237584843539 -0.14096737925908984 -0.04447072612059289 ]
[ -0.09545224553891808 -0.03242339156558287 -0.12181970169234449 -0.21271602938314338 -0.07262561426196834 0.20426425605643062 0.26125932915789635 0.03963075608139662 0.14730478171898345 -0.047486598148469686 -0.17683572254946686 -0.21537191192666683 0.008336572815526811 0.041964524702036266 0.2657665089885812 -0.13864958197687768 -0.16003581647506837 0.08951527025951252 -0.23838346448804792 0.24512852461946574 -0.01697353927777844 -0.14346353312993845 -0.18593632224210532 -0.042351146213152197 0.2065547969060958 -0.13246693964436917 0.18020419735980236 0.06396094095096592 -0.10904556765213592 -0.5992662740020288 0.07092870145263508 -0.3989814191755535 -0.24088702272563728 0.01564041293007552 -0.09013978266867279 0.1137898878287012 0.2108948821498067 0.011889860873450883 -0.14320303133942114 0.007308164941098849 ]
[ 0.0299664085361145 0.20320825258633354 0.2685975186560991 0.009983606217899193 0.19032471564789152 0.0037172700087481836 0.43263486585210154 -0.3923920989740316 0.41320780711179006 -0.44408224991014933 -0.2898575038649446 0.07458278425867179 -0.416559956867131 -0.643747792669518 -0.2785393929245187 -0.2377548489435515 0.47112375570827736 0.018839397351975325 -0.29565049006806937 -0.2535376499008803 -0.12214415604861556 -0.06830289071162644 -0.25782332054202756 -0.38921814065544896 0.15954547587626852 -0.1471842071123844 0.09616343511937236 0.005832664878995253 0.27732297930192795 0.3701140706088921 0.010447836623772112 -0.06278430768272543 0.02168486887759001 -0.3582360623756999 -0.02932269691257369 -0.08021351775113603 0.20910089906922347 0.1495806307503202 0.14339905199905884 -0.1857314303507478 ]
[ -0.2683755150110474 0.08689286489295486 0.2637573195359675 -0.23275884140022046 -0.08175047007823102 0.40711388136225146 0.17730398755674712 -0.24201693169211538 0.025264385734423297 0.04158474216992966 -0.06200941172180614 0.18357033297617237 -0.2398562400621867 0.26076750371559043 0.1551358483368123 0.24306426742633402 -0.09261362579158779 0.5054341335965032 -0.2394133525227719 0.17869824637015944 -0.5758005958545782 -0.0028954963019354168 -0.1420105824384489 0.23848802555910809 0.05389084473206117 0.3687467452393144 0.31502590839500105 0.28588021363784577 0.3427984609202081 0.22188143211760983 0.17546168882092583 -0.2638729329081384 -0.09432655312705117 0.1123228885958111 0.0012401496608441247 -0.4431980090248316 0.07481142915235431 -0.06633646620975896 -0.1744249145828932 0.048746935226895605 ]
[ 0.059801146481652925 -0.10760112289374966 0.14279245012415098 0.08138427787419328 -0.6514321483262897 -0.27564360110348696 0.5202641899922315 -0.24380383762017188 0.21538487621522528 0.3687048537258565 -0.5758449348132123 -0.5709098773422353 0.5977012010876239 -0.578946780743634 0.2058727003645504 0.10101553085342861 -0.1583482940347576 0.6017866491473015 0.2815257566807539 0.03846257806473993 -0.28113084364523466 -0.05836482820968569 0.41661635355908044 0.04392655525861482 -0.49228991502832875 0.13122406060326963 0.21075221430863925 -0.061360202945179396 0.3102487543467089 -0.750676509524938 0.5797241488147652 -0.17332161801261217 -0.07352064143735992 -0.3807796095972542 0.274607309406879 0.38566686316014875 0.26374274791097285 0.4693417220861562 0.23567162758448149 -0.08702596058288413 ]
[ -0.049115021914878425 -0.20729604827330272 -0.37020125714155055 -0.16138819562542375 0.1899179622104159 0.12400758077595549 0.7961902711312603 0.005532846466470632 -0.01634140380990706 -0.32387664944526073 0.09683466879140844 0.46610214344062284 -0.321356261165656 -0.15487723483589272 -0.163352085340268 -0.035478471803139455 0.16010595368647876 -0.26059332037396127 0.4556799572078204 -0.07310341878954307 0.11066312982336356 -0.10200797149166123 0.393018179104005 -0.2169788859522954 -0.19389785201382614 0.24282758042509572 -0.23753038817652128 -0.12263701046485737 -0.01509761362369421 0.4892022189064728 0.18887113072087774 0.3613422894155745 0.09331565020334537 -0.261191081582847 0.24607051955534398 -0.44463564530112304 0.36154497450250295 0.3940634136367691 -0.4936843743134435 -0.016503876928163453 ]
[ 0.036758552799145076 0.03869132429161638 0.315320069799206 -0.3298113189962619 -0.30499318710992834 -0.3342255355132325 0.09049754473602643 0.3201949009442223 0.16510860100561076 -0.35542285958043524 -0.09463325937744725 0.2650086341101237 0.17385520318376604 0.16731474560976242 0.021888388140333476 0.25931614656549906 0.1294511361025897 0.12198462551291206 0.35380088570404117 0.2197300240583737 -0.20585062387792036 0.12803809273989267 -0.022539806249068917 -0.10568716894372998 -0.13934453102277125 0.21737385138008694 -0.07772758059012673 -0.0946029366278306 0.06899693175891108 0.021316625731976915 0.12806926787638762 0.13664069230874148 0.08466539931580601 -0.014293404125098386 0.16538623402091637 0.1338928439243482 -0.28766522465403904 0.3441350772136759 0.1304133452579672 0.12430438305918297 ]
[ -0.19160484435072278 -0.43813291610140825 0.17356564226772525 -0.2238201006093893 0.44027666841246604 -0.7786613323335061 -0.37092716506132173 0.11424235081480763 -0.18290554395984704 0.1830144659388988 -0.2712728045179877 0.12313139079835346 0.4451865428341927 0.0016900112685681403 0.16839711849859115 0.03949167897775355 0.22883726454326947 -0.04076635160558614 0.04799397289394598 -0.01020727750737535 0.09881937342480544 -0.12362795630122542 0.07936863041425311 -0.1600416927911929 -0.03306383449089342 -0.19506852292451995 -0.06019642246710023 -0.09973730278757205 0.06232025915309754 -0.05978898945988965 0.2339497488664524 -0.28803883614465575 -0.12747568762563136 -0.4126841332848265 -0.17034965453073186 0.6485754532685836 -0.14736337170301322 -0.047118165220307685 0.5146650261303801 -0.2789364151935545 ]
[ 0.019694838628116176 0.064379887201839 0.2614322973724564 0.08173589815705537 0.170463369463296 0.3258884286833235 0.27640964857266115 0.20942100856414306 -0.011325488093146095 0.031163589768539154 -0.07931157435309542 0.12318385978042225 -0.019238059307332404 -0.01175941011099851 -0.18402885350052633 0.3354692084217643 -0.40456385602865047 0.06467347750580524 0.2949862687302353 -0.017122060049140447 0.1142920825902395 0.2505429989879403 0.019100968903155657 -0.040178440259471204 -0.07624031010717501 0.00943867063971432 0.03674759663638204 -0.13867136820497888 -0.1436709872084925 0.4136902092566586 -0.14868261772918576 -0.28737751386132265 -0.30819160783515726 0.19326450613045013 -0.5188206983084065 0.08860887453542214 0.2603974066695146 0.11982881444725053 0.08025105144170064 0.23712953555703564 ]
[ -0.2525192690618911 -0.35065532308088265 -0.23938511786873276 0.11084208032151496 -0.14739169898346816 0.0899581906792611 -0.21841554308189698 -0.10150112879283557 -0.09878998061976557 -0.3302207140772123 -0.22142754616386548 0.07734829244436617 0.25443145899806463 -0.09732491127331955 0.10763375791438352 0.4045358733934872 -0.0612767124869919 -0.1976724390186413 -0.08249692926326857 0.014507350031230843 -0.1760806140885277 -0.22543692537495566 -0.21636488010136626 -0.31116791734723687 -0.15208215071540357 -0.28820526536240465 0.2063534738894303 -0.22338418283811254 -0.034079679887417225 0.29148774100111646 -0.06000839925947969 0.08945793157148967 0.026277368116140353 -0.1120943847677042 -0.38373935212594207 0.4621461827845855 0.31757610918000817 0.19855502567401184 0.03749494370596888 -0.21178650102512425 ]
[ -0.27617900014389535 0.3624785934103789 0.13877301300954167 0.21451052233087 0.1445627018038985 0.331644572940179 -0.22754530023141536 -0.10348102068378312 0.048627750878446716 -0.17158985297099688 -0.16831623992636893 -0.052704313621394286 0.29371899005391977 -0.27937160709642544 -0.14959920879928426 -0.5678061929698074 0.11842621026503615 0.10104207003977887 0.17401776216324885 0.005140084500282366 0.00028223103816244063 0.034600428405785456 -0.19433243250923124 -0.1729754487449356 -0.36175879708706 0.2691482638880343 -0.1473383294673646 -0.05445519662264258 0.0332289751956004 -0.08830966328274004 -0.03559833973954982 0.437652858182586 0.08594409389450787 0.3024400358728007 0.10608400023631874 -0.24500353335012168 -0.33434248611663137 -0.19190310290801627 -0.24282054694289362 0.025123968812297344 ]
[ 0.28321823065090596 -0.24117310974837858 0.050717896198322454 -0.2120474282986008 -0.03890938629450502 0.3021965833530805 -0.16890608742670693 -0.09670896895125783 -0.3743482591441734 0.13570520278090709 -0.013455451289281472 0.0499427298698632 0.3382852274173854 0.3140576528787225 0.04038505062270879 0.08485421940915731 -0.2735498320474534 0.01490656071161111 -0.3191806960490406 0.23591850038062068 -0.04976635305297775 0.10816217403378611 -0.2765192764469916 0.23133943867336593 0.07864257842938177 0.15711663354800073 -0.182833303566576 -0.020240095641675948 -0.32187462035816433 -0.1776196205033643 0.14809593221730113 0.03166850307270417 -0.20247512594266606 0.20491639176225243 -0.034754407162386036 -0.3560013688730412 -0.31555361858322833 0.15826718849144233 0.0918103254431201 0.07290171437028951 ]
[ -0.18427849352332898 -0.05176569810960684 -0.37024350024256597 0.1622075619474253 -0.0032859290971989385 0.5038588095152959 -0.015463266900504083 0.000367431606748601 -0.2599833769341308 0.22148728192004585 -0.44873204082953927 -0.2882280887783074 0.2526143001029953 -0.4044141558869376 -0.24629316843129984 0.02503093132178228 0.33516913822496425 -0.03542264481813848 -0.0030609007856148935 0.2785030267917849 -0.23624734364070496 0.24713892354159142 0.24340348080526933 -0.2416954163033734 0.02447033018252253 0.34469276928813425 -0.2421841849741062 -0.049278727934064265 0.09800576278195512 0.23449429759608884 -0.025307226226298916 0.2147681177460922 -0.007865016591049814 -0.021223627115487673 -0.04653608110485147 0.09161192897277459 -0.3515285636333913 0.37851572594868516 -0.25959712602484597 0.23056235637169512 ]
[ 0.16914331413806688 0.26861409136660164 -0.1547550042933423 0.3598066187622041 0.008948649383945633 -0.5034492719973772 -0.31773345505384437 -0.06373152615976393 0.043405138254375475 0.07872036829779508 0.13756615278290893 -0.17139813931036643 0.2330770554368842 0.3316455797516162 -0.13967314145552354 -0.08729372147371743 0.15455098757693397 0.2548990910756985 -0.11030850862217577 0.17835972019223856 -0.11090276912218981 -0.05737149154150292 0.06313992940855602 0.15427296504193833 -0.06460144637137039 0.14593695517598054 -0.208187071909853 0.0007698595959403105 -0.039840337961936166 -0.17696459047755334 0.011233464168539412 -0.23133363436453472 -0.28177553998599614 -0.5170964955725026 0.23638819240762066 0.5515385260134752 -0.10513612621662138 -0.3628829712030758 0.5778247587731087 0.28237777324976626 ]
[ -0.24667366675863386 -0.6594166870918267 -0.30853961505724475 -0.17694950075807242 0.007850140271372742 -0.007665241204993126 0.13411535650104353 0.2805059392569495 0.26873233931763835 0.5770096261595381 -0.21317858114469868 -0.0035911727871687227 0.3988034516923277 -0.2129159569805019 0.18038389413868677 0.22318735675168208 -0.5126901595389001 -0.11657902054246583 0.05135513034102666 -0.039847872034485254 0.6317792053055642 0.07333755690358014 0.11446484138982527 -0.18288495093466592 0.24042960076984038 -0.2186057731993538 -0.2608729382752006 -0.06018559277637477 0.15048886302337097 -0.02931393727646531 -0.24426574311466262 -0.357818653378601 -0.15238194482953565 0.40870113277579384 -0.6188141056477559 -0.04578214527466122 0.5556421017692886 -0.2344458344662172 -0.14043635560291615 0.023380295704445147 ]
[ -0.1570326202537781 0.30723991362911895 -0.14921357376702646 -0.19326187973357248 0.1449432346479743 0.3072174048377784 0.1457419353689036 -0.2194245615598823 0.07531442056642647 -0.3486395863453511 0.31845608024570976 0.05018580452483943 -0.5984930198868714 0.3114342054100023 -0.010228781643961897 0.21130051358888485 -0.03366915099152468 0.11993000631470946 -0.03747202030355027 0.14773748659886402 -0.30687774116159827 0.1434650821163805 -0.10809628940994731 0.008957763393520746 0.2373698648736579 0.3546716524538852 0.18493119664820984 0.20377289804406096 0.08907993673505882 0.2036748646417596 0.02566273189688978 0.20229718555549048 0.0667395658306418 0.1976600358724563 0.10008504001373252 -0.2329771744995668 -0.03261292695804862 0.23751453910340412 -0.24671726801140514 0.1909065510962986 ]
[ -0.07853752446396507 -0.011044706863694869 0.0565056553661805 -0.06368148226477441 -0.04844028199902306 0.14571686859006586 0.21140119775952673 0.11842728635411852 -0.06599579494135749 0.2688075830820272 -0.17704407827783086 -0.11382514180015037 0.1749406520982983 -0.026761325961931596 -0.08154427154814346 -0.16931757672511674 -0.11043938067924065 0.02034834774583298 -0.04191324919523925 -0.02168565396356405 0.048422071267867385 0.07519005635483315 0.0599483189385754 0.13762468627160332 -0.04429634727837915 -0.15832265613732063 -0.04785938139709564 -0.04663807799111965 0.04959907040794593 -0.35882976155347673 0.09660500398238943 0.18877653987486948 0.05747867560006071 0.1282732982957604 -0.007904217052684518 -0.1280842126145026 -0.026330506242418925 0.018252832849292737 -0.11727613303307613 0.058849309068578354 ]
layer 3 Activation
tanh
layer 4 Dense
40 20
[ -0.4296098860270222 0.04136745986595585 0.06937860845080018 -0.013819325579796314 0.13292297208003986 -0.3292509762879211 0.07596621795149795 -0.0722842066363282 0.10849075304133121 -0.04982178079579356 0.04198009742285811 -0.15637851450903437 0.20530112997732883 -0.4630945017679237 0.041471574061478916 0.18134743993887412 0.11758917844842699 0.3151622358595483 0.1262738354184949 -0.006311608866133433 ]
[ 0.08660936790596419 0.2398284793198647 0.11350612098750783 -0.007606038957697015 -0.02262740870900347 -0.4111354201014153 -0.28844569481310095 0.19779298347968072 -0.2053622235286741 0.1777261517675583 0.1538901501605012 -0.379757839936148 0.0542215875460166 0.019989406479089714 -0.11734579818192463 -0.35778094978269387 0.32122543446281593 0.1777552772608177 0.10754114917069853 0.15072856062943027 ]
[ -0.132259881560842 -0.09386022120408555 -0.034452634621756136 0.2371849537334091 -0.08584838566828935 -0.09710066872900186 -0.021691746921038403 -0.005109890113786475 -0.16891983870789645 0.3102633823278663 0.29779743798785074 0.02637401835907703 -0.12673432503744483 -0.12138681826329835 -0.13599273992974611 -0.29099913633242314 0.08237863835762642 0.30730539075424723 -0.004180556874896829 0.02408271710050695 ]
[ 0.13801991689843526 -0.1768240746106313 0.044914717520598446 -0.17770802299540342 -0.159280606408582 -0.10461764885709655 0.11654993128375746 0.17513827060186457 -0.08408990433666375 -0.05372541113487273 0.19183091120565782 -0.02568292594174637 -0.04286054810090581 -0.1822219146822348 0.11150831963560877 -0.3110752922818431 0.2252281922484255 -0.10145767700004323 0.16680050056478743 -0.07102170376586561 ]
[ 0.02307836245941874 0.1191406720513353 0.09571903140004381 0.4242634303369077 0.003608478357368278 -0.688418683508073 -0.34282055064949435 0.11577287633657572 -0.32896290200535294 -0.2624640430290837 -0.19941450135863742 0.14558195702391274 0.3838154715713875 -0.44560287479827393 0.18917342662372538 0.13421468018654426 -0.3043231329879941 0.37931718699273326 0.04761179183309006 -0.10426712236107069 ]
[ 0.05649970917016872 0.3173837821653716 -0.30795521815610744 0.06434211875337384 -0.25393975455102036 -0.10479628793862228 -0.31722050935784074 0.1554215484776049 -0.1548605270795024 0.03227519825371278 -0.07374607245864277 -0.1837414801596982 -0.13798423098732318 0.30651716120005273 0.016655204092072648 -0.0858955783778143 0.39474513298802016 -0.33922413694065306 0.0269683117003253 -0.006463725499391191 ]
[ 0.21896805579273024 0.16499031221306257 -0.3925766407589187 -0.23265222951047687 0.37326797757567654 0.19581827569685617 -0.5751278469236943 -0.16034585745249366 0.20636100643575345 0.24920127302332284 -0.2857086379651401 0.14880932107600023 -0.13933065622442423 0.13848017583536143 0.11286599114919774 -0.1457405843006421 -0.4090820917160847 -0.13579921800971667 -0.19393813211375002 -0.0238304835792691 ]
[ 0.06334001412771176 -0.12512328573361267 0.009345552653892092 -0.10534431490356676 -0.05180021156130524 0.34722929781749384 0.2699394053477316 0.20643874543000212 0.21670799785990366 -0.3953694239497633 -0.14279480208251213 0.29916750547117477 0.09859143796963775 0.07665708026469008 0.19206754902003323 -0.020032216987822364 0.2436366624358008 0.06052514399846227 -0.15331701751552004 0.14951791455695707 ]
[ -0.012074522441250969 -0.0551363974343983 0.21390053277698184 0.3296072955750034 0.2611107299307245 -0.009148372722648629 -0.21362804871926502 -0.17686485666593108 0.10469884403026747 0.04030424917730562 0.14520510590276173 0.24277588403628614 -0.058929929312587656 0.2237425586627805 0.011365394960244019 0.15477145009068072 -0.24603820179531438 0.08115660764707135 0.20054755375687233 0.1330437916216084 ]
[ -0.08941974851230296 -0.5113438686109785 -0.005549822780953503 0.2027397064735006 -0.07401710571554486 -0.11264915984260544 -0.14483544414419788 -0.06415261429505827 -0.010631577412216698 0.22578649847800225 -0.30930059037456964 0.04752942446409068 0.09243910524371333 0.011037993860934263 -0.04795295279468149 -0.0720592102310735 -0.08183827932956671 0.00031196976534380634 0.010192873728522409 0.025132163051761813 ]
[ -0.11507562116462326 0.3115048503088859 -0.22635460095809273 0.40965532212795763 -0.3744778248932341 -0.1357996927980424 -0.08383890437392062 -0.1646653391241953 0.0898098709021508 -0.29475468304807606 -0.0995754090955688 0.3192466356540663 -0.037229900682673234 -0.3055365965127325 -0.27136293721291194 0.1392507120338653 -0.17114522191052017 0.4048723225707002 -0.21943951195247965 0.06237544348265859 ]
[ -0.09161080117605072 0.26457810400137627 -0.08166283260388085 0.44587166693317576 -0.020009296470597786 -0.0959506310308696 0.0023983320101262163 -0.03997813597548775 0.24219318216363442 -0.17034824213521588 -0.0161847825051363 0.005707203562820459 0.07540336343919286 0.019620320101973607 0.0028668685521686978 0.13636788203998995 -0.22041333822664583 0.3148540694982481 0.04578486645864638 -0.1470393254509624 ]
[ 0.023532690892487752 -0.1101419248344096 0.3502327343868332 -0.41476275256210715 0.3056944367368543 0.26554933935884484 0.19961360105170947 -0.31827384061921576 -0.244929975159614 -0.11510856636397943 -0.27328732103305764 0.0074189054313676065 -0.31687616604749375 -0.05799249747631059 0.026073659461633997 -0.07161275390408312 -0.1628530273878797 0.06748228712862124 0.2779509056816968 -0.08565785618999451 ]
[ -0.08587580890550767 0.2470018205141208 -0.0850277982649695 0.2042947722124445 -0.4569266201919768 0.20347549088639563 0.1593329242023991 0.20158756375376102 0.08182027185996275 -0.17496476205460723 -0.22477510938010112 -0.23558066514111042 0.017551358734258924 -0.32654718239394404 0.28714100713956825 0.1244666509626412 0.33524136499669094 0.2751517894626791 -0.4413682527461154 -0.2987058692333641 ]
[ -0.038627859501806125 -0.1606783650530729 0.23543038761362745 0.02379364019324538 -0.24651390571585716 0.3032343217373266 0.061296720106338604 -0.11676768607378091 0.21584976110600737 -0.07842877293661316 0.04434457599453625 -0.3297257581528941 0.12896365788455494 -0.026976907692813294 -0.22476402334196877 -0.26191513835655883 -0.036561074161988824 -0.17414277240018106 -0.06692307388782051 -0.043433395988899004 ]
[ -0.2772406716569793 -0.3010439503404699 -0.24029293408110797 -0.07788714907606063 -0.24561324764973183 -0.10551203560605217 0.23374662348826755 -0.08452383722847796 0.4882032064512096 -0.12278710455179136 0.2448818192392038 -0.3203894245700957 -0.33699679881139255 -0.19405789380742952 -0.20340488491620942 0.05879876125811571 -0.46953247452877245 -0.12636605177955376 0.03679975778259014 -0.0281321745858513 ]
[ 0.007334605204631582 0.43518351079380135 0.1189183001858504 -0.2773071608648935 0.39171849150944393 -0.6538378048298099 0.17824670483447735 -0.1310896126751066 0.01439251033622272 0.012463074177036288 0.14706020735701353 0.36679089109046714 -0.07659189920047083 -0.014658571682201384 -0.004440725417750518 0.16272624550748044 0.12796035585431292 0.088884044911041 0.3254670417573251 0.1401626223045794 ]
[ -0.10703899766603746 -0.11477445481921464 0.13766380175926288 -0.31134258171684615 0.11493552148230538 -0.1549714734676965 -0.25138160829494094 -0.20593176302679767 -0.14852927863862428 0.33408263369206886 0.21228570885621176 0.2446389498422134 -0.06032476916978519 -0.03788076428917425 -0.07005366821733246 0.281525632944834 0.2708381720448372 0.18654492684491406 -0.1239339610135546 -0.11296055445233588 ]
[ 0.2405900053843015 -0.11032542951946803 0.06374655211494218 0.2121698656528335 0.2883491574624678 0.2563802964452588 -0.16609355937269632 0.2403302431696088 -0.040214273111605456 0.1576994009535632 0.04381575536927434 -0.009322998619910691 0.23395999920570035 -0.0413480607777057 -0.08703081508341091 0.1995423661492329 -0.046864641850541976 0.005527052952853472 0.11537347089874815 0.08911856737832842 ]
[ -0.16166890082012003 0.053184121833642996 -0.2609033071779993 -0.02603010926483288 -0.0023973676576789487 0.07876092572675064 0.07713331565626852 -0.2312787468948267 -0.10918261011362973 -0.256980874882524 0.19351935318778635 0.030260553265874526 -0.41512619880973584 0.06702584667119028 0.0017780636230885056 0.07089086725183323 0.28802074320888477 -0.10222618525535379 -0.12056843924812115 0.06881854513188457 ]
[ -0.05216277594697617 -0.25985672622103767 0.15272661748938435 0.06278241826571908 -0.005009590909242017 -0.27299672437863737 -0.07963482841945864 0.1681352019689116 -0.23754766760665347 -0.2955910554311359 -0.2780600116220443 0.3860950952961624 0.37391585847059006 0.01267360537625954 0.270854276196331 -0.27343466561884383 -0.3299084272042907 -0.06258867129571967 -0.28563950433799573 -0.33395941723282785 ]
[ 0.32845249584651615 0.07940365181111854 -0.013375588750060044 -0.26701753421820873 -0.06347244690639321 0.029443407488000714 -0.12091330418011066 -0.007102426540529356 -0.4207110470932726 -0.12443887596433817 -0.1695020624180956 -0.14590641908366023 -0.08012630805964066 -0.1419435445539241 -0.05236584080926595 0.13080786343613454 0.172066674092885 -0.08433243634008372 0.13416608101063257 0.0695222648331312 ]
[ -0.14598850147384018 -0.27140885571769774 -0.19746076224330195 0.18657091859468722 -0.03534770643321413 0.3139268334778793 0.039982386109609525 -0.06099636425192806 0.05261112268128317 -0.05247063107881106 -0.10637332862432361 0.052064547635611184 -0.17008723446266666 0.33329480044105003 0.4372864165752226 0.04296153532947403 -0.23119088682367372 -0.20861439587675212 0.025301224733638435 0.06310678869913541 ]
[ 0.05377093826465334 -0.048157793083299684 -0.2573155667668172 -0.12428084709674345 -0.2797373589238735 0.1211155228103147 -0.04431683723299192 0.12651631802534383 -0.09721787755470777 0.3485264777441447 0.047052657763196684 -0.23897707349954353 0.11255203078933279 -0.21332713656761743 0.2080335415871389 0.0740708662930855 0.33917269556107993 0.12390847181626448 0.17654965108974383 -0.3356852890901374 ]
[ -0.47970666548505986 0.20941633471047394 -0.1644586239236582 0.01078014612082842 -0.17105697933744252 -0.12836474380416427 0.10355284446299987 -0.2123027822558599 -0.0963182988610937 -0.13626340818418237 -0.24517839796036472 -0.1657810378414893 -0.03356343079264294 -0.300444336790931 0.1994757054187794 -0.19613236527848243 -0.07660498718408427 -0.10174122288358156 0.06678580414491872 -0.058732936854065304 ]
[ 0.05823628962095593 0.04881812840410817 -0.31189237921703233 0.0457517533201704 0.06519907790471312 0.083087774569609 -0.07738365429871835 -0.1716259848119598 0.16940958169093925 -0.0320029046470007 0.23432265362526322 -0.24231707209468897 -0.18657520466510943 0.016882469761418755 0.09733522870831524 -0.31249100008718145 0.2785007338400374 -0.09630438048155401 -0.22680156888741348 0.3060188026710467 ]
[ -0.03497324750667941 0.07261193609273699 0.16414652209628727 -0.19081988259163202 -0.03298838153793667 -0.033920053547129785 -0.19939158485894318 -0.0893775560046113 0.2128355452785125 0.11850088319115516 0.3207596216258915 0.03670909618384624 -0.05489374900200432 -0.23910539518597812 0.1371188139041534 -0.2000878693458587 0.2669663850905111 0.2841445230355729 0.014426874875685747 0.12493722532895844 ]
[ -0.0914181266073901 0.27359991783843246 0.22502488085895112 0.2321171780832796 0.03904011769971656 -0.0590306108142827 -0.22536826512123032 -0.2104537439922434 -0.07834202789872932 0.14465520170420645 0.12521783916360324 -0.3576418029564913 -0.260695303403143 0.1535508825198667 -0.15555811902775313 0.2358573508868011 -0.211325661739813 0.16512331602312333 -0.14171514872958127 0.03770119364633398 ]
[ -0.09519953471885781 -0.10921724271980993 0.04633141473220509 -0.18044534159808293 0.25571047186103696 0.16076493094224056 -0.3144084597025184 -0.009188433938426369 -0.21898910625719778 0.3290785058393187 0.18177386634877232 0.21262299112392213 -0.042778615510845476 0.3747504423034898 -0.016263788518652567 -0.22574280072970015 0.15123388457933779 -0.006431467196316229 0.16583619242815975 0.1023609724273513 ]
[ -0.07431279086075858 0.42905469654114015 -0.0892173158412616 0.4456535419647954 -0.19278839243927237 -0.30938398230502623 0.10407831755290879 0.14630557260170046 0.3853533754583765 -0.33071987203680203 0.12243243883841382 -0.21661140955323957 0.16147006445732662 0.1157706394300326 -0.20870917433137903 -0.16392133191759428 -0.3430982036144669 0.11643372371514002 0.07081537679311545 -0.27488010283311953 ]
[ -0.05576238283628082 -0.17129264975899824 0.04436227154254666 -0.27531769352688645 0.2691584925273489 0.0726155448182433 -0.1613997085421872 0.30850153257372104 -0.05423602263312969 0.39076833126409216 0.2519032743089544 0.08270831817557062 -0.15246468675295485 0.06831229453374763 -0.18814761979135475 -0.18557340280245657 0.037785120409938346 -0.1503670350786587 0.3122056408828806 0.3544649983165624 ]
[ 0.15320705723621716 0.11639823823544576 -0.1710597082022972 -0.3459633523986593 0.2948099273214209 -0.07717585136823649 -0.03282210524196335 -0.0439367797880536 -0.3087926440533273 0.23647060747571078 -0.006323000826438085 0.01944117704792667 -0.08693766546243221 0.2040563480228346 0.06863561638771844 0.2586719809927094 0.16758651145773573 -0.2072562635926845 -0.02885181503727646 0.4042870460534038 ]
[ -0.08993375046005991 0.09950289846192088 -0.08998068257487969 -0.2391169039523449 -0.10414039488600445 -0.15445798952690026 -0.14060782588972717 -0.3731398697935186 -0.26625445566447237 0.30577237375834687 -0.14584887481136125 -0.24731272422284312 -0.10271083634040772 -0.05272907827320437 0.07764764145400196 0.012030480018273617 0.19466636727213216 -0.14915006042535814 0.11692482612538038 0.11034863607902849 ]
[ 0.10135730339441634 -0.04590895168054507 -0.25943639642198857 0.29743995904339954 -0.1614586244950336 0.3154092733502035 -0.3171563360134718 0.016045314783280352 -0.09478093718072894 -0.2738442136575239 -0.1085131471354542 0.2095885971736642 0.12158199250549576 -0.20778192947294294 -0.03942721972396139 0.3589065114210494 0.3579838781537653 -0.13812723637066884 -0.21653698375552918 0.17390632474602885 ]
[ 0.27604522185740543 0.23432427284772464 -0.16674456993682832 -0.23243398561430928 0.2507495393347099 0.01473485711106675 -0.08389914042206685 0.0863012335937987 -0.19677067532172385 0.010543799756225335 0.1911676953072506 -0.2586926291265643 -0.1945715664379989 0.04261226732672746 -0.1815732538730447 -0.05315616128383979 0.005870126499642896 0.0020434895048998176 0.2938285099228812 -0.1895014556189748 ]
[ 0.2185663548569144 -0.20409283087339483 0.3888599612529758 0.11197463405393 0.24906461892070758 -0.33422528762031317 0.37313197347652477 -0.004503853965196982 -0.014837064865153191 -0.2837975099331698 0.20434971543535377 0.07735786069486562 -0.04433769064392905 -0.1443904887528798 0.033749794049941405 0.22169874685455887 -0.054981972137071455 0.3704361079077925 -0.07158896740933807 -0.04934461664695672 ]
[ 0.12401231193474681 -0.36563692296780265 0.26416491335078124 0.29257770788737736 -0.13971686184432486 0.26544736271998415 -0.3822095077205249 0.20630022177884988 0.4539189436897443 0.1342310292337605 -0.3786412511356631 -0.040721606810514045 -0.10819604456345289 0.11001952417443395 0.23482498276172675 -0.14494310111975012 -0.5502789763555163 0.0620372324534647 -0.16122108044933633 0.10412640735717242 ]
[ 0.2344629370628157 -0.2987035923616015 -0.006324054020138131 0.036933125484558425 0.2089325623217404 0.6100058442287293 -0.2550278854530557 0.15545283607013685 -0.04557930788467683 0.22239919981218798 0.2860766182369381 -0.2357111308239746 -0.32688541090208695 -0.07177509250243347 -0.25232168234852537 0.18751961732125508 -0.07244455942094662 -0.2764685739194884 0.17028644632168777 0.15041561220284444 ]
[ -0.13853270013854388 -0.25411462917375205 0.284584294765492 -0.2439821924941037 -0.18435565956225977 -0.26762127247022965 0.17174460529181668 0.04078167415631316 0.26077236825692673 0.24480150988396915 0.21560757378179166 -0.13937545114691793 0.18919377523460193 -0.23319862621460416 0.26691945471563683 -0.38879587619143746 -0.03814451535520666 0.09200664637242298 -0.13348067844203682 -0.13774885542917595 ]
[ 0.24509949333354022 0.029489801027740476 0.08229502493914177 -0.12838495490632715 0.11024130119252029 0.1505597538617679 -0.23743777118803258 -0.14955254996138867 -0.09798015570462484 -0.03154592322253817 0.1648026570196464 -0.36885340814253503 -0.1204123474626759 0.29927079261034095 -0.31722393862768516 -0.12062032316395498 0.4550023525849285 -0.04895589131685995 0.1097686093421807 -0.08353684937870648 ]
[ -0.15146783712302897 -0.13646219653284028 -0.06805380370642189 -0.09511787431693328 0.12488951044531665 0.13564215130231394 -0.13471605993071112 -0.034800448945807645 -0.12310644827849442 0.06046384188483754 -0.12833122248051168 -0.020168393561538635 -0.031184808238790555 -0.012750402783042685 -0.006857410509598618 0.004509717127365306 0.085748299439202 -0.03461671899334032 0.09425505644601193 0.0672675322374599 ]
layer 5 Activation
tanh
layer 6 Dense
20 1
[ -0.007142845764265677 ]
[ -0.26715118048597636 ]
[ -0.10557697854683129 ]
[ -0.051535532758068124 ]
[ 0.1011419705690956 ]
[ -0.03442336565979704 ]
[ -0.16180599294950862 ]
[ -0.018037988588067967 ]
[ 0.1346344312623399 ]
[ 0.04822047547189685 ]
[ -0.20563493214940884 ]
[ -0.05319165416127431 ]
[ -0.13916220107093982 ]
[ -0.006281695626758617 ]
[ 0.0047223367937273275 ]
[ 0.018775229974727622 ]
[ -0.10956533360994128 ]
[ 0.07596184181968944 ]
[ -0.004881444598175156 ]
[ 0.0021523596099815075 ]
[ 0.017854362431178928 ]
