layers 7
layer 0 Dense
20 20
[ 0.07414692414595567 0.15467501967858124 -0.1564681812560249 0.3820484088214469 0.027298805116440134 -0.06869811123955305 -0.2690952011396861 -0.18276823460242744 -0.44597134230797714 -0.2060667784640583 0.06883246359550813 -0.3979488991179571 0.16132269814436773 -0.13459341482467252 -0.2513953844530869 0.3402585848758944 -0.004674647586388488 0.09596396268405005 -0.23625599531566543 -0.0376954307749974 ]
[ -0.0357850617529564 -0.293330537264824 0.05882519987770325 0.2633348657189455 0.09370288439218158 -0.2959227745261521 0.011901158993462193 -0.32850898073024987 0.14779413275360515 -0.12777237639977407 0.09966326316189365 -0.35227288339031554 -0.01623974497126202 -0.14536964676193107 0.11868671944641762 -0.021462970497171982 -0.11188497895937631 -0.1844832063188547 0.15943588206862894 0.09702045770619745 ]
[ -0.34714858716156616 -0.1290697392839212 -0.29359803538367163 -0.3185693120895742 -0.3184405217791323 -0.18185323147730179 -0.027890784458514607 -0.06394585657358359 -0.19467277789588652 -0.17201049962969023 0.003790101713193847 -0.21471099660608123 0.36031118617249214 0.11728910578211331 0.11768126145864234 0.34418530935967406 -0.38186626750658037 0.15275529713349162 -0.3221239916676696 -0.2567955780688886 ]
[ -0.19035578562423106 -0.41760007808394983 -0.4312363219272379 0.6110892940345586 0.12783538411196407 -0.11253164891364022 -0.31796003304713927 0.0952577141949234 -0.40327017957796113 -0.1501298736488057 -0.3072320765469729 0.20752055091218083 0.07930877675618432 0.34687986350769007 0.213428101586177 0.058338671250987184 0.21041380376801772 0.09636702510524027 0.2205578352166106 0.29077091226276164 ]
[ -0.38805080142867526 0.04144330558325136 0.10137420254085455 -0.11505058466551572 0.07286146268186516 -0.47020136612600116 -0.2570551505229292 0.2188241917676881 -0.6347083840081784 0.02639994712355849 -0.05322407808672299 -0.4463120077739203 0.09329154233306773 0.27447149379544894 -0.2807654273334886 0.2101093578008736 0.2591495917910372 0.44934839202690463 -0.5771271661178479 -0.287450328139296 ]
[ 0.02902463822092221 0.05293429680889257 0.06935687184168164 -0.37276179133753407 -0.34907113884699253 -0.07559997227279493 -0.008595298739438127 -0.16166056717339997 0.17751693838669508 0.23987436917627253 -0.271073632813092 0.16401979733835378 0.062913102409758 0.036046893910875524 -0.28188020414931475 -0.2664398639739211 -0.37489243119262233 0.12225683485801858 0.2823625639092626 0.3433499327369211 ]
[ -0.11710379915345567 0.30016277483856907 0.19806351928167804 -0.3633518563618377 -0.07386640716877471 0.34266898956219816 -0.1039559169932839 0.14448745595538423 0.2380036380283395 -0.0134099787813217 -0.039621249635664914 0.2623151268407203 0.18351346206046776 0.32173839137685695 -0.24336207230599638 0.08092389745827845 -0.05949351013019725 0.37875364330184763 -0.10267662281433246 0.13741107607725464 ]
[ 0.10437402089428433 0.2084075678819754 0.2493743567366506 -0.2503812099217854 0.12494476459428895 0.41757009807486173 0.3095149127263599 -0.2073752519100003 0.30343126962766054 -0.3445276910114017 0.46442033711354647 -0.1530718326305047 0.2812749284783399 0.37932779421951035 0.2997395090589781 -0.5574201240736275 -0.2875621628950214 -0.07782345034893334 0.31572285501154657 0.08913738736398656 ]
[ -0.006935881681272969 -0.6229614800430598 -0.34070897367634134 -0.12463410539988365 0.46904480533450804 -0.0026139370898479774 -0.2797336061321412 0.5136387929043381 -0.2043405172884528 0.47067786239457576 -0.5804789236108235 -0.5081566248651402 0.14677285523330916 0.27026667074457117 0.12879600575529718 -0.44821335153205377 0.3544742715481907 0.0034875086333151627 0.0744440439482989 -0.5599220261345064 ]
[ -0.5622573967918071 0.01593021057379889 0.098431148776146 -0.3890135415808057 0.5101190635631764 -0.4211031978182857 0.10710481998742365 -0.13894441707033942 0.08782268134201257 -0.05597431169569774 0.24740292416271073 -0.6151928296330794 -0.34326150010339984 -0.6335026892861613 -0.5177235442976368 0.08743305755489214 0.4154851120682348 -0.3146246591185153 0.10822305696070147 0.3074199508908072 ]
[ -0.7785967779754336 0.8334859259188597 -0.05475315131879559 -0.29766908360042543 0.4778963438849436 0.6395572082213266 -0.13785895608960552 0.025939031060488872 0.32720123995804146 -0.6630773926582183 0.16609700541017475 0.5205752668058021 -0.4450178849455506 -0.11280848721270834 0.08153365750091046 0.4106869678222148 -0.285360655018528 0.10096627597885016 0.17263607510652967 -0.3362876513577029 ]
[ 0.3524767995610962 0.19025811678403742 0.3606683472849553 -0.16641403848332986 -0.5516205078793739 0.004462212450724619 1.0230545679656342 0.6142597135957869 1.1816832114789666 -0.7349844558022588 0.4861438791246303 0.7182903092344508 -0.3938568886779854 0.22344529685716807 -0.8620072375292992 -0.20369904520065307 -0.4745981370051627 -0.07266359446647228 -0.700444812995111 -0.1149941351996512 ]
[ 0.3793653111620129 0.0607684995941086 -0.2293531758169376 0.18086514546012636 0.3702252101944161 -0.14215703838981197 0.1461430151924843 0.3406776093493916 -0.3669037960807708 0.647661278214983 -0.26444624784527476 -0.11065514794589001 -0.0960865531121436 -0.10132141079256236 -0.07735006124763244 -0.19010011242888306 0.18634466001090827 0.5724272728658647 0.23597676574625326 -0.46453300836311207 ]
[ 0.24830910094858916 0.32770626844193923 -0.07144305890306103 -0.3596445943111577 -0.4351995974107094 -0.014548702595103198 -0.27042221192444554 -0.20561873022887547 -0.0790986609439348 0.04301878151452496 -0.09289392943384976 0.22274373166110514 0.3417689744361696 0.56567256146236 0.06266134768327584 -0.09228355061962422 -0.44891401433256 0.8458567298046147 0.08550215138999138 -0.31513534316271963 ]
[ 0.5780305943996171 -0.42258846336551464 -0.02483728970500684 -0.09089086959649498 -0.4980332183464051 0.08029552555879024 0.2698935092563018 -0.08907163598143623 -0.03235544271095842 0.7027533102172383 -0.13979230452603794 -0.5030071880210113 0.8832212752796329 0.547276233671673 -0.302994256161851 0.058194906774020394 -0.35519834368738784 -0.5572485182075888 -0.5366300318859895 0.26580894509609126 ]
[ -0.1310807763431922 -0.2354618422272274 0.3156229655886873 -0.6447994985338653 -0.5984717426340966 0.5521453645784541 0.8219073968180018 -0.10719934500503554 1.3237217589127095 -0.02803401536839657 0.399310983250498 0.40109986684190857 -0.32887539154863527 -0.08873654982683349 -0.5514062655213232 0.6369312284588484 -0.36642501130705835 -0.6077033495669816 -0.7843289368532446 -0.2483235218002518 ]
[ -0.2462946262863091 0.08294530707339112 0.11090899420805927 -0.256084432701008 -0.3974281632389193 0.2334084777924594 0.095209658303436 -0.29516242204402704 0.29751177874635776 -0.4490081951629034 0.11800554741039149 -0.12866968572284762 -0.36403446241307125 0.2698063741531073 -0.49670068029683817 0.3022431422926609 -0.4701461850747632 -0.07315077872054146 -0.5553632342260231 -0.02111645236287112 ]
[ 0.05181928022645009 -0.11272277760182223 0.3053064762363197 0.3449000365125004 0.025093439342521777 0.5113252815699263 -0.18078806154659602 0.17147989303224273 0.342288864448753 -0.06575791105127485 -0.2740988402287891 -0.3292297995326918 -0.1274600668981374 -0.19058843328843603 0.14411364001520813 -0.26508724031856984 0.19499739245074862 0.10503942117710026 0.1482121088564462 0.09686437752403948 ]
[ 0.4876875394630511 -0.18692291109263617 0.3143835645630348 -0.04118315707397688 -0.07995445544747361 -0.11826530659889806 0.0938055019439907 -0.16425144404485886 0.14440307207673383 0.00829827561813468 0.3056642565267054 -0.020176641758359565 -0.42315023731037876 -0.037422900257421406 0.42232816446452953 0.18665031401325916 -0.08056465511581672 0.26809204014577037 -0.2462767089836317 -0.11882604358390808 ]
[ 0.30201649697870914 -0.5069002501476241 0.21967494127863385 0.059881540328757706 0.020053446906203844 0.06307980924776384 -0.17043442866212402 -0.4472349401785069 -0.11894506208390201 0.41048328865351735 -0.3658030225047862 -0.07441230031277729 0.3958777522066992 -0.42031040875844033 0.16352264596033395 -0.29090246911585493 0.34251899673640934 0.24143313510327657 0.739953367124423 -0.14149467773984356 ]
[ -0.1139330779531376 0.04325817883031492 -0.11905587007014957 0.23749783261851712 -0.09902577644715006 -0.12551035324262472 -0.019897865356815304 -0.047966132168488086 -0.04544365170414667 -0.07205879391095642 0.014463091390750471 0.04726647884885232 -0.014383369742535096 -0.0968797065851124 0.01804791341768356 0.13595096311433033 -0.16136003337522736 -0.11636008896864472 0.03209612653341961 -0.037076173922018896 ]
layer 1 Activation
tanh
layer 2 Dense
20 40
[ 0.1010057981690771 0.030972074799309832 -0.056908551699573554 0.44066729642982116 0.11856781284398694 -0.34826390313886785 0.40251540211195674 -0.22710057471772244 -0.45802301957615965 0.6128483666974263 -0.07603866244432139 -0.10259508657545746 0.6712309424113554 0.0675809146409915 0.21258453070865252 0.32743720262996984 0.4332362568509882 0.12235338661833198 0.14441781983257523 -0.32885647348346436 0.09520410552508393 0.1093692871552101 -0.3314068750640823 0.0063958189196504315 0.3636087596191976 -0.10801065198589875 0.10298849964296358 0.0975705843811173 -0.4096207277106536 -0.13456087941839479 0.1581034837156887 -0.07266647556103235 0.2010416232273232 -0.29115683397000713 -0.03502669849162324 -0.27306950696485993 0.2527072568297526 0.4156778585412991 -0.22226458660547374 -0.1416365509222639 ]
[ 0.10393028665071394 0.11402675405582118 0.10079571526303441 0.04462679855455089 0.2941689965251635 -0.05635305006835222 -0.2106882507059637 0.002779865092046775 -0.1483742031592954 -0.2104241857847637 0.4407832607096899 0.018728095752685966 -0.16736945155770933 -0.07885033662509011 -0.0169216127241942 -0.027644976587974712 0.20137810016803637 -0.3701261584769735 -0.4071661212239058 -0.2955939692562226 0.1140576493541482 0.09774896866722871 0.14584414111702762 -0.39337082605347296 -0.03210967939777422 0.024028831698823604 0.22990469787083492 -0.14989267838698628 -0.04270040305034531 0.0944606129620457 -0.16920869847357792 -0.12536373958570535 -0.11135458006156086 -0.10028408450754629 0.07616155197504038 0.3140252614323425 -0.04143354516493258 -0.26701742813101487 -0.1074391450053819 0.3173993994025862 ]
[ -0.10049207082885138 -0.3364547748971668 0.0032323613966193797 0.09529132037907559 0.01851415996566135 -0.0682290325402675 -0.19186541721237285 0.06900752416393219 -0.4216892169461886 0.24434959628640524 -0.15382562284909435 0.2370186627123184 0.06868888838301576 0.11015061198564947 0.2962361621591755 0.16442248790852 -0.016283857520847246 -0.2405343512349035 -0.11655766668170053 0.28086235059435316 -0.24057772574803885 0.18998561016454718 0.18737799182135767 -0.10695247617784653 -0.18745525078281866 0.03635405171394528 0.049358416479356806 0.04379167782979305 0.026551973308988022 0.08045954473813413 0.03953437740821734 0.028544974661994637 -0.05979069535802391 0.06502516496139822 0.06021898251274093 0.0038556113123977822 -0.06655332697728404 0.07380632718929293 -0.41598603154064656 -0.2302030427849448 ]
[ 0.026890363331751196 0.2988911275325392 0.18243529155602975 0.16959221479064185 0.20666161579494466 0.06360676167996634 0.007738078261424029 0.1826330333030457 0.11915025267430276 0.10643511388212547 0.21543338305122495 -0.35621245538260826 0.06186052163545856 0.41225706150373304 -0.3117205669292092 -0.14686574191498622 0.06778669026535668 -0.07145621744556672 0.036878221603909314 0.014340947297645098 0.23192976718842723 -0.07673760282312259 0.3660428437769757 0.30865450812728035 -0.002023892081231215 0.2976762171155686 -0.43281238588907883 0.2402025025958921 -0.08252425482331106 0.1358310329711063 0.4409416442264494 0.07192848694355417 0.4009068084463426 -0.2933227342231233 0.42090058730165647 -0.060934364501306924 0.23666464920555189 -0.11024777324730119 0.12461818027911094 -0.03539740428716882 ]
[ 0.12723516596783135 -0.2894500667227663 -0.161399864616443 0.17897363359170496 -0.20555636445466155 -0.24078731351588226 -0.415545496598481 0.23550628138585133 -0.37526609347810197 -0.7285555590995807 0.19281705754339323 -0.09592397865270798 -0.10915255314779913 -0.1625128103864694 -0.3962732760113315 -0.1526549505028156 -0.23472310782681438 -0.1303765875855542 -0.05687843079066035 -0.10101518968227072 -0.07414403985395544 0.005463427747130969 0.06336735597544498 0.3295337098546459 0.018846954245661896 -0.746726212077025 0.1664178547100082 0.01996030595254486 -0.20687449630977509 0.5431696728207832 -0.0009439603590072294 0.4283306406504347 -0.2261446448207955 -0.03769236797173092 0.032927561702009375 0.38225882062256783 -0.06784479650113497 -0.17583045365448757 0.05370723619635554 -0.4106431592994774 ]
[ 0.05074210434221702 -0.13136353067954384 -0.29708465314463156 0.1814693430265459 -0.01427804324363424 -0.30585408563934496 0.22829499661654312 -0.0958051808808646 -0.22009289730625425 0.2117279754971008 0.2267412794287844 -0.2653781586190575 0.022303558637386766 -0.037852756407772685 0.4145750807728163 -0.2570646975108789 0.3821851418585351 -0.1471635982730394 -0.1809948446111255 -0.24984211681257998 -0.3416849301254578 0.029448174232160146 0.5020918402963138 -0.011193853991205984 -0.2153391389067607 0.5574835758532456 0.2713628943799281 -0.31855615787783337 -0.2591772811369346 0.023724498287079433 -0.1256238558146524 -0.38942193551778925 -0.29336427173905516 -0.11618884161658219 -0.3980933066047778 0.09117523119989754 -0.1839389535778832 -0.17037472960592903 -0.16890195015195503 0.3082461423138574 ]
[ 0.01150952574972531 -0.04587671156250155 -0.17927000151210612 -0.2945887772757219 0.00850697041003732 -0.42623280177832595 -0.10140109100620469 -0.2137594966181697 -0.4283877355672538 -0.08117827760220712 0.12728974446354824 0.23115247609185466 0.20156486528290482 0.2684267563837714 -0.07279921539107376 0.15623591579207904 -0.13654601316734283 0.17534667416989486 -0.35581137936267376 0.060539897818727255 -0.27164958249133797 -0.144196575817287 -0.313792322433255 0.22476550825875727 0.08219085218914313 0.09072561186129692 0.02221904673464729 -0.11902453192527229 0.4192315738786483 0.2129616355719613 0.3174813457244208 -0.2633777425082321 -0.28772772614961933 0.10973182323658243 -0.22099614420935296 -0.35904276304621574 0.03362914941734336 0.18669959007153494 -0.25175542156838004 0.04709846972367783 ]
[ 0.0939643673896473 0.07486688940404151 0.15059918200987674 0.320866560797134 0.28677005771182545 0.3959906728346191 0.31146190163018267 -0.31528507793728233 0.022321649113075666 0.04196258050596247 0.08023608515765436 -0.23424206999157826 -0.35988565284682633 0.0006307764457215573 -0.18482905573930827 -0.16542944257240175 0.07217050929999391 0.29935474888251923 0.04941007517469889 -0.19574183159204864 -0.029269844032230676 -0.16436466639076033 -0.12601998373004272 0.035062451569055526 0.08667945144370717 0.34909823845375226 0.03188455807917792 -0.13689483982557268 0.2430209246081944 0.3704311336821397 0.1047043462633849 -0.32049438993938534 -0.11944087293431685 -0.030325859585562776 0.02887495625359938 0.08030113581351501 0.14811255528495523 -0.2353345764573469 0.26434419282444327 0.19025096204802155 ]
[ -0.005790574306796217 -0.3839152836666703 -0.1806646545667235 -0.309653172566381 0.06636692675390912 -0.32398699912882994 -0.15174080298358472 0.03658335498381078 -0.37918588480818094 0.39605217440255985 -0.172686518882771 0.25328513223807764 0.059309199192797264 -0.3616276857194783 0.23874251464440435 -0.11734740466319611 0.20524191576739115 -0.4066814335962089 0.12526113911973824 -0.1572672841817466 -0.11782198775689255 0.17028183845666564 -0.18045162936987486 -0.43894145199175943 -0.2841507965487181 0.13464444912085324 0.6489440925517008 0.09323639773000152 0.3591797516018707 0.20954597883185824 -0.1121005345796175 -0.01610137006733568 -0.31663058546136724 -0.23880307375304546 -0.3946453191693678 -0.4482814589459194 -0.4210640864238169 -0.12711448839666584 -0.24949962347421878 0.25685267340115614 ]
[ 0.08388003448059536 -0.27574820780738357 0.055560338838691034 0.07664673475226044 -0.2035021843666455 -0.5632041226131023 0.10355099304508 0.15035426776829774 -0.3344173869670382 -0.05243065329975669 -0.015039752021875356 -0.31131566972210445 0.6076151485564146 0.06255266075042468 -0.21984741954335327 -0.3459165324004316 0.022782003632211452 0.13706421849867315 -0.02523153427522916 0.19998809771612974 0.3521196651882079 -0.118580492824718 -0.1517071518848004 0.33807754083368624 0.41545776217816943 -0.38386454193364583 0.0396936881968879 0.2447495663793063 0.00854542160806898 -0.18730711055048146 0.4209225935207314 -0.20247680471249407 -0.11333876011222127 -0.058558556188772974 0.11941427441200518 0.21331297470344046 -0.15098106895596705 0.14180772598999627 0.11896926310398218 -0.06577310671339293 ]
[ 0.33320876486767115 -0.07201646935671095 0.15115295548325547 0.09665494302220214 -0.055676282952750636 -0.12279326869257781 -0.37544790675170336 -0.14232469037237663 0.040007049042441976 -0.025076417085089148 -0.3563515946532362 -0.16834916026001484 -0.08165662420899478 0.028110927678096545 0.12363065168077116 -0.023008620931025223 -0.023611419503540773 -0.05548898705413027 0.00467134565163754 -0.2591594336511768 -0.21987305600985785 0.21576479188050587 -0.22382914314876998 -0.2189087157754487 0.039242136733509674 -0.1687747635508347 0.48326289461344274 -0.15272744371857241 0.30689719288350853 0.304518351029093 0.01941824289689377 -0.3050563344565502 -0.2509332475412103 0.28121333639044105 -0.20417480659206574 -0.46674057166996097 -0.2631377553916977 -0.1480034671542561 -0.40944010866759395 -0.24948288791016154 ]
[ 0.23756691164007326 -0.1483599858310153 -0.43841749009236125 0.09072086220316708 0.41109199949185166 -0.06176949445091396 -0.4842934908396709 -0.2394333782330861 0.15819176671113094 0.1300534671385491 0.35901359856791526 0.01267192024193463 -0.302841773326406 -0.2078330251675796 0.2476280613700134 0.11193014197787182 -0.13298283239080208 -0.3993807693811321 0.22409055767916644 -0.20306333583056482 0.26728303639154083 0.10344746298902967 -0.06561970714427275 -0.10883047307360724 0.346159811206785 0.12801224273945558 -0.1689919771124215 0.10461136415876066 0.06044054103739817 -0.28710633596300045 -0.13827362748472272 -0.029286231290884514 -0.0714205661792998 -0.37200865227137014 -0.2660888203344814 0.047086062103731355 -0.015995006495021634 -0.015053973758725846 -0.12722759702752653 0.35248627972959284 ]
[ -0.08881476916980051 -0.04666032616689266 -0.04657179068118009 0.11019859237118063 0.15178158581675932 -0.236694332831578 0.34692947977377475 0.09720205832968666 -0.33605319880671963 -0.25404084150728645 0.4266486356029069 0.28769266264679216 0.5044115553711331 0.2731137471429832 -0.0849265273382123 0.11709793615904282 0.13919066068351205 0.13741757151676753 -0.3203043890619462 -0.02909075098263755 -0.3369913787791047 0.4988150844599594 -0.07421965471100125 -0.7274023827609093 0.245108456115087 0.09236678094807879 0.025260345904145016 -0.06134269278788457 -0.09501306993719338 -0.478264782441282 0.31188626177685735 0.11121063825323367 -0.1505293705168531 -0.06795375064392103 0.2347190215250171 -0.0055657689551256075 0.07833811887429698 0.2197913725950322 0.2320226695493119 -0.2995718696771879 ]
[ -0.2611488664468047 0.07102980894507996 0.2503398945606964 0.24059487422385928 0.017408149367178775 0.10450310736080254 0.2860110901005998 -0.1309070792494405 -0.30492534355163103 0.3276825256232617 0.027210205478593926 -0.09314087042068647 0.05533188939470369 -0.23665959844916676 0.018457956551231138 0.4149519547469013 0.17121297949993 0.216190549822482 -0.2291245085433955 0.292416637481997 0.3689925520689421 0.1128910587080369 -0.06821440557774548 -0.5246541537297155 0.025749921809939763 0.27892266281080286 0.012223292327734281 0.15572403207046634 -0.18048994860218107 0.05486658658968283 -0.0027072892117670122 -0.21873537822706762 -0.04191189499861447 -0.18932221561111812 0.23458862011428044 0.37959134580177833 0.17616307173629292 0.057708283254185366 0.028718845568202835 0.11471211521286365 ]
[ -0.3604496541467181 0.19631370559755384 0.018866826860943268 0.11111445890515122 -0.052348740937874796 -0.10351604505484203 0.109705140484639 0.13322502391680205 0.034182967283756534 0.5784460971110145 0.187655193572627 -0.019982127846627885 0.1646509665232886 -0.046499057958228535 0.14805907507034707 0.05727568062292334 0.3380851735929242 0.21335446764029065 0.28257345752203455 -0.16817764064656543 -0.26471087863638854 -0.3106609551387703 0.16313463763333452 0.2641338847256216 0.1933673416490896 -0.017285934587746365 -0.052013689809036825 -0.28983333305376596 -0.0771910082794973 -0.10328699077857041 -0.21922448056960162 0.05150856327682714 -0.2138776336592562 -0.12770137920827263 -0.30681850423655554 0.3910556804778452 0.16876062370771816 0.24453169437226288 0.0728763460168002 -0.11755762694507395 ]
[ 0.25689437881314753 0.12920039719750342 -0.18026003867221738 0.1110052527041779 -0.2432435204755427 0.1717544238907202 0.02425459095383536 0.11110763720826257 0.40976608380348883 0.0758327741250282 0.0005145380212146674 -0.12296092138367531 -0.45005991869878753 -0.23802624962755037 -0.07535674709110392 -0.1905601670826589 0.0003408303873714219 -0.05716222558424042 0.16809613460374803 -0.3109905134992575 -0.21417748495733396 0.10512304217598374 -0.23097511547752825 -0.2070628867277854 0.32524341458287676 0.12775404209955393 -0.5435136570831546 0.31616608369443416 -0.23956741111302549 -0.1396791092039467 -0.03237046483164273 0.29931354944882477 -0.03368369106446186 -0.03598725075457759 -0.17174013120024206 -0.12028411276497668 0.15501715829781013 -0.25902289941580214 -0.2822618805592849 -0.1726061084530365 ]
[ 0.11622641197808672 -0.06743341685288441 0.029663466125630804 0.16009924577506118 0.14195752671276496 0.06900705599001895 -0.22330010905468256 0.08154172005469129 0.05043108017591104 -0.009451187451766216 0.009994749936646452 -0.13768128458221265 0.22347121223087793 -0.2545417045120453 -0.22125355505508407 -0.24829529378647758 -0.23235729163632118 -0.04321180006372677 0.3891935086865782 -0.07292395055396017 0.07787075809956773 0.05371546876280518 -0.11151646086454602 0.4332296138295446 0.1095623484311873 -0.6621949281984103 -0.37424518243142696 0.17742122424162649 0.26861547022923504 0.2366548147291833 0.026067158549286547 0.04753093181714473 -0.020314676031619322 0.07631390222061124 0.08158929123037689 -0.5103647082065363 0.19103053472963522 0.02658969387958145 -0.2602860824435652 0.007836334664235615 ]
[ -0.2883947724260823 0.0019721867744929233 0.05137233476341806 0.35552768521137607 0.48459177465389297 -0.12731416408201196 0.10043468634111752 -0.3234604471038177 0.1148983695320946 0.37174025208119993 0.11044071015612651 -0.18842144086738166 -0.28996778525191286 0.17821471703870426 -0.22281059758329935 -0.20216990474834443 -0.21402030105132605 0.15879070561064226 0.42275860952514704 0.10591863969971574 0.2586834633072781 -0.3420753528887054 0.39441415243426164 -0.29499613191309165 -0.07425778193388946 0.36755891399600643 -0.14570034403873017 0.08361994283211674 -0.3583361058557585 -0.12547414718252023 0.04613543501537748 0.0056815198990587375 -0.2127845760956067 -0.11388757304537148 -0.09903109442264489 0.8606281545940494 -0.20879739884297907 0.08134026195690854 -0.04686094838785615 0.10754158267224183 ]
[ 0.042201844824709366 0.2808460856527017 -0.03611596099639123 0.3678866881106283 0.1644958270611258 -0.3219353881378452 -0.12398337745004834 -0.04117663932004927 -0.19491543266848765 -0.6773196359952466 0.28374176540684054 0.03811323429047244 0.2969922182434926 -0.15202787892798025 -0.28737174679021193 -0.5304138497457862 0.21153469006749703 -0.0016005859848072606 0.007905024790627718 -0.1634128752653259 0.3602279274594544 -0.14220413043317448 0.21708635671395882 0.5274683836460015 0.03401236283123713 -0.3850325151238817 -0.051461626917716545 -0.1965310686281875 -0.45981033752424494 0.2644489040528428 0.2759449851093444 0.04500771076685475 -0.149858206776383 -0.4072255774737964 0.469173564563857 0.18078475611907252 -0.24308432661403442 0.09841611939500355 0.20003590599864507 -0.14296612179302154 ]
[ -0.07715433538442709 0.2126328555763886 -0.09847790928342552 -0.22188562627597394 0.09878268672109855 0.10226627450873609 0.06761649941098445 0.2660407022927104 -0.12986926322775924 -0.21699770604059596 -0.14771610827766146 -0.049343436772275436 -0.21062251336977963 0.052692878819631174 0.13018640632985873 0.05743549588457297 -0.12931567939007824 -0.24366145723072383 0.053404779903184374 0.3046011917276319 -0.20267707281895753 0.3054737539752008 -0.2664161342156664 -0.28645416466752666 0.3248648800202823 -0.08241079237570853 0.04245684260182601 -0.07079091763229643 0.01138422228074176 -0.33477232261105505 0.3316663166951125 -0.23744799929934343 0.023180706715681825 0.20284248018637807 0.09248364519583961 -0.31082855638935675 0.24864229238775926 -0.17558317158487224 0.1008236539980144 0.07301974534126277 ]
[ -0.08650060796482639 0.22729288293788857 0.039243868832912886 0.03173787975908152 -0.0061539534083002905 0.2678850171236486 -0.0031312398477677003 0.06281160713857822 0.27687942156470924 0.02662542958279343 -0.09238068203811972 -0.007288357384340071 -0.11776714510437326 0.11603357700612071 -0.11594174969209528 -0.0236596491664973 0.009981390796320551 0.0019638206122965848 0.04480442678614262 -0.0394153431630401 0.00156286316117445 -0.035542166965558675 -0.030634240831484087 0.10130523102812247 0.17640772433719862 0.04310320338424492 -0.4740375330843451 0.10364949554273317 -0.06931343531141493 -0.0666504739757597 0.024685100940755156 0.037184698765504336 0.2975954804330587 0.03153835651279267 0.08324760683915097 0.020019563230087245 0.24822139599597226 -0.03991969436263842 0.03776189700410695 -0.07011838477065908 ]
layer 3 Activation
tanh
layer 4 Dense
40 20
[ 0.13419841857233553 0.2352202374430785 0.21788006488212164 0.13923879758915464 -0.19486864857919342 -0.18248909516820447 -0.11955782067446896 -0.292458860877447 -0.09792867761394464 0.31756609176633976 0.06614585506197518 0.04010872986833843 -0.07670261522206998 -0.16125025043351976 0.0491757932386342 -0.05659181310183764 -0.0465580178701646 0.1547219437796006 -0.2655350197818634 0.04782187132308681 ]
[ -0.07901073422264396 -0.26621585808862 -0.07524356783081008 0.33077530281168926 0.04066127914476767 -0.10056331767106322 0.11938041920104817 -0.23986484955440165 -0.4232936423199796 -0.2881862086521911 0.09356443888660557 0.13162410324546964 -0.00664668373133867 0.1972400084443642 0.21580675071290664 -0.04707118603703792 0.36578228330415014 -0.3304249209823163 -0.002375323913252924 -0.25061566935204904 ]
[ -0.031314606836432536 0.14159768997249897 0.04992049012439568 0.10616317238848907 -0.06332552141904792 0.4377995084283643 -0.20228435109953774 0.04192134973058604 -0.2820747504612435 0.24089637630402327 0.1409460670405583 0.30975382453096095 -0.08518352552492936 0.1436781350131031 0.03999551157869403 -0.03868356939738875 -0.1836584819978746 0.04541938840331165 -0.20338415859275014 -0.02322552716926932 ]
[ 0.25807883088115113 -0.26963480710170706 0.18144627770373528 -0.3668369791986708 0.2217279694286675 0.16532448856769313 -0.16241600601751854 0.18618562287971285 0.26642256510366535 0.07529693351092907 -0.056323339451986136 -0.19824878151725903 -0.38027591451225323 0.13183283152266628 0.16747069898487715 -0.023752568740484207 -0.04257139667446529 -0.04733874504206539 0.059670661459507605 -0.12612413982007106 ]
[ -0.05631196885463364 -0.362942256323666 -0.2527018159160834 -0.14818878491482898 0.0751045771861953 -0.12639795047930522 0.05644606932910194 -0.09298571592849651 -0.32805278375002356 -0.32593682355199216 -0.08634905804420749 -0.11910208962029026 0.033383579403296934 0.15754318910029919 -0.22114157884251145 -0.15293260527475713 0.06841744020709542 0.23088593948472885 -0.24422379885836532 -0.008709891578189608 ]
[ 0.02611135393640622 -0.3467148814053859 -0.2575972667460386 0.2596675630901118 0.003660108854897224 -0.4190446308919582 0.05496394279534782 -0.021777739232889046 -0.1891617822158339 -0.27905228147213473 -0.05574326689051298 -0.04444394763080318 -0.0459720084226792 0.06626324824994953 0.0627369494248884 0.20895238226516705 0.3666699985420201 -0.28584018733826294 -0.24640991141074448 0.01999416804301458 ]
[ -0.1034992084017186 0.22294098728404055 -0.017795805122622087 -0.21467993609154506 0.11981482766422237 0.2911207943265098 -0.18733782315335376 -0.0528582833998927 -0.2598952629655108 -0.5589913275286371 0.2903373186301718 0.32387068157955884 -0.044096224016807746 -0.280691221780797 -0.044314855684619577 0.03625419782842458 -0.07286804280577706 -0.2900617011336241 0.4130072300364115 -0.4950905946192884 ]
[ -0.2592371558495192 0.19112924247733268 0.17496007252612295 0.23241507673068681 -0.07424035537703987 -0.39403836651381025 0.2053018122595827 -0.007499528769346162 -0.19104221792063444 -0.16915825374291 0.11243700979525419 0.115627959696778 -0.0605494175170913 0.14366776455535388 -0.034056748239020794 0.3207737951008649 0.03047887122154044 -0.2054971059713953 0.2430930478416586 -0.2172317003155544 ]
[ 0.22197195015825405 -0.2887084509591178 0.039619811573358546 0.29040485392901966 -0.15511386767798094 -0.4253592682516239 -0.3749577073562104 -0.15284052562505196 -0.08936155925207423 -0.1568309038004217 -0.022829046829679962 0.29174781026866514 -0.12746620507174217 0.03465030568824846 0.0938614859227236 -0.1887611740907581 0.25567511302481405 -0.3110426798302705 -0.13617829349486466 -0.14014309175004613 ]
[ 0.12261646850797148 -0.5176404445018867 -0.07625433551280579 -0.2224431616962047 0.21785161316023252 0.334440114816363 -0.07623934707882755 0.4347914302316568 -0.25311417356300303 -0.32029728495886733 0.1104861098462492 0.07412552447676615 -0.2299155922196051 -0.3020460963916765 -0.15875729994998908 -0.12000028605785412 -0.1594550239502175 0.20777954772559012 0.18151658485676317 -0.10286500065483684 ]
[ 0.1834623592955494 -0.35875507600849 0.15602256007515086 -0.1472297387576054 -0.03518764843210285 -0.04287981738929654 0.05724026351244369 -0.3804822238776733 -0.3046400135124842 -0.020565552319207897 0.13635901030857667 -0.1358363720837549 0.023416925555363285 0.11072290103873317 -0.06676924184158263 -0.1034567690316471 0.2586592187191643 0.18274685798191978 -0.03470227817085707 0.08786838997118619 ]
[ -0.06313468396448267 -0.1326955096850298 -0.1059317209971342 0.07983013806057138 -0.2146874103282597 0.14931773509758484 0.10730050058636001 -0.30428019065241557 0.4249137057815691 0.32009343639047505 0.1121550542081785 0.14153574872660832 0.007955071164961016 0.0284976855251007 -0.06724202674512313 0.10605528932802416 -0.1331567989467909 -0.21332389777638877 0.2058921867102012 0.2506494627358056 ]
[ -0.07705078563959701 0.4729767965419287 0.19656442666672724 -0.4428077098358097 -0.28559532284913336 0.37288556245105453 0.4229718311544403 -0.3576614336046755 0.4467701983892869 0.28566391899211946 -0.11223582260559188 0.26933633606302554 -0.015318073893984424 0.29079396047591377 -0.32620543208973857 0.21210091493219518 0.13602426746154758 -0.1448433794058144 -0.272584600518179 0.15315210344979083 ]
[ 0.11813308030048812 -0.2415176589379691 0.09617297712509633 -0.1311990926423396 -0.22006657113991887 0.13251120574234382 -0.166133425948093 0.05775857522850891 0.03764031148271646 -0.2042224554144329 0.16416612898884575 0.07590357966334906 -0.042253087346160026 0.0586892370456853 0.3275500076010707 0.05070521013668121 0.14775078694146243 -0.2913674686937071 0.1618094133818516 -0.20232262343559662 ]
[ -0.25226580925144887 -0.07412230692381921 -0.1386657961983562 -0.2098258849799174 0.09079009892074881 0.05042723706418091 0.14504469771973094 0.32892729390616293 0.04777009711554362 -0.250016243501364 -0.23790726939462392 -0.035015160624309406 -0.1236050897139803 -0.3723996422727633 0.24396558300350507 -0.10452912676618918 0.040154451931147195 -0.01673706756776399 -0.335570061996594 0.12807504161644073 ]
[ -0.002189770558182206 0.08326159821003495 0.22552222875718878 -0.1319513719352484 -0.14789427829108592 0.491368596273745 -0.1124967927274179 0.22924950626422197 0.20391744090611866 -0.29864851911136714 0.05881615876808407 -0.15335033488863709 -0.1530514340259087 -0.01335623411055606 -0.34312176673695205 -0.1171619085649063 -0.08579117795540417 -0.16882729421627846 0.15775382378838787 0.38707005075023043 ]
[ 0.04930346555433372 -0.2925273667143663 0.017283387945931997 -0.2135998131374949 -0.06595578018171677 0.23724164752569787 0.2801208766478351 0.2813108591337374 0.22730111614518192 -0.008392936471763875 0.045155077787250704 -0.2101864577837368 -0.257543459474604 -0.3298669191841061 0.10205703765304144 -0.2209613508571279 0.17648800816029514 -0.1596697951563701 -0.2038025592089071 -0.1939250320322204 ]
[ -0.2446170148277342 0.28330541942731985 0.2653920127480712 -0.0781506212128805 0.225647437368153 0.49514484877360676 0.02741318754539318 0.034664823799324174 -0.398374316028239 -0.4245266092168048 -0.06848296964332753 -0.06142570886909669 0.15836122816547424 0.2294542498726611 0.20642892468807233 0.11865898486159489 -0.2672806737246558 -0.017496297277171176 0.12340256051211447 -0.2972975248849481 ]
[ 0.031391645130545286 -0.01990581872031222 -0.15351611377941585 -0.024985181372429142 -0.21457185984452912 0.11552048147015452 0.0037355683320100678 0.3712284145715088 -0.056501764391466446 0.19890198194412548 -0.1932313957992974 -0.35123591151347616 0.14518469787682764 0.13614331305870758 0.1039809762726226 0.22721278144952825 0.1783936820705124 0.11833400090678399 0.18007309387634562 -0.23061900805481703 ]
[ 0.11965521018130779 0.32937963434692874 -0.13942133783997443 -0.024165300520502808 -0.1507597996391339 0.3978081859467565 -0.06973910454621543 0.08781830786090539 -0.14646238107177825 -0.06950133509174618 0.3751553866008543 0.3325525971372695 0.19601773817774015 0.062173898622900806 0.313529175763249 0.060307084922353385 -0.12476304677040344 -0.2448019565530098 0.1646552848212897 0.057722207275161065 ]
[ 0.13627324273880295 0.09271361504822362 -0.2180484136589033 -0.1561501155465017 0.2639464850352173 0.30387171575673744 -0.29349166296511225 -0.2758843297487816 -0.33273679038289655 0.09056531126602707 0.21067806213290508 0.23824992997156944 0.18084843791251387 0.3249613538749955 0.24519189024138466 -0.22057861327888367 -0.029331082347790915 0.20579434405237557 -0.20794635948375284 0.13232988516896968 ]
[ -0.1591482214947725 0.21005383245592762 -0.17190678505657556 -0.03196377865535449 0.011710989792331407 -0.33554295870034445 0.16382424433960396 -0.3188764815990909 0.08526347634131796 -0.19054892924359845 0.13127301958875864 -0.003815458630018029 0.07743546301831453 -0.031538782346890275 -0.048757160354716625 -0.040041058003869326 0.031705757301878315 -0.2564175615847149 0.19171375666785817 0.18432164302163137 ]
[ -0.11236777449711727 -0.3728836456835523 0.17112649201783528 -0.24241308775672782 -0.03503536754988191 -0.19914856955603974 0.20559428136539834 0.08552354614112585 -0.008854015627118477 0.12175577847709329 -0.1931252593949692 -0.18243389989423467 0.04459784654418573 0.08674907883595487 -0.10636308331919721 0.16201675720573994 -0.22015330201696487 0.342713316949192 0.12647602787924742 -0.0816430199831067 ]
[ -0.08793689885001464 0.2799089777707258 -0.10497502558701033 0.2586030872966532 -0.060340386378097285 -0.15047792832569476 -0.12537894775619202 0.26287914542171936 0.42803964555370144 0.40225613969310325 0.39389248792536824 0.015144051991311481 0.15079239926480015 -0.14840911789031447 -0.13043446787621435 -0.20084180846426572 0.2067504907773425 0.11669005491381454 -0.2842521020669622 -0.4926394088565916 ]
[ 0.19749961694108323 -0.19293511551100304 0.1291552347372767 -0.10405464886097222 -0.22132810427860625 -0.27504307171680137 -0.26528304736475383 -0.2111351785844633 -0.2229681449128912 0.16979082138994175 0.07529606485198927 0.1858893430368251 0.36102029624174325 0.23540416464294767 0.24057075898876812 -0.030164350867937898 -0.057648193373231744 -0.2509728064463075 0.27277551843873327 -0.09914505618703888 ]
[ -0.028712005739327213 -0.3501708228794855 0.13225678466765742 -0.35642442977656846 0.36444641825905444 0.33464977271073965 0.04486936340905418 0.24930972396675552 -0.3721931412005657 -0.06064841791000937 -0.03112046464089121 -0.2957288454403308 -0.021859382837939745 -0.24470798507911357 0.07968147974885771 -0.010616319283218262 0.256788802970873 -0.07854957423291396 0.26294184807367804 0.05589148158220849 ]
[ 0.24306381108533182 0.3071549355815246 -0.0014205800822179372 -0.2963488061585966 -0.08932987469760378 0.07960211222123398 0.22496555087976716 0.16861084494607953 0.2875869782396638 0.30627984632234073 -0.20788191151048013 -0.005584953554053251 0.16028921820842987 -0.33668065669061276 0.1710918240963667 -0.17621083168701446 -0.20322810926450402 0.11891193658107031 0.12123067051424427 0.2767341695851528 ]
[ 0.2160850964727526 -0.20371452363794512 -0.19353230060049728 0.16722568282981592 -0.019214467720319206 -0.011767445828796326 -0.1523566217715766 -0.12147856107926855 -0.2058044758204221 0.16209061232855543 0.23155620249768352 0.17934162164185635 0.059739622791188135 0.09246979946350564 0.11383944539550869 -0.18622368849151558 0.11167874190074148 -0.18909749771572584 -0.1833305140590787 0.009544151669716084 ]
[ 0.10268560918859977 0.16880827258285583 -0.058752940518298186 0.21949601553330628 -0.39149858744932253 0.020290120678777467 -0.06865863476434639 0.16886235187115492 0.1508943907399212 0.14411281081605248 0.12180159967100082 0.003244527821248375 -0.27203551959871003 -0.21495346423975686 -0.03737615641467925 0.016776318735183666 0.15386777355054654 0.17911109802250702 -0.07010494853864806 0.19237893851983373 ]
[ 0.2005672680680578 0.3865940632747634 -0.2878463326274612 0.11755306665777045 0.25616604847488855 0.20566245260054475 -0.09071686170519071 -0.14220948881591725 0.06697838780785692 0.18898257816185302 0.06622399299040654 -0.29230377877752495 0.15259934585837506 -0.22279827944143304 0.10710341058953107 0.11121389694439102 -0.13621449877336372 0.2167496550583749 -0.04981900656894741 -0.23194549988770044 ]
[ 0.28638421670118797 0.11884777439572224 0.09208437474945405 0.06485558216589306 -0.2444888815929725 0.2474909135904584 -0.13045924598020936 -0.16530358702849066 -0.0827587505117161 -0.11689330280155948 -0.1477638537931154 0.14736737834100788 -0.1638911187490548 0.00962614813818398 0.27758455342749644 0.03794699914147107 0.18941472507682464 -0.228996472016364 -0.09895543156168862 -0.27335788310870096 ]
[ 0.11338545382078427 0.19419070203928537 0.1847894877270439 0.2030784727058011 0.37159382466784235 -0.04695534078724247 -0.26614451999539956 0.1410704742524008 0.08291705787172678 0.017394987775383335 0.24528183913109425 -0.1724577873380946 -0.0022391160333211013 0.23632322005403827 -0.11690158887582336 0.04450202056827318 -0.07874490187437037 0.13438675699922964 0.14444752557598284 -0.15334952102975632 ]
[ -0.21049095985513483 0.06150601031051284 -0.03641509040966104 0.3359687154360405 -0.2483138787426838 0.2553755689790635 -0.36600233083562483 -0.09872206734937125 -0.3690244619293242 -0.23302954087660305 -0.31348654494352707 -0.1354210525902115 0.13856692461367684 0.3371115810563287 -0.0672591608657496 -0.016574927927766447 0.38691087753126174 -0.34398832644626853 -0.11544745053699397 -0.20789784449578372 ]
[ -0.3124995429833134 0.27131866784164266 0.07483302905612305 0.19135122249206493 0.016146473625702994 0.2294748866334458 0.03273284402207161 0.2896893478348608 0.1736803361986431 0.23269940746262632 0.22344889200036674 0.28705011094493316 -0.019741867795552186 -0.008286479964788864 0.18740581608097043 0.1840749384079643 -0.022236667562931228 -0.09207010340741809 -0.15969394151296112 0.016398617067486666 ]
[ 0.01231629262256748 0.25733478063575754 -0.08932285642443459 -0.018414362985145413 -0.2107682346919156 0.2362133568526549 -0.35026010514394446 -0.20967078374575127 -0.010211500168734611 0.2310202346998815 -0.20716350320553947 0.09957030189197587 -0.24723110985145422 0.3367687994690381 -0.0073015997683224575 -0.19154811076406478 0.1153239896654282 -0.33196648970528403 -0.0017317905783591136 -0.18645507896837188 ]
[ -0.22984387703742734 -0.2154098419016318 -0.1341930555758061 -0.4401182256449812 0.11304517076900722 0.022661970361928005 0.16269018174161187 0.12728887800352337 -0.35612201942516536 -0.1003578676357477 0.0989908313952857 -0.10129095919378903 -0.2593972772834299 0.3633131817163272 0.05513858016969555 -0.1952113426286652 -0.2667171615757032 0.26731452514377707 0.17254711784184326 -0.2849668081776392 ]
[ 0.08161141794286304 -0.12630453075993883 0.18380383540011744 0.07991083122730247 -0.1642741521871053 0.027488388131182973 -0.2947418842923823 0.05905537062601151 -0.037648165089855176 -0.06606223476045688 -0.23433916769701602 0.4153204769065761 -0.13299181544932048 0.08113792967781983 -0.25695256550050094 -0.049239040247794526 0.28483812247477286 -0.12690712798329684 0.20094145124225432 -0.1252222562011214 ]
[ 0.09168054670422657 0.19886882033351916 -0.2778656187375678 -0.3272691852574836 0.18593690817102085 0.11613075697347532 0.21274898108971627 -0.12574256879569753 -0.056111999533745224 -0.2703954395772615 -0.154097350169806 -0.05172695570766831 0.3861330900246498 0.1814892012232431 0.11186055831034843 0.3113767244753985 -0.24537938750175528 -0.015160695765272491 -0.06300531310300503 0.044714508526058745 ]
[ -0.04537337660323323 0.022757239550704196 -0.14886057032626981 -0.1123110960533822 -0.2491478043880563 0.21678263852836208 -0.24425552850443916 -0.3603125660801055 -0.3630558988398518 0.1827083113308364 0.07361845323585221 0.3734230545759036 -0.1521240091821401 -0.09110925380831646 0.016252956307920736 0.18998861700220365 -0.03576674852156289 0.11535177437139682 -0.03587131193675466 -0.2875421966925073 ]
[ -0.18385564054760914 0.047622388483527005 -0.07140444468937047 0.070040116005555 0.15179392538901895 0.24563799821847204 -0.09671371715045549 0.0392202367165935 -0.43400783575329827 -0.1306028498538413 0.03728580440913519 0.2894840032423763 -0.13713817555289973 -0.24886942631045106 0.09719385278326115 -0.11273195348367891 0.23296438495059923 0.3008715969883092 -0.12310931520659239 -0.0342921346056613 ]
[ -0.0004807873466136474 -0.08752937087940887 0.005334256036037806 0.08734674718928259 0.11766370019118161 -0.14187620913630714 -0.11758783695046546 -0.036962019779339585 -0.08515914478353385 -0.06019077484520166 0.007456596905626126 -0.004497439195851898 0.09304321472187041 0.10530497641913178 -0.061794080447777025 -0.017628123666990292 0.10951300032844355 -0.0983135422983405 0.0006808743940345442 -0.10326173278984527 ]
layer 5 Activation
tanh
layer 6 Dense
20 1
[ -0.04432697148360888 ]
[ -0.21276133515684603 ]
[ 0.00431018707162633 ]
[ 0.22594540998865692 ]
[ 0.0067250140472360975 ]
[ -0.09179570328430998 ]
[ -0.2673128291890982 ]
[ 0.1004107443763547 ]
[ -0.056779407125495056 ]
[ -0.06794736817304924 ]
[ 0.008104026605239014 ]
[ -0.012141568373664048 ]
[ -0.009763764037326714 ]
[ -0.18047267720073729 ]
[ 0.0033203343220247076 ]
[ 0.011550249585652725 ]
[ -0.32216317410729606 ]
[ -0.23121547063974568 ]
[ 0.011235518996418037 ]
[ 0.20828782475897428 ]
[ 0.023669315392067947 ]
