layers 7
layer 0 Dense
20 20
[ 0.25520407579081006 -0.026541799787559266 -0.3885547094986301 -0.17554366249051517 0.2079172779582358 -0.1966285885043104 0.2976507997065225 -0.42795163349258153 -0.33807217951459456 -0.04599537126535907 0.23234045329509243 -0.0032711311192710384 -0.10271759621288619 0.2024185191890845 -0.34670073966070547 -0.08951911941809584 -0.08858840638008719 -0.2320277701309239 -0.19403438905054246 0.32768714650771175 ]
[ -0.266557807836994 -0.04486105655390061 0.20212297095711484 0.056512622247515916 -0.27581101539476055 0.34154671781113793 -0.3664569472774864 0.3772266653153966 -0.07397187451332574 -0.08129409866504039 -0.10953906288181701 -0.1254062682603445 -0.09298764778570402 0.3467561151034534 0.2047608950446206 -0.2588123874153588 0.25970768470114436 -0.16041790846102902 0.30884706260676525 0.2081009200014589 ]
[ 0.16222621215842117 0.3582541398159721 0.21858550483245237 -0.2331633328256953 0.36452234992803434 -0.26341253400316145 -0.25112904000089187 0.29201886356617535 -0.14871555056583763 -0.13107562532324146 -0.36903512589355664 -0.05911381251080272 0.23217399789169535 0.3356390599620633 -0.17219576379243173 0.055206069977384704 0.3167166817339346 0.047686066413048116 -0.07812393056240417 0.10384292174764707 ]
[ -0.0990939676372577 -0.18816979119165766 0.1478352598102727 -0.041479990055827726 -0.3952154444385559 0.19030195603183425 0.31103220319938524 -0.3126604861612946 -0.16800690323481282 -0.006738769208145265 -0.09024887203008265 0.36998138591294505 0.08602552343134251 0.26398414280775717 0.038003532002173095 0.13714838814187189 0.3102781919751383 -0.21794486396574603 0.2603956971388332 -0.2887472448088048 ]
[ 0.24405330584770457 -0.03729250591779753 -0.15818668096037863 0.005192207052740471 -0.3956245420473316 -0.10648992507552842 -0.1250694984560666 -0.6087454010566589 -0.016784827519263457 0.5027639310982732 0.42494981469915355 -0.11170417833781449 -0.5800029163971033 -0.17506155780286237 0.20539217838060797 0.32229518098308313 0.5092105812896188 0.17140456886578537 0.19993564489141336 -0.593674308966467 ]
[ -0.24275084733132096 -0.08767527445710382 -0.2730387390630595 -0.22077798812827443 -0.18982486582787925 -0.24794495244259004 -0.3019453787138178 0.07472233239061359 0.32476852886556407 0.062361656335826486 0.13720848619366038 -0.3156390159943109 -0.018456366069273804 -0.09075768705795983 -0.32110641913499355 0.20591343406415066 -0.18469082660335936 0.3094351561059131 -0.2033331088807316 0.31798632728610626 ]
[ 0.3025122731838264 -0.2359313192235735 0.06041862219363405 0.31498514766294483 0.13924718356017649 0.2823901084822382 0.09289513438577202 0.25814352137442 0.2234714977746051 -0.08397322464745006 0.2658892541079661 -0.020172554046798536 0.02243758193889946 -0.015924217187424462 -0.2600809262130659 0.3550073147383525 -0.2725941266296903 -0.2980402658024316 -0.2417732249639413 0.29696863219802 ]
[ 0.1585368489319707 0.5642144496361389 0.4856487219484626 0.18874249239270335 0.22649907545026263 -0.14695068341578674 -0.3943449912439299 0.2388839371781956 0.24950165595228493 -0.19024736101009768 -0.2960215409192224 -0.4566202139717203 0.084697597429488 -0.4208934635957311 0.10929656738977907 -0.2854589363137901 -0.5423123898964601 0.3068594594126333 -0.25071378948209233 0.3468790198168293 ]
[ 0.04809209849427974 -0.3793050195523035 -0.4080160749487182 0.14237514700343948 0.79160526248082 -0.5155400244061754 -0.6353617575756221 0.9791216427126944 0.4464062869328076 0.5321442534379971 -0.2729787513829433 0.6788615510089507 -0.23636028937547215 0.37285689259021876 0.5951091091923991 -0.6945035913532743 0.11134547134998887 -0.2707644949791342 0.4241733808941614 -0.7069711342518822 ]
[ 0.16761517943568088 0.07614526126068055 -0.10768050855900882 0.12735117654637676 -0.10187165791498508 0.03675122042389031 -0.20451825337799479 -0.2696550507985958 -0.3243093894354702 -0.07765396434290864 0.10514580746589451 -0.1713572370406362 0.0004165393312782498 -0.19134455305102227 -0.06633221408080621 0.0994636313497313 -0.015804915856792896 0.10245842465496827 -0.2951540430857686 0.15152702892119732 ]
[ 0.010863394113452267 -0.12625663689702654 0.15838973011255214 -0.16774355399868168 -0.20729446913499577 0.23092651619275156 0.22477984668560128 0.5256438872437457 -0.36130575055318637 -0.2863617018559997 0.47868582408278126 -0.03332304486728666 -0.004667613235661557 -0.02105613994029893 0.040468618995663716 0.0028701123924973464 0.3090931106831665 -0.06568561620090888 0.3664851032028462 -0.2163715689772495 ]
[ 0.06815015207502989 0.4992210107730755 0.36719420764279387 -0.09029436062196003 0.18350793902332008 0.44178220043643196 0.1878890510797783 -0.09118137145066317 0.232525619236574 -0.5242646127221685 0.33851090033010256 0.16090332745345584 0.05302710273812322 -0.06955604125392191 -0.5794245245751444 0.6219150846849608 -0.002778540860081561 0.4837487394984795 -0.387860401800839 0.37685755025410156 ]
[ -0.024619029800430396 0.3991087189226109 0.42154631957762195 -0.37774012427244485 -0.08040233281183484 0.19962415705272143 -0.2413100176881898 -0.4165384378409038 0.03852784054037468 0.11373950718082561 0.2740516854936499 -0.23802618444076112 -0.02048474608341104 -0.35380533803400194 -0.6470866737924853 0.27208105117678977 0.3563428336939845 -0.1952207796418414 -0.36219194154017437 0.4173152933289864 ]
[ 0.34013690218022113 -0.623426915885076 0.40612171143424347 -0.4918965028130759 -0.02674505601978256 0.2837402023035512 0.009451934752249177 0.4354938440612105 0.15471450632693537 -0.21719556088986677 -0.22614925407616374 0.775903013187361 0.22048753802363852 -0.832099460295921 -0.17693618895657623 0.00900115664634132 0.6493033111943196 0.0246976245182765 -0.26282801882588086 0.40871372542518625 ]
[ -0.6681830048939176 -0.282535834409857 0.789653337043784 0.5110094517475047 -0.1951672036015821 -0.2805742937024444 0.14401603223342183 -0.027544293460779332 -0.4648190435483179 -0.29513173153603406 0.4426296029350641 -0.41374540266397725 -0.21130526674145367 0.6140246057649946 0.27493075852926496 0.05681021370038921 0.24270769022491748 0.4395794320798948 -0.8613652219545569 -0.35328209780650305 ]
[ -0.4695286409363241 -0.037491937810883204 -0.10481934155799977 0.397906474069352 0.37052787760841305 -0.2245030502839034 0.005414659157138856 -0.538912504535104 -0.5333568776905249 -0.14550403915239155 -0.04768044948433923 0.6476824489774924 -0.5407149204849802 -0.3845573380778189 -0.37104132517635063 -0.43439655177384706 0.2839633349620446 0.2822467217938398 -0.318831157814361 -0.6711093580196543 ]
[ 0.030066011473629372 0.011806437658621714 0.6912684469132734 -0.18402797588693992 -0.38966428378298346 0.674415584214005 0.49797388667145426 -0.2322876542776085 -0.16847232417712732 -0.12003485236331336 0.029502341931321983 -0.4706388496267867 0.2198046029634962 -0.2507732243849342 -0.23628476859196823 0.381658660825613 0.43972787580510825 -0.2656854541645311 0.015542929358310083 0.3390604640161214 ]
[ 0.2916066843748629 0.6975146513966557 -1.050058270803654 0.027706770857731572 0.10810622771597757 -0.15345393459459591 0.37068191964619435 -0.14106081519009453 -0.008274338441902214 0.17030673003625052 0.8974507094832467 -0.7999490576410772 -0.3500638329842525 0.6780623825077399 -0.3597269370527391 0.7863459074687051 -0.24987886858308325 0.4273119858477701 0.5892399226797679 -0.40536247800490205 ]
[ 0.8932097723026747 0.8746345699020522 -0.7497033501122096 -0.2754183150299219 -0.11901459755759222 0.43962571017370206 -0.05024564660814583 -0.5183166686083337 -0.08890078139316909 1.116437179170468 -0.671461475410885 0.44066033432115015 0.6676813543778758 -0.6572268519392648 0.1679487686991591 -0.47304250259950914 -0.1974002288291193 -0.32272522619827243 0.507999482653468 0.5913206385347748 ]
[ -0.5356558700458568 -0.43135614447156156 -0.0057870969837525345 0.48699781314411933 0.07195279401534725 -0.580310742986386 -0.09801907911592708 0.963167690288225 0.4985592591892647 0.19661380472804593 -0.7459029806943612 -0.4184893032847304 0.3092222410971937 0.4442930195872605 0.11482424688301213 -1.344331864561757 0.2120816562417695 0.03803496707794677 0.30692288143041335 0.7835939607821966 ]
[ -0.01753669616254093 -0.08373607998479542 -0.18109937270997703 -0.01350352570477408 -0.13215867962007458 0.032885467372955744 0.06787401007859173 -0.05386513741262037 -0.10285252050431395 0.057787997273532433 0.19709753517847084 0.1631886603961563 -0.1313777760765088 -0.06790505186931037 0.07644480546115949 -0.007737859417628897 0.020869312641338893 -0.03229481684898122 0.14028153034613866 0.0028049303277525124 ]
layer 1 Activation
tanh
layer 2 Dense
20 40
[ 0.23005941167133162 -0.12499933957869569 -0.36898822626604644 0.2316126840097138 -0.008447261464628032 -0.1467795633143023 0.0546537004173768 0.29632864911062656 -0.4301126242316497 0.2284785033283627 0.07031028668193721 -0.41055301442867725 0.18984284036491667 0.24307385614259375 0.14995691624438984 0.19692621495227902 -0.2310638986803311 0.24528584018277227 0.003993821782204806 -0.32496786652161463 0.1835902460644187 0.10920853941660688 -0.2241808033400266 0.1188802233010954 0.028080269055204214 0.04826043438740699 0.529204999777099 -0.32571239126176926 -0.023466493368175273 -0.3100408080902133 -0.06561019030245488 0.03544531010219507 -0.08134232586467657 0.17208558620542133 0.15161505675137862 -0.03949802953939931 0.5923295046728063 0.04440272425018973 -0.14699885579501829 0.014685875376991077 ]
[ -0.10643721442931743 0.13242898397600805 -0.2009702477486244 -0.17003138370582702 -0.0377597052756153 0.02392751573039356 -0.2818892014651144 0.2864753492003626 0.13950297531491296 -0.1872938870376368 -0.09585159135450048 -0.07533512063182363 -0.2569930783160778 0.49215997524109606 0.24527495259411766 0.49279264492144503 -0.48530264939118517 0.18953967231219226 0.09047675738620659 -0.18647790144978837 -0.2228828611625121 -0.17532749358146726 0.06595073233320975 -0.23709955426165755 -0.08393225551250667 -0.27241497754736094 0.11892263539443784 -0.21311823012198067 0.08479490400699206 0.1263962680986047 -0.1999210719792096 0.41297197739270447 -0.04323885692113764 0.17320470469497176 -0.19582810754062144 0.3499369636357605 -0.11177391622104244 -0.03639552004516235 -0.09709465816666542 -0.23360612260812136 ]
[ -0.5120476634558527 -0.5808970628301852 0.9332294359391281 -0.1526862831986203 0.2390038041132846 0.02993012036766909 0.37110228224144104 0.01423720305059992 0.36707310609446614 0.4092159846455963 -0.7476601581773585 0.39435177622387685 -0.37302198606647513 -0.32584244689193215 -0.00103811351035118 -0.19802771619328538 -0.4785412996898555 0.13007625892508107 -0.3264531270231493 0.6596922299926622 -0.25995174304970636 0.2834005845519077 0.06621059866148117 -0.2203910755575631 0.260339268842787 0.10857445169398881 0.22250683690454368 0.27559043031780706 -0.26412365739113586 -0.41004636420136537 -0.04226794182027664 -0.10689167739031073 0.4115263346063362 -0.004006080935078218 0.41760874042818674 -0.023952178094256135 -0.5181136476347196 0.40462208476261124 0.43121569353688605 -0.12077871848687775 ]
[ 0.04487558337035034 -0.10951874020760761 0.2424101505585869 -0.22318491899216886 -0.41413808325683094 0.03982131706856915 -0.045175338625031924 -0.1673774157133245 0.05572550773922074 -0.0018497814927185424 -0.6192475251291042 -0.12149727592763974 0.043863668449101015 0.04753689607957497 -0.29252233039513054 -0.2592733132663729 0.6569510689422571 -0.2476954928257176 -0.12754649934202383 -0.24170695185086538 -0.26959627816647685 -0.1640627993337911 0.17028144820765082 -0.10400631791093787 0.21589150149331537 -0.054560022336688815 -0.4481141811631097 -0.08771292473189483 0.20089243164280332 0.595808750703541 0.05504995110766958 0.16263777526427492 0.1663549152881508 0.16391152570628867 0.08291101949514164 0.5306113301860819 -0.08541477462128248 -0.08452886006572895 -0.04353083046084096 -0.21894163732034416 ]
[ -0.030400281357528525 0.2875179987315708 -0.5168062488459921 0.1620612749110094 -0.09231310622646446 -0.09628601702865473 0.16476206829949275 -0.21973117828053373 -0.2773544664467771 -0.2634890823649192 -0.26070702548458163 -0.15179025719358136 0.009668747349957258 0.08492785170392818 0.07007014167559017 0.10161557687675582 -0.10932436485422393 0.17400383445094625 -0.30515800056953324 -0.02546371849333141 -0.023623915396091308 -0.29195713013501257 -0.05332199873006834 -0.40701509185358903 0.06603589184920677 0.03163577709524978 0.20968284773144938 -0.04855151197103599 -0.1740529165723059 0.12056948602164477 0.16716599479409053 -0.2715907405678831 -0.4205488221543877 0.3219075281642995 -0.01503158425736283 0.11325747962014689 -0.36012203602584797 0.30410211520832886 -0.16531683109168593 0.3520278270249164 ]
[ -0.18093814305240966 0.15215730144571352 0.15564416236762968 -0.0387942940276436 -0.11443251810618342 -0.18879706081641678 -0.015291197245124535 -0.10397189615218151 -0.1727859423631817 -0.08653602061900388 0.637516530053392 -0.24780000444158862 -0.2213900641881565 0.20186303012828466 0.3527918788098185 0.3358842457472894 -0.8860355889597799 -0.2676257038396234 -0.18165924986949397 -0.02025178026229707 -0.0665525100855227 0.15100126743014064 -0.0670806432091498 0.2646815386090323 -0.011502587855118825 0.051641417823941244 0.09928682523332276 0.31577984180599544 -0.0492513196421454 -0.27023556235253254 -0.33761394474005246 0.07255949519645155 0.33887993566375196 -0.03276819615230529 -0.02474052824543276 -0.4720091575783918 0.24290932107019947 -0.004013813524750766 0.16887207746645863 -0.31240743227409823 ]
[ -0.1628341829272981 -0.17602813669540537 -0.09116993458314908 0.3227651850080147 -0.10846887727203375 -0.16422900790459946 -0.1898976740132427 0.28074453731728954 0.007458054849089195 -0.18540814166567893 -0.06351263179473937 0.2509175347264856 0.08512351830060828 0.33493641818293196 0.025010184505328412 0.1960550457107711 0.2539170727383129 -0.32399034841915003 -0.22076235822970958 0.1458584935653703 0.14650148094639656 -0.0029776667666808225 0.024249183149635534 0.30725319839605547 -0.11995751715948341 -0.3131857488210209 -0.3250789911259535 0.007502073223081184 -0.07907423011916692 -0.1412377002519937 -0.06586574332486657 0.10821772318877391 0.11227337511244621 -0.3367438630128112 0.20991462062645486 -0.3767625028517297 -0.36845842366642145 -0.24775525268890833 0.07164415295809184 -0.18188906530985696 ]
[ -0.478979368968895 -0.19125344137047712 -0.037505083798769476 -0.021273819079327055 -0.3240583072925787 0.023174738933914533 0.11820046946283318 -0.25936614425662063 -0.3111878632032429 0.5887130483098755 0.0482567452196851 0.23735086584899712 -0.13394829907416472 -0.48359327243042616 -0.09129544925580846 -0.24871028822939964 -0.23546041265208834 0.09793504127801757 -0.3287382064668582 0.3013534790679421 0.296793957379521 -0.2280755321362394 0.06189523052143496 -0.2359805484806442 -0.23711168891815312 -0.03636748097257381 0.3498781611702973 0.02404068108508678 -0.09542668808972152 0.1541544463098597 -0.2430009795557785 0.0647204465930766 -0.16581923661094222 0.2932417085538339 0.2077301931359021 0.03944424774315529 0.05373360960614739 0.3667260025858603 -0.14836214529253744 0.9355352901612858 ]
[ 0.27594117963366965 0.14174145146189482 0.22944178317867928 -0.08058640354872375 -0.20368083062773276 -0.28643095826146486 -0.16288081044451663 0.17759814787176842 -0.42946499225852997 -0.12635929517977612 -0.17392404400320105 -0.24266768043897913 0.1929726652452774 0.22000690291672553 -0.010081672448715499 0.14090092482314168 -0.2709897565396024 -0.004422810023369115 -0.28790113833211456 -0.03489963216005842 0.305836580766747 -0.30159164812921435 0.023412380081392018 -0.07552102147739179 0.07110986920521273 0.16809952261970007 -0.1737833645653823 0.17090147389976684 -0.042607575405275155 0.09599439101148861 -0.1690652804517401 0.34941496853146664 -0.17671571811540357 0.3797074857393466 0.22808251873572769 -0.4059394514846426 0.28538325846998275 0.31023414801450344 0.24719660466744622 0.4000417878510889 ]
[ -0.13146017136724575 -0.08589124857453646 -0.3023145499975395 -0.23464160205873458 -0.15284906111504248 -0.20102614480044514 -0.05645249953394974 0.143076184951478 -0.2931033012308959 -0.30247148535115126 0.25572929139162565 -0.1768850684543603 -0.2562594904747438 0.054753429293789034 -0.1662771556064889 0.2301323631624657 -0.14757924074873963 0.08727447895678218 0.4384101826456844 -0.3251636059146616 -0.05745774920155327 -0.4341353198184732 0.24920147284890512 0.20135885550702695 -0.20480958010555098 0.07961913540469595 0.012621116675592497 -0.303872802328366 0.02872898034164505 -0.0249098483858322 -0.12606705411867491 0.18394105464719593 -0.13995100330451202 -0.2826955592665432 -0.056297959176663595 0.14763635676803738 0.5400230002379585 0.044427786268436666 -0.3112497229160625 0.18186569836027364 ]
[ 0.3829258436721309 -0.05775918212222187 0.15731778598869614 -0.3011564714530028 -0.061014719900663344 -0.1606916338232075 -0.14029972459145215 0.2293295074747459 0.3014080147672616 0.058728167030415 -0.39162968748365046 0.1286059848605359 0.3511296943103288 0.3333291016845382 0.01729772296494077 0.33417774994662053 0.19458337350202093 -0.21375110091028074 -0.12711664715098667 0.40918517185784226 0.20077725881664052 -0.05247883000923075 -0.13403336325516885 0.29901648533105 0.22957992296759508 0.2431063533111659 -0.20502140665182494 0.38267601165663045 -0.3713257911937917 0.33254536584900446 0.13299257086674102 -0.254344722765528 0.22866133479576686 -0.034666549480803194 0.004148078299797738 -0.20006235835546343 -0.7095843518036986 0.020060217608287752 -0.015416340603382922 -0.0028033633633591172 ]
[ -0.35923367291608493 -0.06408656536287927 -0.08711432303871004 -0.24390211896740213 -0.08499245603424835 -0.239978677100394 -0.13777930604050248 -0.23313029426528323 -0.3133991649500402 0.11172716782525263 0.6090562099712853 0.3923963088092707 -0.036770657825752916 -0.37071999305806935 0.26274569448083684 -0.39387490090312155 0.08888536306795715 -0.08978348995153657 0.5000151129715017 -0.44504738407802164 -0.01515411606500499 0.146447327066375 0.23492456815921928 -0.05349135636596009 0.3120074593969033 0.0072711968736757365 0.002884898206806948 -0.17235873097419294 0.06764756004685403 0.16764079390662964 0.20183792852381827 0.23714058896283632 -0.01974130579569294 -0.29209876633842274 0.23101727782825876 0.022245858742116275 0.4224547299048011 0.09688139363581548 0.3450299033788352 0.5220059316479088 ]
[ -0.2739169130830636 0.12265621736127663 0.21756530314784933 0.12700013629418616 -0.018838210273040477 -0.3583259431426664 -0.11030745148413271 0.09891547246487098 -0.03142732482022981 -0.5223630933364698 -0.04960292333145719 -0.17247315271725355 0.01251185155153469 0.1720841316419928 0.16742999333663963 -0.2531945277989527 -0.20334799477801893 -0.09061950785471613 -0.15384186620452228 -0.28994223567183125 0.12473050698078608 0.0937271988873761 0.13360939215564535 -0.31054890582244316 -0.16080499607647755 -0.0535656564423809 -0.5488537880816418 -0.331350407208618 -0.11708722857507545 -0.3530579811192427 0.2783060254273565 0.18282519707101386 -0.2482058493726658 0.15177013118292582 -0.021143302132238938 -0.08923853320154967 -0.1833950892768102 0.08948544953148575 0.268715191795502 -0.049925104614138724 ]
[ 0.18263607653772557 0.23184469704626923 -0.2849020307897201 0.018918441885937356 -0.0017660522347896133 -0.008689790235747926 0.272265453714285 0.10260747116046479 -0.0733106656380604 0.11380177982698864 0.13202499155445033 0.03802114789457239 0.09850431763078943 -0.16658362340391564 0.05214101855110618 0.15854564562175988 0.6725721683011424 0.11147308324025738 -0.009619757831147987 0.03437097878033096 -0.1814607635042089 0.26233918879588525 0.12996357088428798 0.24475347397880842 -0.05581505375792753 -0.19581389138152358 0.010934274316460725 0.10738277078552495 -0.17671657054666082 0.24117677134778007 -0.31751546865614944 0.053413982697194155 -0.16428958951719533 -0.48930394121283277 -0.21836039703476265 0.059005607793937966 -0.47256385832607944 0.036208980920659134 -0.35504141055321636 0.6282486550479015 ]
[ 0.20249081769038504 0.14856319110722907 0.16627919194142954 0.262485874565084 -0.42309330785604166 -0.44123513615886223 0.0021937089579098417 -0.017524500886983436 0.12134921762418824 -0.09771008710700217 -0.08930332203043302 0.22825652786131964 0.03487581635817669 -0.06878102256967925 0.05076417431450626 -0.24509522237198333 0.460314845892203 0.34942373245130925 0.07910961521435737 -0.10683165011862865 -0.06999094714739741 -0.32198166319235294 -0.34606945220752394 -0.0285480178595687 -0.24341462135058345 -0.319292885961923 0.050215363754499955 0.12309817104822418 0.2615301197186818 0.21406532097896386 -0.27033657793185045 -0.07160794736577189 0.19891385375282633 0.14954656284482018 0.02392225027811416 0.2682076860331431 0.25458825513405614 0.02330575329381075 0.2629738076962585 0.17252849686131344 ]
[ 0.22874477260521808 0.10785634289818441 -0.4811026618417925 -0.06418816887872508 0.17085141978019933 0.2045788540234001 0.1711651956036454 0.5057106520061357 0.26097244573341416 0.24248454497404595 -0.12773309256666424 0.15336113537471865 0.38844779481555375 0.3704311463124104 0.3396908244188459 0.6434415476496755 0.18291000783536518 -0.5400081529659143 -0.24223932566916764 1.0240043982820333 -0.21289032249464768 0.5049488637136308 0.4176571200905111 0.026164341088511785 0.2092285900253874 -0.14252717341462745 0.331044240245995 0.1639325784856903 -0.6427979884528617 -0.10979268308531184 0.10561650797177582 -0.6252141873881235 0.2371470502813222 -0.38202509681316804 -0.21450834542803712 -0.38671825049318603 -0.5357485915100038 -0.2070503337802257 0.04006985912814917 -0.9716567440717696 ]
[ 0.009199822397726954 -0.2628403420984691 0.17320550137017152 -0.18713757345400198 -0.2502318785755776 0.1779823323166977 -0.024205375067729146 -0.0421947460373815 -0.046613931882710506 0.44793864241972525 0.007947793246840603 0.3187320120215323 -0.23143190170123232 -0.07572449407727912 -0.3024309017166542 0.19434269657443262 -0.1376783090185374 0.18420511832015427 0.07453579533447278 0.37787547615887884 0.01615726732178107 -0.23283454053291133 -0.028400484161580117 0.35377193707577087 -0.27737537954614927 -0.14110434715355602 0.28156529392131346 0.08046285724950224 -0.3319695537808045 -0.2149993272480596 0.13026625469290676 0.2366999518653941 0.08676480601232785 0.12292189441673906 -0.3175324444360444 -0.2704929639371332 0.41831445212231094 -0.3238257079954285 -0.03351537185517239 0.12644728849878611 ]
[ -0.003169249235783167 -0.22615609574594897 0.24854917469738513 0.2748671147134199 -0.07686001715942903 -0.1844427511342753 0.3210200185712614 -0.24066717795096912 0.06920352989135835 0.3768014595231147 -0.2049628611809213 -0.06337166287154065 -0.15674492576846605 0.07574850590847215 0.17886485685109765 0.2638316955656931 0.37132239784692056 0.06536973306111075 -0.4668281238921258 0.08471743226800514 -0.020032070549519016 -0.16536771934432673 0.12435125328014784 -0.03637465243301144 0.1674144787908246 -0.010497755960015955 0.17404590087946153 -0.18204857634868132 -0.1274422934283509 0.25662848605738053 0.22029901814952715 0.15816477298748674 -0.2735758891123929 0.3916942321986962 0.04500461158975169 0.062307506781839245 0.1216965754587175 -0.1034587392944213 -0.25200758499062426 -0.12010949907348066 ]
[ 0.1173455684269871 0.534502089667174 -0.4023008993206551 0.2507847291199021 -0.3509452058171411 -0.3716437783307023 -0.09410284407142538 0.13916066428963725 -0.3932056532394369 -0.1279483698115666 0.41896473327865047 -0.42474155156751264 0.07849684803940007 0.1751895838422162 -0.27115299156984657 0.5002158416549729 -0.1503660469900829 -0.010696497138371078 0.6652349956278993 -0.3683725173740583 -0.028728206501613996 0.30809940269532843 -0.25055180286249995 0.15481999661011028 0.22380675234829087 -0.31853906276710914 -0.194051731902491 -0.25824274067520364 0.35913965093315087 0.005947381808357718 0.0031252880369723106 -0.0847977427067772 -0.12826068773380897 -0.058548529319562455 -0.596682588892934 -0.3179495527889401 -0.01761172065556634 0.203186636450348 -0.10900516118583996 0.15538686474548888 ]
[ -0.27559167343148383 -0.1739242442931787 0.00881078229555433 0.0364437746061732 0.2433308854243748 0.3505499049172429 0.1175770879986872 -0.02605524090960942 0.17130139173770412 -0.49393841559448226 -0.42400055588726526 -0.19039930104463537 -0.2714639859461117 0.3481964802540625 0.019042915404128186 0.2741077494007951 -0.5032996114244236 -0.021405784133989077 -0.24129027005044176 -0.266788311006425 0.44564088365966137 -0.328868337873373 -0.23921750224692573 0.11965560204950688 -0.05062830741789351 -0.27455990271070685 -0.35262423374033147 -0.13555583427239248 0.052455504746091904 -0.08934710671583475 0.31521672013505764 0.21621191382332777 -0.17517274258580107 0.30265565523429405 0.4805860344205633 -0.20855667348569354 0.4114630693660477 0.1519301878346722 -0.13700547817125971 0.0584902927701559 ]
[ 0.03338114777743887 0.06448628807808975 -0.042391152776593256 0.016574855743749086 0.09136383181697505 0.0157849381823268 0.03009696053332544 0.01601256705948306 -0.011159241680518557 -0.06400126085612978 0.17461465146379013 0.10551622095751062 0.07260909647405449 -0.0659841187060132 0.043838340982205674 -0.048335021707658646 0.3020921363403423 -0.19234477778885103 0.048375449619337825 -0.023746668654345555 -0.0014463514681402907 0.1267316944917669 -0.04380840120736287 0.04295620449019374 0.14115171240936325 -0.03004875016843553 -0.16051174057803227 -0.051627376232641284 -0.08419523049626322 0.06817144676693515 -0.03346736982529929 -0.27786683766227277 0.0812704353700444 -0.1971650112937205 -0.07555133891125204 -0.049098414174970406 -0.18434941273015423 -0.11578552657131987 0.07137833047996231 0.03046265993960214 ]
layer 3 Activation
tanh
layer 4 Dense
40 20
[ -0.032150182188334604 -0.3799797968049707 0.045369454236509225 -0.14364612054785922 -0.23700049811860005 0.37806921588874776 -0.1776311900958068 0.14373127298809282 -0.09322364931649295 0.05063624766709312 -0.0606196123083253 -0.1658629650888024 0.09440750891691992 0.8098982412422556 -0.08571792390816012 -0.09886580790881105 -0.1647057814103191 0.07732873052451292 -0.27754745114903573 0.2128675268132281 ]
[ -0.21937742656805664 0.14761089604976907 -0.08566599023905251 -0.15865069617088035 0.04992684571429959 0.13823505568130923 -0.25514821841428065 -0.25127139436147355 -0.1133007724448565 0.3248789152293322 0.2175793631224486 0.03727589480005796 -0.2591084996593431 0.36307980330268114 0.27900712936676386 -0.29372861071267786 -0.28709854938739454 0.020583886844035438 -0.44239271006411 0.39123250245170677 ]
[ -0.24296356969575014 -0.00016056247791865598 0.21044323627206166 0.03590390171941322 0.3119187731583488 -0.315838193457852 0.2975889719175636 0.027972910861611612 -0.13839919452230906 -0.0547376656317086 -0.22786904655101806 -0.1509420115999405 0.4432806476515351 -0.4877996892681735 0.16449809351061462 -0.05888756995580871 0.33203221306888225 0.053117177602540006 0.2625503340121271 -0.07074966588189657 ]
[ -0.22938073518685648 0.15324584392338142 0.22547236244132646 0.19857906859011548 -0.04973874535702894 -0.1331788306018845 -0.18795923631184433 0.09192124764736093 0.4056091079681244 0.2845466977278545 0.405096685214491 -0.20166645160949995 -0.40740575321150474 0.41319430166498383 0.06535983061310047 0.0027347683300134023 0.37171913114190264 -0.2084930851723932 -0.1606956551026509 0.21371736694450721 ]
[ 0.1416117558127681 0.25724148107359296 -0.10760082962819335 -0.10336631027883894 0.013794301976098457 0.059382074884183476 0.03421406380044723 0.19399717381337278 0.010389191604965011 -0.24206525583889246 -0.1351101570747382 0.09568229704892889 -0.053780084415672544 -0.30655586998375967 -0.44636272867025245 -0.019259886645379917 0.1959013448261744 -0.3589820487069553 0.24524658274980488 0.0779649841065655 ]
[ -0.025081475630424475 0.3752667391441769 -0.2673908901226745 0.24954134425027605 0.20717775901468402 -0.22014169045747514 -0.2764423364264383 0.4036431522913875 0.04218776175525032 -0.22049609391202912 -0.26366844953024166 -0.12136974558173876 0.06906893526901607 -0.08307016242225987 -0.15346504849400014 -0.10545260665437495 -0.011569290554042135 -0.16109750993585023 0.06980714059400545 0.047261376676437226 ]
[ -0.037615249481128835 0.0364481504477363 -0.08833060580117084 0.191032460904904 -0.08155190114185056 -0.07433327691093551 -0.24364788878524307 0.1047389577728255 0.0178658778973336 0.15127881890196704 -0.11662696318859364 0.010025158508059491 0.115401007048724 0.1447113360156459 0.054698236751605206 0.25114524704913244 0.22700202432864677 -0.0538853890373733 0.06752160442505793 0.09834278490228811 ]
[ 0.051234862195872935 -0.37883630024438303 0.2229482016347852 0.01705067441693839 0.015631804754656777 0.018178361882010347 -0.21476876578118603 0.18684695375801263 0.1276471323170314 0.09155079677139986 0.25471006294857096 0.2017151036205556 -0.1761588137397447 0.34297041905281256 -0.4858507924607106 0.012310257968251892 -0.2226889908035483 0.07610786938970932 -0.061928486218411516 0.2513589195535418 ]
[ 0.2610346625966351 0.381845052449652 0.00012992115090536244 0.3219722505498492 -0.1588634735586833 0.146844806680095 0.015442382408241981 -0.054788721948926054 0.20334640298315207 0.05227957480071383 -0.4599601288525076 -0.2976542160062498 0.47675322164342454 -0.048688940473349034 -0.35548189765631866 -0.22632523485986966 0.07229497260113645 -0.31008035809147627 -0.13959797235554272 0.0900132265972087 ]
[ 0.19366599816780639 0.0971109516637925 0.28324479447104434 -0.14968608285998972 0.03696161701190568 -0.15658428720684206 -0.4634367251984107 0.17079293481994576 -0.13319551297301507 0.2573149234663247 0.3954958419963219 0.13920345775685736 0.6715928658726393 0.08551378425913282 -0.007546656247820242 -0.10897404866915433 -0.21616720543037804 0.23803168313075687 0.3739809749964207 -0.1666671770315252 ]
[ 0.2654225398905759 0.17570499818830324 -0.27304732118183683 0.0930329494923552 -0.046045883708325526 0.3493033198715694 0.07278846110964925 -0.3563524551022424 0.04301999317613628 0.35208308932597887 0.4502308844048239 -0.05910196713865491 -0.03873626673989251 0.13175411108171928 0.5740686924599575 0.04407958445971576 -0.10813172065494316 -0.21968269008780447 -0.12470597476951532 -0.2704103308144616 ]
[ 0.050201428417335436 0.21506621164387973 -0.03321479742002706 -0.15814494499724377 -0.052515171985203786 0.11346998902740736 -0.3383305159504423 0.041141299935979654 0.23335004351023358 0.011840487944388281 0.08662028306333337 0.2613359950933739 0.3727673987660039 0.21939112810281003 0.3192823406582034 -0.05473726958964842 -0.09962630804460748 -0.29568760949714024 0.283545357546533 -0.15967919081880605 ]
[ 0.1038756409012274 0.027257972149599678 0.08606539067192022 -0.21109220678036886 -0.18094102249940022 0.24555166358537042 -0.25958397516382714 -0.35906918598770193 0.23440496635871708 0.44443141982712503 -0.06431235882604999 -0.1327956459849398 0.04782472157042166 0.3941730565065408 -0.30303311597205085 0.03132613291676262 0.05589104489354616 -0.14069720026513885 0.024450110472624798 -0.0440744897680229 ]
[ -0.22933686239752263 0.11773282387340399 0.3155215194914249 -0.20238497245102297 -0.008044953729573626 0.01934509511586439 0.019233567756752834 -0.1427914472187105 -0.2467425577663347 -0.06887649629973658 -0.1702138533946058 0.02170521865699643 -0.048811492267710664 -0.000555386191693193 -0.4998715511017855 0.047264685183202856 -0.05064560149087506 0.1570312410212488 0.07706077980466025 0.43157628841371 ]
[ -0.2430555126225667 -0.013401959028021207 0.03085720320344777 0.2517428786867174 0.14761856075478208 0.24745515011432195 0.05124886107021219 -0.07361635413522384 -0.08119835055216408 0.3078811594326204 0.08659518948334238 0.15278365789730933 0.02908582591901562 -0.10710399482807956 -0.30911635655683334 -0.09244306797545342 0.328574249700681 -0.09080378632735596 0.13891761676434558 0.1563851688754787 ]
[ 0.09668805384884002 -0.19058179040245735 0.4725529647425708 0.01761740560150108 0.06333227611562073 0.2076697164400183 0.2655824702671874 -0.27163171836940175 -0.18832066520910254 0.028286334019190236 -0.31648203922006446 -0.00022923120493515515 0.3136488647324481 0.03652787316447119 -0.48386556570624434 -0.15310198622691384 -0.2197136601564401 -0.037561808716517424 -0.14205842444331843 0.552979973411377 ]
[ -0.19955025544370772 0.318341599601311 0.04680913594389538 -0.06490784928743147 0.3370268751317433 0.4191028073096154 -0.578732446901459 -0.41544524819673645 -0.11779460523987537 0.3083559908672585 0.02445509861707869 -0.06568306422493839 -0.3435750032212557 0.6983963479616554 0.17113287852698122 -0.2571179625733945 -0.1920354712031885 0.23902648725271392 0.07579506908782409 -0.2766781154318496 ]
[ -0.16546838148374632 -0.3289170830184197 -0.2218454839976599 -0.16353158022223718 -0.018392615585122687 -0.4022862531283594 0.08019051007380013 -0.18699033393102926 -0.09238602816529441 -0.2520662937372857 -0.0580711050692557 0.15653624580023287 -0.008145101380160743 -0.013850982279757349 -0.1845733353111859 -0.09195400044942591 -0.13883274372220666 0.251511593283773 -0.036229516356710616 0.0925602964169963 ]
[ -0.21681955338485195 -0.2943295141515615 0.16067478702656043 0.007418471212407262 0.0010449982133044454 0.2112578572608025 0.1748136666945815 -0.39150534597895403 -0.10657595331500375 -0.08524455081983429 0.001954842179918828 0.12323217259884704 -0.5202711197625457 0.37300836535455306 0.2937204354817127 0.29095556335211153 -0.08976898296787388 -0.27993465131410766 -0.30016578931595217 0.14965472688664255 ]
[ -0.25086210160191635 -0.11323947881787115 0.32623526951979354 0.046746761901389114 0.15505466969218987 -0.11746908144082395 -0.516376282912797 0.2742518909082396 -0.031015935760194173 0.09220564960997156 0.11232998917487477 -0.2110899127702458 0.8707545963704306 -0.11868753355899492 -0.3721602780688151 0.06825232388643976 0.11279974420655119 0.12299244797494771 0.08391780106640592 -0.34444848811884365 ]
[ -0.10179038461127783 0.25927015268544495 0.0904651348111869 0.05507532312179485 0.06158726756684665 -0.053911898613812154 0.10440130534943164 0.1757860493829466 0.13745457024542415 0.07415668640061986 0.3440556167667348 -0.1471180066453309 -0.10835169481623985 -0.0116893568660689 0.3916195963990433 -0.1642315410786269 0.09537270469153347 -0.07822587130465893 0.1107363616598982 0.10118161820191164 ]
[ -0.17000613340739382 -0.21354463925168385 0.3433798704084318 -0.1042562752638744 -0.01713874693939231 0.26857163059635614 -0.4428691471078945 -0.11149782158982728 0.18367307403339175 0.3274315356256155 -0.15380055861897574 0.23741990091242934 -0.19076712352062702 -0.002594905023846344 0.10302452843223034 0.044870928864332305 0.06903047170459375 -0.22357513860225164 -0.09082220842382588 -0.2268560244958219 ]
[ -0.017233298606006878 0.24140044665046564 -0.03756745094294563 0.3111019008067035 0.1661104241763602 0.3659623541448719 0.06310065643846183 0.18633598510890217 0.20451774019995575 0.05278307167615678 -0.051308472128152295 0.13470846698978284 0.04460543207507355 0.18630988352009123 -0.10715472349882751 0.08103777358557211 0.37736726181348246 -0.1249822407542238 0.03699134094482761 0.060905134616532394 ]
[ -0.06608960509716053 0.2178342019026174 0.26005249023648974 -0.09683408595824211 -0.18995168120525152 0.29371154703958346 0.15676870972175463 0.04864538045786626 -0.1733088060671723 -0.22595922106928704 0.27216322428905537 0.06384290236678197 0.1397727092146047 -0.05543850777671192 0.17558438637908938 0.008512681896644343 0.04133352517242392 -0.2183387587063386 0.17214508590510347 -0.01638790959544547 ]
[ 0.12200902067184925 0.02873870481620313 0.0333705097209201 0.13325562870272825 0.07323852877482277 0.036762412590483864 -0.1564207441641517 -0.18946580369663266 -0.09692952327367656 0.14662364540764353 -0.039780730537985795 0.1736552105354094 0.21999005817974224 -0.10654444196507239 -0.06703779373996141 -0.3084478572223579 0.08061782984972841 -0.08367280250329706 0.07401464925591482 0.034112326030992283 ]
[ -0.020134800349633216 -0.07894122995730103 -0.2389044719845063 0.009738648005534188 0.07618289780359119 -0.15111854826061266 -0.0321616221628961 0.1923059241785846 -0.0506689774341598 -0.024261068761790974 -0.012002007580952085 0.0021447602059747202 0.2858719378342339 0.027442742482771794 -0.30170272376838464 -0.09217769832378642 0.09417001698861502 0.07911166348459397 -0.1982210521638219 -0.3335814370742807 ]
[ -0.34058076848669566 0.05607515959683897 0.06482644304836903 -0.025837278901012888 -0.023707716704207463 0.13794484578268776 -0.00876729489831899 0.1975078961983769 0.07715940252825133 -0.18150297768435306 0.23683195734866092 0.24480674275849376 0.12579241875485767 -0.14281893829809347 -0.3270600564082887 -0.06305127268808053 -0.0033313796022737463 0.4061182841608719 0.047768699450051993 0.08433075322166657 ]
[ -0.026943812812799044 0.23916931681705833 0.15003218011301692 -0.027852107235549102 0.1831750097997172 -0.10912778615703005 -0.35336531177967845 0.3120015421186027 -0.0453299852481651 0.179966006329336 0.2172608306594791 -0.14944296699668289 0.5239155664190551 0.36988327409989336 -0.06112576999197014 0.31589442797910366 0.08196421360352503 0.03314269468215571 -0.1388020444022921 -0.36937700815679336 ]
[ -0.2185818073327738 -0.05009480230704849 -0.030414424600786385 0.029605468909248644 -0.3090329403571546 -0.0036854390196703626 0.21785523311210303 -0.2517781309078899 0.09586328966501018 0.04091610730785912 -0.25366606038875594 0.19836913761915104 -0.3044895165153759 -0.3229576289915437 0.40691664247835835 0.2260963830585826 -0.38015336635274144 0.12330059033487074 -0.12218421547542987 0.24258226318766976 ]
[ -0.2654267348105188 -0.0034876076898595373 -0.37853675495344824 -0.1526922107827595 -0.18796764365661695 0.3658759658793827 -0.022409746153303232 -0.4189850442595063 -0.3188582117950159 0.19693064786040637 -0.3403398702182969 -0.07346470699152918 0.1444286880809413 0.6647260398766226 0.08193904218200405 -0.007930308143229592 0.08056583235452777 -0.08638026857050615 0.20466868049120995 -0.37653437564580283 ]
[ -0.22041553806330755 0.34352377708416204 -0.11156192812481731 0.09540431750467396 0.021747618151437366 -0.090100518140987 -0.02468502433038631 0.15266330680434242 0.21008400287763762 -0.09937497885254912 -0.002541187472885966 -0.22691168952749594 -0.09000128788152457 0.21312408984408046 0.09023875324526293 -0.15405662638728698 -0.18558406785490947 -0.27534507841748707 0.16370133824541483 -0.15091305626992063 ]
[ 0.10309934498673445 0.007274708750804944 -0.13995455847828694 -0.18393822157157208 0.05061051259104374 -0.21695949805959902 0.29851730605194454 -0.105719677130373 -0.12944011537438438 -0.13310020444811888 0.12463208610388396 -0.19253135136136076 0.17717587218479158 -0.2553805749875286 0.0528293190025347 -0.09306216914613004 -0.0926980515142071 0.099632187843028 0.23103958464130242 0.20260899751707276 ]
[ -0.20580093927273854 -0.11427216372321575 0.24603536392333125 0.1256018701204518 -0.04355910558452174 0.004085846159120105 -0.4420631360931084 0.3561267864665454 -0.0527587914816352 -0.33347014973716377 0.2306594536049957 0.14997777084290023 0.11767990832740043 -0.2211470631329902 -0.06821235297260739 -0.16496033486849274 0.2368660203141876 -0.30496595658831044 -0.11422602392959372 -0.18430328177335106 ]
[ -0.14885471561091912 -0.15941979333003137 -0.1760379891350948 0.31785758243576634 0.06479714576853209 -0.2726356536414458 0.03572885018380165 0.3299204105473896 0.18200903450407085 -0.11003625527212026 0.09991167399882683 0.2544382015472509 -0.005650201087631245 0.0759599541062731 -0.16229695967059843 0.13245710520547768 0.02292126656765251 0.4245979476700092 -0.29295205203894426 0.2854632554709553 ]
[ -0.19772976523115435 0.4332797516783289 -0.22546969510131332 0.10213623385045852 0.024002083270777477 -0.18049532026191067 0.12003371227175923 0.26630014788866496 -0.04417788416606466 0.11741079365284725 -0.12320927102678925 0.14412003318461405 -0.34411096180872885 -0.3080956069083286 0.20699597414251375 0.029725628096150064 0.32072128530895383 -0.21640666859791205 0.3740242314564891 -0.16028352464300466 ]
[ 0.1463942714373439 0.06611415217866623 -0.037035748479031606 -0.0997759260558442 0.2864663654074786 0.06120830777319228 0.041461873229210064 -0.023646376554530148 0.11140109755950918 -0.36759370582396406 -0.34296509117408863 0.0854054396327871 0.05689935469914359 -0.0871238184938286 -0.2656696658929181 0.1639648357350728 -0.11355224979598029 0.24074382346833087 -0.1508413669413874 -0.30934563699072776 ]
[ 0.06257018823647754 0.0946404330107725 -0.2635133478640325 -0.30544749325173 -0.15498775146384647 -0.3288857641709079 0.35155591528242786 0.011735850714228176 0.3222257534339671 -0.22944050976344899 0.22182482637849724 0.056931974627941126 -0.13096714476951818 -0.007030948736486419 0.25416883628422154 0.0841302123917417 -0.3228927583237664 0.1287277658350823 -0.3373665511521564 0.2815529391588424 ]
[ 0.05982145813969625 -0.18029258740088697 -0.21249742818718534 -0.0963343707764094 0.28750477746767805 -0.2931742580934289 0.27784896507064655 0.18099920255163846 0.15355306689278148 0.23722181538181716 0.34416769496524013 0.04654594589361291 0.05450050477094254 -0.03965889264695669 0.04574897731804503 0.34006181714458056 -0.11507927250218515 0.3141553864398655 0.16691472045021463 0.047895333864682574 ]
[ -0.05448260128209484 0.19033922555384794 0.108984491788647 -0.10100772486562413 0.09701027148423512 0.09941830796736323 0.13904291138499839 0.09580322316813852 0.2944020189170366 -0.16574763718606436 0.3506035821198273 0.26385882767506214 -0.10161368626909972 -0.4606558712094047 -0.27711738455587853 -0.10201520139531599 0.26645780132321867 -0.19199986264771762 -0.03469576093868202 -0.3016773092371966 ]
[ -0.034186440159386745 -0.27937543174341345 -0.2666370460188318 0.17061981365175194 -0.18179144717656143 -0.28876185583153186 0.1937807325667821 -0.33185433750510696 0.47964354179950613 0.1650134848018759 0.2989749253662001 0.19043637694389381 -0.4182554398364733 -0.35757571179470105 0.7312369036823326 0.03961196966707585 0.35319209201131846 0.295410737794664 0.4323176488447665 -0.21978999590843343 ]
[ 0.02205539329726804 -0.04855596960142138 0.035700616962083265 -0.06860863612227905 -0.0650780099579371 0.11182221793255889 -0.12089770426667303 -0.08618831910384504 -0.00926288576329385 0.10707707181881028 -0.012326411894242488 -0.021035042737314272 -0.1259263512975706 0.046704386646868774 0.09926975762260598 -0.007040242634057451 0.014649784393498176 -0.10645993714058452 0.04916908803464935 -0.10499037268909811 ]
layer 5 Activation
tanh
layer 6 Dense
20 1
[ 0.011527641530126875 ]
[ -0.016153207154529982 ]
[ -0.13815526347281756 ]
[ -0.005363822038343576 ]
[ -0.006878813763058123 ]
[ 0.20219952707502303 ]
[ -0.11745303170372985 ]
[ -0.14704324690378406 ]
[ -0.007554300276269814 ]
[ -0.06687422528228883 ]
[ 0.08513904337748397 ]
[ 0.007246205493330636 ]
[ -0.04897874510424606 ]
[ 0.06465140376907574 ]
[ 0.12669965525994792 ]
[ -0.03357795005106704 ]
[ 0.028440388943989973 ]
[ 0.23478668280992337 ]
[ 0.06894977068115157 ]
[ -0.13117541619276027 ]
[ -0.014971795309756893 ]
