layers 7
layer 0 Dense
20 20
[ -0.3137068159609598 -0.7883584387338902 -1.0384394395791978 -0.4561880810952191 -0.45539624140378515 1.4024850133364708 -0.8380901057185882 0.72677980304315 -0.23637411509268771 0.048409485035506454 -0.16764599380996484 0.4154734407910348 -1.1482976134575287 0.5174838479125021 0.10656317554145321 -0.8479031145473139 -0.34060410980837946 1.6319221156837307 0.32062692263053494 -0.7083442280739456 ]
[ 0.3272880854791748 -0.14873982351692838 -0.05169084169564129 -0.09830942762076827 0.32884604156957886 0.18912050839147496 -0.18343307253135285 -0.3668677750674741 -0.26768884152640743 0.13602433738555209 0.08486053019610189 -0.1335256448386473 0.3008325542534156 -0.13842214160610136 0.3284843013969144 -0.3791311247310335 0.3433536207444021 0.06831173513060718 -0.27235852846170494 -0.25066258264638647 ]
[ -0.1552911762502863 -0.19341089279810883 -0.10426017129152762 0.13549113480281266 -0.24221531932260296 -0.34444994529073397 -0.1470399603858481 -0.32780074149507354 -0.12893068306816935 0.3851476800058258 -0.26324934021451996 -0.1121970318116961 0.18762558716445119 0.32156724459109604 0.23115353860508345 0.06337281371857778 0.07122440768224203 -0.2950578963858107 0.09744237106809317 0.3121431188931655 ]
[ -0.1554366577859722 -0.7510820121317595 -0.5612736243359885 -0.4752160421114285 -0.9867201096144411 0.784422054503773 -0.19727374942519932 0.9205737344550854 -0.35781481996538667 0.17382894609321883 0.4614886723958627 0.12617886618419685 -0.07024993259843477 0.25248953812843966 0.2995632863768925 -0.10931924208403783 0.12391777826327181 1.376324558524025 -0.2743204603358661 -0.1447125141113356 ]
[ -0.1447981772815014 -0.5039421048880782 0.04623181131714479 0.5223951665553085 -0.7025664455576419 0.516642710457733 -0.43987076871467196 0.32623932063588784 -2.3083698580819316 -0.9503668734296193 -0.17524139693948823 0.22611906837424264 -1.0365983351582215 0.033200683955883034 -0.8167558847132965 -0.40218121125267686 0.4688053977745145 -0.9201065583949931 0.6999723207070132 0.3080151039950949 ]
[ -0.21553093740640986 -0.3343398257917824 -0.20474546740862407 0.1722107034493426 -0.15486677177529956 0.09164950748138923 -0.28347486380872805 0.08041382791767868 0.3040472928589912 0.3464336434127717 0.15952764982100237 0.3715286168493087 -0.17640505900205988 0.35876473936492037 -0.38104481333694573 0.17078117707363824 0.3162562759856222 -0.039131459939481694 0.09539810117688344 0.07176914294648098 ]
[ -0.26330588071904687 -0.04124986023559552 -0.31879899128899847 0.04292886490799787 -0.1411288757683981 -0.09155130590274553 -0.18282074019724898 0.26101210361117405 0.22707373347910043 -0.055648899940431235 -0.2280692816134181 -0.12439365605473346 -0.3130668470220244 0.36510708885939763 0.37510528514279096 0.1347277067723212 -0.31350529379417413 0.24427468251046236 0.05576814318143982 -0.2095655178069747 ]
[ -0.2701480477701669 0.5232618081577602 0.2846434338695637 0.2880298727026489 1.0479608663866569 -0.28527673327915976 -0.4655184912028621 -0.6275214090917629 0.9791058036020568 -0.06654202623251426 0.11757912360924357 -0.14973351123370046 0.5075590097310587 -0.4586355185661247 -0.07810121657975282 0.24795286631455796 -0.1655233810557765 0.3876794986499578 0.2062669741373311 0.018829850090217478 ]
[ -0.06586751507663056 -0.5795509336102281 0.30980239741712345 -0.08087970633960236 -0.18134563096098555 0.6147254478555688 -0.38379529661074113 -0.17766194981293532 -0.2611286398429277 -0.039771888095393226 0.02008739660449951 0.6823437962975455 0.2560878598108601 0.5719935655965391 -0.5519058215872844 -0.9796632366486431 -0.20030421970226583 0.3120686410334623 0.8426387498218618 0.9921521306250666 ]
[ 0.3878293325120342 0.3404698032272896 -1.2405522401177775 1.261510149103254 0.09432842005314912 -0.03473458083864332 -0.7673824121661028 -0.43569138955337644 0.24230161564523062 -1.9642355742120952 0.9310898946161756 -0.21052368337238478 0.3857746937129832 0.19560767426420897 -0.45233377321258056 0.5369901066269573 0.10345171605253986 1.1547739215836113 -0.4610188196135751 0.5374918077023165 ]
[ 0.8932919062939084 0.10416710185528463 0.30501727834420367 1.3781137486310258 0.2838786149674445 -0.2364778262089006 -0.35985672682484593 1.3250708675570242 0.32329420875668696 0.23641040623507378 0.2853559486144835 0.29870717479131464 1.2046810276686009 -0.08092276251644465 -0.16247778319485331 -0.3062582016403565 0.8475933525182828 -0.701225304913656 -0.7029500287958964 -1.5358392326821042 ]
[ 1.2166166698395529 1.560456885797155 1.7981323954557658 1.3085304070857209 0.9194006524872081 -0.8003864203835828 0.3432205696453834 -1.7037755103954288 1.6410637953668428 -0.2796179180343693 -1.9355103577872939 -0.9431336667058371 -1.8158193963888711 -0.8490805267663403 -1.6623089303185634 0.8981951806944082 1.476017598893003 2.2854741033602344 -0.6759768234349333 2.304335480448605 ]
[ -0.38809577965796815 -0.45610707101540243 -0.5533151354475033 0.20813666790473545 -0.13970573257218794 0.4712823023682278 -0.9755875520419239 1.3429366331489447 -0.5034977235410806 -0.9878369943895963 0.6252537492930619 0.5655905171916233 -1.0698666793760134 0.08690723133699135 -0.2647369752918159 -0.6581895568127691 -0.08657460744157817 -0.14774504644312703 0.613773264145226 -0.694836180659975 ]
[ 0.3717252865038581 0.14218105984021656 1.1517606285866298 0.00043626088144652466 -0.14176860585794662 -0.15257289796745915 -0.991082092800165 -0.7190976236678858 -0.3557988660491357 0.07164323169579759 0.45089438523124165 0.03599114286893859 -0.33599381728282945 -0.6754465819067302 0.29990477350066763 0.6475726808501132 -0.1961919886103348 0.13722277215203227 1.219074338277613 0.3006558710926547 ]
[ 0.9626043562616159 -0.238401343168947 -0.46834866584463697 -0.19494192348782377 -0.06069240013653702 0.41799496268216785 0.438608373719501 -0.5837123392336425 0.3111173988329052 -0.06207565658515372 -0.32600857067917427 0.7055325276903487 -0.6393080312651299 0.7731043168872915 0.7974742157847261 0.3918584532436152 0.18556415758265069 0.12440892505267669 0.9340036380293156 0.0926084678660439 ]
[ 0.6391765080676025 1.4326650609972138 -0.5750650156693059 -0.6735287972342374 1.4650722748795373 0.07505025533319654 -0.13189217095942934 2.151397438694102 1.515950147755455 -1.2738436584237902 -1.4058637606555542 -1.4413830530764729 -2.4959922846032665 -1.8834815370800053 -0.42408015061261384 1.0068399330879472 1.6127172183275957 1.05330075086118 0.8096139425013186 0.36027411217468 ]
[ -0.2638375000886212 -0.06617899798721283 0.24637444746913056 0.9612540921795811 0.26461908253946453 0.18269570460228046 -0.3232862687604261 -0.5278543659243862 -1.4063000884574817 -2.193844703571719 -1.8121647057671697 -0.5023353535061797 -2.009105557932758 -0.29357017513082434 -0.8593998645902906 -0.3819963407391407 1.2448093573253034 -2.0359896913669258 2.09413258460783 -0.05434007387162363 ]
[ -0.7208418056472197 0.3028730596415779 -0.28890859149546444 -2.309079358737147 -0.06600702952957017 -0.0788416561221869 2.40696442332994 2.7406916838788438 0.12577135712192225 2.0291538051972577 -2.4484992338339215 0.277354368013793 -1.0999645652959065 1.6365165216631363 0.062406922048620715 -1.9588212059896801 1.1954598961613996 -2.4876452589460105 -0.9137248899465314 -1.162869576312519 ]
[ -3.2901859808717635 -0.13736590860124112 -0.15204554819561691 -0.8598860449345042 -0.0860347929294142 -0.8977558192871865 0.05766125870269639 -0.43142273613710813 0.06463711616110218 -0.45595269674958183 -0.4092773765090365 -1.9441799234951604 -1.3276549643576063 -0.5832686371632245 -2.0928816371667955 -1.066923687926697 -1.7658142930183294 0.5131567854776117 -1.4917762489808644 2.427738001247693 ]
[ -0.6687693722385551 -0.09520192677418955 -0.31800231185884587 -0.4722544730681502 -0.8380926637221607 0.48354977716112 -0.9320158507228286 0.1961436491653748 -0.151010060575288 -0.26838692970667505 1.2368002666545217 1.0386370271708318 0.9783287858020066 1.2458849519929895 0.36738339358246486 -0.96602633132187 -1.3266638153929542 -0.30673227025905697 0.4531801036910361 -0.6057369920448291 ]
[ 0.07611923973474514 -0.27402063250310443 -0.13784062086072107 -0.3003811624233096 -0.44693645255474185 -0.13570561850943655 0.3919201321586086 0.378276063006211 -0.18999142273873973 0.542103312532337 0.2635050769262499 0.2850442699117212 0.06331503580597343 0.19976280267408394 0.2330433831273948 -0.03643715592737063 -0.12791973646636326 0.3797305268663548 -0.48391288187609033 -0.22948323332712575 ]
layer 1 Activation
tanh
layer 2 Dense
20 40
[ -2.2366656312968227 1.1081514993549544 1.5817726204789446 -0.24032161809836503 0.5222525310375568 -0.49937780602540127 -0.36542125113689966 -0.7487216141548838 -1.1086228752374043 0.7420228583563616 0.4403290204099595 1.6684819451796917 0.14159698511409008 1.551135257233069 -1.210308059824604 -0.5718268432873601 -0.15456001992701277 -0.35444613400655345 -1.6553680915400062 -0.21619110299749691 -0.3912450268065595 -0.048410490352225034 -1.2001828459349397 0.8142997286297785 0.3942727921260427 -1.2626456014998748 -0.31845335276087433 0.4820971157009699 1.210872556050035 -0.5685338767828195 -0.03740242893396912 -0.3553484722057226 0.6228453856982217 -0.48478224922010077 0.04619878846225932 -1.6710365464759351 0.5464892561646957 -0.642311965593296 -1.8414913508724386 0.12552288737768702 ]
[ -0.07187535789041039 0.5309761038351554 -0.44852164150232904 0.05408599165147246 -0.6342583984780145 0.735129983547891 -0.8667112505754563 0.7153206447506587 0.06686642810811888 -0.19678389125386586 -0.16170560109834378 -0.8979876967423155 -0.25577331416886095 0.3810297266379775 0.7881491131482457 0.3245332574590415 -0.7751798369407555 0.3155754545981333 0.8421564691148571 -0.43976762626987087 0.4133424454877391 -0.4721803585649016 -0.7427979466829631 0.18963819601774498 0.3174402443086977 0.7848561541231918 -0.30750051544370366 1.2190394437331715 0.26464998624585967 -0.11816713023431484 -0.09882914176362466 1.2158934842604774 0.997685180893616 -0.1545301295991698 -0.27348128463146154 -0.24185460171151626 0.5500580284405003 0.5872518537064841 0.45011938583552774 -0.048633673007825 ]
[ -0.2481870891049071 -0.607751546980204 -0.07583204770968514 0.11176651799969434 0.550707923965963 0.1867791786105215 0.4356331257359146 -0.2947489871087663 0.6626654606817891 -0.4563303840168068 0.018530741366999948 0.3699462358851697 0.00584641442174157 -0.1587085803577832 -0.13296320792772034 -0.15177022516670105 0.019201700921727117 -0.1414846807481136 -0.5132577618276677 -0.4074237614748245 0.4176000449338976 -0.29754443992059715 -0.5252143720916388 0.039254235257342944 -0.30930069046353703 0.049017621791235415 -1.2738503895872622 0.23444765802317272 -0.24983720960724662 0.643914405689988 -0.3883389789543332 0.5394538739643744 0.6678789591162573 0.10205037434931385 -0.2280334976026853 0.22301637751680112 0.6805701090515334 -0.6801040836813169 -0.340049070709339 -0.061790557118402104 ]
[ 0.7401720502501776 0.4389190353910239 -0.4828002123189792 1.3635431936333369 -0.1868488327643955 0.5725987188317659 -0.7576448219612615 -0.050179523398793224 -0.7186503104356611 0.3623879623265491 -0.28544535267706106 -0.9348903295675859 -0.019993858592244722 0.16927579208815025 -1.157301561009409 0.32333506095275744 -0.3182210687245765 -0.9353262818837589 -1.0829907505064962 -0.04101882522451196 0.2655905814837283 0.36609340931942697 0.19622281304812622 0.24917962461270474 1.3528717349780308 -0.429968519669346 0.35334089069195784 0.6091026206281316 0.14345782487888975 -0.8895523299579343 -0.8066045335536846 -0.6826551381981313 0.9751798370296976 -0.12497641705557455 0.22229780105509322 -2.060339245868174 -0.2956673965019154 0.5868784571172396 -0.28904379399559094 -0.09494229317149379 ]
[ -0.10993544164261437 0.2320387585829393 -0.4075793600593629 -0.03545637551302531 -0.6895953579559603 0.5520210043380831 -0.44366563678568854 1.0454609611227603 -0.3233785673139518 0.13787071996630712 -1.2215942867290601 -0.6829604405270177 -0.9662392202867096 0.19328531190569995 0.3501839653340374 -0.9378905776376615 0.2650831749238383 -0.5941669655721464 0.5946022327607138 -0.8446872913165269 1.589223520323796 -1.314336017928107 -1.1633101747856909 -1.0900162788527186 0.6115137914819094 1.1391760948739804 1.0939622652263665 1.3969611837146179 -0.5334157216029175 -0.6548127890488497 -1.015080249952515 0.688725607814815 1.979438689377538 -0.6781221345879446 -0.6262786911905522 -0.22282558216684376 0.06733957180174492 1.0968526414372037 0.1762572777395611 -1.0686507990152423 ]
[ -0.31772158437263937 -0.28671585725310367 -0.28223426586418965 -0.328628366520194 0.4812752670016626 -0.07993297430916352 0.8572458805632459 -0.12843228107084462 -0.09911785646142268 0.22940197694238415 0.05595940238893079 0.49688611941847943 0.2732855901368735 -1.0884747638699577 -0.03720745951745282 0.3484955068222412 0.10790543589695777 -0.3637602067915037 -0.44901362532600564 -0.4359907356326454 -0.46068202567890565 0.04213327982033798 0.11517464050676238 -0.4472226358009035 0.08464028765117691 -0.28534698742903963 -0.04434389232278344 -0.21434728256660504 -0.0642178343058642 -0.27499255600020417 -0.2954336062237253 -0.1957793096666276 -0.453276734527071 -0.6995656230165171 -0.04059571907681489 -0.34603753915402463 0.16647288967517432 -0.9170124750175879 -0.031162279372309996 0.1787838845209326 ]
[ -0.19052420104498735 -0.5835042614195887 -0.06645867477440628 -1.0385481793546016 -0.021515059763160583 -0.37217537706399517 -0.9796410846276201 -0.5466556647802381 0.27522059329475196 -0.6618939015709056 0.3352324283182836 -0.1524995900307692 0.5325223374839655 0.1492681084569607 -0.4545295460364393 0.5000641199709742 0.935016054758439 -0.02572811824221954 1.1094873179282694 0.369031732042493 -0.3620132547763124 -0.6576456075164163 -0.39147790320630843 0.13939254086733355 -0.9084227328367049 0.37223279632797884 0.6616396585068641 -0.45113129104681515 0.17418073727634945 1.2445477360835289 1.0657970323806345 0.5605303175745316 -0.3453085714627541 -0.20458111141309115 -0.8042439657506169 0.7282125246384804 0.09418238165677645 -0.35849434114010753 -0.41283909018910664 0.6294282301887673 ]
[ -1.5694863496843867 -0.015941662116350393 -0.7794688818698406 -1.388019493685438 1.1010821958887347 -0.32754814024205303 -1.0937805625323167 -0.2735736766803199 -0.41617253241680185 -0.4164779491083648 -0.051928562715762086 -0.5532934418806408 -0.6430816216452814 0.3579569790070358 0.3564314224700589 0.009551601179400699 0.7855307029134901 0.5637268611725118 -0.05462811113173818 0.0476206601580664 -0.29761480456222084 1.062004566522344 -0.20724759255574488 -0.7455072782345019 -0.29461068645946226 0.3508672340829777 -0.0911820973944531 -0.48754527319066016 -0.04560073249114831 0.041554962896549356 1.0352681265365582 -1.099593122321386 -1.292241583281713 -0.02080016614244894 -0.3773927275665603 0.7699451602648031 0.5410984067177028 0.33593554335763104 0.392642667578441 0.23823681869812516 ]
[ -0.7537298345053322 0.24330069756519068 -0.2782334045225921 -0.30243230618570455 0.8124864366502516 0.5328510355155478 -1.0417661288772342 -0.2603870806140178 -0.0346556507860756 -0.06719153543079619 -0.41499204011272395 -0.28653484887088054 -0.2690582603754587 0.1240435040342763 -0.05102708148375029 -0.9592116925415637 -0.09161288501438146 -0.6152740212267409 -0.5278588363916205 -0.8787517161963914 0.7349531954169487 -0.34074726548949 -0.9628846124542468 -0.05231902819079907 -0.010865343307151009 1.4061063909306062 0.2229477172782282 0.6126076487681584 0.1253109172215898 -0.060441147139426575 -0.2323238990003056 0.15638617829248824 0.9417169545242695 -0.7627045249044715 -0.5292543116288431 -0.5437468431712296 0.3055141174147589 0.6671571237765974 0.30334231910020576 -0.6499180005380146 ]
[ -0.843487882742832 -0.612367205758115 0.5690850309326699 -1.2017543665766397 0.3940314655258661 -0.07419119273651667 -0.4687516760185182 -0.6789995238353749 -0.14143348818928955 -0.22214594497109505 0.07937094497423705 1.0612496014760762 0.3769284457779536 -0.33066093552756426 0.22798567886530166 -0.2190867950798554 0.6528973835158005 0.8328154763222398 0.6673662330060172 0.15615363771748758 -0.21764547315940622 -0.6522973938551803 -0.21890266703160435 0.032548336915430895 -0.6463103449843921 0.5650676887689496 -0.9262473494252974 -0.22903231681564512 -0.47452221157620555 -0.3760356075960391 0.5420194265172538 1.0654727793148662 -0.6957136365580409 -0.4963193775137259 -0.7152290717038868 -0.2641540326456448 0.48904889294102344 -0.7623596829582032 0.22180955420078857 -0.04512381532650508 ]
[ 0.13958454371676315 0.4009652744287221 0.2395329328520761 0.43620640915620246 0.7595214510306063 0.05783007473598884 0.16033894653009573 -0.5049106883804705 -0.2016456625054066 1.2580673634530182 0.0006583575089371516 -0.3670905751444778 0.7453897035213031 0.036484510770926584 -0.6539831532166814 -0.41479993595520914 -1.0883579214964476 1.1910283778319095 -0.1341003034079315 0.0965629764878782 -0.02224381466498624 0.8373936614241261 0.8488488505104127 0.06739538489286662 -0.006242499788182133 0.144312957493089 -0.7124964848405476 -0.3045371962204807 0.4018361571344643 0.32460389459898203 0.15764180930517568 -0.8081402995996371 -0.9244572091291672 0.2133746008879908 1.218300216198722 0.23752887259841832 -0.2344165790211325 1.7964331870164822 -0.578177775862732 0.16393211406783706 ]
[ -0.7472160993230696 -0.42087492002355054 -0.10505843399805556 -0.31951074361707504 1.2918282446437794 0.020850844022619185 0.06853507566553908 -0.31617671224108623 0.45280735586094817 0.26051562859050104 -0.10773229794902103 0.2969799477690269 0.6959312009126252 -0.6543543751511913 -0.8120318158607074 -0.8254557737410654 -0.10783081236043138 0.23828587283597108 -1.0651290566417155 0.09363552789811296 0.1509095000021077 0.7825392377441489 0.5722339210820343 0.08896135856850045 -1.4153146199164301 0.5524358017560377 -0.5993576083639957 -0.2880538061996466 0.5673876332756038 -0.35154194442830444 0.7717284217516613 -0.18466032677980612 -0.16615220449823662 -0.35683113245347375 -0.7922694295419677 -0.31595700253349496 0.7554281515013611 0.5902785785681677 -0.6330361491060424 -0.30835779599482316 ]
[ 0.5278493712502571 0.1735229490042722 0.8012235133724218 0.044900366190274626 1.324964989399309 -0.17201410780561197 -0.8762777773242172 0.03546493330066624 0.3912577693137663 0.7696503162923397 0.1533117145865115 0.597613327828056 -0.23389751706136774 0.4612988858313313 0.1574418457061253 -0.21050364512160435 -0.9449401784842679 1.115561368252401 -0.8229668417472403 0.1973121019181866 0.022495053323982342 -0.3260734802731702 0.45518022705918326 -0.26346210283306315 -0.15345757628386966 -0.2279347310388289 -0.36817363123466323 -0.07312401883327559 0.015292147737545428 -0.23413744630326686 0.18042310872721615 -1.036292950003242 0.012640530283764455 -0.2925055606883997 -0.05773327900266459 0.10411571408949101 0.5436530061424414 0.7378650425036228 -1.0830084375983167 -0.3117172024590063 ]
[ 0.08852391115219754 0.7480543765300276 0.9494556008002729 -0.16041904302117982 1.639124580385939 -0.07958469252018587 -0.3351182322984584 -0.4323294186701989 0.5037214358791072 -0.05982593695428214 0.0679539395432019 0.6940537627864406 -0.21453493659078834 -0.15573156505934452 -0.6432017859575316 -0.3608722972997791 0.2810534215060259 1.264471406139949 -0.7716162958014616 1.0528273474009153 0.22636565323899505 0.3368846122693736 0.7591474676696932 -0.7768576876846421 -0.9772319957142193 1.2682271912002838 -0.5829601913187858 0.38045212986707183 0.5276426018161755 0.8466719394453012 0.7875396725786011 -2.0988730863515874 0.478483410830999 0.09406682825672703 -1.1056360825249592 0.12078421533568447 0.6134262631095171 0.5922413616246887 -1.1175968245759074 -0.13226728821838357 ]
[ -0.6205848937862897 -0.5426093114531513 0.5889341319784926 -0.4071219565869641 0.14046471680122619 0.0024948608207924997 -0.5684369582015105 -0.7263510830019126 -0.5563698167388235 0.4732714871395432 -0.080957449290304 -0.07499272219038766 -0.031532189354384926 -0.36481164491429374 0.17564198287833444 0.012968679539349898 -0.11522747552353448 0.02650594054622861 -0.02843086982303117 -0.7262667771970043 -0.14349519344154607 -0.21449188414624218 0.4139070306303726 0.47182180377307076 -0.6292434902253793 0.2846816856183756 -0.45767899088799924 -0.28114713780612677 -0.05062746709532427 -1.1269191176169993 0.3392474549465157 1.315453625988036 -0.6036052489319794 -0.5905765304707277 -0.6680077190266241 0.6415846198847366 0.614152196240924 0.0022566937116719685 -0.3533319262164288 0.0319593561664802 ]
[ -0.5824779439532805 -0.09654505980068544 1.0356689749392665 0.22546777908535368 0.05315161966196056 0.03834294508879889 -0.8612568952932308 -0.7326566164894169 -1.9481422521524394 0.7069805149904155 -0.03577445312461441 0.22514273700800627 0.1763147489010493 0.29544104491307027 0.32252299315791055 -0.01762351439622757 -0.3208259507604093 -1.0756587752101667 0.3176295682837437 -0.004426095102257424 -0.6174357843526221 -0.4702338032951415 -0.7000340796097013 0.6242159467017736 0.5987502948775585 -0.41487709941777606 0.5707266527760931 -0.20047489000309227 -0.19117739253112323 -0.7823552005080837 -0.40045090368509006 0.5992854416881065 -0.35162403889677246 -0.4952486564207969 -0.8497898373077228 -1.0431791185993906 -0.124486348906618 -0.6491701443899349 0.0769135929872825 0.276961733405494 ]
[ -0.10844046952037999 0.311913163062728 0.19149213780906316 -1.3097577281502564 -0.46243884573829563 -0.36021903941255723 -0.0044500786466391065 0.26465101203421776 -0.6286025997066654 -0.9057024220759345 0.40182197886228627 0.3442113629895886 -0.5172461287409871 0.4160040922812618 0.598572947752443 1.0864518766548168 1.462749888303944 -0.43707360158136155 -0.019399969716333496 0.040807340200508954 -0.12723532770016321 -1.5220475042293442 -0.9746315321401409 -0.7266517977874609 0.9289465041064269 -0.9597336762240984 1.0722660711166738 0.35480185683489734 -0.17246173115844282 -0.6323760539142104 0.0045335230182422855 -0.36378542801076913 0.7686579475502668 -0.6645573598571172 -1.0112096476292085 -0.8107100453827871 0.671972687783143 -0.36565946094351737 -0.24071806339325216 -0.0969285005696307 ]
[ 0.5550976621675885 0.20899855604160164 1.7532638200664434 1.1965787743262897 -0.6079075853947346 -0.5752203748059572 0.9225462431741817 1.3074492325345854 -0.20997483016639013 -0.9997526826461203 0.47419254842234027 0.598488602645438 -0.3554004793600718 0.48395947956504637 0.9427724648545419 0.7734351163564096 -1.1869209785534933 -0.44393642087636326 0.7741741056674163 -0.7757404965579963 -0.35684503113046195 0.8556311089116364 0.602470297454563 -0.872670627637267 1.761670857420116 -1.2243966192447644 0.6327389817813969 0.20065918887437775 -0.20882215209377275 1.106650441433016 0.16109684071717428 -1.036539255414858 0.7167947244460519 0.3165813872547172 0.7184339918501785 0.9436561915816459 0.38969477794258833 0.12041202986469735 0.4677988303331109 0.6815904630070406 ]
[ -0.09933081878208153 0.059781340901350205 0.030948891378573522 1.0669319317186023 0.28792351746110456 -0.2356009623981051 0.8800875272860336 0.9911814622762964 -0.6142517135045517 2.1241719378165476 -0.025008755059694448 0.33572413987186805 -0.533462176585428 0.158404235623067 0.27399511526562087 0.15394081816279184 -1.109290360124147 -0.6070749361483357 -1.1779522644480371 -0.04918808610674123 0.4913107905671446 0.5829857618254731 -0.6749475255617792 -1.0017837976233384 -0.4004161155316161 -0.4313262825362882 -0.10722583361229332 0.19282868384170385 0.33448884116173416 -0.7810835596638128 -0.7547911202141802 0.1696585040886674 0.4113428200800251 -0.04364685855860862 0.7399524274445227 0.6747091419457769 0.09240619526937492 -0.02087317187383862 -1.3510464471280468 -0.052065446930866545 ]
[ -0.1895445903591292 0.1890498659580307 -0.600984940887406 0.844945663426266 -0.9141655405722153 0.3004583559315132 0.5627862108002377 0.2620480945644094 -0.14668470123549449 -0.4506213812693849 0.10916482941296046 -0.00843119750659412 -0.4644415725720155 -1.2654100486748754 0.026957437020465214 0.1915683247667541 -0.569748235253635 -0.690384980843148 1.1710750080657193 -0.2530198477690397 -0.16211378792974693 0.08629738947633311 -0.6717633933992513 -0.9369836258238317 0.7862673348824926 -0.5021740632544353 -0.3005484385683757 0.6306977483204856 -0.018457572931200435 0.7798456042707442 -0.6228975634555437 -0.251428998605261 0.6219651000379777 -0.16887280114336384 -0.11541005471053357 -0.39820443983388 -0.5867086176694393 -0.7240385752864033 -0.11327845837988415 -0.1364502858020272 ]
[ 0.365903739324978 -0.38606442956858966 0.6023677988062099 -0.19434990633791852 0.4005818621368993 -0.6406226083672064 0.38390437663836174 -0.9298047855622766 0.17319485120666028 0.05923038456837586 1.0700198276671387 0.5862553104381102 0.8975986393734733 0.060511492769797164 -0.22817703673921785 0.8882987573358273 -0.19244013379049732 0.4477053414487765 -0.2532792895475679 0.6595329591131754 -1.1780701072067186 0.9508020857715083 0.7425461177249534 0.8372425070550805 -0.20558942907967956 -0.49036783800951594 -0.7042404840663078 -1.1318182899768334 0.2232272616617743 0.6380666178743021 0.72752324229729 -0.9621485783328789 -1.278065209481504 0.5271759304997731 0.47439058501699466 0.4148875951519242 -0.20215768708922344 -0.6445200197285564 -0.019871528148118656 0.813651967114955 ]
layer 3 Activation
tanh
layer 4 Dense
40 20
[ 0.05392343206879182 0.04309977178080422 -0.6347278768419566 0.06163155020435072 0.489071419180721 0.6802893291136962 -0.14292988321219757 0.36451474449734966 0.4554975382044618 -0.041640165531683655 -0.28217500840285425 -0.0039588802842308 -0.33328402470323976 0.6044077510997965 -0.6621951916994084 -0.09044778439678233 -1.1421165633223809 -0.1475205790047431 0.7261614414164109 0.023788806768260447 ]
[ 0.5095362111110466 0.23393775536265654 0.3451237371268106 0.25081917372703955 -0.11502621316209675 -0.055645499851768025 -0.71781695024362 -0.11238844764917244 -0.2864917748399311 -0.4189160541766829 0.042424219842337664 -0.3732637249767666 -0.16358233355556004 0.054395026226768776 -0.008409175336658789 1.1945583952619938 -0.1957508639320727 0.10478145445596428 -0.8030018985286274 -0.10016490061380605 ]
[ -0.7696156349566149 -0.2395170752364239 0.18116039915649734 0.42229284536599204 -0.1396815585770964 0.2594212231895236 -0.6742488602675978 -0.4446998086887755 1.0172512592075746 1.4030008074232612 -0.7821434554435798 -0.1665069743068302 0.2632938274852182 0.30549224911450124 0.09992334136277456 0.8997548650095517 -0.08324197059698944 0.009476152653738197 -0.17448313582202543 0.09808339128572625 ]
[ 0.38626663751938634 0.40044226576406466 0.5059223586052265 -0.18535900727183216 0.16728818659458794 0.6118049002338569 -0.06465127285406039 0.44271771227650253 0.947006318883622 0.32298982057270126 -0.4165802009576413 -0.906784798435604 0.8984261442240782 0.4045990424257888 -0.04658648335610625 0.403782967510484 -0.5286256400433159 0.7461265912458133 0.06018608537399459 0.41319875697013214 ]
[ -0.12142554435714815 -0.6051876020795612 0.19150437885650406 -0.30435204013113104 1.2360463865186202 0.6148477394300222 0.02977034281341885 0.1117349093316018 0.713215449120197 0.5458309514748899 -0.5787476651114452 0.3096019175241026 0.06368496410065284 -0.6086787411385474 -0.6056371048255644 0.24088020998796583 0.295033888453057 -0.06763996108566793 -0.013194828157461197 0.4302226539368586 ]
[ 0.9617547918055778 0.5440543557380354 -0.1785994404788781 -0.2040244695446544 -0.1506621093756082 -0.018533410903278424 0.14760722806136378 0.3172634640546153 -0.42635310058300196 -0.6204332778643472 0.5539593934343201 -0.23621359630223113 0.4638571030929265 0.05497276204799655 0.0809632030725673 -0.031891043056533085 -0.5309647331401879 0.5112294377466526 0.1548441884555458 -0.19262039538852269 ]
[ 0.7348983698284363 0.3239062852882378 0.0023158407679237675 -0.38079233637129595 -0.2282948739689798 0.6669650723819059 0.20460302113974893 -0.04432707129600524 0.907437445275119 0.7355915850954872 -1.1906505778226226 -0.09010725115608292 1.0078173223375364 -0.0796717587660874 -0.07097583689889682 0.11372751873870644 -0.6067167415734657 0.6348526764310131 0.03041263246197167 0.38813877241477274 ]
[ -0.15813327734658036 0.08560731453134894 0.008022201545148582 0.21366182317028318 -1.2287670381049103 0.2435898733152229 0.2811877037715789 -0.2702366554403179 0.10102858700418706 0.0017299605244295172 -0.02028092489879761 -0.30874800857851614 0.5049280267912952 0.2942915283044536 -0.2574486640001939 0.37508126197202263 -0.8650080940458714 0.19941638807434142 0.018687501146710903 -0.39114171395522135 ]
[ -0.03028443481885336 -0.6888197127303458 -0.11310034145226436 -0.4382921474212464 -0.14944694078721493 0.42086465654868616 0.34946753138409287 0.5477941427833891 0.315264686135269 0.0910957084894025 -0.030531942165709848 0.4815237248325743 -0.49246330519750714 -0.04119838116729356 0.031968134411922394 -1.4351463193139327 -0.23155406373236775 0.02791257022288313 0.5366510895047986 0.34990391461420806 ]
[ 0.18952295619694542 -0.3031138835118013 0.07951847713671886 -0.794187415299106 0.522370418684574 0.2500611557969463 0.6697110058408724 0.430715897389111 0.30074398420790527 0.15510507581754387 -0.5525278317003584 -0.5822337875886064 -0.40416003483674995 -0.526484391308952 0.30880693622945143 1.2792397484926796 0.2847589740537856 0.18713339291827516 -0.36986813515360506 -0.11024805283921404 ]
[ -0.8931035047046259 -0.29005869794309336 0.2598738719678117 -0.22932744450685438 0.24818043476421903 0.6182784397935963 -0.8802296371937817 -0.670106823421751 0.5281465446229086 0.20993315778400523 -0.3398371858478995 0.2955571873580205 -0.6754597767204296 0.2745256301935778 0.17810653672459456 -0.3546519276001779 0.11218819664768044 -0.4272831466342863 -0.37244361865244496 0.6013036697504417 ]
[ -0.8303583600457489 0.4241779381997392 0.523694105428195 0.38573387069661746 0.8665747355872583 0.299072102584143 -0.20541995596414814 -0.41529584598698227 0.45030078461261186 0.9755312893863763 -0.8712056125724518 -0.4219086142968775 -0.15396856034398307 -0.034175668778334535 0.4335040907384866 0.3913292685932825 0.7018600503442245 -0.1550822438410334 -0.21300589290335623 0.6264339982474918 ]
[ -0.4485603762891134 -0.7382934999184797 -0.1598339243873894 -0.14240150594880374 0.42638405767904164 0.038013701063362715 0.08969005036175505 -0.6163947292726183 0.09299042455086289 0.5583533881402097 -0.2642105924534658 0.527342308188959 -0.795952174933667 0.2345628282315429 -0.1280508383919756 -0.48613060157413013 0.5231552877016328 -0.2663225129079119 -0.30115243680276865 0.3999808355419669 ]
[ -0.12057925941604412 0.2601706034366746 0.5196933873228441 0.44622497717137727 0.41891275582765164 0.027002082942091755 -0.09779803293846005 0.190563761038502 0.44251369759371995 -0.6484765372507357 0.010728897265964609 0.03467672724341369 -0.1720221139031984 0.07170941701115079 0.23383048707214574 -0.047757397400678796 -0.1650026499518503 -0.2996413267317733 -0.6351042183949454 0.46339246687979607 ]
[ -0.39182551867844806 -0.07448289091894318 -0.4100097059750776 0.47541209123067 -0.8531102759914275 -0.03728289571750227 -0.9222032898363666 -0.26467614236975595 0.17079565876511085 -0.12047395742134676 0.010212953450543828 1.0402036848569898 0.4692948563728073 0.12300541928700023 -0.1506842889170994 -0.7258544185043327 -0.5738076835610627 0.388560518043119 0.4225446357670958 0.11443982993770736 ]
[ -0.376586866481877 -0.7060920237310094 -0.42911364518065115 0.1671479628901648 0.42230139290225194 0.4964357679621658 0.007290163848631385 0.19410030179931248 0.2673612132423751 0.5780509279060213 -0.6711631037712043 0.8136275667898966 -1.002968631263339 0.164016516137878 -0.08345638914210385 -0.15398466611493888 0.018796270879413757 -0.46930921228376055 -0.3306599403447741 0.8877204867152535 ]
[ 0.010752887987253459 0.2811998414570704 0.26427816476163274 0.09240670536640205 0.13570428026243572 -0.45555104015460474 0.8282380248911204 0.0027261947390289447 -0.1295098317554303 -0.09358186607449462 0.002843539198401897 0.2398542973046912 -0.04688819822411715 -0.5045419072430559 0.2077403366062233 -1.1440654604622749 -0.12569152406177347 -0.5220900412098103 -0.9434557191185285 -0.023774760546019118 ]
[ -0.10605386379833612 -0.4979398993248128 0.7111326413642273 0.0440060460702548 0.9055050614455141 0.7976171878511538 0.555110708235986 -0.041255997132091146 0.9356762493252665 0.7426552384534638 -0.9267026989781263 0.5375526699565046 -0.3666106819146583 -0.33619436830492716 -0.7079854701714117 0.30885851752961746 0.30801665789287247 0.0068620419980744835 0.19141071634493217 0.6484943715327348 ]
[ -0.004605132342440163 0.2900881709298679 -0.8639612233037474 0.285508098026447 -1.0434588428089502 -0.8129803990185006 -1.1773827637952339 -0.22458122601528216 -0.46095898038392247 -0.4237079389069873 0.39549738214375896 0.3853595093165025 -0.1277679286763119 0.8106281304313643 -0.8882493231711931 0.012380194793790699 -0.21078998622092393 -0.015466554572976349 0.7857107330986091 -0.20434632196632146 ]
[ -0.23250566503467643 0.15717635937468916 -0.345537202488729 -0.1372499187730733 0.8547869559027288 0.12276261925797204 -0.457698051455395 -0.08837237300204766 0.1251965884286742 0.44238837855309276 -0.39012329268602713 0.05641233560142855 -0.2450329169347694 0.14439983039276005 0.1536777795938907 -0.8245803303877781 0.1113624147649538 -0.03626854438373744 0.1643638222732067 1.004873848733878 ]
[ 0.7548317441051552 0.36437215915518867 -0.060827775897059504 0.4930980238873983 -0.6005476114916897 -1.0365751179662457 0.7605468135823191 0.9594279168672841 -0.7518984637604754 -0.3537316907506151 0.9428415110224903 -0.2743779589700054 0.6956085037641234 -0.38672728919668914 -0.0924550135215078 0.4202657141662857 -0.6439647657544372 0.7699056868413342 0.4812762033439869 -0.7753195042826501 ]
[ -0.2969419255584622 -0.7537200452539062 0.3408179385699765 -0.7870784623162174 0.3353588139018306 0.23356046098700275 -0.36428697547990047 -0.24912664353403124 0.4755672752151985 -0.01785096285346016 -0.4568061758685381 -0.2402753610254497 -0.37549969629480484 0.49808201372700306 0.39544975920003345 0.521931158835606 0.2710898980148617 -0.0699978789460469 0.6638968937644639 0.7922695609069914 ]
[ -0.42377530635824556 -1.2404826476690132 0.8071821235732262 -0.6282001665292136 0.22782377386684247 0.24628186797694573 -0.5747047726684468 -0.5170883764985685 0.6132948563002094 0.6880428099809549 -0.9649013875689207 -0.4832878815940328 -0.6500666389402205 0.574551437531819 -0.3700403927523335 0.7673844165419413 0.25744596564030403 -0.4792493477638566 -1.311547317606011 0.9118625122189173 ]
[ -0.24674004008075268 -0.8833709944626024 0.09306736647881879 -0.1281752733033686 0.5584976438294421 0.3084335330041386 -0.333419695001017 -0.5046782947160832 0.6443880433949131 -0.06045255102808564 -0.23713272124247325 0.4744545553980262 -0.9460519590245493 -0.20207227721227716 0.16462401308632046 -0.10685848466106401 0.27214533574903865 -0.34776323307819873 -0.25128604030300006 0.7641312987976286 ]
[ -0.08009897432318341 0.7955426786913364 0.065150478825125 0.7059311289155659 -1.452727343575247 -0.6915322953670685 -1.298938086895514 -0.8284814915169183 -0.8365083502281605 -0.548246151020735 0.9320857338896863 -0.6827286371304383 -0.23251879407552767 1.4211240548692792 0.10580191606568946 0.67171752866864 -0.8878106225219227 -0.4561389920037742 -0.5536591443988662 -0.8255301710834132 ]
[ 0.7805092656395621 0.13919510901891868 -0.0060656196944445144 -0.5232114975588605 -0.06495876080408408 -0.33498196361484966 0.253960439003127 0.5839990170415432 0.11241454905416189 -0.12476192318892118 0.3766211517675081 -0.4888044282278171 0.5487917941145837 -0.08960725272372941 -0.4065353343662751 0.17311150317546456 -0.46414476207353217 0.6032258111595253 0.9018140537276976 -0.33520279184675505 ]
[ 0.2645338968560615 0.45754857883482364 0.018521779252959985 0.4503340417352489 -0.8157957642120719 -0.20352269139873166 -0.24485481116614788 0.2806434286813512 0.00042880379280771006 0.5928752565312493 -0.16880432909829493 -0.06271427067235492 0.43404679527314866 -0.12958957249788614 -0.07594838664585728 0.5027027999756912 -0.6035042345164667 0.22478442700798634 -0.08497913527199626 0.014760417707834162 ]
[ 0.3937585012293974 1.331085158444826 0.7724963274811443 0.38162100155292655 -0.8002038547717318 0.024874993173298922 0.24993763046712608 0.1746120416520573 -0.5387954918665743 -0.9002721999224571 0.23944930972089573 -0.7869631400796769 0.8310868914310019 0.17471802329826658 0.3401277017801549 1.092470172558765 -0.6223875807925497 0.48313287075312555 0.2359010985277579 -0.3802142666641102 ]
[ 0.4038087309875859 -0.4158686819774566 0.3567930515446281 -0.017439951026013287 0.1614866367210995 -0.08647439381714987 1.1517860585942035 0.33667719308556027 -0.06556734171740451 -0.23052181594515214 -0.30632913038179543 -0.4449148327655904 -0.20145177800188083 -0.34194317039149985 0.29132703850343356 -0.20961685765541782 0.24525273654079818 -0.37725368667793896 -0.41233682286847595 -0.2444945147360094 ]
[ -0.3140936041512712 -0.831861568245992 0.09822080109149113 -0.20099484675106188 -0.49945650355731086 0.36500659065169727 0.4161611819401284 0.00163201245850637 0.677028678802232 0.7388150211998694 -1.071226802330707 0.4315192035832421 -0.8684132513409554 -0.019337475650976703 0.3057719327064679 -0.42952477866861344 0.29586930071651585 -0.4091851851840628 0.29196262464686173 0.4871211192654421 ]
[ -0.4891652457146402 -1.181368701468256 -0.42353169791070716 -0.10648592685603613 0.22820591604952933 -0.06220093845635054 -0.5319366863190683 -0.6645818245137896 -0.14574363674388027 0.44866520901767537 -0.08480205812029241 0.5352430890592765 -1.1068120823863232 0.07651366417131118 0.4771194401339533 -0.7716166171578915 0.3497216736405063 -0.6318468146384 -0.3137120969122183 0.12004038128735019 ]
[ 0.7183780581360307 -0.044220991819524845 -0.1658500296909745 0.1929379156159082 -0.6092908650686801 -0.7624023744750266 -0.32981000132227895 0.2664383890202906 -1.217838963283335 -1.0558376792079476 0.3743105997193412 -0.5533886319424439 0.14298067098555423 0.6629145150255832 0.3433357422186641 0.06541296285483314 -0.1752289440746597 0.3716660701614326 0.28015971860197575 -0.8807300070865979 ]
[ 0.6636345488831368 0.9902479319398378 0.7000918873856454 0.6039009144242691 -0.6119127020464522 0.17010287368720234 0.6137527846413668 0.4489043521414043 0.0832139769257879 -0.4365509971722357 0.4283176309642084 -0.6911141964121691 0.6316508156039735 -0.09493890178469214 0.05716172777746983 0.6620495213794028 -0.8410574776491387 0.30120080149536416 -0.04298595306607179 -0.37652353213065193 ]
[ -0.5121461454608535 -0.27949688381320387 0.10207757260688675 -0.10073818734130462 0.017684849774295085 0.044418433587082286 -0.7524684910434968 -0.5512747643475304 0.33596374567794246 -0.039503496079258967 -0.5619692277782689 -0.144995984666354 0.046453398967483864 0.2683196871815815 -0.11839592016373664 0.12426282788815797 0.2883578730564394 -0.2848395211117577 -0.1835454820223618 0.1803656371811699 ]
[ 0.21995691134224565 0.05766580003852516 0.3408342341146537 -0.4804468020426195 -0.1452904926175706 0.22790804789768804 -1.207454248382721 0.004221643527358204 0.5433073049305143 0.16645708515957908 -0.6287881790742553 -0.497558853005469 0.7026346780684546 0.5331180873624701 -0.33023526602939746 1.5338877382826976 -0.5417906764204838 -0.05962553512612492 0.5344142958244834 0.2745498663996174 ]
[ -0.19170074932701112 -0.9389956340852077 -0.4058715438177089 -0.032584134343883325 0.14419520065839203 0.7259181333290946 0.9337373110132291 0.06767765728950692 0.480060399603461 0.8895613082757691 -0.7112681845716418 0.5803384223718213 0.12907534880972119 -0.43786844199488106 -0.37402022608640667 -1.0516154022517823 0.07640431464872935 -0.5204689633554103 0.5769931126512741 0.7459242884094369 ]
[ -0.06065050278616816 0.13042612910546433 -0.10565528503476111 -0.043499565693463804 -0.5346590161171253 0.008730161548816557 0.6094328337291941 0.12810841723331043 -0.135902278043069 -0.12703365932610836 0.15789544049868243 0.07350966807533485 -0.19303632416412428 -0.6678869389035398 -0.18752339368209736 -0.18133314352217575 0.024420201139696195 0.052177794294421875 -0.5136886125136949 -0.6824003892740141 ]
[ 0.6008197482432004 0.03183088911037636 -0.2904001769004777 -0.3365748230785394 -0.32246387916424174 -0.49655326675522754 0.45603363595505003 0.30184877915831027 -0.30384864277961343 -0.0860026167422166 0.3951835010222554 -0.8728264918400699 0.32929811454966773 -0.030654706008774818 0.08029044030451092 0.3291898514187961 -0.024337466443863476 0.1556633792415389 0.33984974883112906 -0.7971668131055114 ]
[ -0.6503224606533772 0.1487299072717048 -0.44304254942077126 0.12083622369173251 -0.4232610793691503 -0.08316237857817171 -1.1122681228990912 -0.2767723233933068 -0.08886586745108992 -0.7866031825179776 0.5831030868111557 0.30627655347335064 0.08645944560935832 0.6985963614571737 -0.7141627449113972 -0.6099248894978396 -0.3113424881418427 -0.10586575515790511 0.3802361960869498 0.3177344222476234 ]
[ -0.7748313957717095 -0.4173530798440497 0.09318011609358114 0.06626579700503757 0.08126248845957966 0.5049301176340597 -1.1812264887606208 -0.7513567498082401 1.0482546588517565 0.8101477918809326 -0.6692543335955019 0.3163776151755079 -0.6816076493673461 0.6931246183941844 0.15669955332889565 0.38067824208890216 -0.10073486277628589 -0.5583171649656028 -0.491899822023878 0.38294954605970705 ]
[ -0.4912951855480263 -0.28489616053739725 0.020738475604179147 -0.3464534117047875 0.37973301706083906 0.7940911890494785 -0.665597227157738 -0.5484852935553581 0.5485365086012804 0.18807657462967373 -0.6633018011758849 0.33516944321628384 -0.5057045194431484 0.15721491278263935 0.15809797646887183 -0.21904906332722926 0.28226763337027516 -0.38213722731583377 -0.3199533008996412 0.5906592414508185 ]
layer 5 Activation
tanh
layer 6 Dense
20 1
[ -0.09843409009302266 ]
[ -0.15366163138681954 ]
[ -0.2170647334392678 ]
[ 0.47922760908323364 ]
[ -0.1811784794139524 ]
[ -0.7313850265653318 ]
[ -0.07118104522443591 ]
[ -0.4196811251757735 ]
[ -0.35155741740749435 ]
[ -0.05514740765795707 ]
[ 0.23350713890847108 ]
[ 0.10419449104572907 ]
[ -0.122010686803021 ]
[ 0.11602898964968994 ]
[ 0.2724672965597761 ]
[ -0.06261823786818448 ]
[ 0.20649112891380986 ]
[ -0.4549528703313514 ]
[ -0.1227506608090542 ]
[ -0.3731012525985897 ]
[ 0.5499147066137043 ]
