layers 7
layer 0 Dense
20 20
[ -0.20380196464989375 -0.2892131888520699 0.4713149180477229 -0.09412765257954486 0.021678639525442706 0.26403853440964453 0.03578130992228427 0.5393318194075655 -0.37198694402547966 0.03706195315823249 -0.2673660246470248 -0.20893171875953825 0.17063920254331552 0.2561022025407075 -0.0042371453492908205 0.06486234436920804 0.10400943170365348 -0.2525857282844912 0.3945385287428459 -0.2554584077906722 ]
[ -0.0789915540189627 0.31900973955491124 0.034979051573819836 -0.3287425845305279 -0.05051081647989694 -0.0016369626851226006 -0.2873365026098404 -0.33145958559106453 -0.1183273018800981 -0.19944553544502383 -0.06410085858203908 -0.11385045567554428 0.14895847450530597 -0.1787730548091006 -0.21870752319235034 -0.041689657680455204 -0.30604712281878976 0.037723280507978095 -0.04151488241317793 -0.09091935895521351 ]
[ 0.15623013835816185 -0.25996787891122686 0.09475940111404121 0.1022649510745627 0.22293384492911028 0.017097324264458227 -0.27266533782293395 -0.34898292871649345 0.31598884697981594 0.37119385986818576 -0.28215415536486627 0.25661681642934486 0.3501938697869366 0.2784362633001931 0.1984391795110969 0.017515518832307272 0.3053492958438595 0.1571226340732873 0.1452684063904643 0.13323507348319263 ]
[ 0.22743333123986081 0.19476936947571513 0.3331211609381643 0.2950598349775748 0.22367652337862756 -0.4180311853821795 -0.057630118459475584 0.15222625599191505 -0.33767255583530686 -0.18808160121097756 0.14480398621040327 -0.40854436017346024 0.2876635732296064 0.28268745805651896 0.37712349522056066 0.026889639024823265 -0.07602913699983872 0.3001044214257819 0.3524490468204089 0.3640659912377141 ]
[ 0.3848840816049282 -0.34942204087840273 0.2662093087693749 -0.08288980188786232 -0.1704566749361743 -0.12208190824391492 0.10831692058672378 0.6665473987534545 -0.270214715078728 0.8280534589535157 -0.5370384006724205 -0.2192611862616669 0.43657870998407033 0.22920445410767873 -0.014817290814966966 -0.1403059073587095 -0.6093183489027569 0.5264607758456449 0.5079242097284744 -0.1642424791527527 ]
[ -0.018835695204101187 0.2799225682593193 0.2617976915423231 -0.36522422072971095 -0.19936627674183222 -0.13665181813239713 0.34945689936524715 0.3707151333779338 -0.08633370749979685 -0.005402362069472377 0.16627120623204739 -0.17273461564768006 0.36487329203962543 0.30402430934711977 -0.1726286457843366 -0.3054751871420355 -0.02114404067598669 0.13081511287166533 0.16225586013088034 -0.10688704716153889 ]
[ -0.11086954526351381 -0.3768539096301621 -0.2116420366872352 -0.16028808337807093 0.2725405933511928 0.2524965407974377 -0.30531848068581735 -0.18698758344629055 -0.19122864759847258 -0.017663257440657176 0.09834138344603038 -0.04141041604564725 -0.1910489301126995 -0.10357922153537125 -0.31253082862265213 -0.2717023849613907 0.10959556002562161 0.3026801588093748 -0.26328845916323806 0.06831410039720738 ]
[ -0.12000019488323035 0.1634622458433523 -0.20275371118461974 0.15231869177814966 0.3660917185892181 0.048690528156258156 -0.3965667549075956 -0.27555311096798246 0.5991496989848203 -0.24352370454486114 0.36057575883506804 0.4582905419175318 -0.028842243837019117 -0.5173426467504687 -0.3076815596632894 0.38243006370050825 -0.2070672929185688 -0.15753808957497814 0.0369177335723682 -0.06501264634582804 ]
[ 0.1761139264363051 -0.6519823676092806 -0.1096623717132781 -0.5292663001025859 -0.16501155810559023 -0.5700703445311768 0.03211681696580124 0.5055861799867809 0.11599856635308506 0.251819734289932 0.30289494351753943 0.009343768054110895 0.30367043855817055 -0.37769268701857356 -0.08693031612670464 -0.4876237373453896 -0.22458508859499285 -0.04950570126249871 0.0965230589306155 -0.565759291365232 ]
[ -0.002368259047719805 0.4737968021314373 0.3452306412301692 0.09204091397397646 0.13494500646844107 -0.06788111971716825 -0.06985716975082985 -0.22013217864902496 -0.057300849429032324 0.07397964210943081 -0.5182853261084697 0.008442184494432275 -0.05732759669700641 0.0749830329983027 -0.11069425960688395 -0.6763108880920198 0.2126973028851773 -0.5618004150453161 0.30886826061201217 -0.7856971650757989 ]
[ -0.5867569011160849 0.1577962792483827 0.3391890165614482 -0.26068690149978774 -0.9587757323309336 0.39223844789606094 -0.39619628470880175 -0.3711945732760971 0.09873145901589267 -0.6668832253544842 -0.39172512937987936 0.05923797944447385 0.49887562875008656 -0.050542918542838086 0.3506568221836054 0.17875151170506492 0.6860392200325804 0.49857445796332245 -0.0483364679307462 -0.08333432748267561 ]
[ -0.35229124413998963 0.4966895406213642 0.1636350677138036 -1.663811651050174 -0.21125637802089148 0.3405398784805691 -0.49504543984760807 -0.7452372981648713 0.7748506859250245 1.0425049578179406 0.09365629532259392 0.6249139022934652 -0.7306981374836421 0.09418228432268759 -0.36282632108196394 -0.3389410797389561 -0.11145453366869483 0.15233209414940374 -0.38586677128294733 0.40246974356237586 ]
[ 0.5379086054676366 -0.4514956803717269 0.3659274464604237 -0.2539562195912274 0.20385572525911136 -0.3299312587777762 -0.2645463559552904 -0.08064887049155872 0.25556770602520645 -0.0964728341286004 -0.05974982868769437 0.06874597324850047 0.6601210459093221 0.06870525104705794 0.10288828089809274 -0.07829917863410417 -0.33133032722928213 0.3855075781071116 0.551969323446236 -0.2835030697951153 ]
[ 0.3015642475894689 -0.8629237643024414 0.12162579044640992 0.2037568330935122 -0.03875432585871405 -0.23291627904574214 0.3311641480981232 0.4884973045943 -0.19708227023034916 -0.06115979244573638 0.2144721923989455 0.6644476694811507 0.16463200090007238 0.2007829378393032 0.5702467865839598 0.3125526920896382 0.15909902497495876 0.15587481392043967 -0.1359286601940562 0.797465470377432 ]
[ 0.5622869581308744 0.10422674277515916 0.1033067494124145 0.3689050539018841 0.36672736062930444 -0.05885294914147158 0.279401462644114 0.49030035007617173 0.2940782726859364 0.25446551531969885 0.006430346357810099 -0.15528496303550232 -0.8179767446208226 -0.4309507733417256 0.4815183128294352 -0.4221705024432355 -0.35164900798295956 -0.47081853612269076 0.15494788892971698 0.2502242928827878 ]
[ -0.26416291347568194 0.6102657953177494 -0.5674683838535792 -0.5098907651965856 -0.08033536384889187 0.05682513960531316 -0.5135985975586612 -0.44817000616554176 0.3396951870691507 1.0549502078381903 0.8305601296119753 0.9234436405804273 -1.0708295056817934 0.47627298855988087 -0.19444235961736467 -0.24629811072656974 -0.4606340265325574 -0.4483817361271681 -0.8849612809111328 0.4357780355716028 ]
[ -0.4094229080264234 0.03998437626182434 -0.7388557674958766 -0.49092986737620586 -0.17680344180117502 0.5653073890720605 -0.35873504293776876 0.10322233271841329 0.7176562924837592 0.49879946002590797 -0.20435235389738976 0.16985518473991157 -0.7320137395811543 0.5698317790143327 -0.1577146677039676 0.02800057390703546 -0.374628783036025 -0.21317358452994142 0.2906931924509599 0.43216619268572415 ]
[ 0.3175208465675508 0.3288013545442848 -0.4104778800057318 -0.5222422762292451 0.18813825336388681 -0.15903591108763587 -0.0075962004998143045 0.20928079244379008 0.22592276870088784 -0.0393860971461451 0.17775213381715882 -0.6399834201113902 0.006639353369724929 -0.03406442077675977 0.0182848729146476 0.44907030371430207 -0.31894887669937116 0.13755735856140922 0.10497150686306686 -0.13601591480023315 ]
[ -0.24126568951543853 -0.08406889546009187 -0.35132959259506724 0.4576206815296374 0.19087436117011394 -0.03050054838530717 0.207988702047194 -0.10525921280529137 -0.29544450336708106 0.21232794585338652 -0.06365884826755752 0.45451803231400395 0.450029635021677 -0.13503400475570176 -0.5478034772325977 -0.289114199767548 0.22417808578304718 -0.010724396084138794 0.3409728902536874 -0.1441327583746321 ]
[ 0.2706567644403369 0.20635785022688793 -0.2307782823704119 0.4656381809815711 -0.1342823476279538 -0.8080123415233558 0.2820326887575442 0.35701362382863544 0.1280668494190946 -0.8568439645386281 -0.17587410904802556 -0.3042320548636062 0.1435561463292273 -0.04982492199867153 -0.07349095877754129 0.28478574785634664 0.22052522764987897 0.39567260386055497 0.24576465018891297 -0.2483695735956412 ]
[ -0.026234807142434438 0.10058258815457505 0.2109629719324619 0.16373683933116193 -0.07447499231055699 0.0024547034960487497 0.061706779714319725 -0.12189891491509738 -0.21753078758370034 0.002921158023275724 -0.08829846502559965 -0.06206428154134261 0.0003612817872096708 0.024294023866242367 0.11336946116993099 0.052536106879592585 0.11079376401740348 0.03712522511698814 -0.045017134675271804 0.06259934631410363 ]
layer 1 Activation
tanh
layer 2 Dense
20 40
[ -0.06003650311529923 0.27291607401569584 0.31627946301411153 0.38874442853825697 0.4786689202828719 -0.051265922722218034 -0.03339122159270391 0.12153696338029724 0.19106339383034016 -0.33077827150563865 0.3484522648564979 -0.2292042429026316 0.18028194329085634 0.16141312546782363 -0.21424074995197695 0.12187810909450024 -0.4074510742008473 0.11006878622626722 -0.08341746160796962 -0.21519813502011922 0.1425102388547356 -0.28575176874376634 0.23127210069708146 -0.18570972334713023 -0.006746158836182414 -0.4093411168056983 0.1861324995357388 -0.3540752008272003 -0.15175490767784633 -0.046752842406847586 -0.03207484148958995 0.1467914615740981 -0.12431428273773298 0.21300483807275403 0.4185799491184481 0.30313286901000414 0.37949381975949414 -0.006857762286244694 0.12288920688254597 0.11877679428026815 ]
[ 0.1289532931702357 -0.31536416104149567 -0.34748236613563416 -0.33474367292523094 -0.2840043363417933 0.2670183130707159 0.11029190942009137 -0.10700390154057436 0.11605172644101018 0.19717131550511136 -0.15761219601612275 0.18559452656592637 0.4816540886622448 -0.2281995477132695 0.17928853378975607 0.15420407192992 -0.18731840804766323 -0.02187243879646686 -0.016929359427519917 0.10988010828405474 -0.1835062191082955 0.8635040211256961 -0.07628692845788015 0.2701923081892634 -0.3577043906803975 -0.24525903499259102 0.27964752796502607 -0.45369973130502456 0.06025158896055913 0.10395021060528348 -0.10093569229434252 0.06402698168232471 -0.4703734270484383 -0.3892347412377704 0.2334408496663925 -0.044354405832181525 0.19917449638704923 0.3514001518176963 0.013810214276821761 -0.5958709135860112 ]
[ 0.16951891686558834 0.5510862476128896 0.17709258786731097 -0.3174589311575505 0.038146243156097576 -0.06766008378965428 0.4354957479851829 -0.02579022675530736 -0.603272073557867 0.026904018004054328 -0.3950264245951569 0.06371731869722094 0.24536584612581505 -0.4603387205383473 0.28515640289120187 -0.3409378924598903 0.0017077411717191205 0.2523702444323839 0.13261779032181628 0.2924176842246328 -0.3149690642977547 -0.15387191974694361 -0.254430450769863 -0.03472239764010251 -0.2521780217671528 0.009359604547519915 0.2565595098735771 -0.1812601570617259 -0.031891836194302525 -0.009165394393106834 -0.17852889471729244 0.014602899186675306 -0.19896055191349857 0.42254417464127925 0.08127993550723506 0.14849198916389011 -0.3300070137053093 -0.3849647365695034 -0.12716802701222837 -0.17188308564713592 ]
[ -0.2522481705801562 0.07001738360638504 -0.25269267111580024 -0.18588726504504247 0.5570130277978874 -0.12839784043218772 0.3403513253500692 0.19945574281576675 0.557368348451083 -0.09957572704923627 -0.10697328813783967 0.04492113586786252 0.14688635326300858 -0.29698780449359496 0.07175613706991316 -0.2397545336258694 0.3276244192389197 0.30120405383922666 0.17858522412796735 0.2258957291362462 -0.07930486567118442 -0.23310880317627872 -0.18196205707448207 -0.3586595778105225 -0.5188624752978067 -0.4574060411383383 0.045560635604750634 0.09390507556100437 0.3176853757552117 0.06829398735549964 0.3172464168010827 0.13299602183195788 0.29884348082884404 0.08515145447957286 -0.08965814338017904 0.21089180185153816 0.009862074772772468 0.2622674476280054 -0.35832956142918526 -0.21744398816305166 ]
[ 0.36961317403064076 -0.2667625186430269 0.17469084708680008 0.09975470319831957 -0.07881983768761186 0.22107660390962253 0.0058890531102247755 0.2930668608450324 0.38414181487350324 -0.06871068662706539 0.3667670317914872 0.0033467585703247293 -0.2521341142432739 0.038289451088074106 0.18448539977018136 -0.1738740291454585 -0.36948330019756653 0.3075729717483115 0.17005987944228335 0.007972066178217028 -0.03667893925470214 -0.28199727030495864 0.1944921212186362 -0.27779447607688307 -0.20843672199052418 -0.14430069035712675 0.07752254043613138 0.24307216603223616 -0.07580174421078285 -0.33876111232099076 -0.06511716582090113 0.035222460598625244 -0.2611161530118194 0.1439791856000771 0.09480593887378014 0.010262228146566101 0.181183923273105 0.6028598370199499 -0.029031493739655773 0.28580115048452853 ]
[ 0.02617502438716181 0.09301724813138067 -0.41947480850902535 -0.43554837390316786 -0.3641805586759656 0.4478137548938324 -0.2662304541899923 -0.2702239696929992 -0.6812890172059202 0.1987879150528709 -0.3781068734783737 0.16182543601837945 -0.35603597110547464 0.19542311427439274 -0.08726997285989085 -0.06523812873838448 -0.04029980894642349 0.18663491091316098 0.20853326193515137 -0.09549576970821472 0.3077157711783185 0.4071316007461718 -0.10294007281114026 0.15427134370265796 0.11774271996800681 0.6163749155161831 -0.04096016314970406 -0.06232146699721562 -0.2627967438368635 -0.03458113917378659 -0.6507594770502602 0.10076987394457566 -0.10164844667000794 0.1189232047323239 -0.5224275980410346 -0.31331360254281065 -0.03542177723306709 0.041396137592299834 -0.14549900368369362 -0.1400687301604422 ]
[ 0.16539317888528393 0.02875042268976879 -0.03744069243157364 0.526287007522384 -0.0003879719209109925 0.06932258064028006 0.19608653915038324 0.037632413802768244 0.41615730764628045 0.10017130130635042 0.22477113996159995 -0.3429228310481081 0.20743110077067672 -0.10765759050777408 0.10660695736668571 -0.07901233742099559 -0.10992329720311433 0.10151320311948575 -0.1737406306655126 0.08633616259509433 -0.010675169561640283 -0.21221788995108304 0.11816234358121201 0.03792876951358786 -0.07356783254081811 0.047136773037625215 -0.2572692153287746 -0.11482152450059159 0.22369418545625458 -0.19122548037509526 0.1787497514306604 0.1670135664130202 -0.09497879730153376 -0.18297473397136987 0.05399768450651677 0.2970885675889327 -0.0515206546897264 0.31712815160424807 -0.3567119360584886 0.15857214881584075 ]
[ 0.1169793502037401 0.4331429821143007 -0.19671520457280164 -0.09427896488526745 0.17793848835666437 -0.25644428313252365 -0.064676136315598 0.34136413198857446 0.05639772164456893 0.03328496359538477 0.33793853396846746 -0.07854632958944405 -0.03581340604995368 0.24020433161220506 0.21722110931217634 -0.004292010969454464 -0.36828831759659686 -0.34409811840612015 -0.23483230088401683 0.10500843599206774 0.14382410026864467 -0.33105375186182 0.38366822996865524 0.078931709627458 0.3491808576820958 -0.09059746077253128 0.019435771549658015 -0.027044661489023274 -0.08590456283777106 0.0841203253372476 -0.3830208615772048 -0.020178433889930056 0.17669014623391274 0.2544480429044026 0.14985851470540623 -0.19466079286859667 0.12814124579087982 0.2750485671718825 -0.23618903648943868 0.16535273299916486 ]
[ -0.13409906259069687 -0.04625415861823098 -0.22520162594781873 -0.42049728337609166 0.0037475929074996025 0.002606738637770252 -0.2901523805635789 -0.20075517601603737 0.05355899231867595 -0.15343179444383193 -0.15134418432320512 0.12904607687487732 -0.42868845976960007 -0.2295474651236847 -0.2833325171923129 0.4957665304388637 0.47952012624758583 -0.0327526355775765 0.20175495497662232 -0.14018924726409213 -0.1470433772959294 0.24917310966122272 -0.0013352533810281819 0.02453108027667865 0.05493022440698245 -0.2456885990110147 0.37078540208904526 -0.10452814889851239 0.18521535345987722 -0.13318405062001704 -0.15779404449489576 -0.06175765025410842 -0.273749753822061 -0.1678335468263637 0.15622375592314616 -0.3354653398722828 0.07440255725004151 -0.2927221309025084 -0.009584012559231426 0.02397295171401007 ]
[ 0.21643540424090513 -0.39935478764734883 0.027194415671160887 -0.09163986154188843 -0.276043814469555 0.09305321057847535 0.10314163459064446 -0.1566586624884154 -0.20897583457563942 -0.3468144172419989 -0.03755296968040069 0.16358463554964137 -0.17163090159647942 0.05697203833138634 -0.1639304635810174 0.010810104318437349 0.34412774544945335 -0.010594697781229349 -0.2812817643157338 -0.1337770808342074 0.23259677243169583 -0.07387200123047823 -0.35144614590906426 0.16045785417352204 0.026494939460907623 0.18072192315096922 0.006062246421230074 -0.15015322768419492 -0.0932866063109652 -0.3139203041558572 -0.46235301310195975 -0.26404456250869485 -0.3295903012605473 -0.22749257077011856 0.036827044819764176 -0.06768836678675492 0.20158912745038743 0.19430395617177645 0.13819294257381157 -0.1979953079705442 ]
[ -0.36536770387700307 -0.27207196364072445 -0.1496757904977345 0.06909336280207778 -0.16936202278280912 -0.5613562563583453 0.06071403069468445 0.1899323563212747 0.5050942140881745 -0.07530811471558266 0.22015944391240658 0.058295487202639835 -0.17412128695472134 -0.09563469962071125 -0.251468031234103 0.24962713261504843 -0.1807292413875167 -0.02864666272443611 -0.10405552382979588 0.0842620958895773 0.09291906431305857 -0.48888081516021203 -0.29257294692415714 0.18206072000359314 0.0859357761974485 -0.09133721839109632 -0.28721229194336695 0.08100211513509604 -0.4495090173835716 -0.44614947845494435 0.3419025343937908 -0.1474491473707453 -0.319931140615677 0.04307094606424218 -0.12582707149722427 0.15665777632679076 0.07147819431132665 -0.18107872118317994 0.08261485205124983 -0.13732565716105938 ]
[ 0.2050008090798359 -0.28241904785771976 -0.23069569442365578 0.13261525072955047 -0.6437278201261751 -0.09454737279389425 0.1725018790150224 -0.3254708521231417 -0.043599192668511734 -0.22278533831833636 0.10711318132199546 0.25866715065034784 0.05718302182382023 0.18767074672034978 0.15579233190584238 0.4254511932896603 0.30974560576710397 0.05984253543140867 -0.19476046909630682 -0.035479010500862364 0.429754612305234 0.3082569713385843 0.028683141162778224 -0.03319267523363506 -0.13084589151462753 -0.31988424255410675 -0.1327883579336427 -0.0820037800702358 -0.28299914222030703 -0.09435950413095266 0.04989743836361212 0.20696312004460035 -0.26919664444496044 0.14743211242607224 -0.2853737959842652 0.16136323522931914 -0.04883149865700469 -0.21006332547126577 -0.20891607749487653 -0.17483945577327592 ]
[ 0.3642038205611474 0.3124388506766194 0.22288030269057 0.14359705310807527 0.0679021721622889 0.15786450213200667 -0.007467126716516478 0.029183098292146062 0.35971924304647745 0.12195758449871315 -0.09861117743989194 -0.2196923421476473 0.18048052256073138 0.07234745762429343 0.08332874746954443 0.022117126754684982 -0.4284752157994423 0.07053938798746762 0.34270179285691305 0.03731527702113289 0.0938617451817065 0.4202227449179187 -0.26892719313183305 -0.06427047306746428 -0.709344430507798 0.42961601922265685 -0.4395279636131517 -0.1811726672533027 0.2783847565830111 0.3184896374229982 0.6330124623114398 0.33053766376087873 0.1154180568226343 0.14942026431339295 -0.33292458851347323 -0.3477529468249584 -0.4294366366138564 -0.500506876220968 0.22849233317363749 -0.04096983856644068 ]
[ -0.21890282173764058 -0.20503433444622007 -0.03860430138237218 -0.15916732685929053 -0.09671856408022782 0.30723603606609423 0.2118911661488405 0.1881274087770299 0.1423618006147259 -0.2925617205474159 -0.1306031571682349 0.21675477595734266 -0.021791223398796647 0.17489878172169732 -0.09695693552046539 -0.43859455037520156 -0.3538416860492262 0.17248855628976828 0.02965844987835798 -0.06908692882738197 -0.14154432239153103 0.3483551535623164 0.19632257097556557 -0.17413159835680087 0.3325090539700324 0.41437495646175343 -0.48931588056578573 -0.0006436180948305846 -0.0025357371258815965 0.23224156078202968 -0.39461828786900754 0.3272572060672178 0.09925638746834772 -0.17375647721051563 -0.41642235172323244 0.31572677765301027 0.0922117576873366 0.218250253495322 0.12004930801287574 0.06464589029425537 ]
[ 0.21333813042151614 0.3733562850977244 0.27727462688017257 0.22064719329317428 0.017816723632946948 0.03258969305014363 -0.04112778824495468 0.005012459703161264 -0.04379776095422378 0.017227876107359076 0.24178681624266524 -0.0976272367690679 -0.22905177227076687 0.2582853454330372 0.2822941755484536 -0.2850958559735984 -0.31755973516428887 0.03284091168503794 -0.059841126411523074 0.4135525973212158 0.18901516800691254 -0.33085843945751325 0.053043173031363446 -0.212892893695233 -0.1067942186689191 0.21017112889002051 0.05708852951681911 -0.2308522611033072 0.11171186101826949 -0.13319383399720272 -0.2886103432079198 0.11936533061139776 0.032720763885071 -0.012061359277569001 -0.15590777633779918 -0.08107387765749095 0.19615364345040345 0.12250226430610993 0.11694908193121879 -0.19657913845203878 ]
[ -0.11956191675674602 0.07458380988407767 -0.20279953612848314 0.3761985077123743 -0.5153320567403542 -0.05798245216468969 -0.2949080701806896 0.07095118340212482 0.44822020879797575 0.08001606361653557 0.005704590323575522 -0.15514529786025008 0.16454787724626277 0.015844794643976874 -0.07756254637810096 -0.12265949356505339 -0.38090045897763986 -0.37297941488267383 -0.3172690955799992 -0.3632909403515978 0.5551577580568767 0.5261105089958069 -0.25804380617659634 -0.13012486288101943 -0.0041897397963281645 -0.20821233262321298 -0.32301047446575487 0.0751493788941195 -0.2033698248794989 -0.03111508240463625 0.4042894225955999 0.022836312641195882 -0.01689483030434507 -0.15672247837281003 -0.40568964347644126 -0.18810543604490018 0.2202769968144827 -0.4158706326198236 -0.03675899111553134 -0.17484459775072303 ]
[ -0.46933192224316106 0.26380436015721587 0.061586088294807474 -0.07655253299538296 0.25526662410065887 0.11235555323314435 0.2864717060719849 0.1975779246254416 -0.07739811541763254 -0.1488997286696638 -0.5590813130723841 0.24978614534920995 0.10211850863167012 0.23783839333455709 -9.427892871887342e-05 -0.0737921353903507 0.26303542818693465 -0.07786833531172149 0.1446204502116716 0.2181436521978437 0.23308225066667979 0.3869940163708247 0.24548865394185548 -0.3977009590820168 0.002636721240843099 0.22053594623335573 -0.4546673336468177 0.15216009680646692 -0.19469917580534413 0.21504687714923026 0.3569216719947436 0.25669832988048596 -0.2273678711005303 -0.35426372819193835 -0.2570817793952946 -0.03172043137721586 -0.33516123037865136 0.0749293017832354 -0.05918047771061842 -0.18818618021444913 ]
[ -0.06837120504523317 0.053463899751115616 0.1561737039011874 0.11381853804691125 -0.2581962144947649 -0.1480339384483453 -0.3182199274809198 -0.17617697119548278 0.1079483366626679 -0.1503123050570109 0.36395021049027576 0.05189586271671215 -0.16467243314846974 -0.11687768897640168 0.21717478348254804 -0.16230113216382114 -0.3856927618097922 -0.39555603845033194 -0.3080264001661044 0.14967378040372134 0.18926633900300513 0.4120656711637722 -0.11291730030135144 0.007828965665061959 0.17777634824430794 0.2313516865349329 -0.3274410304711927 -0.29850313554677504 0.17743122367152137 0.23225446639469133 0.3162354728920451 -0.050679980350074406 0.2555906413044515 0.3760348081008199 -0.3306875917202133 -0.005541476718163228 -0.0074941563152146826 -0.4751062352412236 0.3859204306853172 0.09755416035064066 ]
[ 0.2570246986370817 0.4544106894892239 0.10548802373666713 0.32146048734508403 0.30753347864965225 0.11539572189709855 0.2616326882101789 -0.23186808734089195 0.04116855597468681 0.19899008011222535 -0.2936468050719568 0.052337625262717485 0.1700360974491694 0.09430272503635155 -0.18344502380212438 -0.07401339471593399 -0.3858695178551325 -0.061676401775021976 -0.02735920014614194 0.3300092025370854 -0.08958050373318067 0.11632402386766344 0.1522310309015547 -0.025621797053106077 0.029919783917517206 -0.23144043212151327 0.5376547466425927 -0.28771504634622835 -0.11944705010004442 0.017939990053549883 -0.3566958341923541 -0.13303676000492298 0.187765455044835 0.3657988679439029 0.22534851351264057 0.002451539318460863 0.031822108894707046 0.034433592014847025 0.3127761921757312 -0.26120485401958354 ]
[ -0.5234230520396779 -0.2736080258219929 -0.312407815171738 0.3219474895275516 -0.23906985458572022 0.3515605784935829 -0.4508946705176316 -0.38242097817432696 0.19754721882991516 -0.5848836626499211 0.25469695162985995 -0.2161102821896661 -0.5907171025155725 0.448875417973295 -0.2320761723637885 0.15519022388567086 0.014293214288550144 -0.18725837655002148 -0.2235553703290286 -0.24948385999675557 0.336210916465089 -0.38648701735454144 -0.21182242909439025 -0.22179165046334853 0.9307054423228965 -0.16291471690783543 -0.8037117284993586 0.440633593318757 0.06857079789092378 -0.1436684039798422 -0.3550566105141721 0.05274798697245014 -0.09177883623592328 0.25553257473121527 -0.36438640480334783 0.44058736338856164 -0.32111477625671214 0.1851698979925394 -0.38617251035183797 0.15154600402687873 ]
[ -0.019569519023475493 0.05844311721657495 0.013900208344374117 0.1175110402059213 0.24040859517764412 0.12964591659733263 -0.005444827383479719 -0.029776011165246797 0.10125120244935228 0.10084642259703187 -0.15030402227769113 -0.058880920788823406 0.08928320502940995 0.1050812538838386 0.0954016162807523 -0.3467291139472605 -0.10772865112218735 0.10600825683081358 -0.038768869202182 0.11046496218135383 0.01650956869481013 0.0494225341534871 0.050712460633904416 -0.14630095832883366 0.06077293599284863 0.11123222630697142 -0.2065958575181447 0.03198631093299228 0.044120968855925057 0.06865805602023661 -0.10234201483897978 0.09725070235522115 0.17314605330035257 0.06372058649123455 -0.0921941604898367 0.012959568826751488 -0.01051253768728393 0.10160935232320872 -0.1323500549962088 0.0972008160197967 ]
layer 3 Activation
tanh
layer 4 Dense
40 20
[ 0.12474998451664795 -0.40439667598661094 0.02570503386664988 -0.25707592383818945 0.15508466073096577 -0.07548390823478021 -0.2828735690599402 0.0022180215220239307 -0.03717718176214801 -0.34763208535381723 -0.09336033569106271 -0.011370756924757799 -0.07299290755446064 0.08679066294045827 0.15165409867450433 0.08672528700316194 0.014562437387091308 0.3234001878064654 -0.027736528571791815 -0.3154586666953224 ]
[ -0.18019453581402375 -0.30793435459588653 -0.20462714180338187 -0.14283008406750614 0.6032071933225363 -0.00919548639355408 -0.13824153079606502 0.17171962909772767 -0.02794600799618832 -0.1768242276606693 0.11295589874251676 0.016235587828876425 -0.12005840350108524 -0.5706428858749659 -0.09684246683437643 0.12327923999942447 -0.3215513894068324 -0.33063847186261097 -0.1806676189629673 0.3971177596854378 ]
[ 0.08837888548615103 0.04080597482364828 0.07577415483935653 0.12534387549260034 0.20977312117011074 0.16742513277978446 -0.02836493658518697 -0.5094174322831934 0.23774618592659544 0.0954567678993691 0.09380841181932435 -0.24871767755464333 0.10609673953167743 -0.10358214260866817 -0.10812246422425684 0.13532893753129524 0.35020955172334634 -0.13336102539659617 0.12327527505650049 0.014470471381978123 ]
[ 0.05124734957258241 -0.05055939511085298 0.12395997376528556 -0.03722028554639321 0.1845148852225247 -0.31458811713897494 -0.11042592986997522 -0.18364965640877362 0.04980615118654353 -0.06659131172223572 -0.12580491016077172 -0.32306657921518894 0.21419364329560225 -0.003196659495971035 -0.31251372533601096 -0.2856976393489755 -0.15692032615729676 0.038112520510142515 -0.29415122944197014 -0.13089994954113476 ]
[ 0.06355195472627345 0.24226734820742085 0.0359767746165221 -0.1570399436756571 0.20786366439950035 0.2860365086583739 -0.07306160057543921 -0.07596232278577714 0.14123377747080743 -0.16658602881231646 0.06519350734105664 -0.12442434455705588 0.25748505723961873 -0.46248653920114646 0.30973451968296856 -0.3169433815986585 -0.16147745223326276 0.44605239290323584 0.13239068362311673 0.06694734339148554 ]
[ -0.17721285916271443 -0.09553684173197333 -0.13999648699268383 0.07724087922187553 0.2104897746379653 -0.24801246886794637 0.398574599809827 0.24894591965036905 -0.16338030011463775 -0.10671384338671817 0.025922275257519698 0.3508835994408678 -0.26440230543044535 -0.16219150921678321 0.35244596026089814 -0.20696556313270506 -0.0018162933002553346 -0.19087326925522238 0.19940537245888004 -0.1627960999479798 ]
[ -0.2616783703994472 0.1507426552767323 0.25635694009953314 -0.21635773536270314 0.13101410047142792 0.1790819532168564 -0.04266891059765646 0.3874035060772334 0.05980763783829505 0.23864097242150156 0.2722967026652332 0.15180897705386945 0.26791162871075364 -0.2469253290523223 0.22861303168222177 -0.01396836550089992 -0.1112079541970735 -0.035340809293256885 -0.008914359265548477 0.0478587571472221 ]
[ 0.33217021122426416 0.33170708017230527 0.18953154868051955 -0.2331520941617757 0.028734290306662455 0.17473946894900008 -0.07645171087403976 -0.01747116997110547 -0.2618730793783795 -0.28100560881421466 0.08538454585446505 -0.33070156268899065 -0.2964954634184576 -0.014797897990813203 0.034149983467725506 -0.1379501299782608 0.018128212651226334 0.11713687728486702 -0.13686229853478288 -0.19302451009345176 ]
[ 0.22548836890373095 0.4122157249114708 -0.2042843342687426 -0.06476378456198466 0.34803314767934457 0.07922591013846567 -0.13115776448799504 -0.09493100025418458 0.09934916090474444 -0.23774298698909152 -0.106570610512536 -0.09359407393912188 -0.12362879163045594 0.11635630226680492 -0.136806688166003 -0.20559935758842413 0.08675292341534925 -0.1966855229557165 -0.0770305878710638 -0.27993985529316845 ]
[ -0.16164237885260954 0.184373058068191 -0.12771544108116542 0.012759084002289128 0.30704880807129087 0.09297918015723834 -0.07188481335357913 -0.032875181641242084 -0.09321481257251962 0.12412411938274337 -0.18964393204900912 0.13321154133062085 0.11493804451980992 0.2187340384953204 0.13592014246703224 0.34785671791583744 -0.22510442368015027 0.21438048895825593 0.260308253841498 -0.14178796702758112 ]
[ 0.04258218566521797 -0.080923509120567 0.056979702104293074 -0.14564194288170973 -0.18016228586341382 -0.004568916146127436 -0.31141524664072695 -0.3098456069205783 -0.09791990213225393 -0.28398940992844157 0.17358271992062382 -0.307055909805549 -0.10820932376456185 0.25975695545831134 -0.35114478516956726 -0.15549538018316353 0.1797740407488809 0.2873202226379269 -0.15572217364681087 -0.19561786031673425 ]
[ -0.08348817828631655 -0.11532127707781063 -0.25317150361922763 0.24732481749799873 -0.1625171999322911 0.17420206944889577 0.02212990219489879 0.30142547263564734 0.4056014331674188 -0.046638284665587504 -0.07609439962184741 0.12637465859454228 0.05193320006427361 -0.05042177674025947 0.2434929809244396 0.16775582628969715 0.16191887125846316 -0.17878021969989233 0.24389327316598097 -0.16685887796290477 ]
[ 0.30915051658263215 0.24454274460091188 0.08909444487629319 -0.007707357001950201 0.11733822489257187 0.23820577164776188 -0.1466586921537762 -0.19649427823991614 0.04116671133116415 -0.06881603510906739 -0.1555518661590938 0.20522431230633428 -0.20241099633892826 -0.05698888035650655 -0.13931376221636976 0.0626282523906325 0.12202833282815542 -0.028179922888646278 -0.124558446892699 -0.3478690949669594 ]
[ 0.16395776247578014 -0.1554738823953624 -0.17415982681086478 0.15086591536835897 0.1311459452596584 -0.276161911627768 0.3047972644465758 0.19339997246445867 0.14529927516696442 0.21981051937356286 0.16167009614980685 0.30177661801537925 -0.07515105749608637 0.1540861836116833 -0.15893657308050227 -0.1820565509740363 -0.10485864368433527 0.10652941559015022 0.1644701305726019 0.08216799142613687 ]
[ -0.20335462282951053 0.367083244219951 0.07519769162558722 0.061066907325212284 0.19482717055168117 0.12830121429382524 0.039356779496339596 0.12399621529699198 0.0626503085756132 -0.1738360488211967 0.1353552945814606 0.03846866864638952 -0.01624038622719139 -0.21956442685310984 -0.07690660139266461 -0.030241763579528576 0.16446238587336254 -0.4471314025200385 -0.058582873536639615 -0.10388666873972802 ]
[ 0.005910321160162964 -0.34037098636465346 -0.26972914685427385 0.023573304116383312 -0.5085811914377293 0.27698145880356706 -0.24107459349678295 -0.31408836388853023 -0.17085596748279783 0.09736737797647771 0.21788539265998647 -0.19190646630135774 -0.02581346045252574 0.4044029874725758 -0.23259130938381808 0.03169367617621149 -0.18593842569344202 0.419006244734587 0.02505753708808127 0.05602284846490111 ]
[ -0.09169885304602578 -0.18758160973357213 0.24769423936007254 0.10641951398117157 -0.46341036006799063 0.20949238733736006 0.04022738666081248 0.2374502090176079 0.2647658472758409 0.3645809509912475 -0.2700117951170676 0.023574269400907524 -0.24937681858441868 -0.05026448941230365 0.20083599647273373 -0.10731625797974917 0.1396158440302359 0.1524617545761646 -0.19740864114275214 -0.41873116534077676 ]
[ 0.3702008259962141 0.2605292414854094 0.0408932377037002 0.0748990298131508 -0.11009492575767586 0.0657012306574706 0.08565035995388508 0.4069172673755931 -0.0751855674623825 -0.07882263272565458 0.10417861809726055 0.21779441162269647 0.18531718877448278 -0.5803965669541991 0.3051427151615435 -0.16909907354325046 -0.024524133095177307 0.3789447905274162 0.18386166780098429 -0.11523683220173721 ]
[ -0.46001882400208494 0.04342175669116471 -0.06922276796339251 0.3141827604526382 -0.23519129170598696 0.3860903743655715 0.23632248035776277 0.0767967257229735 -0.1431102949378244 -0.003842588554186275 0.014247573832505033 0.11604751501368107 -0.18672847209769178 -0.2872285284758213 0.025266542704778686 0.14700472901991152 0.12480300334060315 0.04256537354922528 -0.014428690924665461 0.17471715894689271 ]
[ 0.006681195627712508 0.2796578485670355 -0.03073923411436438 0.3054317227512507 0.17986470203060417 0.03887303857329823 0.23232554396105007 0.07544281821394812 -0.05478397404748828 0.21506740441354774 0.01783620737457065 -0.16873903164389312 -0.025039397715747893 -0.17819129235553074 0.23302442024943268 0.04064481092457674 0.12735413838956328 -0.1957391196261431 -0.02498393454248359 -0.027024471326084838 ]
[ -0.3017631286850206 0.054498334252260514 0.00808578361408162 0.09053493720117682 -0.031023121813001833 -0.36617344427806653 0.12548098609595779 -0.043838630336245056 0.19919241753844733 0.25009148087999605 0.1911931796279887 -0.24462354821415994 -0.057656457906959994 0.16569735552306605 -0.286534541111093 0.03202472738190444 -0.16309038620262223 -0.43868740661648625 -0.3142276495199143 0.04679490557244533 ]
[ -0.2432797380221236 0.15432571909236234 -0.07994763477920201 -0.16392110064784665 0.10137128968806859 -0.08590948836217425 -0.41162475689409284 -0.10923256355396219 -0.09327421009099171 -0.17259026478727194 0.18992362134609678 0.3900056705978507 0.17528102707621884 0.5506450532037933 0.10595148208464818 0.26138747243440474 0.13544831414373318 -0.5726347454192825 -0.353225230039145 -0.027600343099292796 ]
[ 0.3089359876278378 -0.27674196079969865 -0.10781743858225412 0.20417199140508116 0.25134260916891327 -0.06568615818572184 -0.1386641444432664 -0.04788151618187298 0.41664307429829944 -0.22836303131253044 -0.10821577725860741 0.03369585548054125 0.11008631533891675 0.0021073917716216586 0.1285981711967613 -0.19189535201627594 0.036773446550948156 0.27759202308305475 0.17432769810261417 -0.27727488074302037 ]
[ -0.07287229228860179 -0.24962361631906096 0.2251575122545968 -0.34869458202348164 -0.15790552957351275 -0.06626656090046493 -0.16188776906618893 -0.21369667309513207 0.04629845213867463 -0.24447558001880004 -0.024169986246851308 0.13609665200963764 0.05452965363455943 0.18862786178735122 0.059445073966971004 0.16678612165250928 0.11168235351362882 0.3262235438329157 -0.026848804803593977 0.2917235476593553 ]
[ 0.037825870549483914 -0.3422789128499927 -0.08404117248785713 -0.047006256687278834 -0.15015108029334304 -0.3613283827665998 0.25723415609941797 0.21371970900945497 -0.060449669827921534 -0.03963671775511492 -0.16037422962568315 -0.00427645729962059 -0.1504063000932013 0.10940282948269049 -0.25552693023453 -0.3404593987506314 0.26286111780127247 -0.04497951402185878 0.2634316340052572 0.19610602821003076 ]
[ -0.19399675491498872 0.2909517342654824 0.03542496503969727 0.1073744314187247 -0.009612824797852366 -0.20439904145930848 -0.10104451619176073 -0.2792380552225941 -0.18641424475651974 -0.08635757669988205 -0.08729967961490169 0.20818085209552548 0.0930276945994096 0.028884609428121474 0.24722175743775615 -0.19243296932742102 -0.10268075353973512 -0.19982227749125517 -0.17386011777672655 0.28562003280942794 ]
[ 0.1649194944704966 -0.31634842370553606 -0.158448172606482 0.15983799696209197 -0.09360599817827578 0.22951490882897585 -0.2662004944101164 -0.22299147620819457 0.19015954435346547 0.07462314224009668 0.05171863030377525 -0.17675964659271143 -0.16601131555365167 0.10133611039659342 0.2698083268973138 0.28110187612625886 -0.19275102278287892 0.7387285527219482 0.18411012681188155 0.41576446086710644 ]
[ -0.09619935087426895 0.1331881485295095 -0.44499832490294344 -0.07985498263885796 -0.04798856801504681 -0.3007766676209506 0.47134348748954497 0.16274383597037806 -0.17306406834226656 0.016946784067693434 0.20491215229621354 -0.12052530605561168 0.25214774662499956 -0.15038273681419664 0.11659320035941988 -0.07536215534095418 -0.08140442165040604 -0.0660589535243323 -0.2695573318063665 0.22921843482086288 ]
[ -0.12167837534420213 0.061285422519178505 -0.03577589322989683 -0.1010841751250102 0.2169524763491176 -0.014458966598817513 -0.14770921685931168 0.27998678176649444 0.011270596808755131 0.18635566264284117 -0.0782208952160527 0.12690306696941528 0.3186154825809757 -0.004308867046170104 0.07175095762661053 0.018991161308093373 -0.16048364936125703 0.028971317084310097 -0.017153053674769988 -0.23259844138460792 ]
[ -0.08458347272750048 0.19917631877028838 0.12126665559240571 0.2892481983235806 0.22983798512270817 -0.24395148013273393 0.3386619451479929 -0.12162217594443515 0.08407186187381444 0.11118965581765193 0.049338965187817274 0.3242571355210429 -0.18687745698612482 0.1099153205522705 -0.029669757024822472 0.18010659002492185 -0.14836356198292028 -0.2120838308297796 0.08267271533850626 0.24369544457320724 ]
[ 0.21825983097659862 0.039713390512913345 -0.23656225859419522 0.05777106286518825 0.3608989861209646 0.08587984051406941 -0.24620169027250044 -0.148754775949222 0.08867159046583543 0.2729301322220387 0.26687385850146184 -0.2573028225978574 0.029741792158201913 -0.1910713149212716 -0.19173050013586748 0.3586638511214032 0.12518921823715035 0.1544082104712367 -0.029688221231810665 0.422005585382783 ]
[ 0.32746024680093594 0.34250697342037184 0.06622868785926758 -0.24107994102497854 0.05490349357709585 -0.1480521071952636 0.07157351603369011 0.41916796712242166 0.0009168733956478825 -0.05477257866925773 -0.21190537480236257 0.0757035731905681 -0.07957958447283685 -0.21455738189147522 -0.008731675215390958 0.027588528167483764 0.056094631880899595 -0.14070205696161905 0.25462398631140054 0.2256777081605524 ]
[ 0.02505181068880304 -0.027784076978634588 0.13127469599333502 -0.10522319910128933 0.3230087213402415 -0.13357787341595206 0.16189243765039527 -0.2864845977648022 0.4119148061680374 -0.08713912874478703 -0.06577340407904479 0.010994990031183411 0.20837594120127284 -0.19819326190861347 -0.046063883160443984 -0.10342725363485172 0.19510097833746642 -0.3465994642569628 -0.019067492877564894 0.0793219389542247 ]
[ 0.13946230991871272 -0.359435300701951 -0.003022350331076282 0.026566699048193764 0.13143210684590262 -0.21490290172928214 0.09973369248285921 -0.24405797741428373 -0.08797466301932923 -0.00886939335026144 -0.2286447532037969 -0.2571276108972126 -0.05004358320087056 -0.29560039589364223 -0.029731760998264706 0.0885476212908678 0.2958446857261646 -0.18406428733570482 0.19691496921665164 0.10132058817601097 ]
[ -0.1541266551536251 -0.04276839268976503 0.29241926482525155 0.20200954803442828 0.3498181856788793 0.37967914968858163 0.0035929177803816085 -0.2188142534713657 -0.12606444002244516 -0.04700875548336535 0.12921189739264674 -0.4159165685606972 -0.0609437921588331 -0.008378540550496992 0.23212124103004325 -0.06938774970776808 0.21592954056174637 0.7728051243250055 -0.058721369549420345 0.12987494409727346 ]
[ -0.11091402535738672 0.0734583133660045 -0.037980413357416976 0.09907587202537563 -0.04117691209676765 -0.003466113035687331 0.17054857081501948 -0.24111840564226542 0.05334379782208124 0.13297343239678497 0.18669707817617592 -0.30836009063500763 -0.06207396320147848 -0.08187211469549721 -0.060796679652328024 -0.1363488135985815 -0.1554208988235076 0.15034653048527255 0.1275037810243271 -0.35162819380180854 ]
[ 0.135199707887002 0.03221152138225504 0.23542595123432095 0.06937821447936014 0.12559649004261325 0.15762492582876422 -0.05039718908787879 -0.11722112718700321 -0.02959458930014451 -0.07860641133392025 0.2095306579348609 -0.20956123498168833 0.020404670831799913 0.328301519229176 0.0360175519114591 -0.12124793262337916 -0.011423337353092273 0.32058613052062557 0.08571226553441555 -0.20059032996636414 ]
[ -0.00041194640754853805 0.3815360618622617 -0.21549462255878613 -0.02838479948065119 0.2876830778508265 -0.44025909115370354 0.12503549927653065 0.21488108701564468 0.11092359964803411 0.20823776921090761 0.04036892686882176 0.4199662141206244 -0.11523857409185688 0.14488155617750162 0.48451833041460346 -0.39193785732173675 0.23463356980438255 -0.20425308270901227 0.006636036364533375 -0.14251747203349271 ]
[ -0.24180427449917577 -0.2654250459505791 -0.06503747779924159 -0.052780538456283124 -0.006889579339591382 0.09536919028707644 0.04766181866820176 -0.41501419237030285 0.08888188161121906 -0.022697989247432968 -0.2755884348808841 0.15879144190449787 0.05483664924246893 0.17520284050704218 -0.06351147195268876 0.14971673711862127 -0.04178425336648844 -0.1773114848954451 0.21889504827803363 -0.13781102178948773 ]
[ -0.258268477607244 -0.33895951758019355 0.2650671093520435 -0.25010912797577706 0.002031975314984967 -0.1737185314239912 -0.09091497952845831 -0.08676838657215963 -0.10254000386394742 -0.08284929617208667 0.031405717204085665 -0.22700507796778716 0.08090814012078845 -0.09590681448813142 0.07973122897495122 -0.10127929052614187 -0.09716600285403798 -0.03604255637848222 0.03361900287539895 -0.05419760013941579 ]
[ 0.05794097562637482 0.09538457728834453 0.008470836292491676 0.017603935340785724 0.14944451382514704 -0.08984695507448631 0.07198373736029132 0.015074029793419229 -0.04532800640324497 -0.06372717965239505 0.006535134161550897 0.07118535225033754 -0.05488556256805429 -0.11386229721745195 0.0738463691657703 -0.1037629654439385 0.05183835305204734 -0.12625584581926816 0.06163397112247058 -0.03148380781461565 ]
layer 5 Activation
tanh
layer 6 Dense
20 1
[ -0.002741224440447511 ]
[ 0.1275644174236286 ]
[ -0.024252053990517716 ]
[ 0.017152478295402448 ]
[ -0.19382549964780924 ]
[ -0.2104760838455723 ]
[ -0.06342560962189615 ]
[ -0.039356993335384935 ]
[ 0.001913717535186287 ]
[ 0.018086785412880432 ]
[ -0.029792716441917912 ]
[ 0.16634667184381272 ]
[ 0.005660663792104999 ]
[ 0.22340878127191857 ]
[ 0.24165242729701908 ]
[ -0.23602940371972153 ]
[ 0.003913456696292712 ]
[ -0.07329942566090147 ]
[ 0.008836129172259528 ]
[ -0.01945627492254938 ]
[ 0.026549948482738294 ]
