layers 7
layer 0 Dense
20 20
[ -0.7168718926687474 -0.22787128518139005 -0.7874013190236342 0.32342432887944317 0.5284961472594114 0.17823893867539328 0.08099119514104929 0.29815416786497195 -0.26308610591125736 0.07477786537770872 0.5874024516071156 0.13139668652135775 1.2002891828953786 -0.8277823203312188 -0.20723483805254594 0.3117830374164835 -1.0459140686075257 -0.09002514764279748 0.25963806577963616 0.34103630127973594 ]
[ 0.0007213639479061398 0.07786562358269941 -0.35572787498853803 -0.08355870441831366 -0.050976467647119224 -0.26353569680330713 -0.3103703722346988 -0.20738048760426628 0.18734787507722567 0.2804414689741856 -0.23126467650608332 0.3373830467837084 -0.3116904343082397 0.15667300961635752 0.013934466822132612 -0.07254747445597592 -0.2823349624701467 -0.04725550112532968 -0.1688582217075586 -0.330849633655105 ]
[ 0.07422946211676003 0.2693010067867346 -0.010988629430638002 0.12478736734191195 -0.37462782469524575 -0.0028421738044766024 0.0869354847940072 0.30558340721012395 -0.19488218510082606 -0.10701754591961947 0.3242602714851659 -0.2451852490540053 0.35229104246827914 0.04128786753545816 0.32134465758306013 -0.1311499942864513 0.09198013832017266 0.23533184938734253 -0.17931652973644494 -0.2727502427116754 ]
[ -0.5901300728454543 -0.41773196086727177 -0.6842243423606273 0.28293822300061205 -0.26007821570476397 -0.4442533857987867 0.2742242383929941 -0.22727657227270376 -0.35529068303095546 0.013674751299313878 0.06826662525828311 0.20092294094403182 0.4014786019265174 0.07724031656816516 0.33996512912185023 -0.06272274731860715 -0.8180844990138448 0.13459824035824702 -0.34313447233732747 -0.006636781967853227 ]
[ -0.7256291307815742 -0.41643717035255995 0.3706624696024631 0.32617007957881333 -0.3484655951698021 0.46932974623553514 0.32079436976133596 0.3206312172954063 -0.288858401317815 -0.027311108342549333 -0.5385092327331684 0.23191343580458257 -0.07818341683515251 -1.9483075645232053 1.2323688450048118 0.3267316846542398 0.25907538970515204 0.20210154438288871 -0.16895452736423044 0.23467330215547208 ]
[ 0.17909868901486917 -0.12143033766586067 0.37178854719759963 -0.2678420340794977 0.22777882140128475 0.08331665027755412 -0.11905894799430515 0.20993475446673837 -0.3713943667396991 0.34528110407208373 -0.003959878922512847 -0.00427755125164228 -0.2012198693567221 0.010160928524431782 -0.030995558894788514 -0.3159395229717805 0.2526664339807276 0.1967346224775604 0.11531018751724108 -0.16500725307873815 ]
[ 0.3316264915462623 0.213303560275551 0.21551369782322938 0.04307457659425692 0.18333747115487822 -0.1474236948308667 -0.3592744991577283 -0.35305050454315373 -0.22490052564245117 -0.3423848843051622 0.167263517263504 0.1091371684369878 -0.37325730000687385 -0.025313321685508098 0.06865400743504885 -0.10775637573989068 0.23743869586126884 -0.021781683415447634 0.186553450695465 0.07022885520941513 ]
[ -0.04270615337636241 0.3781873818759886 -0.3730162296582326 0.0007777812552378347 -0.16807005233509828 0.3368942165642148 -0.3439656977224802 0.15683381953760742 0.975427564560106 -0.12305634902041317 -0.16069696620036056 -0.4413290099292212 -0.20726709197446055 0.2527948280820507 -0.27062081860535386 -0.005870239162606048 0.3175570682587194 0.2986189238955712 -0.039938988960175836 -0.10247111017714926 ]
[ -0.26489318686273444 -0.4331457872954344 0.2501982069798497 0.40015504499146126 -0.6595210760426411 -0.13717194279178932 -0.3631472184187181 0.7762408866213215 0.26986545102263204 0.06493443169902567 -1.0006737383763677 -0.19071019500265882 0.02324974246644832 -0.531728300734904 -0.11641504269549109 -0.2913500491612646 -0.7816822548253833 -0.10609552715378677 -0.9876872101397853 0.708492167773607 ]
[ -0.1167820616090777 0.803532642678266 -0.3945660203328499 -1.343604748747942 0.925501255878771 -1.182095009846505 -0.3636154409128891 0.21973675828946676 -0.39263575942185225 0.5682056432773016 0.11012375150335069 0.9428483397470035 -0.11912037512706647 0.1872515247882126 0.47105002407089913 0.5803585110514362 0.6541552905101752 -0.7530876183084083 -0.6168279851286913 1.272874146188024 ]
[ -0.11247825547438815 -0.6586891030063867 -0.4579012288825287 -0.20360075271883685 -0.5350164639963149 0.5171680503482314 -0.4886912321865297 -0.6027366494123064 0.8248643949242964 1.033534869394274 -0.523668451761688 -0.7090387674064229 -0.5984658261047813 0.32507786798086047 0.30785817284287553 1.7143124456235348 0.5518305416370267 -2.1746722944891705 0.12597705609612805 0.4122192157271098 ]
[ 1.3714873482394265 1.2912459628315223 -0.3398117960529612 -0.3410404829122277 -2.4346068132216425 0.09488945271622576 0.6679741575750779 -0.6697448937022765 -0.5034929572176002 0.3458560867273099 -0.4700305709315876 -0.23045601000908605 1.2897918456932806 -0.21374901999236207 0.4787524931484859 0.46126628539101644 -1.0285528331332867 -1.2656133113739356 0.6609215246520449 0.1391664372595316 ]
[ -0.6569604909575211 0.2515683196163836 0.290964792892169 0.27655920353288455 0.29192981073399676 0.899549793190663 0.6428919445740373 -0.028458528017490926 0.8172408913843824 -0.06201689545301009 -0.35804860072843764 0.060565061905101567 -0.25603260301823083 -1.1723636028111466 -0.21272611506339015 -0.4346254656825162 -0.020900822267466614 0.6298807030798796 -0.9596025849922248 0.14235766139936776 ]
[ 0.00799631319886062 -0.40563290697527365 0.41376599287019733 0.5772324242297827 0.006406400562342944 1.3882564720160921 -0.07580484090752995 -1.2102832629036722 -0.10034191745453827 -0.004653452588899688 0.4044583239925673 -1.0395261288211295 0.26192340138986886 -0.0783743805534522 -0.380085264903035 -0.3019381216528527 0.35093004087437235 0.0469609360961254 1.2923214488954076 -0.7450587092354902 ]
[ 0.379647251260034 0.7644252063799506 0.8962011328209031 0.5489684887636994 -0.15542817296908604 -0.16623900893143131 1.0696711261594862 1.1520287087819026 -0.8799377924444468 -2.4796840291554996 0.5528889233360905 -0.011046109137566042 0.11197490168740415 -0.2925711714003562 -0.36161352301085203 -1.218039306139252 -0.2658880719039382 0.4621044584338387 0.8699097145319883 0.8480987640673233 ]
[ 0.9724492593883617 0.8637538567046281 -0.6744703738277638 -1.1419539503165432 -0.7246530155168449 -0.06142402906018464 1.870121908117761 -0.5992840548996472 0.8602527336782733 -0.060731879104049966 -0.16550460678072365 -0.6343789305046593 1.9230893619306186 1.1270030966257347 1.8484705851939323 0.012779829538742748 -0.7219217407493622 0.18412297276338 0.4272930392805211 0.35033289702111226 ]
[ 0.8058476457234791 -0.3120609018192418 -0.6769603706506683 0.30560295717676494 0.06718138767919345 -0.06757868318577559 0.9668217001574553 0.34040000298041745 -0.5809073973105021 0.48696420730242973 1.0962979994610131 0.4968203026013091 2.6021743145542207 -0.8031975730853527 1.3339754975811207 0.7555120906597432 0.8730847909141422 0.006414460491548109 0.6631386196698091 -0.3688407415564462 ]
[ 0.4988336960564864 -0.2778570207882265 -0.0553091275037837 0.49718194534284404 0.11906678410605273 -0.31730727999405167 0.10969623108059152 0.06917907207610959 -0.21116349649865165 0.21903372116161715 0.022392680734845613 -0.25881374817902164 0.058444081583720366 0.21704373886045503 0.008271867532686222 0.1934183166280288 -0.630063381123497 0.38765289222550386 -0.17238740495134544 0.17513247457885892 ]
[ 0.42295024639909623 -0.09116867526057355 -0.3447708373772921 -0.35965977020328477 0.16904208049887784 0.3980165047017325 -0.4901672503432155 -0.22958574014523503 -0.3478507728369292 0.40120931625477035 0.14241366028070365 0.5790032023476955 0.2968830249860124 -0.11683777607775066 0.40379422927819064 -0.42140938772538095 -0.538444923445187 0.3025441696783195 0.19230448084479362 -0.6244477896971351 ]
[ -0.7102826483886707 -0.9574195220699282 -0.43956748027313713 0.2812507854284832 1.637865838292096 -0.30020413183219086 -0.6908529039678336 0.20368499559773362 1.1093624638483413 0.09123253683039616 0.8731786049889426 0.20097321610284868 0.004783173962739535 -0.40419589413975476 -2.0609135239701173 -0.011531331418889453 -0.1404897148886471 0.9980199647027422 0.008804266213750772 0.07912410336769134 ]
[ -0.08386332568646925 -0.07275669254465074 -0.09447090798073009 -0.12920517029273115 -0.007157138026243531 -0.13359469379283173 -0.16913470998521304 -0.32869759888990346 -0.3628243954190786 -0.10521663856923465 -0.12369032663422719 0.02147692611645567 -0.20435467149283607 0.16575634581225532 0.06543308965778855 0.11388101247554636 -0.22941913844226802 -0.22827561517922626 0.1602896258030226 0.07931401964549714 ]
layer 1 Activation
tanh
layer 2 Dense
20 40
[ 0.052318070564277376 -0.10098709933501548 0.645627666868629 0.5899145536258961 0.3401686214703255 0.0769674899485617 0.9049131101417519 -0.37980816353724656 0.7392471624008214 0.6640732256707935 -0.10471968443629825 0.6061132710011901 -0.3538943983253174 -0.10980200891373736 0.5441438908532411 -0.5529538238457772 0.15734980313234234 -0.03141040862847156 -0.9268558743253985 0.5646318438128999 0.48132884212730453 -0.27822540362313314 0.05379732078436648 0.3541238084005256 0.8810617772854481 0.5986126139241621 0.49184032611132505 -0.14084947680318555 0.013985744331474802 0.37055703011963353 0.2296105907082465 -0.012310339834554766 0.7646439354268204 -0.13940234033678123 0.21578279111828955 -0.08384016485222874 -0.060631485805815406 0.14950047632800278 -0.2892518882779758 -0.5434934198610571 ]
[ 0.19272947604288632 -1.1743638558079363 0.7367348924168279 0.20914497240343427 -0.1347347132390201 -0.3402466990209758 0.31801957373557327 0.7736179714483686 1.0571467606226765 0.10191046981925145 0.10735768131432463 0.1278114161112232 -0.020224100507040575 0.09371269153455745 -0.19255483772812676 -0.7169597997904082 -0.2861366176506775 1.0286863219997158 -0.7822048851083571 0.18247395497278898 0.3249359237765823 -0.11755082196368896 0.13595003513047224 -0.5012842219932037 -0.03326453509506593 -0.8030237745263668 0.0361359095808296 -0.2721856379181915 0.1435729908222165 -0.11367681447348944 -0.4876310393595147 -0.28948986860459835 1.7809237024327755 0.011777787311373564 0.13389267715557893 -0.47828608621394125 0.2044401821812343 -0.282906556477742 -0.25404471618737434 0.14975803963453133 ]
[ -0.1676381342109014 -0.35019047840322315 -0.6349863285571485 0.01743699281523513 -0.19975621325841836 -0.04773148293907927 -0.10114825567339553 -0.10390787067922437 0.16808087770171734 -0.22898662460994537 -0.15241303915781373 -0.31428130375964125 0.17341724569245365 -0.032601563722748805 0.16299395378122508 -0.20333585589903544 -0.10876133141536945 -0.09597303902226742 -0.3242366044382921 -0.4142634602704784 0.11485186314522126 0.025395298548361755 0.4698348779986787 0.0035462695695973085 -0.22065063012257524 -0.6471521729262945 0.28838038688147555 0.07606743297530152 0.2131829351005331 0.47775590715158284 0.47998442260633845 0.030091396001707685 0.1016936967095323 0.120264344780564 0.004570768453023045 -0.4641815122313702 0.32756449289461037 0.2158448584688937 -0.22731959543382632 0.36010162237288385 ]
[ 0.20661897265857 0.6495194331781198 -0.5500280656270458 -0.19193245448504934 0.28475511601057657 0.05916906299154331 -1.3342917125489535 -0.24242627536528796 0.26087294697287383 -0.14500768492920738 -0.4612906102068883 -0.2422277408560467 -0.11453711748360647 -0.29454210877462844 0.06365660091342074 -0.601858503372489 -0.07243843157999666 -0.6178467504370229 0.06237588490408807 -0.15491574658818683 -0.03069201651614502 0.3852424454489691 0.3910816621089664 0.4116363679464125 0.284498093570151 0.569726688794762 -0.24593587208845274 -0.1098328225631442 0.16817846737520672 0.6582768756913461 0.9469495502630864 -0.16615166986379148 -0.44611243674816276 -0.014376949757671348 -0.327660752353327 0.22573527532253598 0.23379208068552648 -0.16009494295566493 0.5252737243185372 0.3464490279606773 ]
[ 0.4364291918791725 0.33330253241544716 0.36014273398495517 0.03880625578504935 -0.3619179981811924 0.39248679314908763 0.08116042474700742 -0.01492461335496122 -0.28745593404289654 0.20446854424742322 0.206450172673145 -0.7669584072619064 0.21701372978357852 0.1234805039249594 0.331745053848827 -0.1777495853093282 -0.47937919828416764 0.29774572853684816 0.9864791812631907 -0.3514667190995901 -0.1616773482120056 0.1596109931366129 -0.5262135475555904 0.052293672029645695 0.026301452203856355 0.21387935721314089 -0.040897882783107325 0.13816101835827158 -0.43231397626100043 -0.6957048764775453 -0.4485959159451915 0.08670526804517584 -0.3941896039174586 0.42377835280597237 -0.04575476265518163 -0.833035981068704 -0.010403489191072299 -0.42100143929481104 0.4390801429980309 0.3096452956779974 ]
[ -0.42485686598669264 -0.02845214349376552 -0.8232880771048731 -0.41826029907347284 0.047569970101259254 -0.12594210436930323 -0.3282576012916451 -0.2496607525537995 0.4163680562227974 0.029097418082864656 -1.1120708733868279 0.6091376709079833 -0.15270289668810988 -0.27187472451469213 -0.10619638374954635 1.2779862365918722 0.5471145410829344 -0.33419135542528633 -0.4076700595669489 0.04065173906395304 0.3717130671743442 -0.21090504710750957 0.759508000197502 0.14502018537670297 0.5203177764329776 0.3399778545516656 -0.36697714269225856 -0.3556707882634574 -0.08103891910710265 0.2843729148099896 0.45916962435054975 -0.39217433455074174 0.11948914820572977 -0.45697596032850624 -0.07482566073258652 0.40945315221187306 -0.15703609271289995 -0.157958638775655 0.32795830185454355 -0.05067452214748173 ]
[ -0.3141411366797585 -0.7044668653761135 0.2771709451713668 0.15333781116387873 0.20740665843012301 -0.3576613293333379 0.20096743426601055 0.4870781376320452 0.7516132092510095 -0.770650428926423 -0.28505919548096736 -0.09778839151198958 -0.25449387528677453 0.022628688084795165 0.38388383440163215 -0.28437775982958213 -0.5495651996309046 -0.36286937344363085 -1.1168638884442712 -0.4555592587902093 0.6319351251096276 0.23994871741525128 0.13075188838160134 -0.040562634938011266 0.38153419171651887 0.17826692804600794 0.27518540619812265 0.2576438213087794 0.16168009339201636 0.3793289294493064 0.1359589614142098 -0.7685646833195572 -0.2174048589508342 -0.16768051166465442 0.2805643668824737 -0.059817165467403566 0.58111692340261 0.29670292132212345 0.6465176598146551 -0.30281980801049974 ]
[ 0.01678346495858873 0.42414418060212833 0.5011850466840755 -0.27522045655787686 0.08428274054695437 -0.276820161912205 0.29356370019336614 0.524190754829372 0.6205272611585518 0.45293267419638517 0.9800222786071238 -0.8539311785357135 -0.4294206217474918 0.43900422481512125 0.12700400346216603 -0.8605503398473792 0.4617344433110461 0.3003633769569217 0.1782468939124069 -0.4511050605167202 0.5129222329457934 0.38026267082459386 -0.5214337273309859 -0.3000508992622988 0.4826409481574556 -0.1348082379046473 0.6883315289844552 -0.13295825562538163 -0.1374973446457382 0.001599145855999994 0.4547598679702272 -0.5043449915869757 0.20084228520010663 1.1489824149998824 0.33908544544410135 -0.8567589751944613 0.720961258574104 0.4622841058550426 1.1067842969503918 0.22844225098507948 ]
[ -0.030975506206273436 0.2433113555703489 -0.6335594263594067 -0.11884468102694654 -0.22427952362871098 -0.06219354124434564 -0.8634450912109856 0.27209527572213776 -0.04904731105414685 0.5020299809493387 0.13798724783538377 -0.13175509351769002 -0.0379484355848747 0.12588316016840723 0.22764346581616074 0.5279414147434557 0.5664901382842191 0.5102166981749576 0.3855767671079306 0.21469612056711074 0.173768300484612 -0.1722737627816426 0.40814249418361215 -0.28186476374887814 0.24292092585452202 0.0296524692782008 0.026492815456763893 0.24561120862380156 0.17607337439259618 -0.5913637311505398 0.26471096396217464 0.1434597885318496 0.3189094709695966 0.20218695840748474 0.06593008334132897 -0.06431474783712447 0.1895314107773706 0.010516220676402253 -0.18482306359137385 -0.0010179072539787497 ]
[ -0.4977856282893313 0.35568612063800814 0.062029604050154334 0.4707595996117013 -0.2839223119646244 -0.2878514206282632 0.3682152124847451 -0.2922684794801223 -0.6100793758678916 -0.6290825515392325 -0.6334341075767407 0.5986316960830591 0.4254625328962638 -0.4766714562775235 -0.030446294590606486 0.31254295226838924 0.36535573624902246 -0.5140803048321628 1.4727049155654588 0.7374552382445042 -0.8044361130269219 -0.49020953863585687 -0.4170448656292966 -0.16350577560661922 0.38868066904684606 0.07650987235416709 -0.20954816440725885 -0.11852936532486846 -0.23574252612948818 -0.45761959181652384 -1.3267039744137192 0.3156468268459595 -0.3093127582773961 -1.0075483206518105 0.2566026795100298 0.44052273035740286 -0.15355090718293038 -0.48492105908427474 -0.8770224448583206 -0.601593422392247 ]
[ 0.10769673895563965 -0.5276661713959583 0.4058629181202348 -0.19167615328463666 -0.1747926919147644 0.35252418412187064 0.01517573884387361 0.2839302137933921 -0.2824538388290211 0.37754133203868423 -0.1654583197092695 -0.06851888865042814 0.19826600743521916 -0.41784064270270643 -0.18917982041870268 -0.48348907654385703 -0.16476604922372498 -0.2073529479303971 -0.14140969570966958 -0.20829899895890017 0.18174495237274668 -0.024042633107794593 -0.09547006101538763 0.12586816889653007 -0.1925898071558928 0.6290359497260688 0.15838429626803616 -0.08064513650160313 -0.1463681660324408 0.01916920032411871 0.10809109301008844 -0.17970558843219858 -0.4628260627041489 0.05930426059560624 0.3341271550188844 0.28297458559608996 -0.18068043281985796 -0.22707870956000115 0.5525259035183948 0.06805196170441889 ]
[ 0.3200406268367014 -0.17815840633683946 0.49043369130463843 0.012506678667070706 -0.035635822504998124 0.0061014928596000535 0.823789452386468 -0.48309584002940265 -0.3080374101547737 -0.32700102280220184 0.4570353881377277 -0.3111816477534848 -0.1617871707600466 0.277373102525775 0.017373422016327956 -0.35611222691196565 0.3055980632087314 0.6176657682432588 0.9262625854690615 -0.07152973680132382 -0.39698001022401375 -0.014810595640490596 -0.15334629881370326 -0.05483515229263463 -0.3057095577535895 -0.8063001737986225 -0.1389952782736259 -0.20204337814910237 0.19609479109641892 0.11791893265873997 0.26508988984321913 0.23880606782800765 0.26857709901779203 0.6370810512354429 -0.07370105634115312 -0.05863858520962713 0.05258342181485302 -0.10775022030246977 -0.41908852092545607 0.11763484144585055 ]
[ 0.48121961479795006 -0.08699750063922314 0.7813430079225339 -0.04544332218911662 -0.10609536638637473 0.2973464054415483 0.32216132346425413 0.27868126815079475 0.43612604442940767 0.148912628450863 -0.6986347174128239 0.5385684410382686 -0.10398608343130136 0.0239274326891632 0.15777216248542114 -0.1108148376770187 -0.35601931790139474 -0.20330493994977597 -0.17536712687722936 -0.10731423404853309 0.5713769673429794 0.30864016120018256 -0.28414266930435844 0.14206821583208698 -0.08795136657942855 0.6514505512436115 0.2667622750921831 0.35273063704996777 0.10944636548937474 0.06841779558774354 -0.39987974351623506 0.18397432190620758 -0.3861921009135362 -0.5913732951157775 -0.027980228647627347 -0.03215254041634866 -0.0454762760865359 0.042353794385004195 -0.08097090266114214 -0.05128936157783428 ]
[ -1.0265628204321882 -0.23271850434839367 0.15985722578209377 -0.028838786631963004 0.30580533061752707 -0.827322229864724 0.5836796773985937 0.40123210882645044 0.8193704502095028 -0.11521759710510876 -0.2854596155680987 0.5818118044136497 -0.1539000099288851 -0.10912406982232499 -0.33213465869324965 -1.5668174673018986 -0.6229615307527497 -0.5998598144982844 -0.8315087964443784 0.7713739076670696 -0.17934171642887214 -0.3550792149283525 -0.8645980995617293 -0.025280360064358784 -0.13760748386667476 0.31194977137477786 -0.1437848649366889 0.28084219366139707 -0.09840517523685276 -0.7173635675803788 -0.483650248044114 0.23518755814154335 0.6608116298377482 -0.41044140562970205 -0.12240780209817828 0.8103235967466396 0.18074986553036312 -0.26876517897234975 -0.687111271724641 -0.1514987665455826 ]
[ -1.2645754669023686 -0.09361190265857953 0.21953239477773806 -0.019557512773647975 -0.2662127495920097 -0.40335374003629404 1.1017623131024579 0.3881805590869794 0.24818905548768178 -1.0419320441577429 0.4031469633547474 0.6031898552067263 0.32965008775505544 -0.09161164746439314 0.4046021564636872 -0.8430734296485087 -0.08547760935494168 -0.19042892086071467 -0.19306195347703897 0.7665293119976273 0.02364900793389818 -0.0515201581224259 -0.6808922591386958 -0.2854449616223237 0.35263059600580937 0.05559615206254107 -0.36954022734243697 0.5244331176670708 -0.25483573005952687 0.4076084834028799 -0.686183812526883 -0.034560775090392425 0.23949768425740814 -0.01753727153209208 -0.2954487999039602 -0.3722653624211608 -0.3906598485226902 -0.3974052381025234 -0.3171093976714274 -0.3514069281026858 ]
[ -0.6159918061115347 0.7098448677818527 -0.2742193650668148 0.4831216291906952 -0.1153111165200005 -0.08819866735188883 0.10565951558890473 0.04700561374778881 -0.7410747883607282 -0.9866412325533913 0.1955385121644121 -0.26875004429885585 0.3060352440338471 -0.2831010873048952 -0.22471536615909432 -0.13976724185910835 0.2054977421804818 -0.3575975787767921 0.2506195357688627 -0.1491490137709634 -0.8539044567684657 -0.18382115613848535 -0.5185942116060283 0.013956222743167728 0.39725471402812607 0.016702193116187834 -0.20108704519801895 0.9552995062140959 0.01189722196118408 0.19904378079522791 -0.5950397370021459 0.0649153965646214 -0.22851613149655306 -0.057301781408942605 0.37420888310646677 0.20364512638255464 -0.056612527697232864 -0.44643878648182955 -0.5634009985887369 0.18842483256067719 ]
[ -0.6437568591016594 -0.3305388962155743 0.11936527712288886 0.34936011114709775 0.10966222640910847 -0.3745394716709887 0.8449637472476864 -0.07502614255720419 -0.22511876630051975 -0.2817940151472831 0.044883511433421966 -0.0839037436284226 0.08312865757995189 -0.2110191830431546 0.526861934299833 0.12494340311867924 -0.6912223887931259 0.16895793603108167 -0.05838074764329197 -0.31423546931835694 -0.06969801284951453 -0.4625558392992352 -0.4943377470638988 0.2906849907498334 0.2293835749450783 -0.11056232591675168 0.19091013871208595 0.5761359217246229 -0.2688105564426689 -0.3790640740597168 -0.1713647567518812 0.013802669103693944 -0.1021016401958682 -0.1496732229606067 0.13644683208902328 -0.1872995607993993 -0.03105906818358102 -0.1537008424979745 0.24094435298633066 -0.111169585152381 ]
[ 0.8568102258602363 -0.272382852966218 0.11701794573360841 -0.07398055687006426 0.2697176459405886 0.43228306786272547 0.5949434419555775 0.07697884642153356 0.9557574996742737 1.0991780883438174 -0.7232297061200711 -0.2086843078684617 0.017408550232497145 0.2467004281798005 0.11998531480112834 -0.013566170186417077 -0.8352595181382928 0.30081657966327613 0.4199585628293534 0.22780403534233207 0.4145608850663376 0.7016847580926133 0.06559817184959857 0.11514329272335191 0.4268135252539014 0.03314422670567486 0.5157054785732205 -0.6058556961957469 0.20207094012657753 -0.85240722181328 -0.17970589176310897 -0.37130376097870416 -0.3724848352240459 0.08814421196454256 -0.12045416492659605 -0.3626264286716176 -0.2519159880541105 0.17353354206035876 -0.012602317698518415 -0.32639594245897424 ]
[ 0.27350268862607435 -0.6483806573709289 -0.037740082296413464 0.024767463167079118 -0.10275226121035864 0.6314754023398532 -0.11969386480786547 -0.022648972579881785 -0.08519130783586795 0.1964488011571818 -0.5384796241147631 0.40370776442717277 -0.06183466409086438 0.15389224983640745 0.20626717389179153 0.5109219322962687 -0.5230877233938853 -0.9103233536480105 -0.6910981644201121 -0.5238656332519701 -0.20478085752238762 -0.6006238906963126 -0.13112269941063123 -0.26159028290934405 -0.4269098332957145 1.0888037284187222 0.3471355001848844 0.0009516945348555248 0.23495345053432518 0.45845311277066486 0.3560824029992496 0.07100154559317941 -0.18146710508493852 -0.34467463041532037 0.12411650716254462 0.34393100269725235 0.15529340341673137 0.033551122646987314 0.10559468432677856 0.2718352438379988 ]
[ -0.18856919977714243 0.7261000944226877 0.11782116213508623 0.3332277915889624 -0.09833548984429764 -0.3890930311995015 0.08463762620624488 0.4015603563514588 -0.3015907131776951 -0.19399414728785014 1.4228580146888812 -0.8729334647842376 0.17386859605383356 -0.11062248587375002 -0.2562651145720435 -0.41714767080034315 0.814360898590271 0.945151877962163 -0.2262618181509339 -0.3116650829057813 0.2372864518582475 -0.25947868940640323 -0.9913296538036321 0.0005245093053733595 -0.2573037421407154 -1.046038700841469 0.15465112744119225 0.7958234848240912 -0.046622190516185553 -0.743453198536465 0.36066678818134457 0.4234692973116158 0.3615028612443837 0.5540760668786701 -0.07119988791317668 -0.1643702705673376 0.5306267086715037 -0.24474499220143933 -0.02524744206597818 0.2909647519788132 ]
[ -0.05681714926752322 -0.1574821181642546 0.2395438009351462 -0.10739477623039853 -0.030802934971750996 0.0014312680422017123 0.3134821880727993 -0.18008921567035066 -0.22228322491200497 -0.22568452426363278 -0.10350818887739133 0.08974964591729989 -0.027117722031307873 0.027588398013147507 -0.1795920805376624 -0.057223644078866834 -0.11969835094462258 -0.31840499202271627 -0.011243729009252353 0.03237045074389707 -0.19521166660786657 0.06375550876800855 0.0095627504516881 -0.010243824108698342 -0.3673814168788021 0.1658429683608019 -0.22118434928126685 -0.012234761155268248 -0.0915326071946856 0.20827184220186853 -0.07859784676624809 0.055058982062804226 -0.2924741687013287 -0.13581429671531037 0.06893846912981894 0.18986275010951123 -0.0710692145630038 -0.01268489096297353 0.031606592146546486 0.03316651793811009 ]
layer 3 Activation
tanh
layer 4 Dense
40 20
[ -0.19467802057489397 -0.3136151450052265 -0.3727551679301348 -0.10039874893675334 -0.5058098545836102 0.1786293218995815 -0.23619075739903528 0.5331959227729872 -0.3735343713566398 -0.1964768591046208 0.14923624506156308 -0.38809844595883053 -0.19933615398924118 -0.011795164231916231 -0.22365848901581767 0.6085826392616064 -0.15966554271395036 0.12537408334232342 0.27951703296629704 -0.12603636764072218 ]
[ 0.5053225039773814 0.18385333185341834 0.30623719827448315 -0.031256647153680255 0.6897759620383594 0.028321942063045107 0.0010992519329364875 -0.31537687924280927 0.17138133326313743 -0.4179621817724866 -0.11799442403255661 -0.5664367174079447 -0.019526214010029828 0.3834324430934965 0.3555278431178078 0.18054570269618486 -0.3451697326580277 -0.0765477191943853 0.010057048642232875 -0.050677372863850316 ]
[ -0.13592978029557665 -0.10368325612656427 0.04973687417959057 -0.16854422425407947 -0.7046511895708739 0.2717134836296174 0.21627087794774716 -0.3003976796193833 0.6984087859792443 -0.2211021542978156 -0.36932222193864245 0.1772249898995351 -0.00653388606486821 -0.5476611006593682 0.0002787882869755504 -0.19677700407442003 -0.026145269215903894 -0.3346461519944401 0.7500013053708194 0.09584141716690521 ]
[ 0.09608215175476457 0.3664537234470407 0.11072665347219865 0.19236085912274867 0.019586251338467614 -0.26123750171090787 -0.44538976317936857 -0.16045224056184493 0.06952757948208033 -0.2933718771772614 0.20993404612821773 -0.28109255769945296 0.39164663867645333 0.2809840269753382 0.34147523366241905 -0.1505156336410867 -0.14534491696709637 0.24338483180978174 -0.15506362604215163 -0.048409172328335755 ]
[ -0.06090734520409714 -0.03780693812061936 -0.3637770278541215 0.051350403990445194 0.012385697406509515 2.798368795896072e-05 0.13916914653190704 -0.013061134001680096 0.03344139066633371 0.07222979355318641 0.08647239253157472 -0.13915557255298727 0.00855952603208484 -0.7827287038989006 -0.2289421685809381 -0.01008903796327179 0.2358565770228779 -0.24037849992021476 0.13464940321737948 0.2468384386205912 ]
[ -0.08319418612680296 -0.21809852064589685 -0.16856117501855378 0.06644721618337807 -0.5933292298638493 0.3884918272357634 -0.11860225341450183 -0.19792082041791687 -0.23162980918081674 -0.011728909198198861 -0.04711035968362013 -0.47521072804148995 0.1238724517165156 0.34764671731936575 -0.029434868900982042 0.21172815317398652 -0.04044632871116771 0.03879575627303825 0.14420392927993844 -0.08296477960231016 ]
[ 0.434627690685526 0.1811878808286181 0.17258348348465696 -0.10377265510625755 -0.19049066946887477 -0.2539584472224956 0.4262049873270617 -0.38109628633577064 0.24091051634227145 0.02274985538494903 0.3146034155668885 0.47530732642150464 -0.16003659494883515 0.1137377560044164 0.1840593769915252 -0.5261002979171086 -0.30171542147563296 0.21251872033143737 0.4362562240093108 0.21650423032040197 ]
[ 0.03689464693391063 -0.1520108877888112 -0.17429164753130486 0.009016901674578203 -0.1172315664515409 -0.4174412763091324 0.14433087352022123 0.08361822515614331 -0.18747875696169092 -0.3225026638500349 -0.3613955978432244 0.17939088656801264 0.027796480370664477 -0.5424417873662991 0.14211821965888388 0.1013876406290578 -0.024507023755380976 0.08426003643889765 -0.06857191439605297 0.03076977566775337 ]
[ 0.1489318335478388 -0.07183579404270601 -0.03885886227100126 -0.07103325176102689 0.06005882120956293 0.11274676906558843 0.15528243719786394 -0.17363803818834642 -0.2716560179920808 -0.4109393763274914 0.02700130203093582 0.45941397785651006 -0.13208791432080652 -0.5430475602598703 0.28306030822764894 -0.33453206056601037 0.5151980619410977 -0.2054212297711764 0.4286439095014191 0.2439991990452759 ]
[ 0.5953472571341879 -0.19621876785183176 -0.19389671966076177 0.015317274561953217 -0.1790861464215557 -0.11492297099182065 -0.2842617244878378 0.23130760822044485 -0.15034722810807308 -0.2460230816112341 0.5622484917966764 -0.14449118953360895 0.0037567826240043926 -0.2833254193605726 -0.5631975016683101 0.2530444107364701 0.02835563949925042 -0.10124597826590287 0.3610337934296415 0.2857904674663064 ]
[ 0.41097341677944776 0.2677563324516158 -0.38262467728232197 -0.18446972307713186 0.2729299595950255 -0.06698410983684994 0.12401059071238135 0.14168612063924743 0.09532657915273948 -0.2813612728838691 -0.003498439014176103 -0.24342018871147414 -0.14706791896985527 -0.3504064370829898 0.8129109716506911 -0.6318219653496394 0.025677476573417995 -0.1392339773044207 -0.43725736647617225 -0.35659193191001365 ]
[ -0.3701899103757584 0.05906343445928525 0.2959255136245816 -0.10810314143623666 -0.04906830674690465 0.27700495547951703 -0.03491080517150651 -0.3576278460385436 0.08982851721586944 0.4745197374297263 0.6210575791150625 0.6071067022588607 0.08739533862140467 -0.14078607996424797 -0.2385187272708754 0.18100360017988185 -0.08968422690238598 0.16590164142961097 -0.07811728675007838 -0.04406666425571543 ]
[ 0.09172675995293121 0.5320177898823277 0.29748644070459823 0.13172408539495115 -0.01968605829853151 -0.055876949728426634 -0.1340845167679422 0.0021898006554834423 -0.003575631887494183 0.019835091141524964 -0.054712079712472175 -0.042512107889840674 0.32877463064393975 0.4239841833120415 0.15776964339069724 0.008203832311003677 -0.20275567438240819 0.32370623880661115 -0.11717463108581412 -0.16809878846647397 ]
[ -0.1274170319426674 -0.2013349610147639 -0.03701073687352863 -0.0959274705921679 -0.16120565098002868 0.20588395204738252 0.05436609986567813 -0.04109619016539391 0.00032200272664249124 -0.13177344153072837 -0.01546908922685888 0.17389421830952465 -0.2175220597516062 -0.14938924067942647 0.22255761773642185 0.15809170556361202 -0.2734201093501659 -0.004662484759567682 0.023715384867326057 0.016016588065162627 ]
[ 0.06750990380045259 0.09383900040277045 -0.12989644022495914 -0.006958874169408404 -0.14220375762010218 0.0892344360919385 0.33042028826444386 -0.1749177622852125 -0.1800549712165943 0.12031773217563324 0.11345099871304383 -0.3430885170947933 -0.10445159983205612 0.02615781770612575 0.09755753607729481 -0.0973854447006647 -0.13633215639268498 0.09984788126876247 0.10095797353949336 0.5487864798518887 ]
[ -0.1900255577598941 -0.17335591394459626 0.09877804749888873 -0.16604923446540246 0.5311460676184258 -0.13280308179331224 -0.0664901760924617 -0.3809621534958628 -0.173622765157448 0.6595178287875447 0.6650860958729756 -0.07587602882743157 -0.06049847340316943 0.27321938072628027 -0.46874236291129623 0.11793836518445296 -0.053474096668505555 -0.11976668376832343 0.015184399431149685 0.13749235237012064 ]
[ 0.6296923982250849 0.0010331035746757868 -0.16222145993844375 0.003146782169121604 0.5064487549353592 0.266542656942235 0.14078516309081143 0.21213277109510623 0.19162522985691938 -0.4864542266791165 0.29643217217612755 -0.5006688181202951 -0.0449796829744239 0.1961546693552148 0.020431581697154155 0.2344164999348824 -0.20820045472835064 0.22892241992083587 -0.4037667267818851 -0.2053485897645704 ]
[ 0.3873588070519763 0.1286030776259738 0.258893063418536 0.09370803490868891 0.25087376416278395 -0.1257131126664976 -0.15303661944361194 0.5015791016666173 -0.60301406029613 -0.42788596856293915 -0.1180125173851618 0.1510217290358402 0.06531784465914689 -0.15508005917623385 0.19147639097217284 -0.3692679377656232 -0.1776505928704591 0.130493147523777 -0.5271154489228614 0.08092997494036663 ]
[ 0.37530576243626756 0.21337481483468948 0.027059263182636153 0.1929433231423424 0.4763250205381628 0.1374996605144469 -0.10311747107872726 -0.08743802035881355 0.23739409706177034 -0.2569048971842765 0.8579528236010034 -0.3307506085193541 0.006731831409859768 0.414128809817484 -0.2874169368342156 0.47060281417496547 0.03240908738062923 0.34433322848466313 -0.0917581925308211 -0.0786687827299544 ]
[ 0.2315103844835962 0.5995864981254329 0.12686287531509335 -0.2682262281171055 0.5475906806522614 0.04006521234100799 -0.13856690315355222 -0.4262770655179634 0.04856684471866111 0.2614968896094561 0.19404651485957788 0.40042989809702473 0.10511096408720678 0.10252499823954485 0.16223683310613157 0.08737846297146563 0.07800709421157162 -0.022900337572121905 -0.011860736351531015 -0.01954439589265586 ]
[ 0.3291668045646636 -0.40883699417299624 -0.28974853662737937 -0.2185698523545164 -0.1433016576464703 -0.15142201077499545 0.17965843784334273 -0.03587516226122338 -0.4539109070915672 -0.32985898539169206 -0.15332283437214397 0.17323159569676502 -0.2338492773268505 -0.9140076175428984 -0.05100614585710143 0.04808527981894636 0.29605741018087617 -0.15163829560726097 0.3560867092266779 0.14104068043677778 ]
[ 0.3080742344840122 -0.09506663514276976 -0.20867242986696388 -0.02929548969110793 0.05768962152407517 -0.17056658322099413 0.11802063230953737 0.20477941921380727 -0.0800634143783495 -0.32849554313882584 0.10075253930252923 0.10924514468398573 0.13460852950117697 -0.08951992784903615 -0.002017974103514886 0.2903151190438201 0.014698185490219411 -0.1476406708257621 0.3320270448684183 0.18357223916164842 ]
[ -0.015449676891801913 -0.5268380840728689 -0.07597870422795494 -0.082041242621252 0.9305952590013861 0.3908399636342506 0.35206099585058404 0.46290241908189295 -0.5417713793106458 -0.3400339238870559 0.6704768733369026 0.24632437485665754 -0.686797275737739 -0.3266226455783293 -0.5127542114449095 0.36170170601021995 -0.11924002670160136 -0.21147312000127683 -0.011541712025167324 0.586818051883992 ]
[ 0.18282657254638368 -0.18354652347121947 -0.2701574439858447 -0.09160626617973268 0.13787086129759915 0.023943668105834412 0.45997072593624183 0.18317864428181393 0.03265063355067061 0.175267196628439 0.08747239903565496 -0.47596969858807175 -0.34125221308728604 0.019445764983332992 -0.19038999341657292 -0.03425887821098814 0.41730178877447005 -0.24445185592916596 0.046297878041218245 0.4085947645793297 ]
[ -0.1870774055528398 -0.07704090735871755 -0.005805929162207346 -0.22293012744657612 0.8456198046259334 -0.13519069854176313 0.6522061566554348 -0.3665304695507389 0.06446068714654958 0.1704839443184175 -0.06372315809373269 -0.765133821547125 -0.2840858751285519 -0.3247689537732359 0.4376079101213872 -0.24413120903211333 0.10340243961519324 0.20089642040442884 0.046957684117301605 0.2946516307041432 ]
[ -0.50210368577007 -0.0320382131996135 -0.26818106666971 -0.0499614724741314 -0.5831692649408814 0.45360545105387046 0.07050042876280459 -0.13304375302461235 0.1882240727820149 0.31360698240854096 0.1624984915335812 0.014770717212378139 -0.1583720563741859 0.10519951310741353 -0.3657296356654771 0.43293979493153456 0.0694177968830698 -0.05372576461097145 0.4758537573440053 -0.19336681955354856 ]
[ 0.04801172694632451 -0.509570502960916 -0.17048568371369666 0.25961107378125625 -0.49844451487704533 0.00675249931463618 0.12894131425298352 -0.03507556529085067 0.07806198453615117 -0.2625757769927963 0.06620119358902637 0.13844857007254416 -0.16031066895651888 -0.5219399631400707 0.15734465047555832 0.18225002534123907 0.27392858918625007 -0.12466382567212761 0.15712283036542263 0.2975499839253545 ]
[ 0.02521295138687303 0.4054091085307595 -0.08354459759930584 -0.19066665400759478 0.09801953701536309 -0.06823239242461232 -0.3104543447911612 0.14801932839904947 0.24297795549652945 -0.16221164464781024 -0.1681267672719818 -0.10099449318525715 0.1511979687667754 0.44594339666265637 0.024241665587636067 -0.19888906647820148 0.02473146739015992 -0.031215573255792918 -0.430246604831594 -0.3321910627136022 ]
[ -0.17054893785420017 0.23131274240747443 -0.3961821946863484 0.07849450839762988 -0.05782618604470661 -0.14327722865754072 -0.1416974946499002 -0.1382073629892757 -0.046788517021410826 -0.045361915532139495 -0.036705495319581276 0.04194871643562969 0.2238529011459602 -0.2016143870352436 -0.271819052010772 0.014788560842993723 0.21142777020563772 -0.12710015923454268 0.07174582215793392 0.04815752385771699 ]
[ -0.5244891708399997 0.08950873351876688 -0.40167747346319077 0.07876907319602101 -0.29591685624687103 0.18223194646643973 0.5109318003253153 -0.10854820340744498 0.2311332261249365 0.327428798690945 -0.4907237373398814 0.46445136729013464 -0.40262389254746017 -0.5469215869213381 0.15965296450359262 -0.21395410448372737 -0.07887371285201238 0.1324432152366891 0.4544830591383816 -0.1541012515886805 ]
[ 0.18441974451863893 -0.27975576339383496 -0.7595141439768462 0.1049908029372421 -0.18532701310447255 -0.07193707197207296 0.27716025780805903 0.4109329403231799 -0.12078316120978852 -0.1472261874912916 0.3537015579136039 -0.5454887933462101 -0.17774770076767457 0.010808842931402959 -0.4415130924762746 0.37759827258175194 -0.003521866461389284 -0.21271549272084772 0.20342995522792706 0.07559462966357443 ]
[ 0.08181144343502969 0.45033051570284005 0.19224852029889922 -0.03329838946671547 -0.10987059043652692 -0.0070458692230660255 -0.19704679242233808 0.022544790587784688 0.19234308878429793 0.041369638708887366 0.08600314677652257 -0.10158568952607909 0.35129172353002064 0.4224993208886206 -0.08025914886209333 0.10633457931318976 -0.5215965301161728 0.18172272014725796 -0.059663064532705416 -0.25430950950454934 ]
[ -0.05714250963460057 -0.19159023817779783 -0.10205906146827215 0.12121007647097237 -0.16217442021082643 -0.0036241384584242875 -0.024499643787647855 -0.2654163051039185 -0.17896842637154267 -0.21512834960282284 -0.4476201518547124 0.1465547462325691 -0.0403934086148001 -0.3753500300526644 0.2901553428843329 -0.08030597741379895 0.09377427365767364 0.02360906290904039 -0.14931363536706552 0.012043741706868193 ]
[ 0.08773172009318518 -0.5598627087380877 -0.2065579408131129 0.19333550098808122 0.05456625005260816 0.14979019732729 0.21582477570583355 0.19094099490033128 -0.018004735893575034 -0.43703862783226705 -0.33813572497755445 -0.16701241090603783 0.13747757375581002 -0.4228763924316021 0.32312840035360113 -0.4260744282478412 0.028927232212802415 -0.3354135308423454 0.07533489627963146 0.09505181471586831 ]
[ -0.0878035184498967 0.05419521798923623 0.016396281636220224 0.0236326157644581 -0.09767878811476667 -0.05135221394926391 -0.21201140972374927 -0.005379435781676483 -0.017270511518475973 -0.1437283202943859 0.02881685169590455 -0.06675428359844972 0.07131133039317071 0.05246857591556769 0.10813459914529656 -0.046341033441270225 0.08274473106100937 0.075700184496266 0.015071062718712785 -0.07149358115217005 ]
[ -0.23070764338697197 0.34991246994146125 -0.04070384623979824 -0.1920962444091404 0.19865242242390188 0.17202381210788528 -0.6887923897646053 0.1645641216680425 0.4231183604429199 0.3289900671088194 0.5220696593711669 0.4329527033282069 0.17448767876021948 0.31562688000516553 -0.9076084589055226 -0.2296274999614153 0.28371548727879553 -0.06087995512356815 -0.0985260254150671 -0.5227386510328361 ]
[ 0.057980567201662045 -0.5523585464438192 -0.1357898841351395 -0.10151036446664569 -0.06998282852352752 -0.009350558470729187 -0.2360235877524073 0.16994787413634005 0.09022160356670976 -0.2642715055015352 -0.15844464265916944 -0.14708936084183488 0.10234628782682001 -0.13289292035895628 -0.16767469792128328 0.17250274585992126 0.21712144076262585 -0.1150370139173 0.09617173519082398 -0.04025285308236514 ]
[ 0.03980106420702115 -0.5220192383834924 -0.33550747489277866 0.009281200012507864 -0.006109991836770779 0.0720125252520847 0.36997287449586563 -0.052809392016741244 -0.03279907970679703 -0.1789720884169513 0.14912030997881603 -0.2355229044885604 -0.268000411732701 -0.4143398062464932 -0.1721131352496624 0.07035970928739252 0.016653263452221508 -0.13866453328286948 0.16901727594051708 0.324654002279755 ]
[ -0.10695617669125763 -0.853787543707789 -0.12953974504154192 -0.22947911622626918 -0.3095964803902896 0.19809752258216495 0.21321922783453856 0.31563287060298767 -0.21677639068979201 -0.2567738556682414 -0.25613369112139595 -0.4598945123344804 -0.5601102247968781 -0.26814089545849745 0.11295819525595323 -0.0026283899372258244 0.15685361894837396 -0.451778925867845 0.3697136404065976 -0.019934083064914364 ]
[ -0.14713463906404836 -0.8038172671028196 -0.13884371570937515 -0.2030344869885326 -0.6033062136396536 0.08105690296506861 0.27534790204754467 0.4192018713831952 0.088774099853056 -0.2608826422119568 -0.2650097251304874 -0.1342756328736931 -0.0018026810004706018 -0.09244190667979507 -0.026803421921311667 0.28642875265449064 0.26941144266697997 -0.06666727210157197 -0.27753635681349664 -0.0986672709523013 ]
[ -0.14300287980154072 0.1620015646441173 0.1422377097516802 -0.03984701360529435 -0.09894204538253769 0.06790238497021281 -0.10373067021790702 0.00580279103345536 0.08431996111921151 0.08965522627155882 -0.002453964120038023 0.5196154856022626 0.14843802947206594 -0.035193075423418235 0.0011742893873916613 -0.05618404954231929 0.09679087540011151 0.034640525769160255 0.04643906172339909 -0.05990150189046527 ]
layer 5 Activation
tanh
layer 6 Dense
20 1
[ -0.1986126668626792 ]
[ 0.00033904973754422167 ]
[ 0.008776877348341192 ]
[ -0.0007999227052800876 ]
[ -0.15545027682774842 ]
[ -0.010839614267216295 ]
[ 0.013245216868393259 ]
[ -0.14095813044812167 ]
[ 0.2450448686523658 ]
[ 0.1969289460511095 ]
[ -0.20104495663833832 ]
[ -0.09728071902935893 ]
[ -0.006379544810520333 ]
[ -0.015387507579797517 ]
[ 0.05571722720283365 ]
[ -0.1173210822468864 ]
[ -0.0032367036042765117 ]
[ 0.006763839961906479 ]
[ 0.18557004673832356 ]
[ 0.019052382193913375 ]
[ -0.08482976391743294 ]
