layers 7
layer 0 Dense
20 20
[ -0.25495931006779854 0.17953852216978397 -0.18108866943917554 0.14309354030618873 -0.40932800618716936 0.12110554658040751 -0.46456080185057713 0.08236557476498803 0.4190834687362567 -0.01213525573862282 0.24777292907655424 -0.2889411073334481 0.11998826963137695 0.29453884266437896 -0.29517434831269945 -0.8586391989899089 0.11417576744770062 -0.305152404027605 0.3479723085620534 -0.13508800057873477 ]
[ 0.17689627693829088 -0.3846618214470595 -0.2686186505301533 0.3077554751342574 -0.15529262836899682 -0.03773395825260672 -0.2886469827693684 -0.049508765742762605 0.30316516623738404 0.02629651397384984 0.15592576197004865 -0.04304039360846159 0.022954773364954252 -0.31233213608412186 0.01973811194266724 0.031447899727315445 0.37837163303303056 -0.22096500029302707 -0.22756171435376085 0.24722846541557505 ]
[ 0.014733898221216507 0.2304902118758766 -0.34335613523310227 -0.1088528010746078 0.07270570847732415 -0.0608520800487207 0.3226499051596551 0.3765538364786324 -0.06432655385456902 0.37172238293853843 0.09159285475235385 0.14405407227060069 -0.33092568032747693 0.19730318146905143 0.04981196656630175 0.14361016537921484 0.3076886641449409 0.27037540026482715 0.3311684846179946 0.13017818582042873 ]
[ -0.34324428977174054 -0.045324238536617885 -0.23076787447614844 0.12722245520190895 -0.47352507791628884 0.47712795137920055 -0.5661880823440207 -0.2428800158230455 0.08717325015966064 0.27511934642431646 -0.36915605443939503 0.05916176007499444 0.24310274194640755 0.03256857436550891 0.35722984520054224 -0.8744379084502939 -0.06253853456601871 -0.23686812768351076 0.22857585770393166 0.2222494955587032 ]
[ 0.16422476818531842 0.7372718124737226 -0.003815765456720083 0.5545141879482396 -0.11636985805868456 0.6052872777498457 0.01079119134348078 -0.08738622197692537 -0.3511892707755065 0.02619793976497919 0.11265305950578353 0.09514898954396463 0.1963603466605319 -0.26934666333599494 -0.1632358801882447 0.3277311852172844 0.29462366002936313 -0.4643786305825974 -0.18979904970993883 0.7688084639571163 ]
[ -0.23494559953071797 0.3052979438306276 -0.15283998698068582 0.18635528704005078 -0.30967778872847523 -0.24221951417398002 -0.13623245837884548 -0.3692508135664833 0.29060779955837673 0.35886205739388155 0.18793114365133573 -0.12806846190216759 -0.20875297044553542 0.3558869514046026 0.28758675634755193 -0.25381337217536265 0.31810317006439115 0.1382728781945897 0.08271693092081965 -0.2158409967620053 ]
[ 0.27561432006557735 0.012204789557816335 -0.36881149806529745 0.0472265956058126 -0.16347240168085841 -0.06401712287053249 -0.2254263779104177 0.3372067537956095 0.26627972391352733 0.26310416563316996 0.3255505625074216 -0.011962628950423057 0.06127696877823738 -0.1428468627166654 0.042326393138507425 0.19917459246883923 -0.016507637225746108 -0.04973807722293903 -0.01010070167133806 -0.01950774426876564 ]
[ 0.37748316433502743 0.20709661189131656 0.04046448436315954 -0.023174483364608558 0.34122902821033674 -0.08106754139378312 0.307561958363613 -0.6319640138024248 0.04349144675981816 -0.06282047676988921 0.07087001406257454 0.19469851025260942 -0.08886011900459313 -0.3424178741502027 0.36095781315062886 0.23159058298583055 0.1350812777739659 0.09068717083307555 -0.547391245445218 -0.11965496713767929 ]
[ 0.1809876714111966 1.2136103602959805 0.7752670634427101 0.3013475042857203 -0.28430675889385615 0.8589118629766956 -0.17092288521643442 -1.4747601614282853 -0.0834349001858899 0.016716552865886986 0.7706524801760933 -0.05544766365626645 0.44067466878710326 -0.259725396555861 0.062046801905272356 0.0044047118099410955 0.2797892618149106 -0.3341686575133113 -1.0869823992691068 -0.17978396619870238 ]
[ -0.3487362763856392 -0.9346898884896315 0.5408094860230565 -0.7684658981029734 -0.8550795499529524 -0.5868495523981725 -0.5115818475313595 -0.30787604930314805 -1.4634991035002247 0.009342149499472641 -0.010717028260989135 -0.7713146439539734 -0.008300799943356594 1.1594616168383352 0.9107658694571306 0.7494026608752397 0.2241277726483037 -0.6044477930090835 -0.12147112892412999 0.48604622022089544 ]
[ -0.5080598259728687 0.3265982305988984 0.7939828459121757 -0.04341213615605855 -0.7194250065713119 -0.5139434254601937 -0.3153008151221512 -0.7037471886313496 -0.17927700081509015 0.9093175308656309 0.5082716517862385 0.22860272490124484 0.09845664740323802 0.3602481129978122 -1.0639825183542986 -0.6992132568514763 -1.3003372677496816 0.40717529243760636 1.1391915627630278 -0.25848216114459566 ]
[ 0.06457309000633103 -0.7467509833063571 1.756333548265222 0.9365727427055002 1.0702685291193532 -0.8031455787168452 0.8075236252231981 0.16029269752333977 1.2489152896724887 -0.2550669389787752 2.0127804726574148 -0.8564751758964161 -0.06220612032148479 0.19353788972621516 1.0209756771852256 0.5638959267271278 -0.8948556661073844 0.17408226629981693 -0.2907789545003506 0.4037892972955386 ]
[ -0.35713251748565855 0.3370972573938436 -0.678041647918211 0.10978526299347885 -0.7433150438159908 0.8160894922632274 -0.7380987507054655 0.046498497762649714 -0.08512470504863305 0.6186411703095566 0.21172085511195962 -0.3643891356362785 0.07522762183700023 0.463231111426496 -0.5860482765350385 -1.086582832426311 0.6928925972860907 -0.7243585888448176 0.2629914739852098 -0.2822450560669259 ]
[ 0.08179126134958785 0.32564913224718633 0.05915336711164672 -0.007178784992350583 0.07969397471590554 -0.39955133201870074 0.2949015168817477 0.355687536373382 0.6370217835216102 -0.3386354488162657 0.05015429979418333 -0.1370395021533784 0.05620881582265494 -0.5489675534577019 -0.7977209235867041 0.32258812153347155 0.14024637430827652 0.37620399438540564 0.14738753778850813 -0.2356379829370259 ]
[ -0.04989333611404743 0.8676199649883174 -0.45763116295102624 0.29484887315230585 0.25604744747621877 0.5015996223123358 -0.2422748281454691 0.6538754837540492 0.1242703530058802 -0.38082416290105264 -0.14940736700379606 0.32830277001179536 -0.3634116308542528 -0.01652917450139327 0.5610739822731287 -0.42329753778318413 0.3891161545862604 -0.30286126548436115 -0.07826774373754213 0.28826497163156284 ]
[ 0.01161983161906017 0.48989979521875787 -0.5956111582694931 1.2228199253304437 0.48252850236170103 0.3651668818329501 -0.6685769762589192 0.24169121469213461 -1.0326684052549846 0.03951787326933538 0.4060149743166477 -1.6310849643963852 0.20826733237234493 0.09885683645855152 0.6191494219695357 -1.2496968493465406 -0.39080045555953424 0.6604338039749255 -1.1102182282349433 1.8235363277664893 ]
[ 0.1597669424094479 0.7133698796935493 0.518108211248568 1.0771462526328046 -0.1907748666434489 0.409220774202186 0.5149595683644818 0.3621834506575655 -0.422739774254525 0.41608515118967015 0.3384566209004415 -0.9565471980788816 0.15831192030748423 0.3709932259871015 -0.5358002096105693 0.17622411002255634 -0.22615749043133365 -0.5796938102846518 -0.2657794128268827 1.1044368570417225 ]
[ -0.05734281689240798 0.41739120297525983 -0.9335569866064567 0.6559273562299923 0.3280916252486592 1.1001465280549734 0.6801267976606187 0.21014132813725975 0.546227726676405 0.16129192357860608 -0.18434859798780903 1.7209144934047615 0.6609814532980518 -0.4732112560168122 -0.6853417584447623 -1.2040572539322878 -0.4964000499433296 0.6873559403352232 -0.4905231469534632 0.25190607075414617 ]
[ 1.4482176215816558 -0.8122127648243228 -0.6283469794472512 0.24266281274580012 0.8315534441871488 0.7224798343056472 0.4533894042297399 0.27361027661613574 0.04317585722916298 -0.1734157060072174 -0.7396276920990815 -0.6883778351200536 0.7501793539246979 -0.3586586276727713 0.2459105414996582 0.01183194602442499 0.9926845977183497 0.21080870514591074 -1.5904572479249883 0.5692255390111034 ]
[ -0.07798050966214366 0.19502445699547571 -0.10931866407390566 -0.7581248423426451 -0.8147380345101839 0.06415573626309416 -0.06379870916883076 -0.6392404809822422 -0.3675642072711038 0.2537174718293945 -0.8101239534526035 0.7976777968514309 0.26445722861880816 -0.10393358795570384 -0.6602325027916053 -0.11157330485881949 0.25474990179545687 -0.7744424253543006 -0.21080500967747065 -1.0123615803325787 ]
[ -0.2473309302479953 -0.18270329136268337 -0.25903726485550066 -0.1431151971709078 -0.0033062440176340954 0.02548807102542041 -0.20969597980149604 0.15490760200512194 -0.047096341338380476 -0.0845098968042424 -0.14846804260300608 0.3281541619391306 -0.2392215316964612 -0.09143317586630917 0.06534791047558151 -0.09555222509591503 -0.11806478191097934 0.1272689025270788 0.3865498851378695 -0.09044916513601901 ]
layer 1 Activation
tanh
layer 2 Dense
20 40
[ 0.1965403583901044 -0.5321229968272526 -0.0035147509098502417 -0.1947607298669806 -0.21638203165428813 -0.0810589234498563 -0.35162195951114655 0.11555866835970731 0.3560993031212346 -0.5116150331914187 0.037469385713929396 0.00679055557800391 -0.3581637415439133 0.20151698539292162 0.0014078428594349259 -0.18946872779916826 0.6562417924177032 0.003891960116146885 0.08264369496168837 0.6719747861091004 -0.33406318134176616 0.4173588512050541 -0.2652535166257769 -0.3155214124704789 0.26664103342787243 -0.4550312435301214 0.5413334324409282 0.19756816464517157 -0.2547587523659532 0.4014684568258644 0.040061455122809814 -0.39610789734860513 -0.29087252640739153 -0.024614648607607113 0.23056381862063557 -0.0341951581855658 -0.4405714971616724 1.0076535082837657 -0.5229536210767609 -0.16984465364393878 ]
[ -0.4315994573005021 -0.02612372437685191 -0.26208178798675164 -0.039356553228285455 0.6189628893561486 -0.38975687414393617 1.097703098699968 -0.43869704641523793 -0.053449569936925914 -0.710230140699616 -0.0279139778840106 0.4663136561513733 -0.10340272248859247 0.6711460189185368 -0.6648804345728284 -0.3530152240411619 0.33431863667598327 -0.20500423281259492 -0.15999960331192192 0.5580666273334717 0.29172692390477684 0.012882791237361208 0.4521545485658078 -1.1288533971846957 -0.41383180190576896 0.38151163040553515 -0.13955631869738688 -0.06176231017621108 -0.43873363805660187 -0.16054277401684833 -0.09520819956227544 0.25989293489716025 -0.38055509045818453 0.3564868400829155 -0.12803697435708639 0.026603810462968315 0.27376432730563877 0.5393337459329512 -0.014634553307170917 0.38611429187660556 ]
[ 0.367202128762231 0.06809889061121696 0.5635502209396328 0.21797252108556556 0.29570337743611835 0.28167130521645944 -0.512831433864876 0.35048282633099515 -0.43235751823008683 -0.39472693469100856 -0.5276018141126652 0.2544281017436387 -0.3530115114091931 -0.6534761796689657 0.44836896647260904 0.01654067928210443 -0.5438639928894694 -0.3120207325713338 -0.1029469098150866 -0.04933325155616582 -0.6317842174423481 0.3830177967609534 -0.5255703453181928 0.07506392900390367 0.4321372958487091 0.24941306399533247 -0.5001177498296923 -0.04461879371118984 0.16768625273487595 -0.9115760333461057 0.488359963713102 -0.7441280826247358 0.5101803945216121 0.4179116012454466 0.3232484034853084 -0.17402450449709175 -0.3829717045253837 0.36706533448431855 -0.20884460486414508 0.2112366462140612 ]
[ 0.3775646430246006 -0.3541531629291157 0.37983390530122 -0.1746517716279984 0.15183654411127717 -0.057569127784657226 -0.051648956940797776 0.1485111713785048 0.44872639575269124 0.10599379336378312 0.12206948202915628 -0.32635378582305824 -0.23254510500743658 -0.26972042515563144 -0.09079144717181098 -0.0393071726057457 -0.18360126393794143 -0.6659635409708903 0.09666071015687999 -0.3762717761818499 -0.35504942111746324 0.16722579625379289 -0.1710753331888607 -0.2644684438058134 -0.3439822023209498 -0.21938160736206472 0.7315043509713406 0.03433412121918384 0.15517043770751415 -0.11270866686211668 0.29127273253440333 -0.48681189252982054 0.1327074426654116 0.06489095625625013 0.5462456889454239 -0.3959917290278306 0.07966513616066252 -0.6052525342157499 0.5562964573284956 -0.5316042453910709 ]
[ 0.8539978550745185 -0.539249672096345 -0.2748064558787502 0.6603176706292341 0.5846643789102801 -0.3595621354335664 0.43296990431188426 0.9433648145892799 1.0389877216225665 0.29378013380486917 -0.0867905581441885 -0.17942018189647 -0.536182035831883 0.6265628414047498 -0.193084748052432 0.47890652108902715 0.9254139589466428 0.14584697111408332 -0.05521468230301938 0.421873319004784 -0.6955644051216888 0.25956037509285257 0.29019351287078843 -0.6260939030266519 -0.9212668193375875 -0.812371501730937 0.9670814847060365 0.5276677261709956 -0.5254063616261193 0.42038285305612 0.9049554573713348 -0.9287352329698818 -0.6831202048824195 0.6559201516983822 0.6147417932306513 0.25360944688297976 -1.0902454118523701 0.6360559634123545 -0.4596234286613459 0.3233298802331003 ]
[ -0.5768844735376625 -0.40443382407910444 -0.3390817194043549 -0.015499948335196547 0.4594718554969281 -0.5979586182344537 0.4362997957927305 -0.24056435972337004 -0.2950043362773127 -0.08391137566584454 0.02098804900772397 -0.006454235221477107 -0.20827434665710873 0.9811503288390432 -0.4165018570792124 0.06053437257988377 0.895743651872517 0.3551376761814072 -0.10781837365859642 0.15951602947534235 0.19719821922532407 0.058529247859607246 -0.052033541354540115 -0.3197025795274823 -0.10832272146197243 -0.10588599897950866 -0.10895541655092186 0.35089453718874 -0.4559278376714442 0.7944763268027171 0.08081081965146261 0.17414481596206832 -0.7765898516622837 0.5378690449753629 0.2549951860036492 0.38065750522124364 -0.29324933707960293 0.26370213627791567 -0.2353570357577432 -0.21394065989267572 ]
[ 0.35195917667696625 -0.5905430096408337 -0.25508783797728934 0.20143794068899346 0.4317654608069744 -0.014003057235955668 0.0024445668633463072 0.18882015714643532 0.4809874880639024 0.07387803012513057 -0.3237243728423707 0.08872635713163764 -0.5466124935105217 -0.26132059383791884 -0.3211102829065945 0.05278040114429236 0.08371149904657099 -0.4543118761229454 0.020613231834335468 0.5354040281529661 -0.1751558991045607 -0.25285547600444364 -0.566786161394486 -0.9668645051630853 -0.7072482051125776 -0.6239885869178707 0.2669395347641916 0.4947881709065303 -0.31631558688667155 0.19628295453610123 0.5935518568371193 -0.44900276548818097 0.07624792637952553 0.257785086445301 0.606407193544535 0.10136888346991849 -0.20505543122960224 -0.10723739867126414 -0.2666602112312987 0.13411110561897202 ]
[ -0.08307534700835437 -0.05392778351474385 -0.5122122246631005 -0.005820367483984752 0.20515710867260006 -0.09562306843329563 -0.004244876275893183 0.418580935717951 0.5025423607834931 0.1108221437035183 -0.6820985052381119 -0.03662169705990717 -0.3639904566490568 0.04430879728992564 0.3994620095982138 0.14582131973608412 -0.43090419132991054 -0.4265183385667934 0.24047368224239482 -0.4166131129852886 -0.2950733758542304 0.0726877468400312 -0.3947619049844282 0.13877217648025847 -0.35720901006136574 -0.7353496020562716 0.9189330133966911 0.042434495645503 0.15354254559244615 0.23930618099692116 -0.08909253487078474 0.08660255722956245 0.43805637464813 0.20740202340208833 0.47538329963531645 -0.3374138806215419 -0.05546275402553581 -0.21625793864134363 0.7144273593615501 -0.011011769349305795 ]
[ 0.5762288038213408 -0.4104170020007139 0.4008850499850387 0.2625516617285723 0.5651173878746505 -0.6343342675115344 0.3744980602955114 0.3749852140724699 0.5470798687240788 -0.2215490981246261 -0.5422226912192142 -0.02754997543183507 -0.5296400878157682 0.07524939104045307 -0.34398177081106635 0.16504854009623057 -0.6139909027295648 -0.7300362461955614 -0.32258249023549057 -0.1832635935685002 -0.3123999084615895 0.11861926163670287 0.22149560771385995 -0.04245912275478953 -0.4862842192367628 -0.6731523499200572 0.7885388657025915 0.39639896929393165 -0.48094859948043306 0.5102374723687437 0.3994436640080473 -0.6155256466584142 0.4386152112832148 0.043949809146072535 0.6995595544029702 0.46430053176586794 -0.2351443195437949 0.07276413965530772 0.04530568945599794 -0.8333477341757013 ]
[ -0.12758013027495826 -0.17215621145575338 0.35742190789529027 0.22250991938987785 0.07864109317834063 -0.02601108952938321 -0.05186168257423201 -0.41766356851174474 0.33212796420458274 -0.18824969703334424 0.3883615885604661 -0.35379782901884876 -0.051853542383645264 -0.32528387376170026 0.13452034335630278 0.28602234857337 0.03758938549446055 -0.4050226159109527 0.010607793962254777 0.26557961935280194 0.28211202179268113 -0.2447426709486943 0.27414593249224245 0.2853470568006658 0.11149771550498007 0.255471147962959 0.025118967106182888 0.08705110976941163 0.3110000015340065 -0.4361653550395305 0.15978531075241245 0.30743052680029825 0.5049697141121258 0.17775681746421676 0.2047303514476798 0.36771546992619997 0.42360095587825214 0.0638379821077404 0.2020554141311586 0.2851291180432536 ]
[ 0.40056891718481746 -0.13427567281642377 0.48148119186407645 -0.028607200950877806 0.6138869341419252 0.45245754839453484 -0.3177483058612964 -0.22059803978971618 -0.1937232254078252 0.06908971018398787 0.013960118123753354 -0.2749679717945596 -0.5027940668310302 -0.3519099277626342 0.008945179150940391 0.21804850658384003 -0.02187219296869677 -0.355932742618036 0.1454564205224899 -0.15922544249965367 -0.152000107427611 -0.21679018393016172 -0.37973501771827706 -0.10467125216854416 -0.161706320381252 -0.1259583594450529 0.09037439008716329 0.4273867729921296 0.049595949234952544 0.008560293960809246 0.04218563969505901 -0.1245214929122257 -0.01649985284385896 0.1495183082657524 0.6508550521078457 0.31003150227675313 -0.48948219473506643 0.12075381589311121 0.11187449435669897 0.00737969322750303 ]
[ -0.3786312539485434 -0.35720244970807163 0.006265746545811931 -0.34887982770842124 -0.0344360104994693 -0.5490831767146835 0.692328678752712 -0.19975051707118588 -0.042737316152076994 -0.5546764189387134 -0.31459066028887006 0.054608134875084306 -0.20140407827207318 -0.035048424714915476 -0.30797495763246713 -0.17665189877031348 -0.3008909843327257 -0.11578869140802016 0.10751971786302596 0.2094545161053557 0.43080772195542855 0.0059427479255267646 -0.23302389125706804 -0.49937272778947256 0.0709504352408351 -0.04019564958744597 -0.39144889042101616 -0.26608335417046536 0.22013049966706008 0.14530345249738677 -0.04542633589341691 0.5873243825812335 0.5335656009397923 -0.24307957078376835 0.3877893458259738 0.44031053993631236 0.13396681292515056 -0.18355729417433903 -0.27575273046832666 0.641725605815088 ]
[ 0.11171260429958313 0.015708765652156335 -0.2783031148173216 -0.18086456857808614 0.11621740731678817 0.06719142503019995 -0.4090850096666001 -0.27963659449237366 0.12792782428621197 -0.17129942389964098 0.10323048944814363 -0.28702547018083296 -0.057739286224631904 -0.38932090925678836 -0.07578378630387754 -0.04412422481941928 0.15460076120806662 -0.22604478832980396 0.13290678312303505 0.38529891155985024 -0.05634963700172059 -0.31887168220369855 -0.17935127513504084 -0.14426039579393218 0.05328663389984672 -0.2541607347648389 -0.24217749848057935 -0.1310105364506741 -0.2488116342231382 0.27009086858666964 0.04706954634029543 0.0035509675332242733 0.12018266285174112 -0.15130212503074925 0.1364425813926962 0.5875102731656261 0.1656632304107848 0.79842043611581 -0.33926101927423546 -0.6391638132564889 ]
[ -0.1057639539585356 0.8525324006454903 0.2533510684605687 -0.18200253208591735 -0.058793783605624324 0.4725113013575329 -0.3166796789520257 -0.2933774509329702 -0.38902248781870274 0.13477175335017139 -0.050864945330713514 0.20878804474654591 0.5402521131099924 -0.765690708854426 0.5660142103122879 -0.10987928188372983 0.3323503356298448 -0.06588861455467782 -0.4563974887941335 -0.6000266310256638 0.28889143582272586 0.2004284572150706 -0.2933214942098744 0.7867461515029391 0.33260133201001446 0.4293751032410083 -0.0084978644387889 0.06135111344995187 0.9505618188404803 -0.36940658993175185 -0.329544922087518 0.25444835916260167 -0.0030229025439529357 -0.30022692254654637 -0.34549816040926673 -0.02444501537912856 0.1323166523057878 0.19212209454312112 0.5940310213604757 0.19263155369578955 ]
[ 0.629053366747637 0.04837634524924918 0.07269988908646224 0.5671244536240722 -0.12667481603023265 0.671761742068272 -1.0040125394000372 0.8422087315007886 -0.2268023960882589 1.5762523638998656 0.12186316031900365 -0.018386500131093036 0.2983227512936515 -0.07911347692195551 0.8602524944436413 -0.05433425640071366 0.6729994893731771 0.9075623520525427 0.016529422321221884 0.08550787762593529 -0.8334245234140194 -0.5477904550138178 -0.8658282859170292 1.1230683721336172 -0.2730715187769431 -0.04021614161267707 0.23832473680500268 -0.26983629928930813 0.8539921414281024 -0.7300432771446057 0.5520271302869777 -0.6936050037010004 -0.2847853814095256 0.16910259033829625 -0.3552407841896255 -0.8406985113094206 -1.4244960019096917 0.1712854753541642 0.11607954238340523 -0.27599790054424217 ]
[ 0.39769990853911225 -0.13922100830639922 0.08648241733824309 0.31701795123752907 -0.07386150115449377 0.8278537822263573 -0.7601555478470425 0.4386896230936861 -0.48342357882424536 0.548124930928825 -0.40345466184184975 -0.21863761947644483 -0.1218599569776462 -0.3194397265615814 0.6704764715352531 0.0025469058802084677 0.16795919542523882 0.6746275828868467 -0.007236877245444408 0.5730376348580705 -0.6687503364404188 -0.3001488680523491 -0.3052820626747747 0.1567727716223872 0.4137569203118378 0.1970239666153437 -0.14945438607118305 -0.03049182993829914 0.053437276623497065 -0.5435561971809958 0.5695084640459341 -0.5796752694610006 -0.3242683107359228 0.049268187533337476 -0.0020728939842318862 -0.4468599399130469 -0.5230447922380964 0.048875379310002166 -0.31378488951929684 0.761377225543774 ]
[ 0.27787251295613224 -0.11800418948599609 -0.7575519128713586 0.18235349486014296 -0.20439039981555854 -0.5768820545448786 0.06903665291788676 0.04888376220370557 -0.48932138393881647 0.14286419635454614 -0.14816509947559908 0.01708640903024362 0.4250307304862896 1.3880176339837191 -0.23029364272384303 0.16350769668603735 0.7147136669001098 0.7893401622281883 0.002624541649834068 0.022224506219887873 0.16194823965912988 -0.20271230042641536 0.08993058669440414 0.20796369949985846 0.5461017329218307 0.39310123645191863 0.4728550001393629 0.05999652478400325 -0.2500981561262446 0.7605926446635092 0.23990291863601376 -0.16979380414112183 -0.9505583483922846 -0.34523256671173613 -0.5338899929313857 -0.41118928005254723 0.27950727497924227 0.26504683334102447 0.30488574595246953 0.3098133211935737 ]
[ 0.4525756949907398 -0.5034278057653913 -0.02694677175594664 0.08392025276547677 0.6252146095875554 -0.1285139605643541 0.10814754457640831 -0.025893260329673692 1.1282939598324115 0.007896852635145779 0.4137399391160203 0.1303135161303544 -0.6304508376288179 0.3782643710847139 -0.5804521800541739 -0.13815565747384942 0.280427289367295 -0.7967897022830265 -0.027193504237946593 0.6601395992679903 -0.10520514950876225 0.32431098663352154 0.687883949036024 -0.579011227495229 0.0001354154291427752 -0.3463660331562804 -0.19382107590644015 0.457098544395729 -0.2698344373755092 0.2876208625179216 0.009068813394448398 -0.08743791225743312 0.7573417724029458 0.2021136915383724 0.2496006311413347 -0.1704038587521813 0.2559352539836224 -0.3059572860579752 -0.241064818957652 0.044839118958139024 ]
[ -0.3439098169641723 0.1281064670423689 -0.01735260478120824 -0.7332168231293417 0.45696817085041985 -0.3287758451745538 0.8333660336454607 -0.14899356066362507 0.14344020446594422 -0.013341864931117704 0.21648717887401817 -0.3117109072311894 0.08293471605849892 -0.5404355611147096 -0.5768221594535061 0.10746135692669972 -0.9617012171404437 -0.14273486130131396 0.22513048912270817 -0.6973416196771335 0.9280276000299027 -0.3136148687705848 0.6138586964763931 0.0044216255286856215 -0.3465167859781783 0.17294172626577284 -0.2376867233695226 0.42907008039642264 -0.23305437142619403 0.11039272088311863 -0.5011801919892661 0.5044393570811474 0.8511649517551674 0.12118903846342252 -0.40732117454981304 0.11744305456784486 0.5352827960356221 -1.4147486588074092 1.2116927623790257 0.2839339021022324 ]
[ 0.5766480182986461 -0.04174927667598411 0.16435694408095447 -0.14655403904029293 0.01792462987148633 0.34395595431134507 -0.8212333930638522 0.7277647042026913 0.4024299849066642 0.3325167569852374 -0.11714791318165235 -0.10384251693617366 -0.05372444112981683 -0.5047575418364506 0.42651990834277265 -0.4102846199976251 0.25227701532636726 -0.49584505059113654 -0.14098134922523325 -0.31862437661212717 -0.4641661734781659 -0.2912837795485145 -0.49064234083561237 0.33836666167973967 -0.4944724078391567 0.3771396381485063 0.5746753421078461 -0.16739661333638392 0.40400516284286053 -0.49545649460286717 0.3146580493636046 -0.6248319380781404 -0.1498925190784596 -0.2054812277790359 0.23808002970713976 -0.6934877561597695 -0.12541752416177612 -0.34427551642399673 0.8294830916038294 0.29675491386507896 ]
[ -0.35746072812542773 0.530677848287607 -0.4151788470084566 -0.10345457914237229 -0.71857332254519 -0.232140798547117 0.23836416065290844 -0.24025398122652797 -0.14523970071075715 -0.10957975778749232 -0.08302679602383001 0.03677669255546386 0.33406839163226054 -0.2978189018179647 0.10276937156436863 -0.3745324873690504 -0.12217698604304011 -0.015494541627044538 0.19418371398853013 -0.5600898288715986 0.6544882792072394 -0.2744542682934258 0.044396320233491667 0.294946946224775 0.23143623409831357 0.21197710070420128 -0.1304557510022077 -0.3421519939433091 0.08047890518095689 0.4279279140604688 -0.3305522098581906 0.24516609823337632 -0.26644077418730056 -0.4755628656296024 -0.42248373942952167 -0.20531635006369045 0.6419051730930775 -0.1597240555808922 0.572681556282887 -0.5378797493832447 ]
layer 3 Activation
tanh
layer 4 Dense
40 20
[ -0.09847784608940706 -0.5643847261307707 0.1466052281991066 -0.01984550164523522 0.3302578233432243 0.39941584510514566 -0.013933370070219999 0.1558778028030213 -0.471801179021526 0.48759277416836594 0.29187188915762424 0.2931616484359989 -0.03381115291791654 -0.23458619216884782 -0.16876398164243883 -0.21844636348925636 -0.15676986668366721 -0.4981140541996465 0.8031873995157004 0.4182482551943668 ]
[ 0.26042992332585085 0.1250151076214799 -0.14055835033295278 -0.12295482885357731 -0.6887905616959608 0.016536099915372172 -0.40708050351777275 -0.0401623490419291 -0.03841587371738043 -0.2926466003337131 -0.04558590365225333 -0.40419508593939263 0.13689505736146038 0.40337378963122855 -0.16741054458128032 0.43941855151005144 -0.1305222400712126 0.6893736778226738 -0.2962241469811624 -0.4620196358110303 ]
[ -0.1795332280723479 -0.1618130809589461 0.11945934957073959 0.2985000903804104 0.16427238977511047 0.0854235725197587 0.5185253552543291 0.5847406394516289 0.06721968757777516 -0.008588038432606488 0.49809868023925635 0.13018798160123413 -0.06024153005208114 -0.44140963676306144 -0.12378446061306621 -0.5641288265234 -0.6382630049128016 0.2771240209084965 0.36737278825547415 -0.14491996471876847 ]
[ -0.060920194499506655 0.13779491224536877 -0.20471395363937134 -0.25159610510870184 -0.05337390947388289 0.47097788776078947 0.06562935139419053 0.08894862996565503 -0.15391655168594734 0.09707793121122987 -0.5128910313284574 0.04209647778336887 -0.009629983994349096 -0.0037138513362848136 -0.05171972126580045 0.026286748247664003 0.13576809494287725 -0.2224714522891783 -0.003111380904294941 0.17968006596138536 ]
[ -0.4645238345670165 -0.1645545009354989 -0.12217248644617956 0.15151321242657823 0.2721644713515153 -0.047777519926014145 0.4672440472712969 0.4544308643059799 0.09418778095322343 0.02330515160989634 0.2896406347945574 0.05190886133230301 0.429147865278638 0.10231840231800797 -0.06451662592968845 -0.6197552025961549 -0.3104450538309381 0.04078723559380016 0.014502867465515004 0.2665278902523956 ]
[ 0.13088928041323022 -0.2939693481449078 -0.5733140606624504 0.34042863202986595 -0.1683014111618999 0.38441223386813606 0.18335517723614753 0.4136986468824309 -0.016716113367850068 -0.4444293055649939 0.03938727629829996 -0.11353232132366009 -0.2629927297550724 -0.07394685236046633 0.240995800176173 0.4128276951841449 -0.446583357624451 0.5456493849522482 -0.2155365481699814 -0.44238463278340506 ]
[ -0.13564455571525583 0.3474160013882288 0.8584474028880952 -0.7545627702542007 0.34399223723903277 -0.7341609569321745 0.2127841738717458 -0.6436984026644392 0.3716571279658813 0.4296528018555213 0.22712362607779968 0.19277977094486656 0.6591287789028233 0.2828227581299311 0.5188910513574959 0.22965019145699644 0.18995520329280002 -0.43404258355558756 -0.4537460189727158 0.5349449941995746 ]
[ 0.41992284273614944 -0.55028687963292 -0.07332997868955529 -0.5854534035352815 0.0673109543071864 0.41734314956115065 -0.15750286723510748 0.15655895659416788 -0.3438003573727443 0.2686222051423562 -0.12737903099682085 0.32788753791981534 0.32188853613814017 -0.36939633612157907 -0.22035849266001986 -0.48002304550655317 -0.28320389964419 -0.17102914551119652 0.2948481547775968 -0.04139685359744558 ]
[ -0.358804130719091 -0.35472252240933666 0.4262623789274319 0.5989419006906227 -0.22845286146731525 -0.3828866951489378 0.5059849128869527 0.4477444889769367 0.7097482132187666 -0.18636078474868784 0.6761041147176619 0.6455562536284417 0.4017171297817893 -0.18344226526711016 0.12431882849753337 -0.6070092100560476 -0.4868989237492296 -0.06192071387255748 0.5082958037909311 0.7464484186304248 ]
[ 0.4976819847462052 -0.25708039225361984 -0.23314951517715002 -0.7404782413828056 0.03833521520542255 0.011358477855769995 -0.38163743205374656 0.050573278239632424 0.03651375528810312 0.1727048847119719 -1.0508455744519651 0.2677863144762099 0.1463751462005765 0.0427656783743983 -0.44267084297461823 0.5066494223937807 -0.24730022503524315 0.07847200220251281 0.008135478621383713 -0.13718137681366918 ]
[ -0.08123080376833923 -0.010068245432466903 -0.15315340698394578 -0.31960715132828654 -0.1800915956413931 -0.30974854113781153 -0.13545027600939408 0.44833266035533315 0.2200751229601649 -0.021652978628752692 -0.10282374484656363 -0.03900267420320402 -0.21694512410632377 -0.0003313441113489114 0.432605506133903 0.22230142056373944 0.19732265867852183 -0.025924509701064656 -0.2550114892119656 -0.0837508186645364 ]
[ 0.011641178316820308 0.016643348701864402 0.1188158794022115 -0.18601029284991466 -0.31138795382630086 0.20716439596804 0.03903515751661345 -0.0384992749794076 -0.05022235098974512 0.07330739254604522 0.14157915373115265 -0.03312825115938885 0.20740241500529355 -0.08941646597033008 0.17008432410036536 0.07250760247806935 -0.036471199296835316 -0.046759103758236 -0.1845497920317796 -0.28085380975463553 ]
[ 0.7597361507479037 -0.11590134218996705 -0.0664595441288982 -0.05766074477909862 -0.08108841058559027 -0.155851541853709 -0.31025921797607997 0.019540562067825017 -0.10916821724176141 0.13099122729149054 -0.4540426144084416 -0.3753552024761795 -0.16854774592979713 0.16455956326501847 -0.3781274767149517 0.21171746176111023 0.24237585666562259 0.29718524008174996 -0.3924666203988374 -0.3576505680087313 ]
[ -0.44673623060116846 0.025171999838713432 0.10842922941112053 -0.34371048097940105 0.6033298764814254 -0.019717864600837735 -0.07317496447914364 -0.05688419346345593 -0.36011381959208605 0.42424880785320496 -0.42550952790395197 0.5303595609138412 -0.2224792862191677 0.1219104949456776 -0.23931621677900236 -0.5907824276784718 0.20602738828464587 -0.9117010217036082 0.31502472998561104 0.5133402705891584 ]
[ 0.23421441981068664 -0.2953899579691981 -0.6187443422245307 -0.2802883362849716 -0.32176197877041984 0.25545304574352007 -0.04642222180607627 0.022602568559595436 -0.13737038566118615 -0.31159831190288434 0.1896598937187431 -0.38503490615579794 -0.2219048996315255 -0.019502950847791776 -0.40914572137496735 0.3002840839123166 -0.2941543322598933 -0.058216388565016174 0.23632798721064233 -0.16438399175762541 ]
[ 0.07541577362295913 0.06699692813396693 0.10514734262695839 0.12079381551613866 -0.05835988354342965 -0.01866306434449714 -0.03839694253621063 0.29366523110922527 -0.040317359351049985 -0.025525352207492386 -0.19377493603994944 0.10175086094023206 -0.0997113491328502 0.10859959287350673 0.22912942272471598 -0.19766561408287803 0.22475244072588488 -0.2978978244153047 -0.18278064901359242 0.07890872087141881 ]
[ -0.11516355735663451 -0.33380520212214654 -0.1854416968178376 -0.798390464078012 0.39389312859426845 0.2909161260445065 -0.38737023471260734 -0.14734088108173501 -0.3952425279509366 0.4526020800175645 -0.4852992539771245 -0.2046473081584375 -0.7762675747924395 -0.4857947393923572 0.10923140693536174 -0.0982450143841705 0.42719203455679716 -0.16975741178321516 0.38500937569655863 0.26174943813152635 ]
[ -0.10276201708004995 -0.026840882318535906 -0.06963069318737096 -0.5694982460657491 -0.19058416951348134 0.04713463832218847 -0.37768868519563764 -0.11280126871459113 -0.32890627330447825 -0.10039980100761922 -1.067133140688133 -0.5739270653782043 -0.42108223293492963 0.31535271122148034 -0.5917016910126726 0.30584199394861966 0.6635537289896131 -0.23183364537451018 -0.1386026269341532 0.3534081129318624 ]
[ 0.07880408575319607 -0.014622004824763942 -0.021910625865056238 0.08232009069328214 0.446831980690172 0.017430044049299643 -0.0421817406689786 -0.13823866336050533 0.007770332887523955 -0.04711088357062711 -0.1560976055635959 0.10118811252303891 0.09839393905116037 0.08672926148982998 -0.08919082774876175 -0.06880585189743334 -0.27366350797109346 0.1390314514032673 -0.06234650036678781 0.09886579262638914 ]
[ -0.5292737085107704 0.11470672849173087 0.24182422771602777 -0.08904012481690027 0.728129914140132 0.6093045172879208 0.3368707683510759 0.42982721118341144 -0.5439536931518069 0.5580444471486584 -0.2686726638140649 0.07931994982526572 -0.2069419840929309 -0.5133841432642994 0.39845350938249036 -0.46500206057004084 0.4113104244762602 -0.847133122436332 -0.10138609871752478 0.3177275467265784 ]
[ 0.17151135264610506 0.4374786576413664 -0.15685975516477652 0.09333845472871728 -0.23281757432819114 -0.5067215044936042 -0.4003347208079734 -0.43551030679879965 0.7337667276658442 -0.2813795620009479 0.25789831257300555 0.006448232546533466 -0.2173767484681191 0.22885001252188703 0.0937494499330163 0.36766866401910464 0.5974995386339257 0.2192786227105072 -0.5178129776111866 0.03501096158757154 ]
[ -0.040874751337811 0.13466739907812633 0.12442156804565858 0.17012558483177892 0.17368955772541078 0.02006291736970354 0.03539152521114371 0.19080863061660835 -0.07895219800551187 0.07327084361443481 0.4536860449877127 -0.02460070793521246 -0.17189865600544024 -0.19173502341218 0.3787788105953768 -0.007576860597090134 0.019436277086828397 -0.07774686292739992 0.07304313057778722 0.22155458997770827 ]
[ -0.2678842725599 0.06004852461950978 0.19595026134413956 0.09480150961545376 -0.11060473592501914 -0.026477810644709457 -0.2226350827472643 0.3572161265713798 -0.03741145595821023 0.044946242100340886 -0.2946289858253713 0.20565046560473052 0.12324005753625494 0.30087061397171033 0.15350128978742797 0.298437446628509 0.2914507472166085 -0.07217089345292865 0.004932612228170352 0.23562816259580133 ]
[ 0.7715339269169308 0.06534806505813544 -0.445387500276991 0.028407242795499 -0.754491273759712 -0.1729678276651033 -0.7935832747982626 -0.12377848427241128 0.3848483620367853 -0.1990246965155211 -0.5999830160684043 -0.4191875193073308 -0.19763268264984385 -0.2928465930072917 -0.4534884368897822 0.12863281559655243 -0.25351534503814677 0.22259449564093833 0.11029480964093723 -0.47276964925247733 ]
[ 0.12493303654740384 0.4004387079058464 0.018624825790547618 0.0395024560699265 -0.2088777940158057 0.12900184528463488 -0.40413743219722037 -0.39392710157152033 -0.43904734940338835 0.33599712332872494 -0.1754164019219577 -0.3081721882171655 -0.5053542007414086 0.09260161523822495 0.14530120243278896 0.495284096803475 0.354090715942329 0.04504405086699201 -0.029236101575110265 -0.10962691455925846 ]
[ -0.13252478899875325 -0.0949116578443667 0.10163394787113071 -0.17240523262415322 0.13406677645522277 0.15928524399061517 -0.3583663777374093 -0.041194098405984286 -0.359096555387538 0.023547829486662182 -0.007087242977720662 -0.5918789862976884 0.05011593055926883 0.23345175953277233 0.20673358344919643 0.33140043912665834 0.3822768824873696 0.3141149735340241 -0.2547889944028598 -0.3423292287620778 ]
[ 0.4127128896156258 -0.3373044976635893 -0.3688682282868137 0.6074741902791739 -0.23551542699823155 0.4324047905336123 0.22476120485784923 0.22383185020510027 0.2051907952197943 -0.0948491676850303 0.305676787969892 0.36116362606343516 0.49980252605906234 -0.5662312714352737 -0.5040480656642193 -0.5618284444955901 -0.5725093114157752 -0.11381483702016161 0.574934084961426 0.03478370314948539 ]
[ -0.1860797116954114 -0.18113292126959576 0.19801637090937452 0.07050530786226296 -0.011951684753956332 -0.10559099831582078 0.16007566601992682 -0.14553374808157649 0.15474659842014912 0.027351303797625907 0.12822415136419055 0.21389049979059963 0.12963031325016114 0.18414072638070478 -0.03317797948308478 -0.20787230262479267 -0.0001554224830750651 -0.45380921653459183 0.2250623356281311 0.3606723935730832 ]
[ 0.34050180368516353 0.11992251471460882 -0.48995349058675663 0.0780684488894727 -0.49735219886247084 -0.07407025968454181 0.1539316125826795 0.1664626680201424 0.06984254816578561 -0.028041000991144354 0.2885455042530598 -0.6814279614537254 -0.2846042716634824 -0.08061896873378932 -0.18372959432956285 0.2736287507950181 -0.31730358410123044 0.30250459431683724 -0.027085570866679495 -0.49662369202266127 ]
[ 0.3490881952984853 0.6296928514469861 0.46873072537940597 -0.08135936288613983 0.22780275755384977 -0.37056969684249524 -0.3068562852283304 -0.4581180441463542 0.03558245256354758 0.023982832218886436 -0.4145825575647722 0.4142990491282412 0.04070427494309867 -0.016867860174984466 0.30431271908601565 0.08002407384612391 0.5065707541859253 -0.2713842029570731 0.02351967106067006 1.0081050279689154 ]
[ 0.07903051572318301 -0.0551852669285549 -0.1274840014310006 -0.08448591174068959 0.30526678324213946 0.20130735850192288 0.25195304204819563 0.07674706529593939 -0.1546997623751813 0.12149457569854323 -0.5440695305967858 0.016977932236682494 -0.0563165384695906 -0.23937870926239607 0.23812795384438368 -0.09188432217095577 0.21999701334796792 -0.5944980536263473 0.3077160347949751 0.1599252222546433 ]
[ -0.1368192149141052 0.30154951516837525 -0.19632652010413007 0.3681563195366164 -0.2692105179909979 -0.8776319067751398 -0.20036609407895864 -0.13463763872656506 0.7210034892597464 -0.6961082024142894 -0.42162025960998867 -0.6480767204111185 0.30399460433905007 0.34753048014915766 0.1315321726407421 0.5799915821795372 -0.07364242772650931 0.671024185762242 -0.6583662440831366 0.1511007033199494 ]
[ 0.1559066985358952 0.30681153760695157 0.27319097761697864 0.5252107035457015 0.20038020502171783 -0.19442129393133267 0.35521585381424226 0.290180759604215 0.3329359007906331 -0.42780787736273224 0.07934482652246554 0.30187871593705135 0.19298453427040174 -0.026167859509049658 0.37854148773430113 0.4022504430870576 -0.4287042540764649 0.15314672895838996 0.03010557534572688 -0.030846898775171598 ]
[ -0.2590887835385334 -0.12373576564271506 0.3102958460445889 -0.44377235993525754 0.44374014169175996 -0.03204051641746609 0.07561051942176021 0.3217779320694734 -0.09645168144879543 -0.06569125313911081 0.16415649048635997 0.07787909355783536 0.36776077798981244 0.05945858335728652 0.2795393603561424 -0.4832677181031696 0.23151058792474222 -0.3784751754171896 -0.17533384212580408 -0.14305032692218028 ]
[ -0.5511226447981681 -0.033478080158108776 0.32306094707827615 0.33546686458897845 0.13932007077884168 0.13457807074055111 0.5590503501072266 0.3694563094594545 0.14918545089006066 -0.07977580733024928 0.6359381756223498 0.33081950858778025 0.3461683584451838 -0.49710087793552155 0.09423778604061138 -0.54865777450871 -0.41227780762454036 -0.4381443455552481 0.4265261844888591 0.282657200034232 ]
[ 0.04056140444783256 0.41285988491987263 0.0343830026793372 0.3596402492186994 -0.2200217131332994 -0.34335561355680455 0.2461776340537859 0.042615695153813846 -0.1874548629527939 0.014646291793785939 -0.14103057408226222 0.3330709820069013 0.017875034693314543 -0.25118405220377904 0.0795120268485714 -0.02001246617087324 0.3917050602017633 -0.21724776855838987 -0.22826907937493038 0.21748381354426852 ]
[ -0.2056347527468557 0.2572489563709649 0.4991143480876047 0.41001596755626774 0.26549484982183175 -0.4255249372097979 -0.3135435546352511 -0.3579526055102538 0.4417122109752952 -0.460010560415053 0.24807974373523478 -0.2726113363110925 -0.05159348577817672 0.6268436965074184 0.430127088392221 0.32459951962198574 0.2492252425776944 -0.12452978858585956 -0.19064407786482912 0.2229048649088325 ]
[ -0.4009709441747464 -0.13054046803040578 0.1555068196306465 -0.5535887006206738 0.230744437018227 0.5943201565505074 -0.07270450780328083 -0.03574810136730703 -0.5033970083756686 0.4459534813681419 -0.12402052021168923 -0.537383170322162 -0.6848567840233387 -0.5712588754022779 0.09200823668053255 -0.2002995905468089 0.3917939590947566 -0.5484684808747712 0.2428721019110246 0.048701171161470595 ]
[ 0.6011558145648782 -0.3043883725299005 -0.20905225192771457 -0.07886109308363781 -0.5484758045276539 -0.68882417520653 -0.12206228943256599 -0.2428349483143633 0.46113674029689894 -0.45691798852612553 0.1698760938984512 -0.20218806289472402 -0.06336833601435067 0.2334061112858292 -0.35556602346334587 0.18955512943563305 -0.2345904283432768 0.5955159957913342 -0.10581576455543157 -0.27114784027231725 ]
[ -0.21558947011264717 0.22108564645844306 -0.012639179414540387 -0.27762147239979057 0.15020455653116996 -0.07854016557209814 -0.027120849011950967 0.27389141881380086 -0.16102000050699086 0.010787317996148965 -0.09309009397068661 -0.5858692583330961 -0.5783392117278748 -0.07553630415662174 0.2056477760123069 -0.3287467401651802 0.7182268731721526 -0.14268500725569314 -0.35923100693857773 -0.06278503551762092 ]
[ 0.24380572221603436 0.21389596124526883 0.03493405309553131 -0.02969053152871635 -0.09580071041049122 -0.35575696009111346 -0.2406418994049884 -1.1305278320869387 0.06017964797495551 -0.05873787027170377 0.046738440106807305 -0.10876463211985678 -0.09080405476736494 0.17454653465390219 0.04303199215429379 0.33214816236896055 -0.6096348752903435 0.3244384429277377 -0.14340246653302133 0.03225490938221357 ]
layer 5 Activation
tanh
layer 6 Dense
20 1
[ 0.21959503962251126 ]
[ -0.3429368584031827 ]
[ -0.11590013347966663 ]
[ 0.1339535768049209 ]
[ -0.1384914105746717 ]
[ 0.30785128000993595 ]
[ 0.28280913335461916 ]
[ 0.19250329170608252 ]
[ 0.5046560769808243 ]
[ -0.38785635814133296 ]
[ 0.21247723100083754 ]
[ 0.2959635550577631 ]
[ 0.11959309507612996 ]
[ -0.2461924120461732 ]
[ -0.21357536975645405 ]
[ -0.2143059897664648 ]
[ 0.08805185958330503 ]
[ 0.16748812434798763 ]
[ 0.16620275861032247 ]
[ -0.307014532835369 ]
[ 0.12608056050972422 ]
