layers 7
layer 0 Dense
20 20
[ -0.31400609909143856 0.17313493299839725 0.5049738155295815 0.02399023257799598 0.08217569468679839 0.029167297680341507 0.2737069871383437 0.09961693313007003 -0.1874425357299288 -0.4132257833840271 -0.6779800953385561 -0.012260255215711188 -0.019498894447194572 0.42471929336766256 -0.4794103416073453 0.1800561080370481 -0.22036532746965046 -0.332796924711466 -0.3714580367090816 -0.20062998422566553 ]
[ -0.3753117087040337 -0.1044486001019273 0.1754058832548644 0.19564587409327977 -0.049638631598179626 -0.12067240835373762 -0.049080777716730896 0.22554423221590714 -0.2748863618995383 0.227857360474153 0.10589003302577173 0.28066547288369503 0.0776564620806819 -0.037043731230316713 -0.2813347933031171 0.14700738767844312 0.3771764305190095 0.21043364792681168 0.09126228203219569 -0.29228920660799784 ]
[ -0.013733149364431825 -0.10177888443871451 0.1537399352914559 0.05194998635903223 0.32805962146239104 -0.18795486463469563 0.35621596663880534 -0.048478503802661194 -0.29134166130344685 0.21361166942656679 0.024996421504139332 0.04162434482528876 0.21237858063770648 0.141167868077184 0.02802702285976074 0.15408618677189337 0.23729937183491376 -0.008542054221075483 0.13564703226702382 0.3337262311792419 ]
[ -0.5650967500726258 -0.2919566015847621 0.08331636463079102 -0.13473853147508602 0.32510093147220914 -0.3173643298903423 0.4292369873208863 0.49535281949574245 -0.17331107019973813 -0.5841675458861122 -0.38484847730117594 -0.18285977983436702 -0.2970391648325473 0.4685355508923619 -0.11908714468604097 -0.37952244515392264 -0.022029185900055103 -0.07101383764181021 -0.47899209754054395 -0.4767743522222625 ]
[ 0.10637240390574884 0.47913560235534175 0.3541911755730043 0.019334615003776794 0.4316659858148305 -0.06650405170014384 0.03840733196989003 -0.03337745465142653 0.48617763382647927 -0.38494218018469056 -0.11143940372776394 -0.006174519612850641 0.0663976230772332 0.6346299990042273 -0.321589890178226 0.5081776402418599 1.8116595044462434 -0.5116711447032029 -0.10872333789424536 -0.10211611771571641 ]
[ 0.034475468094614825 0.16110050329788728 0.17658294660883744 -0.34257891342880264 -0.0943213130288594 -0.21308567480178 -0.18044725145827611 0.03149684915181079 -0.2655422569211572 -0.09526150884204593 0.20195061270942793 -0.16797153213498042 -0.3706292863680118 -0.28800624865584584 -0.15865265827734762 -0.1366100718568155 0.3028648403098637 -0.2374008376508395 0.31592262746621785 0.310748534422161 ]
[ 0.09769206696526617 0.3335685206695725 0.051426863694966456 -0.21431024373176086 -0.30421858048172323 0.13985894236608154 0.06190416097778543 -0.1907658322986717 0.2297344934564114 0.20221874637545606 0.3593845805227965 0.16596200978024053 -0.2124780766082163 0.07033212531655897 0.08122938778510218 -0.19591541036550286 0.27952952832476563 -0.324679624320025 -0.2992026882400604 -0.10336005342556738 ]
[ -0.0010202642283901565 0.24542031726342803 0.1309345948954897 0.09388933672263473 -0.3619300298421426 0.3019917893683708 -0.2370042118873855 -0.07289851376306064 -0.12835410795790586 0.013440772667685773 0.053083178645700314 0.3204389691256545 0.022132403205558513 -0.6431238904167592 -0.41640586309122907 0.1938509437960362 -0.689575073324544 0.5745953144726357 0.5135763218871978 0.38373685149205794 ]
[ -0.2714181402150453 0.7299740658307721 -0.03190732676078643 0.04259148372186908 0.05741003230521822 -0.2581776120455305 -0.9872129920323715 0.040895261158877816 -0.009083811813444836 -0.3761945070604588 -0.060260281100776865 -0.6635401950238256 -0.17240145904387627 -0.08982833783081427 -0.31922883166042704 0.1707174778036434 0.29258375268303316 -0.022077134386519818 -0.20191133138541023 -0.156011881160038 ]
[ -0.08396899989589936 -0.38540944199518895 -0.351922724189402 -0.3063910204941319 0.31971839116774187 0.27043609965891846 -0.5994055422270301 0.6949460985185248 -0.03496994197583736 -0.5292760341281029 0.34133724478624466 0.100690674897653 -0.2130919630947957 0.026455735175951567 -0.46230552444259304 0.14354089908192164 0.10939817859108172 -0.09542785014331022 -0.2160264581736816 -0.7239284951095798 ]
[ 0.15841611425441246 0.3132257911752436 0.017172597109118126 -0.4408580641912824 -0.0167154508770849 0.47737104118420515 0.5101646695129122 -0.43060442449758546 0.34732750125249695 0.3410238082625262 0.4186677794605689 -0.5813892282932273 -0.03165260954009677 -0.06245589430592159 -0.213328438679926 0.3016569978395498 0.009746931637626514 -0.22761498045613582 -0.04828211388212203 0.2825954726213954 ]
[ 0.6498616839172989 -0.09726103664793201 -0.5734734679736848 -0.28036870103556666 -0.7779019436564196 0.6240931486295351 -0.5678105137338584 -0.58127119169994 0.8349254532247119 0.09476219078106463 1.087758904114211 0.8497081172204722 1.233526574678777 -0.7013302130730137 -0.1504493707885331 0.5203510794515986 -0.7026090830677726 -0.8786595449304363 0.920761246154117 0.8597272981290126 ]
[ 0.20798849148931856 0.48344567579798703 -0.18797831409314317 0.5615560085245974 0.37411461663104545 0.1990483703917547 0.3931950589490566 0.5282112492856164 0.1835021755114563 -0.15556726320766512 -0.528491921643748 -0.6422510418960249 -0.2398033757438022 -0.11260197599853733 -0.7385178969770064 -0.0897016490161955 0.4351843902475334 0.01812338651182842 -0.1508605729498412 -0.44429630052548563 ]
[ -0.1701418442793278 0.2686972566263192 -0.5081267953151565 -0.28509615525512066 -0.05019199962594959 0.4421442195824396 -0.16851727657290647 -0.010868252425075544 -0.6253462053672286 -0.5214569047512626 -0.1713302244520135 -0.021236991914591816 0.0468652296930553 0.24978940144397693 -0.12143626217203543 -0.08736006889908973 0.3568204569142173 0.23864394317992516 -0.1510510053851161 -0.12194829619179026 ]
[ 0.43400981229755947 0.7026535081008604 -0.05861133289875147 -0.4521972692850702 0.04501230442282427 0.29944731211324543 -0.10024949368422234 -0.08469610075974804 0.5775625430057552 0.06988837770987118 -0.2881492766471762 -0.5799683725758031 0.08898284337736506 -0.03988782948490126 0.5165362226769074 0.07590568853565333 -0.26197959928111986 -0.07555948312692576 -0.13850017639531612 0.1674028027142675 ]
[ 0.6384981766074725 -0.8310749870742786 -0.7659065017388905 -0.27322563146343004 -0.2019230701321556 0.20482054207582742 1.1726500464939216 1.2449700453826473 1.1690450984576677 0.03487889850770581 0.42332612894862925 0.9093221507280693 1.1982710811718826 -1.2592670313402 -0.6465036529499599 0.44677929833721497 -1.4129686007167743 -0.7801269838305744 1.1941767528152607 0.27704722502186396 ]
[ 0.01028075075042995 0.1483436070238782 -0.07947266683740732 0.25346425975248577 -0.42576288880540814 0.7555018315144815 -0.6480965425899977 -0.280952016101165 0.47279503778220455 -0.2428292738943942 -0.8172836753822672 0.5860069575447137 1.006897508831028 -0.25313086868672946 -0.6961142779216166 0.7312278497002465 0.2911296095599524 -0.9842462314196467 0.34134846119742 -0.018923198159812638 ]
[ 0.15442211612061063 1.6134867009563598 1.591317414793551 1.172973899623832 -0.5341049328344981 -0.20711134803427775 1.1256403891401734 -1.030674219624702 0.6167785338203863 0.9529201867872877 -0.8158401495604174 0.06997949415730845 1.4293250501023909 0.004806351200030476 1.2860071920269285 0.4812598310576496 -0.831099571428139 -1.0050982292382913 -0.4746065778161806 0.7532881030299754 ]
[ -0.24905447595424804 -1.044182505688693 0.02463874746811959 2.1742630836366246 -0.8723453007847062 -0.41530934727280056 -0.5940830949777275 0.9049233803156367 -0.269389882514413 -0.25167710717591346 -0.4474880028500538 0.9217168989307483 1.1782715192849234 0.08540133045292271 -0.07147964066621076 -0.8071380040624161 0.8351578326312431 1.0086133369235752 -0.4395536320296019 -0.06005845579615725 ]
[ -0.23704991695574043 -0.06380394629666478 0.7100431862675132 0.792531769910256 0.4378671293077994 -0.3318538304984602 -0.13730974752655875 -0.283207418891024 -0.7554981020796941 -0.2880351957713062 -0.16802036423642303 -0.17369896996881048 -0.8446869672667965 0.6049932601091538 -0.13370464046465663 -0.5060370618358836 0.3021049166959014 0.6062846011037287 -0.6173488093790538 -0.43423520657384046 ]
[ -0.14328558523833884 -0.17999654775386 0.13451082264792305 0.026713482776167467 0.08017848799678311 -0.17521479003715545 0.3307991094995479 0.10636291637514797 -0.1287643834344245 0.039475217618480066 0.0014786540407720253 -0.14567086701432425 -0.18259698389180798 0.2377013348182606 0.2336778861512757 -0.1047163905206429 0.01175118356785374 -0.07932601371367319 -0.21532270530861056 -0.052269382192559354 ]
layer 1 Activation
tanh
layer 2 Dense
20 40
[ -0.0033935604766205598 0.02493664710181777 -0.31604212302492896 0.29025833612706575 0.07926519383415258 -0.07238543540944123 0.20047037304086154 0.12328243747136405 -0.1828564409842195 -0.02232433576363773 -0.030105738225405153 0.05449212546964788 0.2584818078153496 -0.13301646915527562 -0.16218495506533906 0.07767508617768527 -0.16634592411633994 -0.1288758167592268 0.25415297028264733 -0.05045446766591812 -0.18541254253598474 0.46380364605715424 -0.029248717059214283 -0.15868784361450675 0.09365044545582456 0.48979024286543477 -0.17272369750910602 0.2215584972479721 -0.24163310608141284 0.02607821166238739 0.19398991101031676 0.0995224740605267 -0.19684316156339746 0.016928189887311783 0.18880769129875438 -0.1787825650243154 -0.028391991821784472 -0.24856205789346617 -0.4912178236315203 -0.04078025875530732 ]
[ -0.24891502241567448 -0.16676522390051435 -0.35469031561800846 0.30663194773392816 -0.2854519795053147 0.24444315640849854 0.19020136327055737 0.7437074240966229 -0.24592545857997578 0.12938662723035468 -0.36397513673580545 -0.1414473955852354 0.6030111536156652 -0.22236334647859926 -0.25838344619285547 0.35479582333376286 -0.4688498043906156 0.43848055587443424 0.49532511983791444 0.1704219798216383 -0.4420796722483425 0.1698330505555347 0.23299229161268756 -0.05188403619821732 0.7276162774897511 0.3343803458804868 0.1770066607837915 0.3724437742813813 -0.056152369646511276 0.7816089948895409 -0.15241848651824058 0.7687467519350106 -0.44838970887390983 -0.6794473916457952 0.0012092897567722038 0.05728564519805837 0.28844835718608464 -0.7096963404956284 -0.562250268773059 0.28747193229225704 ]
[ 0.18807395709477537 -0.5399312898077635 -0.02681602531582728 -0.2319620512989375 -0.20485686911883744 0.6030729610781991 0.41341139786453746 0.43469515509160417 0.5131774773377574 0.7032947400101492 0.28488960186385076 0.09181516827337687 0.4751340705758193 -0.8893863117133126 -0.9099072010335223 -0.2548813866823147 -0.12220299435062627 0.36404653862830066 0.3240034363592121 -0.3131768963710842 -0.2711278870553606 -0.4011963344162375 0.39566189900631077 -0.5565526099320819 -0.24392470441361697 0.7088554569082584 0.3496157200732613 -0.5830145179572891 0.5335369542169478 0.49401948929715506 -0.2683065525695636 1.150929798400709 0.05438386494589326 -0.3191062248692999 0.02074071782515696 0.9639448793671491 -0.20968295378350313 -0.7955338092357184 -0.864196760266825 -0.3558827009503774 ]
[ -0.5893164598465918 0.4776076599353286 0.133751264715797 0.2174752108451354 0.2550212510205817 0.5270473727552516 0.21447077571917908 -0.3271013910613924 0.1269320236246545 0.025083227345069507 0.2503270629193505 0.2607965865166232 0.286059009374266 -0.027535011215001518 -0.3122836468561555 0.21300575762820387 -0.17113392006888706 0.0569661743127023 -0.6525524440382062 -0.35038117754622045 0.23232909112254205 -0.5333925339462232 -0.10511045021424849 -0.08410131634966234 -0.7386373564715589 -0.05288328146103877 -0.027816322087063527 -0.672012552759118 0.11869928786811401 -0.04195283264930181 -0.03528866195705478 -0.040828487902225465 -0.20246352788379135 0.1948508253706397 -0.2431180073848076 -0.06309018296129787 -0.6188799021678655 -0.4043879950600474 -0.3818850664131531 -0.37139269517252277 ]
[ 0.02269880771871641 -0.14802572505056602 -0.11950268929597885 0.15765068361377968 -0.7323224270994718 -0.4236445768254341 -0.1472576289037641 0.19759691806775267 0.04568813047493133 0.11542879568069524 -0.034942131182599645 0.25600202706776987 -0.16007896661242618 0.05778679360224757 0.18327668127428484 -0.022017261531979325 -0.23088308797193755 -0.7542080787721064 0.2134867911054824 -0.13632926087235867 -0.14166191703561895 0.2974755226462823 -0.4025515149613664 -0.03873604500173293 -0.11387894844571714 0.04669285806273475 -0.21395794767486115 0.10317206498220027 -0.07327754637207556 -0.0532870430272793 -0.07478551986926549 0.4900160880555978 0.22444412081358092 -0.06797660202283277 -0.22062468672341368 0.306634813313597 -0.3451443300290576 -0.20977909990549543 -0.11079271252753314 -0.11829000392114165 ]
[ -0.2779895354460572 -0.20683056921602372 -0.022544681689647898 0.20180235362525523 -0.5727916593255062 -0.3594278718861454 -0.13405054359787186 0.31707408207590676 -0.01798196397944272 -0.5074861815424504 -0.06988899316932072 0.008265445609513674 0.7330072278093538 0.5988248151507904 0.12771275822346687 0.45249773852260616 0.49786279681246653 -0.21390464233452108 -0.0632001988566159 0.004188323125621227 -0.78159603523435 0.3710746939921867 -0.29778492599069273 0.26525139270923415 0.014818089009628752 -0.042400660164243556 -0.25407170014493374 0.5550968727393838 -0.42299814869407965 -0.12654870681572397 0.31396676025177944 -0.00541325417684649 0.3999179944806657 -0.6789644846072663 -0.19538982538285019 0.018981467094994195 0.27621728913020277 -0.011421705245811178 0.3380351034397431 0.40175673286268837 ]
[ 0.7522391240376243 0.1706125293995866 0.019328579705898494 0.23943471818226203 -0.09747357676159621 -0.11337604662900372 0.14957592453207394 0.1199743166589532 0.11929596853584166 0.1377285891699716 -0.19926008077144267 -0.5784687059015008 -0.4527183986273377 0.20808631969378885 0.30839491396848256 -0.35896732696083017 -0.47139625114805844 0.391033310200913 0.6465922760584364 0.14024196470590466 0.22032622346944597 0.42710698554547216 0.14117655927399925 -0.015749988370566514 0.13149204040015713 0.5371422547561804 0.3795360683464204 0.408637124143447 -0.03006202020179497 0.6705325314828888 -0.2645261743225281 0.04308083496327074 0.5475503647233387 0.3781842880610827 0.14929955362368408 -0.19171350016814806 0.6135396969803419 -0.03511284623453974 -0.585521490637597 -0.36923410936728945 ]
[ -0.3558188740392919 -0.04498371371564157 -0.010383560423156172 -0.11417057604131492 0.678482183227138 -0.027210333975575988 -0.3629394730154105 0.05596145795754158 -0.029069350849081643 0.05511450587424901 0.5223183256084379 0.4298067033122921 0.31660281832412746 -0.19647871635110367 0.5106665462449845 0.07716308860110767 0.36157509244193037 -0.36808169593074447 -0.6004801123066764 -0.4958026630476221 0.0704551656614714 0.1906778228444748 -0.2708617668598592 0.09318152003160614 -0.5225488704307579 -0.13222227560942723 0.05250938949384105 -0.05164860850694234 -0.0314590725713886 -0.6607054658701523 -0.10280592881452205 0.010674477540280301 0.19702736078154862 0.1437895883374319 0.2677882256592563 -0.04761694194667571 -0.3279066571597217 -0.12197264955491323 0.36486702258952636 0.0579116644972552 ]
[ -0.39490927133168696 -0.18679615622674828 0.18828992108001905 -0.2567586885628063 0.5186303328871242 -0.47414362221456957 0.0495943369276154 0.46925753731951864 -0.03172316479211816 -0.1947503840825147 0.5548001124409259 -0.09887224845245111 0.3268693567006948 -0.39839568363189387 0.13171697763434528 0.04973416552651295 -0.15739543851797358 0.15572317994869175 0.4509428833033281 -0.07224810483233504 -0.1909356033410166 0.6753552267887265 0.24351752332846466 0.03900756932834904 0.38747919679824927 0.2717880219898141 0.3821491301334078 -0.02014685299023853 -0.0020737486700224154 -0.07135309618335027 0.11896662778416199 -0.02767499625152795 -0.21392835066839058 -0.3494677740755714 -0.08156559318411666 0.27755592534907375 -0.08398214062682743 -0.5204743153245877 0.10932886433618177 -0.06305960403347348 ]
[ 0.4673119023785378 0.4217536560580265 -0.1600832935264339 0.20852468427144452 0.009016406097585382 0.37331429784617665 0.4645820087399401 -0.33377631945191977 -0.19972952839414176 0.013132868210869742 0.19017638345687152 -0.3916867096309175 -0.4955475269647946 0.12492518495927689 -0.20642951458539285 0.0735461435639714 -0.39731564211657444 0.5601412288087975 0.3602854412992962 0.30843213818896137 0.4491958093046005 0.1557017626295469 -0.2031697365934222 0.11768538386478725 0.13038462770640893 0.36005608222250424 -0.025558213624409278 -0.21281945718694384 0.3099463768954862 0.3270894917683581 0.24192791082616388 0.296524596377791 -0.33372132547470484 0.533351696857642 0.17643702893885757 -0.201053502737024 0.4270721518159924 0.4528972229170268 -0.6403636030628556 0.12390361800771879 ]
[ 0.115801208776955 0.008538025273633836 0.24305935193040065 0.11838505416418892 0.5801514483989325 -0.10702811392801377 0.4311214147622804 -0.16303128554648422 -0.16558035864083626 -0.37707256499674485 0.759700336474771 -0.3450439766407145 -0.4454095395731221 0.2142838144643024 -0.4198195108395486 -0.8701242496755796 -0.36427638844809523 0.005971888551602635 0.22751960921858563 0.2577315211219539 0.41041831901901693 0.8823677020763695 0.023610187554776087 -0.1793699822413758 0.15936227189784533 -0.27499971843076854 -0.2404179885392439 -0.5559712047352666 0.12936362896920747 -0.16961940976698603 0.0028689081647210223 0.3007708121564518 0.17987934144721449 0.32729997462567334 0.08567636174326321 -0.3404770931322522 0.5556248061416449 1.1581194077470423 0.3245593417685076 -0.08548482071813046 ]
[ -0.2854740381429051 0.24546521645597374 -0.26392074334016163 -0.20865211236867118 0.5571710763606765 0.36555908348248706 -0.05336414523676577 -0.9004545483298204 -0.30214279959991247 -0.6716340167447139 1.1930156517453265 0.16938500093722877 0.6220226801400334 -0.022338420408188706 -0.06285724700045058 0.0912643163882724 0.29762940950146205 0.28315075617630403 -0.4907351272357024 -0.059111732604427474 0.0968140273507169 -0.27700919040255834 0.1887015583651556 -0.05250078784696414 0.06618390357391274 -0.1398300834224223 0.04439170048083625 -0.2147022171691504 0.21921033531810544 -0.40113965722143546 0.40615631878104497 -0.5665679417429232 -0.041509484489739894 0.3850261132776543 0.28304503216449 -0.08613736127325788 -0.1733573027637281 -0.15963909989900563 0.4347712656844097 0.3367182402799096 ]
[ 0.24041033427305078 0.3864784541242187 0.15463334432513787 0.35170172406557226 0.5873261416380996 -0.1957676938784034 -0.7092443622088117 -0.9322683936776257 -0.4903577726659878 -0.5242938819822559 1.1091223803223706 -0.01823268953502245 0.18276446915533548 0.23030836519640005 -0.017958811617901027 0.25992401622616945 -0.1825168995477916 0.2874165399657015 0.4148024778291887 0.7520031039060349 0.32359151343065523 0.593887927059841 0.1250332339512319 -0.09552772231384052 1.064180479523537 -0.39229103660915693 0.35030685326152117 0.5445154564474173 -0.13612531295933686 -0.5636842605893673 1.0169156034614142 -0.6418348356356797 -0.1296660973231807 0.2399296706321631 0.10870157502268901 -0.5554953079050753 0.07151309398441098 -0.08362912287230269 0.4996075689505695 0.650910081365427 ]
[ 0.29000263169729285 -0.048895021477088296 -0.23005407149824234 -0.012275833038389292 -0.17811551606074597 -0.43011498672618337 -0.2281808144591469 0.09381117431633566 0.4388880949153807 0.6180585473030654 -0.3056170161439497 0.05895048869536207 -0.3096201365327665 -0.006787696838103591 0.33764278261144076 -0.6874568603296975 -0.37716051449292376 0.1244650600508843 0.13856935730941525 -0.31830119429817 -0.1957924118711842 -0.5469191647155713 -0.2933753425954386 0.07345009576666699 -0.20075239865493755 -0.10002909273283427 0.1124330806038998 -0.008357239270143133 -0.18305900446345547 -0.06572456163706755 -0.2597313105559172 -0.3910245038646024 0.09544130904148072 0.05609529724984418 -0.5158130299394351 0.36704764793327904 0.031302543719762606 0.04257141934149711 0.20414860964923717 -0.5556322707138662 ]
[ 1.068609004478359 0.3017751820447307 0.011307687598433423 0.3825291174826625 0.1847911551983086 0.08850780383425032 0.2418842512504871 -0.5481160267588064 -0.059238122064976605 0.15029068392039802 -0.05455458186321006 -0.37229632562876314 -0.2608356729602506 0.08160679981468877 -0.10800462703277153 -0.18056345389273828 -0.36438347142707256 0.5920928616004971 0.5979987943273724 0.08815486002651839 0.5267816703184273 0.46638120471209343 0.15289544237698235 -0.18657993082463337 0.2794142732792956 0.2266617089644507 0.15008399076882656 0.306231842495556 0.326655108454139 0.20864775566810576 -0.10798781811776788 0.5779110743223842 0.09577746825171742 0.7770000149681154 -0.05484568534076915 0.034879140546978875 -0.19969862138134853 0.26828372020341607 -0.6226935889535973 -0.22226602915505056 ]
[ 0.013547800031612487 -0.5550705436678957 -0.09553269856581491 -0.16315413143197346 0.14212743002783598 -0.15571495933497717 -0.006800075832318588 0.4471478928312479 -0.09050292246649796 -0.17412740735378848 0.043530979720259134 0.1304221446547629 0.5653180381100386 -0.23150158050327332 -0.03846408624745892 0.16680448513197824 -0.3472475215185785 0.027185545090874407 0.275255786861256 0.0888238263736385 -0.37944130968542433 0.060219646760872644 -0.08099408577502117 0.1192960721164374 0.5337878398454344 -0.05385432441956058 -0.2079912511805256 0.0687826263788496 0.1648775522424848 0.33211029514259943 0.38376842817027784 0.4338851736686382 0.5080215881103759 -0.2543998187285187 -0.22162085433416082 0.16896379833383202 0.2556475702236198 -0.39231149706367113 -0.20533802662471545 0.3664585455477334 ]
[ -0.5462421987996341 -0.46381675994240656 0.02233291314696427 0.17302737375129676 0.4220319659344632 0.3394443855356929 -0.08655590012887046 0.37952898952232533 0.2761026431423017 0.4338601498205328 -0.17686710339526904 0.1287603630703798 -0.3607640828636049 -0.3627566961705466 0.09097153556574605 -0.0013684359011550786 -0.12058584387021558 -0.2735816057421207 -0.40660841908120815 -0.46743759322619954 0.11533922373113445 -0.6153444822417427 -0.3037411473174379 -0.03276062637428787 -0.7343737408946538 0.13569571727519975 -0.317262871816836 -0.34149478992263493 0.15497688109993576 -0.3141439383285808 -0.6022660818509733 -0.9677293646604737 0.21048717926762983 0.2243922049565705 -0.16858429526563332 0.26456855475992574 -0.49063704299420635 0.09815192443889693 0.09184167902685834 -0.19885054848012965 ]
[ -0.2456499283749506 -0.015966759048616292 0.058851485999838145 -0.26173762870004047 -0.198860800915331 0.6947149509909636 -0.03080042225102883 -0.09720420848771945 -0.11925515258958613 0.05293889787963297 -0.24467053012225512 0.6022535570971738 -0.02553891967252195 0.07545656980494038 -0.442797795526106 0.08799533764879654 0.22061709826143952 -0.4113992035520171 -0.5520698461075677 -0.261244955159479 -0.19841472960157502 -0.5737161154704573 -0.14178036963143167 -0.15199189226166027 -0.5727104856277638 0.14020087565388786 -0.4073664674108602 -0.029484017178444295 -0.2501784705772975 0.10037144096777294 -0.03831571994304305 0.2179737587141682 -0.3577138931093891 0.27966730398355216 0.07877171649174021 -0.44696590611839304 -0.6121092834322148 0.12942445999437158 -0.07777044610684071 0.1265621526631482 ]
[ -0.45289600714367245 0.191205920834767 0.0247891200828025 -0.027628603551277234 -0.39986753616273607 -0.24102729011434834 -0.20085942963757955 -0.35239509229494953 -0.04351176282793646 -0.5421781489621244 0.24595679739309229 0.16779869375433368 0.768646179839353 0.41333583305465055 -0.23988140267106572 0.8275830439636137 0.014638276510244188 -0.5019761458468699 -0.22268071018004437 0.176495432423532 -0.08108856303652806 0.8120237035486055 0.18056555181437517 -0.07824319384065412 0.5848135660365675 -0.1985414239489042 -0.36929642108514116 0.31279285941751134 -0.5645538302218394 -0.16012358437554972 0.6846454234568904 -0.2701395921999233 -0.06471548138132519 -0.5420065882115055 -0.07916305855786095 -0.49732527108045055 0.8742331816605969 -0.09310021758472191 -0.04584497630014863 0.4238913449160529 ]
[ 0.2679316038350841 0.36452832698704557 0.07897289922486356 0.0005728498762869871 0.15953139634642072 0.5745715576290468 0.2816624745112548 -0.46683708047010003 -0.2615211956105426 -0.47525265098092057 0.01454309517803616 -0.5126439404939968 -0.4381873072856185 0.18116532662045162 -0.3435522574520501 0.1681709778017342 -0.38382062738063993 0.5044080871002637 0.405064077920487 0.6371848449175141 -0.02266684084663127 0.23342230371541378 0.017964193920914015 -0.016300924858582432 0.4980680972731806 0.39033733922000724 0.41713745443516126 -0.0898748772792496 -0.24020165189630668 0.28378564463324785 0.17989492642666632 -0.10760202284263497 -0.14784664712115228 0.20348539992407896 -0.11052523601366289 -0.1837710563217588 0.5091438246541256 0.6072001999169058 -0.8858390279154954 -0.08018741996974636 ]
[ 0.23991606476456814 -0.2631806421045551 -0.08713487642099688 0.010040026736664069 -0.0281476501629247 0.026880668119314673 0.16559862199341296 0.15820294836598864 0.3161918729910235 0.6222597742185081 -0.2249039957992653 0.0020828980921159005 -0.29483592419019183 -0.09733491085490638 0.425829300497606 -0.5308273256928586 -0.2699814329669202 0.15868413356105407 0.03907273133778322 -0.2731007858072836 -0.01619414237785573 -0.21072953077755713 -0.22692290043612046 0.20262089449720128 -0.29208601005624096 0.174497892392233 0.033681167805363114 -0.17451931123720438 0.08244888609795158 0.10902952386440053 -0.4351355967804623 -0.1598388310446958 0.49725117383321393 0.2472113072668031 -0.33375311215669023 0.5247521496980291 0.0318305624957191 0.014890468652447206 -0.27023405233945463 -0.6071090741752597 ]
layer 3 Activation
tanh
layer 4 Dense
40 20
[ 0.4262071577150626 0.05573059814272404 0.5495383452121441 -0.49327629387968097 0.3921162811337981 -0.10195747666777655 0.36372182993126445 -0.5742575138294292 0.19998465375446992 0.32141052945023196 0.0801291552099879 0.2859443803690772 0.16639142999726356 0.016169284160446308 0.03696031237160642 0.4831212367907793 0.2585098186949324 0.06526331707889067 0.2083129652667748 -0.13760110595753722 ]
[ -0.17771119499656743 -0.0076523403715023875 0.008055922028343253 -0.06949955707234051 0.3678325288246247 0.28390919191199426 0.17755045110169565 -0.1586692996282813 0.13844112971866226 0.011098414780250714 0.18055708308607168 0.007664549921338471 0.0815198833724293 0.3633435128341303 -0.06116318822760317 0.15060041716036243 0.23508663996913529 0.040841934523107096 -0.04492804587923033 0.3136342933995914 ]
[ -0.12273298887855669 0.13319653153143635 -0.05002730060946986 0.022329789656046036 -0.45045353069277605 0.0913873818088391 0.43047944540087496 0.057919535723626646 0.03374949753146066 -0.09652086774547688 0.010003556515327562 0.28117551690116027 0.0025815351731978613 0.1382120912298308 0.01804945103201321 -0.07218183348927125 -0.03935504706207965 0.280243937232487 -0.17211858462844434 0.11331307989495473 ]
[ 0.07407887471472635 -0.20716807531057427 0.1697490074328918 -0.12412109932910713 0.32592948803661714 -0.16035576458861894 -0.11634204012412909 -0.756998942771016 0.26892865853166015 -0.08441759376772301 0.054863246650711524 0.22141279521715435 0.1499087885092418 -0.2765358865611532 0.09018720296849939 -0.028844247996137044 0.23932808482578827 -0.38809943207413533 0.14149004090284462 0.12426469401674693 ]
[ 0.089759270017006 0.4451744348157499 0.11952214128756995 0.18630645514285044 -0.02057892626844913 0.3361256455549806 -0.10296357668835879 0.08927086218209576 -0.031192804149692825 0.1870034589407069 -0.2207754504967597 0.10464147206777329 0.4227397084130461 0.1965331480052472 -0.3616109276281544 0.1456660895298663 -0.32975152652083467 -0.07988172849928847 0.20471645990375237 0.09212540068124729 ]
[ -0.42697871418481775 -0.283047552120063 -0.7343202642259252 -0.378755023478815 -0.01406132040195784 -0.27966434927532385 0.00039570804034808277 -0.1143330754280173 0.43164305148670984 -0.3741372451813553 0.2803450711684643 -0.0478469205991688 -0.1321546470642561 0.11146599187503566 0.3573283595488633 -0.35492348988607475 0.33087704553570735 -0.0490610003825602 0.17549396190096317 -0.16052681885029166 ]
[ -0.23237262975260944 -0.431890458377689 -0.23662285823798943 0.09188993818348785 -0.04512003771355132 -0.2444738974781394 -0.11895122114862856 -0.7617812808345399 0.15853666655976512 0.29435563728877845 0.08235695610941711 0.3337073956522029 -0.13970065161661607 -0.1507709560262107 0.1982885735629077 0.1014425471781441 0.17240998137078176 -0.45835940387503543 -0.13378844000246337 -0.16333122524699353 ]
[ 0.2553729087122393 -0.24584125681298222 -0.4131643730052852 0.29448408964933975 -0.3980385721098235 -0.042759923900934776 0.21922831573289167 -0.06669678526794663 -0.26952395478717805 -0.08843877409043374 -0.24947330253700697 0.07690012470943235 0.15644760965540516 -0.0470655155694952 0.3125814617218871 -0.23900385654538303 0.2648515851170594 -0.500131246201447 -0.08953471545602881 -0.15871401772809382 ]
[ 0.19478036785982275 0.25482669106295347 -0.006758751803940057 0.27834240365612145 0.025329155342655542 -0.016545315016769833 0.16013191967683948 0.14580310458411086 -0.05010126761170755 -0.0648715855621275 0.08083535158772381 0.021892521075130737 0.00018268345935252856 0.3323097456363038 0.2149929201362532 0.31624598637492024 0.03442786712065902 0.3241258159356427 0.09223908955904593 -0.389873044960573 ]
[ 0.41071927410102554 -0.005044400301606874 -0.32978129851431676 -0.08526100258362143 -0.11932366729611968 0.1624504972987691 0.32016630404106566 0.2069465739379303 -0.12839173679406748 0.1908934638755909 0.23658197998445565 0.04611733069566742 0.10841370661555777 -0.09185228369804654 0.1401389326286972 0.4777712832523343 0.3334768196589959 0.011522431900212756 -0.17359952214878088 -0.5710899008306902 ]
[ -0.47104884237337685 0.21721038044320046 0.3217509012859093 -0.32547379921859987 0.3743275814475219 0.25895991336765317 0.2659637350965188 -0.09282240454877982 0.08028569415646523 0.08619534402085385 0.08672109236489998 0.22841275468011407 0.5248813951802096 0.31716504290127095 -0.5246495627503367 -0.23688948144087785 -0.24635567092715172 0.09275875395651687 -0.24857927958187326 -0.018361035882965216 ]
[ -0.34239756943208416 0.28475742832590367 -0.3847800555832878 -0.10510618229009899 -0.551736654009633 -0.21971506078397623 -0.24791910729697406 0.7509716595626375 -0.10494860893048978 0.016066028265213774 -0.054374045705569835 -0.06525496205118954 -0.16282815530616143 0.11976817605118767 0.0007334263593793476 -0.24161746914332066 -0.39559296378800224 0.2635904096619716 0.04064050950677579 -0.07919842774100039 ]
[ -0.3597164440427232 -0.2195858276556883 -0.2489979572288819 0.316732836351074 -0.14153597566617918 -0.6527532999225166 -0.22313338109617728 0.08000884649315707 -0.0833240601744933 -0.08069740830901859 -0.1933629241089888 0.2428216088237543 -0.06294956845783158 0.15661189220549546 -0.2863293700154261 -0.5965042593251765 0.13169124963113324 0.04470405812154999 -0.17792208814862465 -0.26139869573577584 ]
[ 0.1341294782769845 -0.340182672808929 0.12495663058689166 -0.1636805279166136 0.44243639939936763 -0.27049781036084153 -0.04137160637175113 0.3476447124239302 0.3628963152622671 0.02211755818879352 -0.017128161364637837 -0.00591976046088359 -0.4595241808071563 -0.09870254234440128 -0.003995873154072006 0.08568571067250724 -0.19841957770729832 0.35208989940684315 -0.19906702859153985 0.19892062859254475 ]
[ 0.4922001022882169 0.22309039138224662 0.4971952951513536 0.1378349341867266 0.14154860737171673 0.43178086056112175 0.20306647033819283 0.22327496877557587 -0.4163115768468282 -0.03987120829012037 -0.4155258036619164 0.056354613852745386 -0.02628788781184158 -0.0653024281939432 0.09150531680131486 0.204451855686714 -0.3013928324729388 -0.29477169338823744 -0.042201249656899746 -0.4241819346389766 ]
[ -0.06915026115702173 -0.2717625247559816 -0.31895775214680644 0.26664817429211074 0.179209955426925 -0.14851635946440864 -0.36896762974061104 0.1319872076614135 -0.20581568002674966 -0.1126576023130775 0.005321407494034331 -0.19045340500917085 -0.4415220517329454 -0.352885759231429 -0.36317776453953476 -0.4978834092513331 0.22595247635464577 0.02522293409914686 0.23003242156688786 0.34621612021481885 ]
[ -0.21492244175782524 0.10953761424289918 -0.33828251907752893 0.06335784388854439 -0.19358494349191122 0.09461656958279312 -0.028886670619591354 1.469006422684974 -0.3737737542811695 -0.002291671146432841 0.20120552066759204 -0.14276377104002927 -0.2431010567350223 0.3281072050179137 -0.16515611166027186 -0.18652130777013054 -0.33147355071615775 0.26265242010906203 0.02780228151324641 0.08710138298808179 ]
[ -0.11991839914446732 0.07548770398773108 0.2732386847838947 -0.09703406464531672 -0.004833037192372376 0.0753725718929454 0.059004673692546174 -0.6142341235026205 0.3264676137189445 0.3352769236191718 0.17997550029467135 -0.2427212407901323 0.23244970499679826 0.16713694368387563 -0.25077249320218215 0.3213865801516704 0.23216798711559994 -0.4332166402126308 -0.1710827238629151 -0.19861466319567664 ]
[ 0.3612164754142792 -0.43330710809246287 0.405134647827417 0.07050785198023755 0.4392058086627794 -0.05967734847000459 0.36266119487574844 -0.9993835498518353 0.099104716206609 0.5149902145719417 -0.049055839242374624 -0.2189196561158651 0.3414465977046222 -0.09482868460982502 -0.11734410773018546 0.364304445852148 0.5816182650902524 -0.6849399804982075 0.12764324414938458 0.33356909063620377 ]
[ 0.2206475365122023 -0.680435831295053 0.41245097085043697 -0.26460025759039474 0.22383486828366642 -0.33458542808614555 0.12271042511438517 0.05309732266569862 0.2004600009960958 0.2680799126856588 -0.39360153196677916 0.013330614209369054 -0.31297521767977293 -0.10840474403626259 -0.4414847183780966 -0.2762276187027912 0.4698896100631037 -0.2887218501805774 0.17569955797786266 0.5642314117093915 ]
[ -0.022657206360870232 0.4971486961290718 0.3615046445652309 -0.21289027128003937 0.34648505817900516 0.2748877134704732 -0.0982619356550372 -0.32279578803781456 0.082975510313963 0.09130564124002356 0.30997326748118886 -0.15437437778359492 0.15038470682016056 0.04216651551630849 0.050248990467159076 0.43083107156835354 -0.15651965921254035 0.16106180860819574 -0.13974342990013552 0.26465236865306113 ]
[ 0.5171309872981158 -0.5113650524746461 0.13173733338174576 0.2587084536055557 0.1288088989916951 -0.5341028073208469 0.06574937308462213 -0.6012163204228946 0.062007204027266255 -0.14825705979753903 -0.4316135944865621 -0.14042329886614424 0.32056758273261354 0.2127648913156127 -0.4823077088701134 -0.28665489309942427 0.18798498709645836 -0.2451114484364669 -0.11766843995726955 0.34444069672918837 ]
[ -0.07159121929987783 -0.33968733137308554 -0.1886077707330385 0.12366212386822624 0.02170928783623644 0.06534804248122919 -0.09071162567838673 -0.20023330204403425 0.03761871400544845 0.22031572239366032 -0.10246499659672158 0.14189624218810426 0.10648273494336541 0.12913355951484554 -0.07809400673238359 -0.09224446595697529 0.24682820249691162 -0.16170194711463295 -0.1440902757707412 0.09027094500225397 ]
[ 0.19879586984294628 0.2113585869172834 -0.08490535478807593 0.09723577665151022 -0.09927203198939097 -0.1701519830731993 -0.011132891452945284 0.6182355793785851 0.013788340849156568 -0.266736120742018 -0.08834675535117407 0.29807024597766857 -0.07779909356137878 -0.1233974530947253 -0.024713848634057737 0.024201532590370316 0.06707899212321093 -0.10555769596623601 0.21861318147391887 -0.12712111069132465 ]
[ 0.19053982692124938 -0.166654049957819 0.11599131412714117 -0.19082046073065295 0.26502746095881646 -0.2697226423792495 0.04143137073791602 -0.40882615626855734 -0.09263336803509005 0.3000841581392177 -0.41763639676896297 -0.269165954375467 0.2237704515942204 -0.22205080576560238 -0.5448731481411054 -0.03988662716777472 0.04475133336282086 -0.19589084894277922 0.04924782374628159 0.14905788939194384 ]
[ -0.05376438220212761 -0.1978133247632418 -0.007570366452215369 0.19046746632022918 0.18084624059827656 0.11648454239843062 -0.30447809587988134 -0.8230557312038344 0.3645916772055784 0.5307373912496167 0.1412681346608404 0.0751387534837724 0.34102638426057297 -0.3365812406598116 0.05508884569816071 -0.11858753054155574 0.41531930534067024 -0.2662223898371615 -0.11783714899855138 -0.24749536204467248 ]
[ -0.2726629326466651 -0.3394759620556204 0.576052581156667 -0.051409434816010395 0.3705752103923022 0.2550893467656434 0.19883694071687258 -0.4354990140679747 0.18102069377943333 0.42594468010473485 -0.1972314652735712 -0.014086128185834232 0.33047948663651033 -0.05149722397151649 0.02638450357734723 0.11428958004967422 0.2327325271339973 -0.21442525690436978 -0.24452917085238976 0.11159174978637638 ]
[ -0.02335532707418816 -0.1912404907051712 0.1428658070901929 0.1780379877508841 0.19141370079282807 -0.06968223963595117 -0.16371126633741204 -0.2400291753254984 0.23488711460423733 0.3025573115956457 -0.13860169769133465 -0.08671604076896557 -0.05417756943899217 0.007139213045635063 -0.3432843542134604 0.22571861651521358 -0.09313146865908568 -0.197917943038221 -0.1227927497999858 0.1681428965143868 ]
[ -0.23027422405006137 -0.04192775558168578 -0.22268924571346613 0.03606011882749992 -0.21364321247626603 -0.2561927339372627 0.23168478554262284 -0.5527494515476062 0.0789220035589192 -0.09388726838772561 0.04650592492660463 -0.17887173221278324 0.20361690311446293 -0.20179954320051646 0.03935888284095039 0.2512418184376367 0.25481284279851774 -0.3743598752342105 0.2741891541632675 -0.05752103090359646 ]
[ -0.11992357460787141 -0.4493680939288995 -0.3451503712463987 0.3684961122528687 0.0796728894149347 -0.3870867039811896 -0.37057762258081217 -0.6320926928255782 0.22085166756702684 0.37242279188303695 0.15658974223957103 0.013818003799423575 0.025075120433955784 -0.28072788311746066 0.15050246924586766 -0.2331070691027991 0.09501617900882994 -0.13891319103517105 0.11234069772320616 -0.345116808939396 ]
[ -0.34315410496587323 0.09181814013761223 0.24392544207413308 -0.30915862621050916 -0.017675119591990217 -0.35994895675450733 0.003926581095304443 -0.7357744670955266 0.12556015587064454 0.08999362665496115 -0.1938507085589798 -0.04221949449724131 -0.12414332398919474 0.01105089097843932 -0.22328865249940516 -0.604779825209367 -0.19226009661766127 -0.007040259321537415 -0.22550935870786118 0.06530278914486397 ]
[ -0.3380699886981307 0.022660577087661934 -0.3320958433574065 0.3708208448852219 -0.20870562074981472 -0.7049899180212926 -0.318899792143471 -0.36461020646266484 0.15687817902244983 0.32954202559579404 0.5455822044481974 0.10269862728141102 0.18980965311339767 -0.14393398673528285 0.1767370837254869 -0.5461949451238775 0.26480276081779414 0.10285645344981405 0.05661748697483851 -0.2699978703663489 ]
[ 0.0006830437650789615 -0.08767319949203985 0.18235013641465983 0.1299833952787 0.1809075307949451 -0.06063223403754777 0.37252160290733977 0.2882461909840144 -0.08466242976264968 -0.12130053733645167 -0.12155320443068254 -0.05421074817662614 0.011170523193332095 -0.21000919930919032 -0.04533046554023888 0.3391427782376192 -0.22803940960660254 0.1828657605184981 0.3109258402292559 -0.3873211514012136 ]
[ 0.029610620173557752 0.2107800855929318 0.015142264064929056 -0.4376822271041883 0.049666783099730806 0.4526556618329384 0.06557885595849822 -0.3732808742940247 0.07178502258793262 -0.08669739029656412 0.15545765345755408 -0.0014920897962575127 0.24003043895635168 -0.04355004774804212 0.05866162577280712 0.39576499793272985 0.012326578788842536 0.22481244667665773 0.02956189931824989 -0.041635026112887545 ]
[ -0.10175803603661923 0.31593431225204477 -0.3828952996942055 -0.1640863564936607 -0.3337497805513897 -0.31799304802909234 -0.13872328436874862 0.0036145168271692887 0.1545452007882522 0.0007331047568046134 0.23424698115618792 0.09682021181370712 -0.06394006238316143 -0.039456763383093306 -0.2777869323393725 0.02519192742805439 0.5002497809394386 0.12084872394255668 0.00801361169321506 0.25069708795118895 ]
[ -0.44472845302161207 0.04841354416196969 -0.16267158201645993 0.2762510006997815 0.05686112885512756 0.21696369466726625 0.19740131728609597 -0.30345176457881706 -0.05852921839290153 0.21434040450435266 -0.14038332100010736 -0.0042184246468492705 0.1813245749307775 0.23193436373083545 0.29727321854177136 0.11753738044763065 0.15489008309291852 -0.30346993093163777 0.01324514498764915 -0.5796923084775246 ]
[ 0.20683563202533714 -0.41334915058856603 0.25143798172406645 0.2307993357724478 0.07430080072613457 -0.1966244734559187 0.07315959174828733 -0.6623114253320872 -0.03248138559060483 -0.03587035778899505 -0.25217967675870895 0.13987375221699885 0.15866728506886574 -0.3438967995889261 -0.3002375996733633 0.18962103178125245 0.1719411435419216 -0.3889690014206405 0.22083070828626258 -0.16428718971829329 ]
[ 0.01362987951471185 0.06583411505591931 0.4226088394421812 -0.10911863098382975 0.001700787122400735 0.2781552114810553 -0.14509055619105796 0.2821133364116095 0.44524848173351816 0.014215861842487961 -0.09210235641754427 -0.17251694477003796 -0.20300301034164198 0.2156123309682931 0.19754400581779277 0.4797987319679335 -0.21629451582194079 -0.02967476341228048 -0.24560600178867842 0.3757501433250982 ]
[ 0.43937003012096487 0.7801275491351246 0.4356421322625756 -0.12503069916180642 0.12275524217998111 -0.03964448425114406 -0.05535736028398011 0.7547787788214372 0.08104246291206925 -0.16167047691426767 0.1223223091462827 -0.047189205487227756 -0.021917789514779375 0.07702947457076424 -0.46601714246462167 0.36645267955338007 -0.5185866065585277 -0.08250162516995956 0.18859880915487318 0.34960207085464173 ]
[ -0.07852440811266624 0.04479354883720417 -0.2096007256869067 0.24435977535084397 0.31701500347731815 -0.29595725659916994 -0.25541822045293194 0.3582388334793618 -0.3446917778432411 0.12564821788443375 -0.009285105762243302 0.053763513106204495 -0.3548674802543518 -0.18705495737062264 -0.34933517311887147 -0.4632998669012667 -0.2899722298024145 0.14245540744212412 0.20066703476497588 0.40293382393852584 ]
[ 0.025108182734454206 -0.11181596916760014 0.1962929008320033 0.0015563002752299678 0.14551456348893788 0.17541102624239244 0.3291082499476934 -0.10381350093804148 -0.1643884775097268 0.08174044896435476 -0.08295012965737777 -0.06827568992334271 0.060157530158989364 0.12740627179591688 0.3614841974750315 0.18189816574206635 -0.10467070018064474 -0.01792794573548117 -0.027514441391259803 -0.6113920900917521 ]
layer 5 Activation
tanh
layer 6 Dense
20 1
[ 0.1812729488365048 ]
[ 0.06414797962991485 ]
[ -0.05932589603646599 ]
[ -0.222467840116853 ]
[ 0.012773609679369982 ]
[ 0.237281074663596 ]
[ -0.060370297356790094 ]
[ -0.12158034194871259 ]
[ -0.011707706717705012 ]
[ 0.21244159202801652 ]
[ -0.25984090686629147 ]
[ 0.009774898437391112 ]
[ 0.17608620317570445 ]
[ -0.005879428555654866 ]
[ -0.45214673886246715 ]
[ 0.2580820216425624 ]
[ -0.3283544520710808 ]
[ -0.03411667436336939 ]
[ 0.01193184862758637 ]
[ 0.28191300705889205 ]
[ 0.1370876091666703 ]
