layers 7
layer 0 Dense
20 20
[ -0.41830204726890374 -0.36629595662292197 -0.22901090998553036 0.10653852211592611 -0.45538431944406405 -0.3573387531757352 0.21534729982750325 0.058633504521096 0.3874710309381155 -0.7698624153232029 0.1664425481217957 0.25152325335694553 0.15704079710850177 0.35519081515828715 0.004831774890442496 -0.2689577994002551 0.25962834869871515 0.10261709426658099 0.005807188861207048 1.028812165739593 ]
[ -0.11541873819276974 0.03345283749626763 0.29911583930302105 -0.12338271519635992 -0.06869666243384184 0.18287403096435983 0.187826562861297 -0.338163172092546 -0.32967003774061204 0.13236839644101892 0.2438137032401726 0.060003589037546476 0.24464967413031433 -0.2283549582688361 0.17502148932642136 0.048638301579730044 -0.1366960018418693 -0.17850685739364272 0.13963462564076365 -0.3379266373400028 ]
[ -0.35630379465547957 0.25736972158680615 -0.17880422539423646 0.269899274116816 -0.08713190370565167 0.2638117094420188 0.23062729189470074 0.11300622119988639 -0.1575909699352243 0.008817412315042197 0.06907545361102742 -0.22338058396260166 0.007638289419837572 -0.2136562142834106 -0.049028189606384893 -0.2242360677808704 0.05952902265275535 0.03316654275962642 0.09663583583870544 0.09081520176646724 ]
[ 0.2510197662062938 -0.40139579293317257 0.15151534649036508 0.5543656215655385 0.0032232692231313033 0.2599297252981029 0.27111854453086226 -0.4180031055923736 -0.10545383639195771 -0.6337353323717819 -0.24857210688879217 -0.21110762445315165 0.5080212497975599 -0.1489602571181036 0.020961819685525546 -0.14547998748303537 0.003102437414620582 -0.06352415325759497 0.0977692051953501 0.6998001601730128 ]
[ -0.6785873130372564 -0.7486870952352422 0.7373790972643319 0.06311835562788512 -0.531645435913715 -0.18154882793019597 -0.10992982584860908 -0.38195143138584614 -0.19526810888057028 -0.6742094789921073 0.3072622308708126 -0.17137517235952987 0.6833748486754513 -0.3106628449033886 -0.07746527757466536 0.2313862991198995 -0.10395529796079912 0.6157673566808455 -0.3265495308662831 0.09503138907837738 ]
[ 0.05049522441859367 0.14895826712980229 -0.3217219525931496 -0.3181548963831412 -0.004728133912264425 -0.3104822855451136 0.2676009182155728 -0.3466605012843643 -0.028445892548237282 -0.23142600875864572 0.11896370100411974 -0.3780001333568733 0.3128744549202327 0.19276960717435918 -0.2884550401142738 -0.328225587052309 0.1680437060878725 -0.3110476228347287 -0.1995635864070855 -0.1335263371337507 ]
[ 0.2556765797519589 0.2976292305515519 0.30363419759043603 0.26308269897840586 -0.29057402913268593 0.06375912578194741 0.022774623681501526 -0.23771844211655282 -0.06845302787982546 0.2533753247969128 0.20793943082810842 0.16497539674527267 -0.27229770578810675 0.12897087247618103 0.25487646552332144 -0.37517575761784977 -0.04781383486828743 -0.3394046470207858 0.254143545562851 0.05262437981702602 ]
[ 0.9364713557535834 0.2644813899123055 -1.0123894643275075 -1.1054088005572036 0.9128428655757583 -0.24859907222221933 -0.2642079824489056 0.33743309502204394 0.646053692204668 1.0258366657393212 -0.5278553226035045 0.042308445843601356 -0.739805545791458 -0.2104122943099868 0.035742922077663254 -0.04039643362764218 0.5830004506804316 -1.059982943010452 -0.3537696645764798 -0.9186874335449652 ]
[ 0.08351414391726525 0.17645288843566864 0.13209273807353436 -0.5759386439716616 0.583064608422122 1.2353945377867603 0.6178310620280623 -0.8868027591085379 -1.3139753341866345 1.2325248934887187 0.19080049086969023 1.035505674139424 1.0292940002012845 0.4787378606291567 -0.14711895075880102 1.763492506613721 1.4311883268850318 0.3022735621665879 -1.1104304210113518 -0.7292599418333372 ]
[ 0.6422157422525758 0.4550110910194281 0.10320689438658745 0.1919297863993987 0.04049031163258689 0.10202359094494674 -0.0017438467014428303 -0.18964309371577956 0.16502755953676276 -0.15134197682318837 -0.09606944383398981 -0.11549057863675924 -0.12781967799620814 0.08511170019971924 -0.019443699506483177 0.12265004324797968 -0.04672116077427887 -0.14139096667296233 -0.028940830140666046 0.12815682434659495 ]
[ -0.6535345482525213 0.1860631941237364 0.18530257447354323 -0.04732678330523203 -0.46036087980418167 0.10468423458239377 0.10232658540417709 -0.24433000369998406 -0.036101247349627955 0.17800518955008274 -0.6175272374982521 0.31800334188648804 0.07107778169059006 -0.16988593079241598 -0.3577064890357798 0.10640002038518037 -0.09829664508592927 0.2198041423896144 0.5693321976248473 0.38976722919365386 ]
[ 0.06401208044953838 -0.7118976124560485 -0.5784845835234815 -1.1099697722944946 -0.41431981869783313 -0.47415761196254036 -0.6113606120708684 1.3109912152078005 0.9049894222448991 0.5100319371139679 -0.14700178897445917 -0.8929394387806867 -1.238468925640773 -0.6057888429777866 1.1564727800893448 -0.3660095432155616 0.26137526604049716 0.02231250773350826 0.5134661370176952 -0.596911841218852 ]
[ -0.19567569011623778 -0.03609835034489959 -0.04288645223642935 -0.48784200628728835 0.4780577147760396 -0.16187894934952193 -0.4783937991410629 0.5654377523624872 0.5585840611284197 -1.0562386479886747 0.05572516564440706 0.1944585280720009 0.5458047795058887 0.06966074757071002 0.11443354700538598 -0.08770420902190795 -0.4599650497402753 0.008693953040313276 0.12022188104826641 0.9468876794471726 ]
[ 0.3460365248139256 0.3896590700036706 -0.7268194798156965 -0.14346926617181957 0.7316670655731855 -0.7985791397736332 -0.5389024867165284 -0.3680744246688663 -0.07412449326997295 0.6063802610166016 -0.24039939568197055 0.5461471205102104 1.0245472163817386 -1.0972559810494382 -0.7662294302438982 -0.00030028402043975324 0.45999949286503095 -0.5133861833774913 -0.17042001978001892 -0.4979546865493065 ]
[ 1.5487272395027798 -0.30757406785462643 0.6555305504806769 0.1359697384178581 0.16695823110634003 0.6537405318101096 0.497344230418171 1.2982732337857814 -0.6762082808436836 -0.27160670333726156 -0.6848765296613992 -0.3180056512047628 -0.055233005580886244 -0.19619954596480915 -0.8876323316327032 0.3192503670460332 -0.554278958015109 0.39971015260035675 0.08181612516813262 0.15153993808429198 ]
[ 0.6124749475190004 -0.7831690922020997 0.5123373616946907 -0.2474049503350782 -0.4888224798366683 0.5133553905175356 -1.0506543087695772 -0.6624198599450121 0.21171879225979873 -1.4359178213815706 0.6186865190658788 -0.1063319889236805 -0.30434758373930976 0.14821855921581537 -0.8112453948207012 0.0643749793915873 0.5601785517943472 -0.714767349987782 0.22930662459688936 1.8922318125764577 ]
[ -0.5050359720568661 -0.8446004736178739 -0.38890131819645823 0.520317910249475 -0.6282690347713655 -1.1066145556489302 -0.08255290573741353 0.5460889513274101 -0.14553495613907774 -0.04336735020523108 0.1191514352096147 -0.0657842997940348 0.23726371575939556 -0.5489099869655979 0.8950757615007329 -0.6869039749915506 -0.9832885496279671 0.7534206074780361 -0.10897924150657227 0.41031076141222805 ]
[ -1.3411713330169692 -1.1654095409988638 0.6427476225833825 0.2571056893038338 -0.7457341531166956 1.1330799516371666 0.5293626654756369 0.06788261168624171 0.43905515918486815 0.186599381134704 0.9405579514675798 -0.5800931979895699 -0.7342906033367356 1.4590387790810782 0.40438713207345833 0.6984022790762295 -0.04497376505005255 0.40756901794711375 0.7850202284832373 0.1998625933675967 ]
[ -0.8372650947738923 0.7263682919377695 -0.15128853463978223 0.14728803344582128 0.8260381359345412 -0.43881130619284225 -0.6384335062192361 -1.1184935476489535 0.9591380608586036 -0.5590725723651074 2.082806093705175 0.4010882227215173 -0.37849185364940385 0.7517162545744395 1.1885590887100088 -0.5653911362525982 1.0734715930571992 -1.266228911860489 -2.427370931908037 -0.36037335571018936 ]
[ 0.5698360721942977 1.4666296313388527 -1.8506298456346149 -0.07901562392026583 1.628460955458913 0.04560655415988954 2.1741320178166723 -0.4812474743732301 -0.3250230566148308 0.8845180002694151 -0.8346002917547144 1.4417929336216901 0.471977816986137 1.3102840955366877 -0.7890049355663755 -1.1250611145670104 -0.16906436167869196 -2.138625946021641 -0.9455684512156872 0.5076201618097615 ]
[ -0.09047851826586609 0.03398886064447219 0.23899851394992905 0.30732255473606296 -0.24530201145692962 0.05395922175997119 0.03476523975444552 -0.25913595394253647 0.00798486904314666 -0.21296370764954087 0.06980643152042434 -0.05038461946086407 0.17117353454760012 -0.002314946339663273 -0.05112238762393237 0.12946820961772318 -0.07439589284176687 0.1725030283990252 0.13255287754485226 0.19991321640200485 ]
layer 1 Activation
tanh
layer 2 Dense
20 40
[ 0.6814697885392464 0.21294656876722257 0.2749453262560409 -0.1930576470739782 -1.060458741796684 -0.6406746357707837 -0.10085072476439955 -0.6141043973625183 0.5952780352385028 1.012886362528744 -1.0300832122786336 -0.40980183336326936 0.6875805010535349 -0.07386200652895787 0.2469256562683465 0.02224358562238234 -0.45848495100580333 -0.4127699732284262 -0.2858463216429679 -0.4345741038116785 -0.46572998284079037 -0.8647870707623729 0.12476641989748401 -0.04383166690948098 -0.06686954746445284 -0.3716742048490532 0.5428429763399792 -0.683341174743984 -0.5133927710090357 -0.37570680640994014 1.4678470396927092 0.5903822141181616 -0.26935276210235454 0.33274173441414534 -0.49009417838231834 -0.19266001428523255 -0.1263662279226899 -0.5890990720333993 0.20035530849633904 -0.3450526260635159 ]
[ -0.33576389235711684 0.37673366484259807 -0.16829500028445046 -0.3271558742330487 -0.2341096671469703 0.18550777779964947 -0.5155694766094812 0.45367798271809917 -0.022150403386508383 -0.932486231086347 0.6640128137639542 -0.1949477502588198 0.22162766334898196 -0.9792584091952807 -0.4129350263403538 -0.6609204615574967 0.27864516226386526 -0.792779207287555 -0.10660270937742405 0.015140337259162398 0.14073280301871927 -0.034749979560634546 0.29542895085627957 0.25791731571178717 0.404095312212432 -0.01659591893026134 0.28366946617612865 -0.7668753579092562 0.2538715643704644 0.20457755269281722 0.2462970918373789 0.5767380766925372 0.12972022248960474 -0.0730350293076962 0.08905509650034127 0.3896844382774698 0.2290195527632147 0.4032852879906865 0.48552750089071245 -0.006265774151492817 ]
[ -0.11631133209579902 -0.7816281934519833 -0.027423251712123866 0.17887958729170292 0.0262753901642033 0.2627582118183436 -0.4265837550753534 -0.262540156621086 -0.3354889548646956 0.3102980761024214 0.31092526184449476 0.8286181938383123 -0.4137063506531473 -0.11187278309347631 -0.14279001559688906 0.5487796385892781 -0.021013538582844243 0.0595137059774203 -0.23567644363375012 0.047731690090314846 -0.04913270628905297 0.48283353884209745 -0.2315594698894224 0.1462232299719591 -0.7841411389551821 -0.1817620092759025 -0.21333685931111965 0.22952571866385135 -0.3296488183370943 -0.08342885604088128 0.2128159577609818 0.23159069655353978 -0.10751598619449182 -0.005386757356929709 -0.7281067473798184 -0.1523080826835488 -0.1079593471543966 0.1726673200755854 -0.09152665478727597 0.17625335156225683 ]
[ -0.3767497079248672 -0.27878572779239597 -0.16559826937645822 -0.19952663716615246 0.25131489877954766 -0.22833401153969415 -0.4924176671835771 0.18567571714592795 -0.09620677810475041 0.4234317647232379 0.22574445453301306 0.3749430392211937 -0.0024828439814531806 -0.44400467075281674 -0.36463752386645354 0.29848599874600873 -0.4439701793171282 -0.2811863248508422 0.3138741173541134 0.028497430269876892 0.2961075912167778 0.22125571525284243 -0.4643427702218677 0.15184331152642536 -0.0407066512573829 -0.0953909699079606 0.35556587399122297 0.01728872504084883 -0.3957910836873761 0.2607218930227693 -0.22842067592107262 -0.08589013504481963 0.11976259083328594 -0.05190907890927474 -0.6541766778641399 0.255992916596664 0.15363409988904855 0.17205922376872465 -0.21985231607242336 0.0635381870645529 ]
[ 0.8508897781493465 0.12152211720982489 -0.14081740781838714 -0.3471058366343058 0.3643566223622123 -0.753894946975231 -0.14601571148696127 0.04547674389021645 0.36053513590874214 0.5164056188412441 -0.24998633960658384 -0.7716504072013683 0.25778958725560885 -0.5172185038425816 0.10376439553565205 -0.8971504034825093 0.29466526415489785 -0.5343516469546443 -0.6032756082525977 -0.5300999828838162 0.18321469788644965 -0.15160515322233636 0.11298392158647079 -0.013391462053252102 0.1577970344169426 0.3648650502641936 0.26501630257909986 -0.7355277767347979 0.2973320865548407 -0.5904986277784718 0.5585978469681524 -0.09026835252746036 0.05068082730437987 -0.20873235080499547 0.37777626616505094 -0.45893763593407194 -0.2787164294258831 -0.16790389347056078 0.4485364469881812 0.446051453260348 ]
[ -0.6498620225602845 -0.9005640709932062 0.3000027374748701 -0.2615949746788749 -0.6526902259618937 0.21010561398948555 0.27572430012924526 -0.11031861333194438 -0.5186393500938159 1.1656987989434473 -0.27703240563658704 0.9546254829741729 -0.23285671994434654 0.4856289825700519 0.10773792451528337 0.1628420046108223 0.5596821673054536 -0.2931871365155632 -0.6405444448324751 0.172021760923416 -0.2008382166731428 -0.007571907133051604 -0.012629083677091089 -0.23265054727741163 0.2863351789727448 -0.11146876718117184 0.24495001117336218 0.15715210672499774 0.3255704220648367 0.3544907971447127 0.6637488808799034 -0.5720344894698631 0.17408039582357707 -0.17120142963497453 -0.3943349991346851 0.09498525807700282 0.03012254117413791 -0.09835160402685492 -0.42548290043795134 -0.2265192097379043 ]
[ -0.5446192384785945 -0.17057524524117457 -0.21652979850665657 0.06360484334040822 -0.13637046607986525 -0.07691400719428389 0.47437456938046774 -0.2517272301007377 -0.10106534199289538 0.40083965744363453 -0.06690931559866506 0.14343626258306594 0.3354134270290778 -0.1448747375581654 0.12808673618238461 -0.1397557704324053 0.08223068939731175 -0.6939566314807094 -0.04446213505603547 -0.22871343222211019 0.4247245012845037 0.0788294224803225 0.17374469691938954 -0.21229134165618221 0.49021997743802426 0.008708152352222734 0.8542365300103912 -0.023941727485255134 -0.10437574269031866 0.22288034128800643 -0.2028573226597529 -0.7081563649986414 0.3325920930056246 -0.21720961978497183 -0.619289381100432 -0.16894972777595407 0.0749189681043942 0.07400522553545674 0.03606446025701052 -0.3658369465499023 ]
[ 0.609040575308919 0.27094760879599444 -0.30994461732346335 -0.05141133471196602 0.2338975586202506 -0.42562323393945467 0.8886629928556947 -0.16059537102249855 -0.13431383561243815 0.0038093415525588654 0.03323026321552117 -0.8562887055496494 1.0452977359855924 0.9190078831450172 -0.23821323005711834 0.3088487336459474 0.4010618837062226 1.2829049036102629 -0.1864501605111085 -0.49618346355188886 0.03891762511150651 -1.041196834049165 0.6141345486070445 0.0802891483791966 -0.8569858486496221 -0.4487783380858389 -0.4715491890068217 0.18029145482047754 -0.3419885453224804 -0.1743476966522252 1.0361182406071014 -0.656614610194406 0.1576975240740048 -0.025089452773998964 -0.1422526780200795 0.4123878493729901 0.07506552891448012 -0.23232435607148622 0.19004590604988433 -0.36509503606652655 ]
[ -0.26513846472616154 0.5926986321410401 -0.1392060060210529 -0.006039984275933042 0.3635365460216804 -0.13016376444673805 0.10801224118823799 0.9664152110524363 0.013842103932917196 -0.806228348821314 -0.17450293308106063 0.3111980323984555 0.07815073984789672 0.5742755415812851 0.030163897519401333 -0.8080236675726888 -0.14196231948329335 0.29384369400379123 0.534218925228913 0.8569792245551682 0.3258534524100135 -0.20965766476553785 -0.39389282997924197 -0.14599128211085244 -0.27107515631604756 -0.023412705609760314 -0.6209061902721629 -0.061222612571778544 1.3092728880254505 0.1410823443664068 -0.01545902951498375 0.4116450579971132 0.2422957784501394 -0.0799959253991219 -0.2602643599130466 -0.013410896622925338 0.32710585398456243 0.17088981344039378 0.006671660723585971 0.1550848412218647 ]
[ 0.32634082186227165 0.6848283380870678 -0.012963144541293381 1.309805839965109 -0.5603675379314427 -0.005397758801851482 0.00812823751619093 -0.959698870894463 0.1736531242196457 -0.821544401363696 0.8704576447661578 -0.4276318106754068 0.15580304494333047 0.4851813876406658 -0.04412598947385648 0.21830647885804885 0.4905065526982921 -0.7240209693657926 -1.021096564314804 0.04649018182988675 -0.2889630985401758 -0.7026899350461674 0.37153497318690376 0.33165105038411963 1.4864150265995668 -0.745245729787936 0.22880827295719547 -0.0012194814002113499 0.3724050140196815 -0.464205941638724 -0.0024080283577949404 -0.9273831906774256 0.1597913078208273 0.5241224869498917 0.4883150430881016 -0.5914368793154269 0.2845940561950063 0.06474579832471396 0.017370740572395005 -0.45776669625151367 ]
[ -0.4344953034502686 -0.3377094774024765 -0.1602292613131423 0.13617557743943332 1.3173239920059527 0.5589391914986205 0.07156510027253263 0.7611287009476191 -0.18294592438808882 -0.1776628477048308 0.5322990991746608 0.8603396351141213 -0.5953792698508297 0.38786341608592023 -0.3737723375250165 -0.015668172665277688 0.18453094329513559 0.16280250039116206 -0.4286030083301968 0.7101220678587163 0.06029215403246002 0.7587418436960642 -0.7768660080794653 0.23945797884384226 0.23234252340347308 0.6382452601083398 -0.84446280220248 0.10020775462175771 0.37899413068179116 -0.0025507827235010296 -0.4213740400456389 -0.16327861409236935 0.1313052417813152 0.20261391135123213 -0.10623190880370255 -0.5826528014588399 0.20431603083158786 0.373826665596637 -0.1242599744855619 0.8323940861125206 ]
[ 0.26100850805028286 0.3365281267281607 0.014224914034536868 -0.07738834845002768 -0.314109262786936 0.448150011962554 -0.15769544040356473 -0.22780625282782485 0.1833361632276116 -0.025852179572387723 0.3609657483576474 -0.4058187964947326 -0.14755614223636226 -0.2597826894138349 -0.19460088908235462 -0.3236520260353636 0.38303853926546994 -0.30413708482326807 -0.09785485687345667 -0.06092991225055978 -0.387904757851947 0.28833373422444636 0.3763404985833488 0.21642259200321526 0.6350753873394902 0.14545767724059078 0.18902331132339406 0.18088139272681159 0.37758274566987104 -0.03132459323413253 -0.7013114823059855 0.06951149965487666 -0.029225815179155214 -0.05001832327528646 0.7049592889835643 -0.2322621683799789 -0.162123440146562 0.2957980759521222 -0.15345024970867108 0.0024236081290246996 ]
[ 0.4404335375274292 -0.18236642424694977 0.22677177682124527 -0.6458109772243245 -0.33782943349939387 -0.3010669140682908 0.008287274035541683 -0.13450294145275857 -0.3834973158966936 0.1579353186259253 0.5294417593376921 -0.7204765287222785 -0.811835494171684 -0.3892567258362363 -0.15830526685029953 0.723195478967449 0.1122596468195951 -0.45787494465660694 0.005175487578546478 -0.2997189372962403 0.12435821169182965 0.7297534973375831 0.28295907952566657 0.084068795610867 0.7200046849682983 0.49373964735738723 0.5067451448396526 -0.23310617388270155 -0.603655867771718 -0.30995684942572027 -0.37982553500944144 -0.22140705893136453 -0.19353564252137376 -0.034676545519502194 0.7885284353239553 -0.19596343632829305 -0.18254784221967427 0.04121239386392961 -0.3686397318690404 0.4079267906685891 ]
[ -0.7264024659698656 -0.35419723247099083 -0.12309271388512391 -0.38568038194461357 -0.33281531796595076 -0.1702533381388717 0.5814709443857312 1.198214237112124 -0.24568780861417872 0.4393135333545749 0.570105674367129 0.46896330071097514 0.1027445921686738 0.19515307033379858 0.026211351876339484 -0.7914434324464733 0.2724007520362576 -0.7425981086553894 -0.4205148609492322 -0.31996478427253255 0.21934051291234336 0.23436680569961718 -0.5631706150190494 0.00733080946929569 -0.23706481387981915 0.02266450111118648 0.5832672769947952 0.4162734021024968 0.619991407740216 -0.4678403386806403 0.13203279194456385 -0.9983914388152281 0.1240772130368033 -0.09580874624150094 -0.26775543149258346 0.01969495419418201 0.07682850465230907 -0.16564946006729048 -0.26263382447667 0.35664439499294665 ]
[ -0.6391471170523693 0.3467173710324928 0.045676173023436684 0.17948129200331164 1.0005404753613714 -0.03313127815406492 0.6534028893310335 0.5729960395181766 -0.016463537520047304 -1.427439401135907 0.7196968578316735 -0.16616835101793515 -0.475254119036491 0.24465042651211288 0.3880720462863233 1.0640707891996537 -0.23859431578581036 0.7663358390751163 -0.29753265429721554 0.001684214971385205 -0.2652102197278983 0.5018992701832744 -0.45873431912947216 -0.11862423129722946 -0.09061012757072501 0.2595279212989151 -0.6359696828523201 -0.7032487059778758 -0.40593705982104417 0.22906639951073238 0.2161962920511812 -0.776983664725401 0.318835682576884 0.13792587006138898 -0.09094268186300451 -0.13611586304494167 0.15050835533202536 -0.10293325171585863 0.08110952291206262 0.4756166520002883 ]
[ -0.4075760393115722 -0.27450507921903916 -0.040410332696130306 0.18318404709933556 -0.4904747489663464 0.5355229612402629 0.4493562642829871 -0.630186851002772 -0.26671426194387465 -0.03505663179981251 -0.3094930367845387 0.39510870281126415 -0.04742730357646925 -0.24499665461172723 -0.009073277908101656 0.09134696094786829 0.19522913338983694 -0.2728739672784134 -0.47674426684603183 -0.21747193793016625 0.06230666505390658 0.4168008635824655 0.1637315044628875 -0.13747362318776912 -0.028120509536663955 -0.0822552573152965 0.3737502276459239 0.5666648543522781 -0.3725766981398416 0.3755521918848992 0.5695883010125916 0.01909958120217073 -0.1182643757803973 -0.06710752761301106 0.16706043517310717 -0.2661587225635395 -0.07362076866423002 0.06028193093099573 -0.2420435321457827 -0.2867609400849506 ]
[ -0.22797806673645557 0.12172139711220085 0.7294945960426807 0.14582321951951052 0.036313573612005476 0.08455261924740257 -0.710323294854046 0.08377312458596173 0.2203338095165618 -0.24883688971723278 -0.00616753242610363 0.474909807317257 -0.5440545566850536 -0.6407344536706102 -0.10210177464871682 -0.48184490134492935 0.03289517947668832 -0.5872681854556906 -0.6408440569360682 0.3519809680764544 -0.1586778802021089 0.2587568498360969 -0.6639131011177045 0.06618563633076247 0.7107825958919467 0.2337175919501581 0.24444154221836595 -0.7353638277919935 0.9812065327739347 0.32165272558276736 -0.0691517698475006 0.28237696918113486 -0.2016118388342233 0.5159178719721771 0.6776677010961165 -0.4251340005372461 0.002103060064029223 0.6047256352378022 0.9575223029028286 -0.060054907839565276 ]
[ -0.0469564385881418 -0.8834167538786349 0.14005268134750537 0.12601237580656557 -0.30716013548977883 0.32966097682217066 0.5726884184066675 -0.659993621082774 -0.05635544752184983 -0.12326456253798908 0.020772964074665747 0.10188797775220682 -0.47947263912471116 -0.22493050000625173 0.11412350994231503 1.2411719192887603 -0.36347566973645173 0.18161909608286922 -0.028347538306547806 -0.08867537493535156 -0.5157407348165017 0.2877903824737929 0.5185579066044248 0.0052679118576962475 -0.4423269920054262 -0.125997784394861 -0.03793391091580344 0.8684307846472641 -1.115087078037611 0.332729021665217 0.9112939699245441 0.2367793016387605 0.287919424373765 0.3753076274836195 -0.3981230851226669 -0.550401662996387 0.07847957022272023 -0.35680858720218195 -0.45448611314932774 -0.3201787208860234 ]
[ -0.5279256975855398 0.09825518515435008 0.16812736554115318 0.5567864625934892 -0.615334326632541 0.34667099785044214 0.04244390826456578 -0.49788067694470917 0.0669148105165653 -0.10338729538095588 0.16706172754447055 0.13097711376712165 0.46757655385331215 0.6941572517802216 -0.04096012244053255 0.8869440036879341 -0.19606580010087404 0.10032033692259429 0.5227213668105183 -0.06628178311356343 -0.018354561361465772 -0.25925240010490347 0.16086286771779262 0.1397121970817956 -0.626383217690137 -0.5683161253562156 -0.1499664672848458 0.8980541261655712 -0.2666877388304417 -0.11198046812134453 0.3902989631834526 0.06798374433383578 0.35712112793897555 0.12547650861589799 -0.22868059185944925 0.2611863716417861 -0.10602083891736065 -0.1314854073367674 -0.3044945517231471 -0.18958629254854287 ]
[ -0.25841883986171016 -0.27492620255412364 -0.22608374822917687 -1.2626567030444824 -0.6702834876860058 -0.1908333617073593 0.3018545771850381 0.4345695945597135 -0.5876798990321053 -0.4228759386315546 -0.11295855685079728 0.3640403039430922 -0.2402275042841521 -0.13461616024091086 0.6026409723047847 -0.19944337018566996 -0.46974999774067877 0.5173955900569984 0.6432522213809186 -0.5124356847309636 -0.17994899146131837 0.5159442724130996 0.5558838318526064 -0.10499916734493137 -0.10711639501555086 0.04262016793339432 0.21159809063258908 0.8327553941262773 -0.5316839934237377 -0.3994951693017065 0.49945564532233494 0.46511145807141885 -0.512644813823682 0.1726129857255967 0.1578051502447317 0.3650637673916358 -0.3938332073546283 -0.556654120950978 -0.46613057574274586 -0.15744027668729932 ]
[ -0.738890227838117 -0.4590422422313462 -0.5236720128846067 -0.24640410900786744 -0.10406190719877947 0.08571561004243694 -0.45117506354735715 0.0603259508300744 -0.3966730070946195 0.8006002619286784 -0.6277349395603744 0.4569004306208002 -0.10249307163453127 -0.3252091729541319 0.0028876511236548856 -0.04214646073393091 -0.29689804004976805 -0.17516563120547696 0.3228271469357641 0.23943150968432658 0.11538999546698435 0.06419727829099744 -0.19833962594954097 -0.04485369547787721 -0.14302251020899195 0.07853972751082407 0.21354475730967884 0.262762138216879 -0.0466935630065192 0.30085858664957155 0.021067767552454948 0.5346009332197432 0.12101584951317164 -0.34176031363063364 -0.29067232330133613 0.13255569674724782 -0.0609636501186914 -0.2950299568434555 -0.09773930918086711 -0.04291500563174475 ]
layer 3 Activation
tanh
layer 4 Dense
40 20
[ -0.005150143640143693 0.2714800526804546 0.10273003784017266 0.12293763223746242 -0.48492926216431415 0.33468017768150077 0.48055403976095895 0.16516856113346448 0.1663146767291119 -0.028539394244811857 -0.08131961629807731 -0.6134304873088539 -0.04615675249478011 -0.13219044145548944 -0.5125891181464955 -0.3387544107498017 0.3549392558637906 0.29889077224694494 0.299796956404453 -0.06877574288562492 ]
[ 0.020749389421619923 0.10515716216825931 -0.3250026591183985 0.25760983323523273 0.23857225316433203 0.26773738428189386 0.03773465578440564 -0.02064993484810338 0.27189809547471344 0.17619619709605483 -0.001143860185310571 -0.3408953720986834 0.013413948105092768 -0.5090228758217118 -0.2789454731721238 -0.00631193632570818 0.6450519744297207 0.055500307190020755 -0.4181929022302972 0.06251527360351712 ]
[ 0.11272723452772089 -0.2738765271942613 0.08698342329311955 -0.3189588766752987 -0.06294815514062618 0.2511589791732759 0.3418634181263089 -0.07007298218285996 -0.08561111756475386 -0.34241863110248755 -0.3323858548560638 -0.052215371118853424 0.1449253370017418 0.01840512822730731 0.42692507553438463 0.07180620055723398 0.15131839365037966 -0.1824239736348073 0.0950883706406582 0.08769089993187235 ]
[ -0.10607505592486602 -0.09181600966916789 0.06835399741185536 0.322297499169002 0.1544903667640282 -0.0933626115485242 -0.2567417753821826 -0.12786636768884455 0.2687693949005461 0.08605380789810872 -0.5093863876126737 0.07396494733784464 0.5238423513654535 -0.15969677966490328 -0.13069351791216205 0.44994887472549183 0.33156786062684807 0.198119661411584 0.36033653760442863 -0.03578163263619179 ]
[ -0.32447792715993146 -0.4456683712816521 -0.015734313267440427 0.11565706982335978 -0.6134914207117215 -0.406486027368687 -0.5607587017127049 -0.3779837570401874 -0.29122994656834816 0.10538374932002867 0.19629199606946113 -0.32656970770324123 -0.10192582060061421 -0.10628597301495762 -0.13643921813318932 -0.3063627780327888 0.28835955994079165 0.22907173988986462 0.1406474474712238 0.07978819530013681 ]
[ -0.2281681236188541 -0.36149537405655885 0.039550075545340735 0.010207485966756328 0.14727549643541643 -0.02024323215114597 -0.1487143015461761 -0.11405774131568655 -0.24990072420857412 -0.007810005833347266 -0.5626655245720631 0.14471275450185947 -0.0649706659039923 0.4000524034492833 0.34302803219619105 0.0545492430388238 -0.1162385481159489 -0.16638727859452093 0.050011298477183726 0.07201240568153211 ]
[ -0.11798865752892675 0.37053622851759216 -0.05859574961592487 0.19029600399668334 0.05801486883581102 0.15454998238803275 0.25633574679407317 0.0445119940026955 -0.04792640853211995 0.12963145825566713 0.23902196340707488 0.08604925987676872 0.0705941655560298 -0.08826565822310867 -0.6292888283038968 -0.4288098975679969 0.4015026940725581 -0.04766547471190335 0.20910585405882445 0.2828545523014496 ]
[ 0.2885465452688971 -0.32363483769446305 0.11607988328206706 -0.13140751178349988 -0.21134977976357558 0.43547496306694905 -0.03464645043334043 -0.06291219202943582 0.1666030777354647 0.46456993097785515 0.5167381218625076 0.31612341720446463 -0.2709657555779875 -0.2040482483398602 0.42147548230874154 0.5201936911217401 0.26317663186926343 -0.2613057433688422 -0.6023436328600037 0.2680960756644368 ]
[ 0.04699701983900442 0.031149534042773295 -0.04112303566256781 -0.06175880426416979 -0.2730225876421296 -0.14013624577472994 0.2023765569490024 0.17971640531364472 -0.02409583792290522 0.016678229697831667 -0.05537112766160512 0.04310322649367253 0.17678780867127358 -0.40905188076175125 0.3045899920867843 0.012840803929599767 0.3181710375332444 0.41773914182801447 -0.2668166766929879 -0.0690804208336703 ]
[ -0.16912450918770489 0.09790273394297018 -0.0005480881984633102 0.0937548694481908 0.40852433543461775 0.007438695082206352 0.3197469703028732 0.7691143972831184 -0.07357347812228765 0.20179374855274282 0.16638534502979804 1.0711366444493695 0.17194762283227905 0.40778187779792996 0.21623713728192706 -0.23058174134409815 -0.16574913730232183 -0.16651083150731597 0.15379831913820746 0.016691998581332523 ]
[ 0.07120320618264642 0.06641920060204551 0.05670297565370047 0.010539841401634133 -0.4127401769728175 0.5479142538988105 0.041988529028776006 -0.18986457564316067 0.06367326535391185 0.09088821193909606 -0.09135456988046463 -0.3629710013032118 0.4481543964943297 -0.035824768636221326 -0.26279616275798606 0.15668937283442275 0.3291627000929206 -0.1435622325588914 0.24734831887210543 -0.06355070533604881 ]
[ -0.16495450989661636 -0.5081818215995487 0.12689022548281198 -0.10294089608948578 0.16777360825332605 -0.01426370210665002 -0.5747347026579995 0.2586786598142107 0.10890888445821281 -0.31139097152064676 -0.33593458277790855 0.6499110935384023 0.2199747434114821 0.23773182273020144 0.7287559229116767 0.5322808326377597 -0.4309330568882209 -0.29043171257647593 -0.3320162605363397 0.34464390800161515 ]
[ 0.10512990847530888 0.41177235877372265 -0.02754199250734623 -0.2771674601797832 0.06179141487087002 0.250611733735424 0.150539173880361 0.4547986400649177 -0.061368784442875704 0.34870344295909145 0.1024018166531164 0.015877947959908482 0.19729883852508323 0.15832107752430968 0.182761230311554 -0.31877091724680173 -0.060557700199100194 0.35995720431222206 -0.16155138809421046 0.055415970530166996 ]
[ 0.13747094429049658 0.3419419144441401 -0.2634426058604719 0.2876731549459693 0.07951551909214083 0.17647845140583943 0.2900346690296905 -0.20924187632637223 -0.015851451775302682 0.3039491056681462 -0.40347189411132467 0.16062960849966115 0.313767785006129 0.3422540527920676 -0.12883794718204947 0.12684777205193307 0.30721901011779174 0.07569037702774657 0.26081830709257575 -0.12391989377487565 ]
[ 0.17067489892116214 0.08431035332470595 -0.20391732834312087 -0.3436247865001256 0.1098707229623982 0.6194244960169071 0.07360511573083786 0.20059392853889965 0.19530696743146336 -0.28458703943093305 0.09609345986995534 0.13783265163753497 -0.04777227303500205 0.03326628101167413 -0.18688975652357037 -0.21003664966019256 0.038664814873147664 0.315512388048042 -0.015094483426386678 -0.5224412629536986 ]
[ 0.11807852571325018 0.0793612161041651 0.00898552819601924 0.12204341741145999 0.5231545685230299 -0.011988944529438533 -0.12182564796964192 0.052355119651519774 0.16893866598672333 -0.2272489738161567 -0.40155659767473173 0.39948978106556243 0.34751956521680666 0.29186543875738885 -0.6345565562782274 -0.3410643745539136 0.06531022590801071 0.23184094308674838 0.34624166692251135 -0.25761936263458995 ]
[ -0.11592677343037956 0.1500293944509415 -0.04260074489890757 0.07206750598039056 -0.2693323166621316 0.053618644111234855 -0.43224411398631096 -0.06566226088369377 -0.02905072756994461 0.23159310987133974 -0.25339051948797936 0.12889898071852965 0.1798303061697695 -0.10899635072452853 -0.2032474606471918 0.10258448599115304 0.753129665153737 0.21949532310397588 0.09433542121215828 0.10415314261523884 ]
[ -0.11016147954222968 0.053952999202749305 0.016744384735515934 -0.006371241256362333 -0.30822295584524945 0.04971635630048308 0.9637603949652855 -0.7296435883629212 0.1716836568044332 0.09313813483919497 0.67690800416563 0.17818621253184916 -0.12803657616399855 0.05391549900362653 -0.3729642380740717 -0.43888412734470844 -0.019761893516491227 -0.46758696873573724 0.5105524712487238 0.23077429139345398 ]
[ -0.05325182297549771 -0.13984067152980592 0.4127055458257771 -0.3171622447192512 0.20137948769542416 -0.2877862554394133 0.2313437857978584 0.14920946389377568 -0.2186320926549968 -0.20535887213461954 0.5375401301956447 -0.253187088327987 -0.9813057414287707 -0.18206010069768677 0.012882662540297166 -0.4649112478150695 0.07109686699918662 -0.09225691686870904 0.4664223250138947 0.07533686906205607 ]
[ -0.029897440061647185 -0.28283179230792127 0.08379611672342614 -0.20130417546330215 -0.23862825744008506 -0.11603310636852163 -0.05233852014539883 -0.2709777037721153 -0.02651799278684655 0.1522740333950836 -0.21313518826914415 0.2790558687868005 0.05516576779612842 0.2958688578848228 0.8778506900129613 0.27719062907737296 -0.010844455799012302 -0.1838784386044278 -0.1020783329309475 -0.10176303002749784 ]
[ 0.04189262854080511 -0.13613963757795267 0.1319392298142102 0.23255876901292422 -0.09569776509300974 0.20072316717491026 -0.13127360687039824 -0.16170836272286954 -0.29039633186412894 0.16264092944439174 0.2652239347032644 -0.1251924036847089 -0.11640514414079588 0.10780300771950713 0.05718788604551625 0.13017887799666236 -0.10238934803532235 0.063393604566209 -0.03868440160945567 0.06649944720294479 ]
[ 0.11109759423110212 -0.4366498184411021 -0.031287426828618736 0.0037587848016591395 -0.13910270715489353 0.23854995559347478 -0.26799410507479354 -0.6128502047567183 0.0669788319005164 -0.574296497088912 -0.07844480879000153 0.050209080186295184 -0.36564580434037713 -0.178488035705033 -0.1171417044053868 -0.060513848903159216 -0.05130512845581406 -0.1235879462858897 0.21651096008229312 0.23268084749128287 ]
[ 0.12454613571785568 0.4821920930513486 -0.0466353476572951 -0.2838852391580588 -0.2083692722753049 0.04324894344817088 0.20739901084312948 0.31843880834517224 0.14145202507894766 -0.5098010279452271 0.1411002876016839 0.08793727418496236 -0.49823699804824667 0.23093181976030408 -0.8575295204278124 -0.10413599204088889 -0.1569825677374758 0.05133626985477898 0.20564040812870216 -0.17633458224467682 ]
[ 0.009526207387737491 0.05300997458567518 0.05238459547444702 0.013811541346458532 -0.10830353726231796 -0.32092833953857863 -0.024973174947304104 -0.061083822378401445 0.17876538787946997 0.17587854147869447 0.0008342207021515473 -0.06440023805047539 0.15296835083652538 -0.05827438496273716 -0.06141687841343545 0.13410660034045155 0.3665601384345656 -0.019310097084053034 0.050655908217374916 -0.0229227893965294 ]
[ 0.1619013618731378 0.21674906833472102 0.30853831932606735 -0.05507255705974501 -0.20496932999768638 0.2209976233129259 -0.718423503516984 0.11141601750303406 0.22034336715075378 -0.22037293139033368 -0.6880823955306125 -0.22568597320320477 0.19912458941853353 -0.5825276620210973 0.1810681673424571 0.7586845464370128 0.5280589029328243 0.22616352587967412 -0.16226771507088844 -0.04419480778389383 ]
[ -0.11259353570781193 -0.24368712898686212 0.16916388277622407 0.2580010719316009 -0.24524316661628143 0.0277634259893473 -0.1285484759316501 -0.14191422775888562 0.00032402533832665806 0.016354743595184636 0.5254123329170443 0.21164232591916893 -0.19922405322842113 -0.45608226625979426 0.0230989095480476 0.3567144934361022 -0.09638958789039906 -0.0586585793940887 -0.1089324489615934 0.14601177642353802 ]
[ -0.01594159694385112 0.2801436389483558 -0.2449405671749056 0.10324385625556011 0.3711470170725167 0.012036606335075571 -0.03152029927801438 -0.02093231643743249 -0.17867532579216971 -0.01597873254462196 0.037358607054045256 0.37025178799363995 -0.1271465580964204 -0.11660090513511032 -0.14259684482805896 0.1643589141055228 0.16249115739572753 -0.13120370653780128 -0.5088841986664218 0.37485757819668414 ]
[ -0.14499559667386974 -0.04295303383335546 -0.0882109232600724 0.11749067008962787 0.3810868814170016 0.033774205111834744 -0.22802104245525237 -0.3690706091406678 -0.03879425993465189 -0.12404156613173252 -0.7503188970909178 0.524931217438105 -0.48225100459143344 0.2693942512575576 -0.07263543487445229 -0.3065052691896983 -0.10437697988561423 0.12996214338338566 0.5224231399582011 -0.16897629907220235 ]
[ -0.08633283048396422 -0.0778504938712738 0.1318203256197292 0.13171193186778016 -0.24427681700165715 0.05618490617664922 -0.08162983999052427 -0.37652260641003554 -0.254817669952701 0.7281424853485085 -0.005170667593412088 -0.00022914863883822948 -0.09033935431374575 -0.12793954644961403 0.5369658799556177 0.7198895002947069 0.3303872285439378 0.18239369052726448 -0.4078622878824208 -0.07171316989048197 ]
[ -0.03763967915325182 -0.5705159452078716 -0.09612922153218388 -0.058286387644468224 -0.08167151808053609 -0.16610842002695092 -0.04844701483564201 -0.1079023700271366 -0.30652106250427946 0.10345775743849354 -0.1153738510799794 0.18033776574653634 -0.21664809967374626 0.6059451314528101 0.27978845821290066 0.14294587037597892 -0.20615176274689484 -0.14348482249787803 0.111068429738782 0.06495144004478863 ]
[ 0.40437792721480237 0.3490467614352659 -0.018408747343391693 0.05888138795975644 0.5489350045940573 -0.24279315881987082 0.18962546802862595 0.4231049136419785 0.14178112379414035 0.34215765500844664 0.22169545403716776 0.023914418532160153 0.11955671154605625 0.009318624724034198 0.32202839999455446 0.01163851495609282 -0.12012081302937765 0.2183475432288764 -0.37151890908956053 0.041992100110731366 ]
[ 0.07591039441592658 -0.16620714742977205 0.17720501398410002 -0.3422806289636323 -0.034886620509792896 -0.275331509957508 0.011774976086421092 0.3725929217469205 -0.05675157971872752 -0.13886275836932108 -0.19886804179390108 0.15907717634631577 -0.49153085386958273 0.14179622755350796 0.5929106889486065 0.13686941139356965 -0.17482017814378392 0.2418840899321795 -0.2968004071846731 0.11332161283994613 ]
[ 0.02490409364703694 -0.293498273599655 0.06746430962970928 0.17266264046440027 -0.02159368903291327 -0.07416947247386178 -0.1608363820612785 0.08373762778563339 -0.1590760723685043 0.26283115993867195 -0.08328768360124486 0.12580980427954797 -0.02056178185113388 0.30971801339743427 0.29275058918658275 0.17946712434482798 -0.16026649622426709 -0.24985659870442206 0.06445414299457466 0.06861127556814832 ]
[ 0.07348085558935133 -0.22752864609644746 0.18195993885197634 -0.16858891914859955 -0.08967584494379095 0.1862070665906483 0.16166724617672285 0.027724998084425464 0.23920688440963242 -0.20389784702267008 -0.16551118786169447 -0.04507177007692206 0.19593318455400688 -0.11050001017816757 0.5262162247131158 0.06447289084963874 0.4440746976592945 -0.0887649325183888 0.10564095334839735 -0.02498807371062716 ]
[ -0.10777374284176548 -0.052990456003004796 -0.1838376977985027 0.1779780702202005 -0.00658184515449777 0.1862674281516142 0.4422030304965694 -0.40735567054099525 -0.12501892930326378 -0.002182466935734228 0.06648097438068713 -0.2823603303924528 -0.1689792324716786 -0.24790610482432449 -0.8996123060528338 -0.20093108348441788 0.656150897294658 0.05951057043171276 -0.11108143608003924 0.17151464032840957 ]
[ 0.07223114046177538 -0.11724589936347977 -0.04195474238875525 -0.12054493208818892 0.33554051625377246 -0.2884708461498585 0.1100812914716383 0.17470655158440354 -0.11343416692754664 0.1963361109282518 0.07508904899626796 -0.2093494348748786 -0.4900225670113614 0.07665387006839296 -0.3046969876810596 0.18956466560511953 -0.6337457989154553 -0.3272084401968546 0.02493202923521463 0.23577776444811188 ]
[ -0.14178258670326985 0.08154147836245028 0.17199344876486192 0.15918141677606018 -0.03794712680209746 -0.11441097617229061 -0.05590754831039237 -0.16184049227423541 0.06434819543632071 0.4129280267322833 -0.22656502422134198 0.030456617477523797 0.055955459197208714 -0.1104808006308858 0.17821007832589353 0.20118909250789632 -0.15838405546802448 0.005442612803944895 -0.08184501822239805 0.03353284846175076 ]
[ 0.031743940121103646 -0.49738080789510747 0.057989675948882956 -0.038036909920242945 -0.23833082617537732 -0.042610627299083735 -0.06468616598766477 -0.20275695862566437 -0.11593378271391329 0.18632577224152772 -0.2660172143792472 -0.12345151137676257 0.1283270794221795 -0.20340766111331277 0.45005886536656053 0.2501014464333182 -0.06862504474906568 -0.13709741351299407 0.025901081765346983 0.004898113222477513 ]
[ 0.08996975093071974 -0.2024184386850404 -0.07277968630557492 0.04051599976914707 -0.28784008999946586 -0.17343952689762882 0.1660456934525985 -0.010904675580179568 -0.052492568345475395 0.3368611540287216 0.12450266485317316 -0.3815486899353161 0.08138126926477031 -0.37194176971587056 0.05765667611410644 0.4115992320066223 0.5034925781618407 0.1684133759767041 -0.31550895598787726 0.18499682589285227 ]
[ -0.11182484745562915 -0.476975569436754 0.16969303642644648 0.24206430917208838 -0.4459268657531761 0.07044210306886899 -0.33290350997960405 -0.4081337671042628 0.22611409358448115 0.3110536304373591 0.5653070153450948 -0.1592971548398608 -0.20627396977088633 -0.3842583987821208 0.03394511253431199 0.5096671487382901 -0.08152620737136958 -0.2522010523431743 -0.09244038896311792 -0.18463564197227508 ]
[ 0.029818076837430065 -0.03333597688405547 0.08238897763159585 -0.09717332537506178 0.2103710715494553 -0.26475818654886485 -0.15268769950857994 0.10804526650748253 -0.10266056095880982 0.17981361714558608 0.3425741532851474 0.30230593624277036 -0.24790025943054406 0.12733618948031689 0.2399558813307872 0.052919679363775896 -0.12922776665875538 -0.021659827588318442 0.047513470439722774 -0.07019695601374132 ]
layer 5 Activation
tanh
layer 6 Dense
20 1
[ 0.0031388738865362068 ]
[ 0.01863307994782822 ]
[ 0.0091537659619147 ]
[ -0.02121630902333909 ]
[ 0.09092141558040143 ]
[ 0.01620922409650411 ]
[ -0.16247650163429514 ]
[ 0.10090729280754451 ]
[ 0.019249938451570015 ]
[ -0.05989658476714039 ]
[ -0.10880068378195594 ]
[ 0.16967810465001318 ]
[ 0.07563733781202993 ]
[ -0.021080001138086144 ]
[ 0.026997234687388474 ]
[ 0.07704312405220015 ]
[ 0.02326658654248863 ]
[ 0.009012720577165309 ]
[ -0.15773041415680736 ]
[ -0.003131094527976595 ]
[ -0.0021639805829317465 ]
