layers 7
layer 0 Dense
20 20
[ 0.5851442379833366 -0.2180048212891442 -0.5797152012521916 -0.06938447971158587 0.6233959566722338 -0.46990357378406217 0.1305824180290654 1.0295399468660056 -0.11153528426318039 -0.5202713976603817 0.13482756701212711 -0.18873721128532608 0.046405852634447124 -0.22939959667417106 -0.20884941542220847 -0.46466865617333786 -0.24560893623188737 -0.6127589562142013 0.032321998446587265 -0.587588388519807 ]
[ 0.1391934201348376 -0.37444429081030617 -0.33423140956136616 -0.11705388756218674 -0.004840740437215873 -0.04947292533242008 0.22563272441645665 0.352002059677621 0.3091652928140731 0.12408083327125416 -0.058580744994292645 0.2143678300475241 0.2446514836917173 -0.2083432721994997 -0.2740295293569492 -0.03808945162991765 0.14563976832459988 0.3318863843365448 -0.25522071679095154 -0.37341897608538926 ]
[ 0.07380607997720531 -0.09978902848573712 0.03638422508467402 0.18952705442413093 0.1883704218712446 0.04728562452046516 -0.33212554316612203 0.2521598754943273 -0.18555269304517405 -0.3842806182710885 0.2100383839815373 -0.018240102799218217 0.008269576825360914 0.010124259188010945 -0.36516357139453276 -0.3224777392147873 0.2070274484047013 0.23771057941776097 -0.09004605744284823 0.16744965565710526 ]
[ -0.18122168994962332 -0.6275898603946867 -0.5843989210524463 -0.47112423971177886 0.3057572368586439 -0.23570606423193008 -0.07055237892747765 0.9585590838757927 -0.18775852390748515 0.23135727026855776 -0.10603984660361686 -0.24244370993012726 0.09422413448887006 -0.3461030516854238 -0.15412916702943943 0.17097599305447758 -0.19536944462338407 -0.6606002221637476 0.37283026762316523 -0.45410714011249526 ]
[ 0.18413800908120842 -0.11424752945105295 -0.040988917168134166 -0.7068904670467627 0.6795174949122994 -0.4789003275421291 -0.18792878215509434 -0.47885210767652614 0.00042621511794920766 -0.4427398444150021 -0.07800228439750134 -0.08818260466074512 0.2658497736650545 -0.3092903471999145 0.8959474014338451 0.024692957993562577 -0.9207568195805473 -0.0746087006042041 -0.5834840393153861 -0.44834512489247913 ]
[ 0.3133393998964754 -0.11953284002176116 -0.004919627843466054 0.001562245892413634 0.1455384681009572 0.004961061442809411 -0.30605079880743435 -0.2987795558399771 -0.29696952735322385 -0.03343701082218532 0.10454938405059234 0.3748250554959182 -0.30076485853967455 -0.10854124228889815 -0.008385070560872275 0.2755436447022129 0.21148738928996388 0.29917354070997815 0.18178744372826802 -0.01748882442494872 ]
[ 0.05385981917797117 0.12655596834253624 -0.22406466539151773 0.2907726270791335 0.23798727024042138 -0.3330684952441279 0.02308036866921665 0.19192990264171045 0.3036934723971435 -0.06892080825018865 -0.3529972173018544 -0.35146465068676624 -0.08513691205523674 -0.03141843613143262 0.05166831083084585 0.2067327410006766 -0.37196511792944387 -0.2232184768293933 -0.16508610604638374 -0.30341452210863284 ]
[ -0.18911899089072745 0.3734245393726355 0.3080054319651696 0.604429621400528 -0.11820859876166893 0.29607375206366826 -0.3348795034946862 -0.14047402257433106 -0.2731938620043126 0.2700654728731747 0.021546292198632334 0.12610396789441078 0.337842609754668 0.20871258172717352 -0.27553272645533256 -0.19791242608506385 0.3918670697199518 -0.16751824257430847 -0.05986065138793814 -0.08250685170544032 ]
[ -0.2983005912294653 0.32065766568385434 -0.009199042037761026 -0.2178978003709284 -0.2333649175340426 0.1810986413907194 -0.09797153882438477 0.5022250258330557 0.19843585574070405 -0.6356093155761929 -0.20316695879629368 0.6028209903477602 0.5232723214229899 0.5319924726206049 -0.2734242372579681 0.3898019850507607 -0.4270275548150825 -0.1405471680487001 0.28051665329216185 -0.7137417579516576 ]
[ 0.4870461651381897 -0.9190431375201548 -0.516407813475672 -0.2272534283143674 -0.8345216678730867 -0.7884910623970232 0.1573118189733337 0.4489390959711841 0.7039013780983051 0.9532254318486504 -1.2410904626567805 1.1830110296359293 0.8300329912313854 -1.1124988253131876 0.23416111079711688 -0.6234957189244251 -0.2589109765431474 1.2292611938295483 0.28875974678187116 -0.3689192917353348 ]
[ 1.219572782621437 0.033108802218487526 -0.14175079681020697 0.1399557788204367 -0.8641939013069428 -0.34287359437764847 -1.4215145652807653 -0.24751609849656225 -0.8933540386319107 0.2060511741745479 -0.7684716465601369 -0.7386223267185665 -1.269834226313443 0.2170919435743313 0.07924517807464454 -1.1494331558812327 -0.529552028804477 -0.484620246466832 1.4795513209661497 0.35274934707773486 ]
[ -0.7169537235184466 0.6745965707857904 1.1589619655213375 0.3846376357367056 1.142647301267274 1.026592560274514 0.5484367680580715 2.108192303732798 0.18686041755438942 0.4658174527410039 -0.6121693809202267 -0.5626522907566668 -0.154298615342384 -0.2951970047267366 0.21182800800483287 0.40383727957512244 -1.7380727795301343 0.8758625895507135 1.1992871961972849 0.8645181396057513 ]
[ 0.9439862852084574 -0.4206903619840425 -0.6527887404837548 0.35076149615472313 -0.10429820306860584 -0.3958591210379443 -0.20038898949508643 -0.29001634934589626 -0.5815688959140172 -0.11477407479919714 0.5156606054323452 0.11456981272074951 0.49151279931465813 -0.16143794705221903 0.02244440063468309 -0.9135149748034385 0.31168418462337455 -0.08003390478037785 -0.48761777423882935 0.009290954886384699 ]
[ -0.07807903126848904 0.17664574494343122 0.06764165433413993 0.14347739852801997 0.07738150893097677 0.5069704887561961 0.6847122666901702 -0.003364556862043324 -0.12628427866071623 -0.06080723001132599 0.7906311243249711 -0.867302440047788 -0.6381650713693539 0.44163945555978656 0.14156793675494686 -0.02811245661047213 0.6248442239334429 -0.41674304874909807 0.2798949729425794 -0.27190522474152656 ]
[ -0.26236037483633534 0.17310753206689952 -0.12462500540168969 -0.48206254692864065 0.38289950687918556 0.018315804235739756 0.34776480990385966 -0.10574838098336466 0.8511321574356517 -0.1914075538884901 0.09680931907899391 0.25682713582266575 0.6348390870702331 0.14202073925280115 0.25885726229472783 0.5462179629271703 -0.15338430683921 -0.23885582811902167 -0.5528245743243595 0.0928309119510964 ]
[ -0.0986475571267388 0.21496515126301022 0.30648408219757206 1.4533714161859543 1.1075602960414523 0.679259153433619 -0.5409949203033484 -1.2742029366166934 0.37313773226918145 0.32450255766710073 0.09623554024315521 -0.48370578604560394 -0.23228582452919874 -0.292577624080776 1.5659575693570655 -1.727104804533119 -1.2212980600072427 -0.5541315142050444 -0.0022689200540400773 0.46529406060145806 ]
[ 0.22867450198011383 0.10830672553608292 0.2691264690061013 -0.11779246411035879 1.5424063873599736 -0.9740247873319043 -0.049356515159331676 -0.05666659280500573 0.02969221905606473 -0.7624091940472008 -0.4347307782894585 -0.34610398939740866 0.6348247483180238 0.5241136504389742 0.590104969667214 0.36229162369123785 -1.0142696222927818 -0.18440788043135398 0.16518083740578682 -0.22115058698215187 ]
[ -0.30567946195256235 0.8557325304110599 0.7794217596571766 0.11070947331401897 0.27019492963563174 0.49724490979224095 -0.6645606596169268 -0.3650319061004818 -0.7394677171779701 -1.0909045995391238 1.063645495466673 -0.7944245336116464 0.125669852821387 0.6737607586329352 0.14984329142381858 -0.4256252969362667 -1.1730052863567786 -1.1828739158426467 -0.4107486482792542 0.7828251744077231 ]
[ -1.0049167497145368 -0.19809497961998068 -0.012262567537028717 -0.3361743858213462 0.7805545273620202 0.2739981315565 1.1950053057209942 0.24189253824865384 0.21667087968696028 0.5760632293354463 0.9186549537324864 0.5558854299392887 0.7961945218447419 -0.4639359176270364 -0.5770727108491355 1.0397135032162277 0.8519556874835007 0.013861881851491707 -0.87528713214763 -0.3011058592140064 ]
[ 0.31272431854809074 -0.5458146734890059 -0.4027115226567699 -0.19052416487178878 -0.5569888356901008 -0.2684190238688541 -0.2909692623432842 0.138274305007159 0.1356218406793997 -0.6328074968536711 0.5411760625684572 0.876184833767584 0.19357610384418147 0.04320595015787776 -1.372481100522897 -0.04533187374081383 1.0345305217631222 -0.6290162092536429 -0.37034792034914854 -0.4549308586370113 ]
[ 0.027654468610041977 -0.18392638022548743 -0.1724627259165218 -0.24667377461786402 -0.11293128626878858 0.09317263907458645 0.006232526544828939 0.10480571126171748 -0.011600939779344432 0.19490755858967834 -0.027938591184092233 -0.015397801140828539 -0.11183349098002535 -0.11485715916841363 -0.10298762078480746 -0.02302900455241937 0.025844222633655198 -0.09229276914697082 0.12024913258324275 0.13792127764724268 ]
layer 1 Activation
tanh
layer 2 Dense
20 40
[ -0.4391606157385551 0.028924265986526556 0.09983461099004327 -1.0748416244273538 -0.08834288517007206 1.5058222032252393 -1.324610043750663 0.290266888641298 -0.04718530389397359 0.20416098222880116 0.8046603181321613 -0.32237369743426075 -0.3924068093288661 0.8491434815992835 -0.5514628273219883 0.3308357478660926 -0.004629410491062064 0.20689865049309614 -0.48475277515335297 -0.2869431756991679 -0.32887200918928533 0.5262393524666735 0.4710978609281778 0.38662196527601667 -0.5413195963503834 -0.7037475594232859 0.11501947880218895 0.09336818792777199 0.2878125283894453 -0.3563832447982585 0.1423144950134786 -0.1667904288297542 -0.48265891382800397 0.38644329034574604 0.5341901745815972 -0.13834577015346847 0.5353386737507803 0.19830178473871152 0.056393770656169094 0.2611828689983232 ]
[ 0.4442948256524728 0.3104312136256932 -0.36271077562659054 0.08627959688439205 -0.3924039018880783 -0.4490661113449186 0.17720365350207037 -0.5085851151140315 0.5001333518378688 0.3079727195695555 -0.5598095470095104 -0.3629237981945705 0.3691317620383478 -0.2509269674556579 0.49834055630071 0.1230586009646372 -0.11371079971618252 0.08781495734570019 0.04121553808211387 0.07723233756796279 -0.37387662988043235 0.25628936837874394 -0.09956127249102761 -0.2848825191780319 0.011712409541841055 0.5675099083234293 0.35381425071177075 -0.061537588358965396 0.2682432567343887 0.3627573869529484 -1.4689201157185177 -0.295744384668173 -0.05230056243639331 -0.6654137884638206 -0.4158204963850843 0.2069921177491194 0.011525456562621841 0.3471067819363306 0.3315266672622544 -0.8453968209411176 ]
[ 0.13588780862684666 -0.0033338842478708424 0.032400182423204506 -0.04327845590603098 -0.2046976403824329 -0.9030026419527966 0.17826116895395022 -0.5293095665107453 0.2216620493929561 0.23994543843554045 -0.8847510455268158 0.32840506930718305 0.7392170221703124 -0.1813101028468179 0.30520889063768974 0.228795685940871 0.12569831255464842 -0.1524874428843073 -0.16534591282787428 -0.24712807966120925 -0.16006773481870107 0.30915135097303903 0.4888215491791599 -0.3012871311123909 0.3587710024725763 0.684243394389695 -0.12386161323863908 -0.5280387945962931 0.2567991297678646 0.6190536753840433 -1.0851381372598594 -0.4424074793154698 0.2823235254417939 -0.40214002586592723 0.09136602958999845 0.12302422101707224 0.07163053640547841 0.1065684710769629 0.5378840331349879 -1.2165940533369006 ]
[ 0.2832419615674249 -0.08450507454038414 0.23497380659259517 -0.04058308112251172 0.4152238770858088 0.37314101146165035 -0.2356744801870432 -0.4783436772284635 0.19975056108088204 -0.059491187186865246 0.25560527950639805 0.04818839140383947 0.09884157536438734 0.32436961043760765 -0.14545034374249477 0.1646829551241378 0.02395013738211695 -0.3423055124757872 -0.07180248688996946 0.07154956132116658 -0.08581837673200254 0.18155329860106617 0.3498494734787686 -0.4808203478575088 -0.3757824853184531 0.47665358802641666 0.22267104542113111 -0.37528620116004263 0.03855362315005146 0.4615674912314587 0.30367268964172983 0.08193342547059294 -0.23355098725305395 -0.28514573582100333 0.07451048064118282 0.6180345393159217 -0.17134727532226282 0.13567820354781654 0.389664616758118 0.13082117578802974 ]
[ -0.009250136056223443 -0.901205317480769 0.633202586251541 0.9501550900612376 -0.06889851220843031 -0.30584733222108573 0.6516694820902968 -0.2513408313531353 -0.24910715081940793 -0.3141096760145253 -0.03178117503064696 0.15066741187889832 0.9447266658535501 0.23906815264454712 -0.46719511036648453 -0.6578632289102746 -0.119906284596816 0.0667648596146296 1.209354126542739 0.10947343746732686 0.8849748783025514 0.21703209799435275 -0.3598500156394569 -0.4179890034248499 -0.6270032703105438 0.3798006076182867 -0.2756578194767218 -0.041572319545670665 -0.526239079716522 0.2153492104898663 0.09824180373894827 0.6359326140240674 0.008825340821306565 -0.6375741676415061 -0.05012377737490239 -0.12218475009047336 -0.08067411159806633 0.19187786316842123 -0.027434197198855953 -1.2220862319211048 ]
[ 0.5328611832210886 0.18015146755086206 -0.09353267296546013 0.5099936216782927 0.4199033548317329 -0.7550463711773546 0.16912425636504716 -0.21315516232002368 0.15448696830717254 0.11588739314728548 0.11374427636957672 -0.28192181026528307 0.4173366522358249 -0.8262900654646992 0.7000957942603829 -0.011388532674198268 0.05665744294796251 -0.3235878590497687 0.06966932242580184 -0.15291084224823404 0.07629597656927298 0.2631359560065473 0.10292692471660586 -0.3996110121554209 0.04646958366558781 0.6609176354938813 0.07587885202523807 -0.11853275384692742 0.1450638038527226 0.8457639515870441 0.197537696678555 -0.6556067639634874 0.19264477968649887 -0.7916782383187109 0.12394874349087263 -0.09058625755762759 -0.02192673107208628 -0.1706723762564462 0.3968775739719234 0.1690050721619019 ]
[ -0.34117581692227267 -0.06502567811892686 0.5594272980959246 1.0984071618690412 -0.04816852056190905 -0.5810076344814809 1.022408159190882 -0.35524685630951125 -0.3169664968048951 -0.32179312717845526 -0.0011531061228171216 0.062299058530303285 0.5502161046042686 -0.18446091642443696 -0.06362806613707249 -0.9217782560533309 0.05840672473265661 0.29831083244209256 0.6470417462536399 -0.10376444417462033 0.24333143270479038 0.16844759844317495 -0.13568002396450218 0.28135897810255733 0.4335851860426372 0.09372985040586113 0.13149661012645383 -0.1148133655888603 -0.05047858528746543 -0.3025268837780756 0.17018874629566072 0.3529853070551411 0.12613863010958923 -0.15671487789006291 -0.37687395600332935 0.1595073197928054 -0.38704859436753297 -0.1250114940075406 -0.2347859082147734 -0.1892152899913474 ]
[ 0.20486405993966014 -0.70771247700953 0.07317727615975073 0.6226820135127193 0.1201822628983301 -0.3215153528693562 -0.09748475093791 -0.41880020015673053 0.5815214137115602 0.14205824236622505 0.2864953145079794 0.07476515811648249 0.05814534720700608 0.432442465487404 -0.3372601006260499 -0.38690023897079284 0.05717609910076385 0.01908152299006229 0.6094549111158746 0.02520934921641209 0.14427030733132307 0.15049856675000828 -0.5022590870321092 -0.0933770280657202 -0.6613735525370878 -0.15254598521230942 -0.12432565096039817 -0.12487112123470562 -0.20590185371473652 -0.2720263905377596 0.4775121845688979 -0.0286806167541066 0.24930228641393304 0.009128674138657778 -0.44438125770955916 -0.45483175253566577 -0.6810785478364234 0.3357612824791946 -0.16020024328066124 -0.1686822543702567 ]
[ 0.08185131020613759 0.15470202462365765 0.3666398465972397 -0.3131698822660263 -0.1836254049877117 0.15034221241733636 -0.19108861175940958 0.3724661063338361 -0.8763439422919603 -0.22426249624999064 -0.22837045649415746 0.06769824046536685 -0.13122283812515884 -0.4503164334884442 0.32950166820074783 -0.5734315815468618 -0.015692885773985362 0.558053738838161 0.4846043873736592 -0.10371144785870651 0.3610503808470726 -0.27786905629849773 0.4500622862437204 0.19840617901980984 0.8348116063184936 -0.5871741313369038 0.0043633005934273425 -0.5373693400146852 0.47096027876330576 0.19701177711653903 0.34679891129201884 -0.24513634835831835 0.018090713591887728 0.8883760243043785 -0.04027161477213807 -0.3033508405301604 -0.0897052719611726 -0.27395915329352083 0.38721410616568935 -0.35292652693241133 ]
[ -0.7392011719278666 0.401962086634308 0.8590906394866048 -0.5541183646410027 0.27368050420294093 0.36173509931112957 -0.08807347739030927 0.3251234446070784 0.31860811836535013 -0.8311782127154612 -0.5957948316474705 -0.06339973787739792 -0.061944931397803646 0.6878557151011039 -0.7629701059731683 -0.3305740802946422 0.19301222080536803 0.32426851500194565 0.5133336315348749 -0.04874977283796447 0.5864327007353494 -0.04232173306153882 0.6790597412473243 0.6145515046320151 -0.20978453649251583 -0.09763284090887728 -0.3554400284248161 -0.21172618605246585 0.7597662553598671 0.4502455588358849 0.9405143591486184 -0.9684226830304586 0.9691396107445394 0.15672223904348428 0.11235142189373755 0.11534907331641776 -0.25604395495693605 -0.33536783495430017 0.1225362239300184 0.5428721049215259 ]
[ 1.0948098448897277 -0.10093897228211932 -0.5066871013339349 0.4123505798878667 0.3278277903819396 -0.7245187659302141 0.44710034989547265 0.2860443609307205 -0.42628017394018675 0.8041254847163086 -0.1483940879193014 0.24964504818928845 0.3102162770024438 -1.0285151107298263 0.5850804728706064 0.5257070869656645 -0.037915328044943554 -0.1492528177848363 -0.408782539522423 0.03835793679507154 -0.5903032367985823 -0.24143723525376207 -0.4960987158272192 -0.24742668783369795 0.21026490819184407 -0.07952297305933466 -0.217141102068586 0.12358773609042803 -0.7437572478338712 -0.29664633457105627 0.12324706246310468 0.829042654303414 -0.5603833923863335 -0.1879930618508167 0.5448366160913736 -0.430675877209914 0.5079247639640393 -0.18097649015801887 -0.010100031841921623 0.06907118144314829 ]
[ -0.37720746737507194 0.3594433086624769 0.44666729704539193 -0.45097431284912304 -0.3459768193351712 0.03430318141717647 0.3066373451567759 0.25863643348128634 -0.5472708221754423 -0.3955114222949225 0.03256257945195524 0.07349630273134058 -0.42688093256476134 -0.26349647043359853 0.3990469477605414 -0.16556296111237892 0.11664447526661294 0.2961931109904447 0.28819673322860084 0.21761791176136383 0.32954128161586094 -0.32316635638511637 0.6936143300544741 -0.031078198130212092 0.5544602552822223 -0.5413385792346552 -0.2672022286383522 -0.01790096890768721 0.20706018193619047 -0.021568439039765457 0.14201149886556835 0.11300355902754305 0.34893812727237544 0.6594351908875115 -0.008531801950956614 -0.3248539498277922 -0.30768729801415995 -0.7032102436730955 0.5283031293849436 0.45713671291147934 ]
[ -0.37939243322789196 -0.08188597119771361 0.4239144948814998 0.48908451439406514 -0.14268953273817522 0.02065279207718152 0.5427110194817159 -0.046046350416716626 -1.4768987754114684 -0.45241579418986516 -0.2931596455817333 -0.29389786751698027 -0.511965602243133 0.004481259289792442 -0.13043515356610066 -0.20136931994050591 0.1492826399592366 0.23122861460999014 0.8092533523646558 -0.10818840743388675 0.6401972441359027 -0.8349017259448991 0.007459125671215083 0.41866399308841856 1.2069485255567913 -0.2869204866686203 0.08890977632535861 0.5028291385811537 -0.7680782477876027 -0.324409611417999 -0.6099545474877319 0.749361463093934 0.5606785827941166 0.8117021416684306 -0.1692375778574449 0.30355808940681245 -0.6448479297924514 -0.3712135451107486 0.334871666672488 -0.32579314609126603 ]
[ -0.14479194005936233 0.13863223814302883 -0.12839425890855705 0.1631129973709638 -0.28051660456763755 -0.29562510868836167 0.10229021112559028 -0.09171774466240254 0.5648024887134803 0.029172271630606268 0.3327315009671439 0.11898791591752973 0.4104076176049737 -0.30791971864558554 0.38235530007466895 0.5475691650016979 0.10619487367033159 -0.03063890519782829 -0.3045734203843249 0.4045031143626248 -0.5966849735097064 0.1754071940441321 0.0352270412130835 -0.11860129037001897 -0.35343473955065263 -0.11810199823973368 -0.017041081842034542 -0.49456852980973964 0.0641665968019387 0.2400566507334845 -0.9670728527599938 -0.4118655442867248 -0.8510645758436266 -0.5621869296822909 -0.43643879176148553 0.09951930776046149 0.11256427045740806 0.3207273783678339 0.24579453577470178 -0.21695720843234695 ]
[ -0.2514260246834751 -0.18292642963235808 0.09440239305561482 0.1751881787427278 -0.07760425348725816 -0.41323215892484344 -0.03386857181365994 0.010904098967042832 0.43894985135300885 -0.2977470804136747 -0.4178238070376489 -0.17590624188792373 0.0920372755555928 0.23797230185013918 0.12123583795541049 -0.45381604849372453 0.1782050413239923 -0.06082772792860849 0.3425378409608975 -0.06276624865533205 0.2820961553888475 0.33906229669001736 -0.19902846859168555 0.2371935821167267 -0.39172291736616716 0.7355894147593429 0.13430833791783464 -0.22353467645591754 0.07808817557282868 0.5182613767994688 0.3397792261185071 -0.09618432240123792 0.5695682214102676 -0.2915912238329233 -0.45513699277534286 0.18986886073908418 -0.07927734709698252 0.4499249640866551 0.06389059995405416 -0.40634485343507554 ]
[ -0.3912428661636651 -0.28554801503161414 0.02097294548635858 0.6386349069860786 -0.5764544940265153 -0.6595186388116208 0.3791043565888444 0.2018451425851844 -0.2290706511475911 -0.1725041251260911 -0.3116130364690677 -0.1742851393600365 0.12061121893267499 -0.4304263520864144 0.537570731073334 -0.49808346101073714 0.018254768937796265 -0.1335151409826712 0.026079912789570642 0.10048149753018384 0.1620730993779771 -0.017820020488820244 -0.9197483879143119 0.4986247204581357 0.3824047901288349 0.09444585698251373 0.13566663538425183 0.15496207431064618 -0.42001894273523477 -0.34597866046278614 -0.15608297177185182 0.40956853970412116 0.09329122947187267 -0.07605460260249813 -0.17749971426521893 0.3375304966536439 0.36527066838121297 0.12901954337026308 -0.23501122632074142 -0.6938607835262203 ]
[ -0.08306609057918511 0.031641561910286053 -0.5396213734867885 -0.6447355957729265 -0.04914984696489072 0.19303500501393248 -0.27707518213121274 0.3897318542981471 -0.43018348508358195 0.8065249150015356 0.3988488718012566 0.10371544762236594 -0.04126402442821275 -0.4051024684589513 -0.004107430545198246 0.23426860944281597 0.05098147767853316 -0.28738344542411376 -0.3520953616164613 -0.09948544619633302 -0.6466254590057435 0.015098299442622039 -0.23915522327807223 0.458568249005343 0.06162101849608196 -0.5163497404246944 -0.14024501510908233 0.2935622290388891 -0.09746384553837172 -0.5969194703637586 0.24465393698186902 0.3716216410751751 -0.6624676629901503 0.16062334383343488 -0.26852963400239305 -0.06415483804324794 0.2831182092317774 0.0019262282246260874 0.33339878605894224 0.03083633283333049 ]
[ -0.9454831428474968 0.22756149244898044 1.3251984542776594 -0.7236337592111092 -0.1311318154843145 -0.13038047429410035 -0.09209158668996892 0.23849654480074975 -0.26275928955491296 -1.2079694900583047 -0.316594014379799 -0.18266881557215256 -0.20217976185216843 0.522174364352926 -0.33532000783198523 -0.15304127980454957 -0.2461123881036356 0.797853996704494 0.8009013245926464 0.077768449715964 0.790313850535514 -0.4764644067409736 0.4944396721490268 0.985441224492805 0.36014228311115043 0.22327771289363765 0.6643431905373662 -0.9147604707377648 1.0411954547813997 0.4950104195102593 0.3604672798716633 -0.6089261612838457 0.8120607164914209 0.35159110499859675 -0.4240649657974836 0.17361548667314822 -0.9109788818251389 -0.013330961430759108 0.3031550795751684 -0.2005693408839825 ]
[ -0.45828506784968054 0.5115896125425113 0.046144254561200714 -0.20195173590495996 0.0520463572120051 0.5507561621051208 -0.2518215222813559 -0.2893396109329341 1.1098350349720183 -0.29175272368489624 0.6627900903729719 0.0020299606159553674 -0.1304629399220026 0.533749457047746 -0.5564520992827907 -0.12684250474552106 0.17213022714903972 -0.13653688925281132 0.2647613976999916 -0.023539280177065157 0.4331739712101877 0.9666921139729879 0.11019056146451213 0.06958611509454876 -1.0320175440628503 0.4461281915112771 -0.21543329731330874 -0.27937977633191435 0.8853247128624221 0.5496708442484015 0.018272577913847163 -0.736704295299159 0.4895734062492029 -0.6689514498410462 0.017716483273358077 0.2606813982770844 0.40727899012959073 0.7927886108261893 -0.0350898637093017 0.21879352926295567 ]
[ 0.8271055920150368 -0.2643933916033952 -0.10636126817579293 -0.23007227824971593 -0.3853791770475602 -0.465245294372347 0.13764585098516338 -0.09791337283344924 0.7793133303366426 0.300104045688465 -0.28543410058686924 0.10869250188177534 0.7200529461119879 -0.03288539669438506 0.045922779130989175 -0.24249101468391165 -0.0046275223080648395 0.09080794533372935 0.25111503841723276 -0.03500564172357509 0.03057178783553966 0.27971952078604667 -0.020779497497977948 -0.12143842791824198 -0.8197731646965919 0.17416173572112678 -0.3343955172891632 -0.29928995115180146 0.08229596561710525 0.40432987976403695 -0.21898834448083215 -0.4011727549686094 0.3682130885395615 -0.04581872966814132 0.048635508565120826 -0.1406108832798774 -0.4847840894332175 0.6574434202144357 -0.15603320345335925 -0.49200946829407 ]
[ 0.08000692887081307 -0.20323127296397311 -0.15213610936998695 -0.14410787899912958 -0.25664574351418995 0.16347879538659002 -0.20428360384262284 0.7447005373896417 -0.0844330694944043 0.14106065894100836 0.14828472836232673 0.1489618688600824 -0.04041543236610892 -0.0698774908641028 0.06278413936087597 0.30912013687242684 -0.0401361399614892 0.13446749885684342 -0.2769177610024709 -0.059262934045590486 -0.06732505667234649 -0.18561976087168963 -0.40938283954177307 0.20323723610394792 0.03245458510316499 -0.6310865172263546 -0.07614850168803833 0.6682451511091155 -0.29599557378879743 -0.818373763334659 0.269280790746777 0.1703737823247174 0.024268036771807847 0.11676908573204099 0.45671513490017834 -0.9809619816980945 0.23182330831955297 -0.20462651737694468 -0.8656980341299335 0.4238532799682933 ]
layer 3 Activation
tanh
layer 4 Dense
40 20
[ 1.088356021314598 0.8350124320402571 -0.042108932032914916 -0.29655587063401984 0.013808276654472212 0.14173603122195422 -0.27649660771922213 -0.7828181078188206 -0.2585514994810123 0.06243998694715807 -0.08744098957097636 0.31430906452298657 -0.04451010444192278 0.5662171928893289 0.08093144789668955 -0.26037263132944666 0.13438325828926945 -0.6743458374640622 -0.4043614720127305 0.208307669713335 ]
[ -0.09550963569973979 -0.29244589809114074 0.40211524350104205 0.00048053979676374644 0.010418619766990829 0.049818828616530725 -0.044217634338041045 -0.3505215224588727 0.09508061345171838 -0.15206798374429645 -0.3624940790674763 -0.06791013344795886 -0.06195736376863097 -0.1807987881552998 0.11114603422945397 0.052691395642360646 0.05376017040501496 0.1667087410051177 -0.29236015688238626 -0.24659907377727935 ]
[ -0.3138403891540539 -0.5632239490617 -0.2533629059900249 0.03156048286355041 -0.03213840297983253 -0.2365352672137635 -0.16355568423300273 0.378157370997711 0.3662971827872324 0.079523677908304 -0.6651860920865212 0.09186560626414951 0.06864107430612275 -0.25521997687603254 -0.3277964692330972 0.22474035260729217 0.3552364919556843 0.08980805427156065 0.6352273056044048 0.21718333566931206 ]
[ 0.41392444995204225 0.6225350070265753 -0.18142812101010924 -0.2594515551325351 -0.2177409545365682 0.26978411512099826 0.5264199316359944 0.20110297921345918 0.35446741932570736 -0.00413160157952559 0.47075786556820837 0.22927489946612775 0.09541381735472843 -0.4887230519271958 0.670519425251352 0.023869181433022163 -0.022196710135091408 -0.5393253451666566 -0.3832626623285242 0.012768642563392383 ]
[ 0.255361514915551 0.2219964447005572 0.02457575947470635 0.20132475698520028 0.08022681173922283 0.30081092305409696 -0.14862272735583823 -0.46252324198985795 0.3278926801075729 -0.19920532418602926 -0.03674431016641936 -0.1031806820396579 -0.07522942911938574 -0.07088231598522343 -0.44263708783583666 -0.317363027594362 -0.03820163212677496 -0.10052977421712513 -0.06653361626421986 0.16025784902721052 ]
[ -0.16523976508459842 -0.7617535294529221 0.5283051099572009 0.3445164330783475 0.08822466971759575 0.11442154403891147 -0.5125433729179693 -0.40955547474519494 0.0683232399359567 -0.49256312313068407 -0.5406978000172584 -0.4152807035929597 -0.05689993029031124 0.3294389344506091 -0.14903440262091855 -0.40715345492452193 0.1741836954120808 -0.09133330294325243 -0.42543164696580427 -0.38673750118328115 ]
[ 0.2055832480235095 0.4315148617212184 -0.4790635170345433 -0.1417621120553775 -0.07954008630760254 -0.23120414454863641 0.44696968043267166 0.24653507236152516 -0.1000156054141808 0.2389064556443393 0.22539749530295106 0.07395065572613864 0.09851550917406773 -0.4086140642514527 0.658023443984719 0.2082819615814722 0.27038668003953137 0.11957190080285182 0.08388898898740653 0.24697369609428743 ]
[ -0.18584878470239338 0.06657274419726972 0.11890046646044382 0.3025531034020675 0.11382857330935163 -0.47166462132200915 0.09853563234024539 -0.2808363825765191 0.3744361093297268 -0.11341646851491023 -0.004070994111048701 0.09275701695670985 -0.10169267806531823 0.4271293197564631 0.18756436203636362 -0.16823612564699864 -0.18455272089599278 -0.014000809144627181 -0.10870947870475978 -0.048598967395894664 ]
[ -0.2663078206958572 0.29834876682823264 0.651554593362514 -0.19773273051477647 -0.003116992273733819 -0.21529749820974692 -0.3042368869389182 0.037873465246488526 -0.07182882427134415 -0.535929719870937 0.3861454908491045 -0.6940413595613977 0.016672029253846206 -0.11977134784575046 -0.6452277942862903 0.02161832059386974 -0.3663099470476148 -0.16341247889845711 -0.3000876846645112 -0.2585306819396125 ]
[ 0.4360790017129304 0.45609794579944746 0.06912736764895692 0.25226163507572386 0.057568307134936804 0.4634009232299662 0.39393394036296603 -0.7396062665043857 0.0034527237928320253 0.18032935112887657 0.3579510231350038 -0.10696820246956752 0.33850663843960155 0.06418227145638851 0.2714724363478819 -0.21970484805212212 -0.0034425175747011794 -0.06540470792454926 -0.11863860398668818 -0.18953809319674217 ]
[ 0.018692652910831473 -0.46487919969809655 0.3095211080578551 0.056392658260759086 0.10169837805364162 -0.028392551671370496 -0.29241188803787904 -0.3524721770670655 0.3489684292556346 -0.2926435476411787 -0.060913895086481366 -0.3258451347221702 0.1968476204835689 0.1675130759271191 -0.17812500280634128 0.0029395434381806686 -0.16078270923047183 0.016771164338633703 -0.1377217075751253 0.14838312252426672 ]
[ 0.15229558762954093 0.12252136778004202 -0.020674132242335972 0.005681188958905723 -0.24484504423092976 0.5497101072685896 0.01883072409264053 -0.13442676060395375 0.12916423029431665 -0.1829307920202268 0.05656860312355437 0.07232788696857874 -0.005023300727733014 0.09398205756309362 0.04548564420202301 0.18086961512860705 0.01862634353861693 -0.1935777169108446 -0.1164133191301441 -0.002688826891265765 ]
[ 0.5125090131291326 0.39982496481212354 -0.14521435607817082 -0.4226002125324418 0.1997948698565528 0.2230516412666747 0.04809502461091849 -0.6964030637560739 -0.2254348496525488 -0.19053281514678583 0.19908251182815534 0.2879806188434902 -0.1629241693980785 0.055029983432546635 0.015834366260149065 -0.0956729746611235 0.09902561554749362 -0.19120452436665367 -0.5246440046541299 -0.10326106497745303 ]
[ -0.6569053348089388 -0.17022676242784907 0.03749059994938826 -0.4021830766110431 0.16832001578082142 -0.11806167460844047 -0.42767502319297895 0.47150044722427487 -0.007957522793386108 0.025581019182541177 0.4924842131178411 0.40680527268660444 -0.257442360558468 -0.7107704715632 -0.5467212657161987 -0.2931808842849764 -0.45458792497883027 0.4867051362127776 0.11813601502260099 0.625767158019311 ]
[ 0.5330918426892708 -0.15860681240198282 0.39208185787676475 0.03530947438709547 -0.11640662005044795 0.0714006101300501 0.32067109009784367 -0.7666135581065323 -0.32653006887547836 -0.46822042259599805 -0.2671230350700113 -0.2324889009429558 -0.06098551788246708 0.4611936961431213 0.25117963740445204 0.2742100727307002 0.32286250611919837 -0.2146832030583375 -0.20532787527350005 -0.24717714748345543 ]
[ -0.2772593444499853 -0.10940689039235259 0.4655852694538381 0.0883813761833295 0.3165179877456524 -0.13999455874586622 -0.0693511391559171 -0.5887885360972134 -0.0650268159213564 -0.48431520972779696 -0.07334468059648624 -0.3615770730970416 0.1754727666430212 0.46750193169453125 -0.1890140527038636 0.24126803889004309 -0.4652245420389123 -0.40379820955657647 -0.026123455422709316 -0.39084607955652245 ]
[ 0.0968560839562999 -0.05921823014531496 0.3723517151538426 0.08026190609322863 0.1143717068449264 -0.16202070675126523 0.030666883542617488 0.3229119691511094 0.10803465885917435 -0.0541121477233993 -0.028901690364124457 0.050510339814786316 0.017140684818590227 -0.03914571083698478 0.12413272064061207 -0.3903836504617626 -0.020519896090338306 -0.39082226927790015 -0.0004711405804816687 -0.0948710287194474 ]
[ -0.38806216221954154 -0.22897641904708005 -0.298412588471576 0.12079094696275675 -0.4079536708147752 -0.21811714225892542 0.0672250342699572 0.4198698139065649 0.05811841442543026 0.4096880116877063 -0.18616321929654472 -0.06069775608293465 0.37126316524506986 0.1267148361761191 -0.2596713316580081 0.14562787539368438 0.06749433371219049 0.2997901325347177 0.41270852591598506 0.07309824890918072 ]
[ -0.013075476760966057 -0.16294434772983715 -0.6909372419815012 -0.228884537088799 -0.3240048564282831 -0.2955890025303323 0.36601487382956366 0.757277691068691 0.13536636354532028 0.7917077666507679 -0.6110511362801909 0.4393462613414989 0.08204702329645887 -0.5345384576271011 0.053797994036373024 -0.04235002519991626 0.5535170804323204 0.39922364817895106 0.5424426545530955 0.4978625369364349 ]
[ -0.06300135420043534 -0.008097087319957744 -0.01780190884252206 -0.06147409685615898 0.3079462324440268 -0.2246991637121481 -0.07404414448000578 0.33658552833957656 -0.20258072022454743 0.13230404513870192 0.005943031317114134 0.008963803202085082 0.12879827782188097 0.07530343921135113 0.04052259778465379 0.006031114938803154 0.04716824727058341 -0.03316179210880486 -0.10422664893293487 0.16095251628678095 ]
[ -0.7374322008057125 -0.19178174821677194 -0.4854160826754555 0.10775984572866804 -0.2581661965787286 0.033999868372404464 0.3777916289958521 0.6291501739206791 0.49219542033407765 0.5090077619582013 -0.6763005859873616 0.40456332597967437 0.3126843811098918 -0.39554104864078304 -0.31862869218759904 -0.14086025433604907 0.4043850127991874 0.46431678419022027 0.7086812520025254 0.7301508441189136 ]
[ 0.19051436117602497 -0.06427401873966862 0.19082766963706668 -0.12658967494293846 -0.21955294781324322 0.31194368495487146 -0.11764536259932995 -0.010180133968412587 -0.08270669758229593 -0.041752121293550985 0.21768254965349304 -0.26245227435413204 -0.10830952261135612 -0.13858618210679507 -0.3666668239539963 -0.1795992811142535 -0.2980529274106565 -0.24985604688833746 -0.4119116455081316 -0.1814208030852486 ]
[ -0.1822823283875582 -0.3116952528448856 0.02180456483495409 0.10044690715978638 0.006057117480166092 0.1641775840788541 -0.34837157393094853 0.09854014100624249 -0.3137016474022421 -0.3119168143705968 -0.18199810007364872 -0.1892444839390189 0.2997445116047662 -0.2859622899218351 0.026353431506041036 0.19679492270346954 0.160811886207874 0.10937135381753522 0.116939334029627 -0.13100971489515406 ]
[ -0.5987133745535844 -0.3245366532975889 -0.39963977563366143 0.3225163933902795 -0.15649060607412726 -0.38006908555964936 0.22148746393385857 0.1566229867543397 0.1392676092602304 0.21226758413165633 -0.1329286368218937 0.038889131137641426 -0.30556574282607746 0.014555489750561588 0.28164557032232096 -0.20125766866751518 -0.25021832026344254 0.27943142307071966 0.20593171220222914 -0.1680856666324228 ]
[ -0.11555453033918371 -0.48846486313568027 -0.7095777951221377 -0.103767075328842 -0.27710667657516513 -0.220877511756164 -0.14309056819446891 0.006080053489602841 -0.32752982538020864 0.3392966658677572 -0.7635194133984182 0.5480267710435601 0.07515462688303046 0.3522919780339331 0.2746316484785439 0.016144512189326953 0.8708359699695084 -0.0733275050815822 0.4092577247784233 0.3417191743243263 ]
[ -0.035585847146983936 0.39821024559128193 0.06910110160402197 -0.44988090912962014 0.33253485838870084 0.2583952109550229 -0.07467835680482122 0.47474536353010566 -0.48885206100309375 0.20216340455076848 0.20434012159662002 0.07910331075008564 0.10227546983724156 -0.8067761824778982 0.007555826957269046 -0.23853767426240083 -0.2275473181654758 0.14343901138079435 -0.1848988426426463 0.34320549907087994 ]
[ -0.120599533502844 -0.06468588469319853 -0.27854187747648346 -0.14909241225668102 -0.4516091012434366 -0.19707592507904725 0.07318306715291792 0.34208366197407325 -0.12758194241879367 0.03646550610894161 -0.058990166598090074 -0.05774695165071941 -0.2433329039316711 -0.014395692790714582 -0.2941904466581973 0.22011822828724692 0.04846315404302813 0.3232215711019046 0.07737372314930613 -0.0882003759627941 ]
[ 0.06988604933823896 -0.33687045469926286 -0.034238180416781096 0.10246551205908733 0.140174423836848 -0.21467337093693162 0.20366465996132946 -0.3281848656444817 0.34974385620738646 -0.26061319137575967 0.14452846494190894 0.15912396179252894 0.010590177792327729 0.15489854276763346 0.30765516179739594 0.12284444466964711 0.3500316409626966 -0.0695474277347767 -0.3693509737215193 -0.19371103807915596 ]
[ -0.6592295645914782 -0.2581682976872063 -0.06221811479097499 -0.2710209724266752 -0.09156714163340124 -0.2739143592718916 -0.6699294709870375 0.2518655038146993 0.15405840614186583 -0.35601959032136504 0.4332474538263065 -0.2508696495385086 0.13589241518163309 -0.2656301449087176 -0.679125232304075 -0.022283790146333256 -0.3345008744477898 0.16096359660111634 0.13069764808213327 0.17664586275527916 ]
[ -0.19326638978569113 0.2743703237665201 -0.3283371256947458 -0.5315745821088408 -0.14798593456853273 0.03633231345826697 -0.5624949414679947 0.4527879756069088 -0.335327327991649 0.07786359859228761 0.13107759262512578 0.34382929887028635 0.08332707832117714 -0.7247474074336817 -0.7054319248034533 0.28178008139742844 -0.4257188566223039 -0.1196065430874548 -0.0025943738683418035 0.24390837231176893 ]
[ -0.07132502990304745 0.2697649263878294 -0.35352146677940627 0.8577454538949367 -0.33477759557592823 -0.3602280885575737 0.06825748127412856 0.5184089237480548 0.5844384452072137 0.6299326597068904 0.049554374142789126 0.1292795646407054 -0.14991400829471813 0.07691350345427317 -0.3213792688724352 -0.3704450891069981 -0.09913052431622005 -0.02108030435852379 0.1249422744498114 0.3698891827960492 ]
[ 0.34672208105101987 -0.08877638518561548 0.09824508775220919 0.3437324495598559 -0.24627721614317655 0.1289082800626013 0.5099196626699736 -0.04490271834553251 -0.015738299385854772 -0.11189928492145956 -0.25331557242761116 0.07582253292569441 0.18831277380357228 0.22363693574952673 0.4677401225019591 0.11409022419477388 0.2528544504574093 -0.3037312907853483 0.19283180022994018 -0.18625501349362197 ]
[ -0.633336875834071 -0.8277443590229755 -0.2862199473877768 0.33547820408348566 -0.32874200483543153 -0.3108600908734156 0.19036466383977577 0.44981872205565937 0.4445541181451611 0.17421741710656152 -0.370984276742982 0.5727892393330655 0.042225601517811066 -0.1667847629606193 -0.26659416726877905 -0.012732965735398342 -0.014025147527693694 0.29487663362437505 0.45831678095992195 0.5059701403490995 ]
[ -0.4064185677276918 -0.09929152589866852 0.06996097057634927 0.46108895360176516 -0.2913915908830588 -0.031516371541564864 -0.23538451257594176 0.13534746659072336 0.27075795319876894 0.18181739434212887 -0.6038450521170254 0.2431866373234622 -0.17287067445027512 0.3427333659490842 0.14812815495270715 -0.006276060668219079 0.3585713950549507 -0.05465897932022475 0.7576744105755052 0.4963547840314982 ]
[ -0.007776640859960918 0.03907524531803418 0.07098151081635046 0.3117931072454527 0.4954489656884504 0.210261591691359 -0.1650035795762115 -0.33556097081955544 0.15079124706394337 0.041610820372014565 0.07972539211787866 0.22137102566042619 0.223428390287881 0.21496962383444684 -0.19585337283781926 -0.07482843935601495 -0.006542324227346265 0.06646948557839427 -0.2536772659893608 0.3453687528245761 ]
[ -0.06925833177377438 -0.18168513764985472 0.035752477568941475 -0.2762000275572793 -0.059605321316518564 0.10590305479881588 0.02184210324786332 -0.0473219086124658 -0.4628482793961191 -0.28077639189973336 -0.10997768858119673 0.17306984071455753 -0.20245899683235108 -0.6938178262918647 -0.1821766339848102 -0.37027344197127793 0.12158669881031012 -0.16828097113522747 -0.21597964989385213 -0.17412919855506576 ]
[ 0.0037919962710228467 -0.12229791084760679 0.7127146692519151 0.05233753528346069 0.12811711210587842 0.0924921988965385 -0.08705814099741212 -0.5667960195916948 0.14373825504146226 -0.4037634708229336 0.42164726576643685 -0.029144187408476907 0.14018811764585365 0.30708890933068006 0.1737872223630676 -0.2719534790418355 -0.3559927675976293 -0.336746090016082 -0.8391713295891136 0.10157786749185811 ]
[ 0.3406744095459421 0.16339755526391148 0.06192577274510761 -0.3864453414406701 0.17175779730076612 0.17021265773936003 0.16913985400478346 -0.06857052728585852 -0.1402276044595432 -0.13539278632489696 0.3386740474955307 -0.502058462431423 0.12444923110449146 -0.5816957205235842 -0.3760881578176674 -0.28873991566085433 -0.48730878329467747 -0.19181630897898266 -0.5384993274983808 -0.023877213584985606 ]
[ -0.03945815620424451 -0.44807525690913297 0.2177246704077154 -0.2679989283270397 -0.10418148184411553 0.2349028741589664 -0.3258572879458078 0.1831677376146298 -0.34574447872911984 -0.07707906729189416 -0.024520477040394836 -0.30825023693858966 0.09895855035232738 -0.647435648848891 0.028109827209353493 0.04881508614641799 0.3494738164636641 -0.08433458253879189 0.20284081727078457 0.07719756645147828 ]
[ -0.3285514843354404 -0.4778733013163723 0.13910664709034587 0.6900646359373 -0.04102346383156091 0.19274891661608176 -0.8238619138862464 -0.08924308269358311 0.3871506165349261 -0.053101638189209176 -0.34863226788147783 -0.5449581531060482 0.15307393350151996 0.5284963550356635 -0.4375653413943798 -0.17189662456788415 0.23604002641546598 0.18232502575554826 -0.04141142254369923 0.22275162110601573 ]
[ -0.006893265872821791 0.02592818719465713 -0.08213492757125505 0.20200860085902514 0.005818317253626743 -0.17049058241055093 -0.05566455915063633 -0.10552539316565504 0.07573393519331242 -0.04324212029252223 0.05984463348550721 -0.07489745801253052 -0.08264657295166392 0.9116653575574174 0.003373917240101759 0.04376885435996339 -0.0409223494787149 0.21067660175035943 -0.019349901133619795 -0.03986175094254919 ]
layer 5 Activation
tanh
layer 6 Dense
20 1
[ -0.27522587209691424 ]
[ 0.31747705764075174 ]
[ -0.07809526984216207 ]
[ -0.3251147978536002 ]
[ -0.007609480865026865 ]
[ -0.0039245945369589304 ]
[ 0.20175695828789467 ]
[ 0.03996976218980743 ]
[ 0.32190085152084247 ]
[ 0.03002374995624989 ]
[ 0.5426963462870964 ]
[ 0.2984190600324199 ]
[ -0.013197281740534342 ]
[ -0.5070241643905248 ]
[ -0.19602462769203025 ]
[ -0.014660217841055152 ]
[ -0.4133443743782887 ]
[ 0.01033192609615354 ]
[ 0.3774618803699932 ]
[ 0.1458350096385875 ]
[ 0.3373126835833097 ]
