layers 7
layer 0 Dense
20 20
[ -0.028217119469421723 0.15916907449579107 -0.13453426447190675 0.4075622528520035 0.3015764532727312 0.12421954213198472 0.1816712380760058 -0.3375454760276321 -0.000502674822288258 0.3064797256761412 0.4927728705751983 -0.09044806073974922 0.36727667656586954 0.6250535387832713 0.1534834996400888 -0.13924308069485364 0.41135412812943395 0.20130927584125224 -0.19558298773209032 0.32535231638374656 ]
[ -0.21945619986095144 0.21932487669065126 0.21621478677053355 -0.05430538089623926 -0.08329615668721868 0.08099718011371017 -0.10052782670137 -0.36008281520163393 0.33350358925481777 0.24846378257633597 -0.10319792903775402 -0.21913389798787036 -0.06788099022827213 -0.2966489571406546 -0.07322706239098745 0.23059526937717892 0.24341031845725017 0.2741884051404069 -0.35907592982446923 0.14551560795238735 ]
[ 0.32316734676719705 -0.3137237409438438 -0.23755676442912166 0.2636855887310486 0.23242763522645735 0.3606373929511703 -0.1323871571839595 0.02382870662431208 -0.0628681671797251 0.09239776859797703 0.3162468829634699 -0.23586131534386529 0.29728446478248205 -0.3156444018158431 -0.13086339942882128 0.29613484922764355 -0.24348974696954143 -0.07019096809354321 -0.24264283970892275 -0.055438249312243025 ]
[ 0.0029186223588460293 -0.24938112103874155 0.22899990210342533 -0.2313038352615813 0.047841944388220044 -0.15930981578769604 -0.17821273309999386 -0.16792015308296984 -0.1103839806232706 0.27776954350548144 0.03146275405012949 -0.3434273733817346 -0.16522617147343976 0.07277699276058885 -0.4121815693319762 -0.25544918899313324 -0.2046448737985306 0.11915424650814961 0.07313042883195667 -0.11943884821630348 ]
[ 0.09293863504814387 -0.0603218369238622 -0.23021778484730804 0.33128193746401435 0.5082950869305369 0.13483231474815774 -0.4154009305692923 -0.41421273299690714 -0.5954536715873073 -0.018719715944462235 0.10724517636861074 -0.21817592629762983 -0.1350770365412289 -0.1617541467172565 -0.2321513514899773 -0.5456147893334724 0.31245914893255905 0.009402780136353671 0.07864428394602895 0.02420971345164687 ]
[ -0.21485763409141245 -0.06739249328989083 -0.3379868838155384 -0.3806417555969729 -0.23673428309473865 0.06558470173186255 -0.22679011274136845 0.24016013962020094 -0.25757866440814603 0.28610980001996655 -0.2406423485163447 -0.1498203913860934 0.3775728584300316 -0.025667650085150123 0.11885573190811813 0.20253455336442386 -0.21207166855625798 -0.08901396970480184 -0.10943257489566335 -0.21193847606414684 ]
[ -0.07625528015980303 -0.10701387523869357 0.1491195374177636 -0.10502358651461675 0.09133663021801083 0.31978713127111175 -0.21227961460887354 -0.07184935916131455 0.2095046303942634 0.30642080648156905 -0.28633925493209345 0.05801413218029543 -0.2274410652720187 0.09520747747988874 0.14124097295588003 0.2870850734003978 -0.2926172560359673 0.11034948316694164 -0.06060025613463246 -0.2833419938624673 ]
[ -0.2385630181784823 0.103394444935441 -0.3168705344931382 0.028321084653968154 0.02176131615691698 -0.1935369710496655 0.22937206063291854 0.07252921777981032 -0.1882989431436888 -0.1259970701341664 -0.12904320382093745 0.29751563881204063 0.23277893087696935 -0.30612226986668745 -0.2655119275682516 -0.02640413212168957 -0.010531845521856462 -0.2336855480481661 0.2574480954538273 -0.2995103500510116 ]
[ 0.16396150516412122 -0.17908770942172314 -0.3200956971942069 -0.19472794656160022 -0.10088124505497484 -0.13127640569315263 -0.5327329591342844 0.17210467319287437 -0.6687287462632884 0.10320156229487154 -0.039023674042948334 -0.08326894198552065 0.7700168243678289 0.3614717310844117 -0.17753218566577503 0.03828004455093654 0.017551314262514443 -0.005946692099637543 -0.11382873127431564 -0.17173956037389984 ]
[ 0.4183681464924375 0.16182530509368978 0.6242254345746376 0.6184877502678221 0.7642418853983886 0.8578153144671685 0.08957829909111248 -0.0633457422344091 0.646238247450905 0.25580689570405674 -0.9211354222638245 0.8025848829564542 0.3448966649344441 0.4827706950362159 -0.4759064319083474 0.48765502717557685 0.32752485359803146 0.061043408304755346 -0.31714054701857325 0.06999453506038264 ]
[ -0.6517807706956908 0.7902866373994332 -0.40128464956093945 -0.16237361660125466 -0.0976968894438067 -0.06466408499082352 -0.07519370480080867 -0.7496328622445259 0.10072955640520156 0.14432953565989373 0.10806070134023202 0.5644421013131278 0.2021907329623017 -0.08633717341560025 -0.057041829487333676 0.45302088790930173 0.7129866290406076 -0.5701843368628037 0.5275650460973068 0.1959420352461201 ]
[ -0.2443812949191806 0.5776133114636222 0.2425086608928754 0.4274835021830438 -0.6818571541723618 0.3187454655820604 -0.7012576100429777 0.9372973682394676 0.5620731494699344 -0.6449768213722022 -0.49924425261953065 -0.28527720301880055 -0.3086101222105358 0.8570594162902515 0.4593965459992247 -0.39102940369381545 -0.275846676901795 -0.5389113308709728 0.16354350622436664 -0.03773023492104955 ]
[ 0.7166796852687211 -0.48708771279513474 0.10629770063397512 0.4779623576249416 -0.1827825845568821 -0.02602231194003693 -0.24837705003849195 -0.2455336335447616 -0.4459616859581531 0.23660274461655373 0.3848443306141659 0.11652069269873089 -0.08609696537681709 -0.23640958475178783 -0.39739306588168477 -0.31261138000431893 0.29461567419253926 0.2224145162414563 0.06715300518461806 0.2731548281783209 ]
[ 0.002760162378615961 0.1594177331216764 0.2973388255157529 -0.11821473718151143 -0.1765779332868857 -0.21709760421015678 0.4283160214018393 -0.15279944112160995 0.0767948910137629 0.15041962218253252 -0.05936057685380569 -0.5063258239643511 0.38440405724681576 0.13237582774800227 0.38045660826736655 0.3292330668708158 -0.3972306066259634 -0.2149109822028587 -0.1295566338001285 -0.23164926344449274 ]
[ -0.07435124143229789 -0.1775694321217924 0.3875464181590559 -0.23987663135653406 -0.24946887596110934 -0.04225160946138445 -0.3201542674716442 0.0683628287770357 -0.23436851939972297 0.3299669132339427 0.31063434920494465 -0.18631129437407457 -0.4239204594890338 -0.10607204183031244 -0.5708965515048506 -0.18749755666651546 -0.08660918506014773 -0.0349396264504392 -0.27112988517699255 0.313708429674245 ]
[ 0.13308842241691451 0.3829442436565152 -0.73994691005238 -0.18306011629090288 0.09754059075932697 -0.2908429867933234 -0.06445485498711334 -0.07622317401482931 0.01939631386787926 -0.2483781299682678 0.12532344675180232 -0.4668988740527031 -0.5391645246881811 0.1802391979856426 -0.09249273633673256 -0.4168654408139612 0.5172485239887272 -0.38770445495323014 -0.16517033481808838 0.3211637878529296 ]
[ -0.11948769323164879 0.15631590603396592 0.340639046546344 -0.2321500508825578 0.10893978570650208 0.03901881470754847 0.10940403475540433 0.0512120492525616 -0.07340099084251592 -0.14062389646677162 0.3325334263310179 -0.2959851662521934 0.09497779967552009 0.625385315821965 -0.2401167268516576 -0.8342769510740465 0.08233908377180019 -0.19622684038877036 -0.5229107495524504 0.3308959895260111 ]
[ -0.5159690659653475 -0.07010696240268886 0.03278743116125462 -0.39718656996344276 -0.08485919375188228 -0.19063144916584499 -0.22693073687108498 -0.20303912748919017 -0.6048692560666873 -0.23522583948994064 0.43326054923356117 -0.7111566834986365 -0.08434432196776341 -0.17913031827574816 0.6048573945698406 -0.11601163318619821 -0.3658135070762581 -0.37640358234093374 -0.14708929605716198 -0.5930095931770597 ]
[ 0.47995087395652947 -0.5989903208692577 0.4358420979872484 -0.11565498629987668 -0.455491543422876 -0.10160611821754958 0.45009481765280546 0.21620696954744803 0.024488363044457766 -0.025685873150524854 0.09320795128848253 -0.26399073145533763 -0.5790288941059474 0.34520996106738433 0.2047021708505919 0.24699357041198244 -0.43847967902218554 0.4103636700566768 -0.43892703778294 0.2585319410384634 ]
[ 0.5162344724644836 -0.3073906181572683 0.28719431445788085 -0.3072504765908716 0.2951657740002111 -0.07037641085152009 0.5192262071788725 -0.5118577507419741 0.0580845554908882 -0.02789949629696032 0.398161572460584 0.36152359849936805 0.4576118666376736 -0.15267340659380957 -0.21886657244070443 0.8633055076494559 0.25853688165588173 0.2168953732088585 -0.41686698211708356 -0.08300678810123695 ]
[ 0.1458564022118693 0.010148324871385768 0.010428739459451497 -0.01765476191681816 0.0469619192983794 0.07073813658913078 0.1333062987240709 -0.025473583201310847 0.01776591801123733 -0.011715303502735239 -0.010879057740717377 0.025505996750763642 -0.016818332541639985 -0.051753395920818054 0.0140924410615001 -0.04262879880816256 -0.122098489475467 -0.07606400043670287 -0.11087460573318612 0.038422023366916025 ]
layer 1 Activation
tanh
layer 2 Dense
20 40
[ 0.11750736508322551 0.11244950427363966 0.20481733145636105 0.5043170089906152 -0.17064935077252008 -0.43921171259815384 -0.12090610523233955 -0.12340486011762669 -0.15075275250105574 -0.25729255565419096 0.10275266045580338 -0.21917243315540527 0.2651972799462786 -0.3210825949892067 -0.25458041977672746 0.10597696757199944 0.11777513410006267 0.07239675600680984 -0.17137781879134137 -0.000905223129340295 -0.3076055922470333 -0.1150774953464086 0.05935760831073766 0.1571009918017992 0.3598988616279016 8.013037905851275e-05 -0.13788222577423914 0.1940094459294898 -0.1349142292904053 -0.55056543444795 -0.22360476450676106 -0.30847869005811224 0.2783572946367657 -0.18053198431237524 -0.043437675019721365 0.05652478577184873 -0.17048697554362374 -0.2696618388684139 0.07402755301293401 -0.022018155936630684 ]
[ -0.10095168734222904 0.3811513600365685 0.1312660081238573 -0.5363809472739602 0.1982785363082966 0.5231702461461268 0.5075271319533108 -0.448369350157069 -0.010770804953428097 0.11777158952933027 -0.11988482951430497 0.482471380061819 -0.2963647484117102 -0.3737381758701526 -0.21854252142061364 0.11135253108524701 -0.016426957420297445 -0.07483438664466091 0.14844528166788354 -0.11597039041316261 0.21394908363864024 0.7335121600524708 -0.1759849127029486 0.03841605651513208 -0.09278783852463272 -0.05767739545815032 0.2807952729247619 0.1493281802025736 0.16386964288402467 0.20616412450020175 0.4067269751860117 -0.28204154979259977 -0.000142293996959452 0.17258610712114336 0.18774933977757924 -0.3555776458152057 -0.0951439968148579 0.23762406823587712 0.004918003918969482 0.14709605341967047 ]
[ 0.4443075988419584 -0.18814024980386002 -0.02973888474669038 0.3421661145821602 -0.30631273568141537 -0.40560499054991345 -0.12048291166982683 0.1687974193146215 -0.3494951084313116 0.1514489266463039 -0.03585266040487379 -0.4570655251978583 0.08094428988939632 0.15197591404035543 0.005612753852210559 -0.0002755977475720907 0.11558783377254193 0.12715469000342652 -0.3031640928516397 0.3948768764943225 -0.1772695397262131 0.06813547474343042 0.15751141619756054 0.4273301723965599 -0.004040269571402433 0.03656273980973998 -0.09927315669921444 -0.3226617474700058 -0.2485985321569497 -0.41401839547915026 -0.2291081790684062 0.21942288424394737 0.020098773567381052 0.19217505183647943 -0.1421955615486804 0.06604557034223738 -0.17631245302381998 -0.3111554840028747 0.04031089174699811 0.05694446122623092 ]
[ 0.190909504694248 0.33640277097291865 -0.1642392932455838 0.11066047969179184 -0.10844631869994724 0.19785061100188645 -0.14405008969806812 0.07277845193861444 -0.08063803203624684 0.2683728737480823 0.03166279430872338 0.109438673707194 -0.32518312138214783 -0.2268951216780854 0.11739164227368318 -0.0004302413937448189 -0.015983974424931772 0.21085754553493885 -0.20249966262676564 0.2139473738549877 -0.06460619556457259 0.06943109912414755 0.12352970250777519 -0.018602356529122496 0.40066734559086153 -0.09577951163804561 0.16459711288103282 0.225026634732363 0.2362013421195579 -0.019568554771318167 0.28350641671877885 -0.1783090689357341 0.42585724186916496 -0.08830016422213707 0.07221148161519308 0.04163984149624764 0.15658068467465758 0.10520229706497962 -0.010383425779748266 -0.24790656664490354 ]
[ -0.2940120159089477 0.13527526392857595 -0.5776179027417072 0.34139997497756563 0.3052326773081123 -0.5418878946306003 0.16865081994329043 0.2293735135806573 -0.32685078338952483 0.2656376618923624 -0.1695760397433718 -0.4181326218870472 -0.029474989202343232 -0.033500217977685764 -0.4339858180089609 0.1211210443778721 0.059151672947997 0.1745878242542971 -0.21323493157293213 0.05347991678794153 0.119823222657647 0.12444270448138285 0.31387757471994965 -0.2908911605879566 0.5395690575323763 0.11920120870841198 0.30902477280080815 0.06959426559431685 0.07949576157872694 -0.36806490853436075 0.08165998107335819 0.3202288355045376 0.2789543755175791 -0.1296103115936579 0.6220372602277972 0.1966177708903787 0.5286066388056465 0.18169123816355998 0.1496869498963919 -0.6281946381328896 ]
[ 0.49280855115647804 0.2983664566878242 0.09660871494991179 0.31899641921911354 -0.18773399123872134 -0.13145805013771034 0.45086790790211984 0.16153244762264565 -0.5135527628217063 0.31958584988702315 0.036709005512113035 -0.04131519083365007 0.13813198366333837 0.08403610787590315 -0.16335636635152861 -0.05855265342102368 -0.40021342645395547 0.3176150185008559 0.0034065849337255732 0.1630061631014678 0.02022539865272877 0.24850373309795876 -0.19342623065748155 -0.07974424494064285 0.006298568765939519 0.32066522526146474 0.17165411077431375 0.05563674617380441 -0.05191305748899038 0.1059183760593822 -0.14167002857909386 0.11185679090615565 0.330819746691595 -0.20438833633709017 0.5741214411798867 -0.21660273773225772 -0.08937176503475165 -0.1491303056529422 -0.14538148216281607 -0.41992059168089474 ]
[ 0.07248014745590797 0.37261292024615916 0.06769590164253485 0.09863006354360716 -0.2670092631715401 -0.19400882513362291 -0.26190755723556436 -0.15971934872212015 0.0007041886875092133 0.23083325879040412 -0.14642838392447685 -0.40929210845748615 0.22538466396548434 -0.0031620591648062416 -0.09511572077840892 -0.10767175118738538 0.11628876673411066 -0.2012871882868552 -0.16907432644795978 0.03600779060694448 -0.30899590154751067 0.01732726636636098 -0.08569533511814233 0.23781531822103325 -0.014045414680949626 0.15081769036933182 0.1281972404492811 0.00123945183029664 0.13737502179821626 -0.44867428776256785 -0.07291534019404282 -0.09677838527672883 0.11442016544422574 -0.08688672278032503 -0.10931502457553559 -0.007391156649914136 -0.4218408178390723 0.06214653358324476 0.06644793221524538 -0.23993697150006466 ]
[ 0.4613010068861458 -0.06553812750250486 0.49327295755868006 -0.27759289131322573 0.05568594087395095 -0.10643657076042927 -0.1541587324790055 0.09030566150464821 -0.3875137201948797 0.08764499265644046 -0.16823197940564683 -0.167245456888298 0.2417689841914459 0.528482745587128 0.8059848650246765 0.31443441722507925 0.04152824300101136 -0.08230735455932973 -0.0970047802758515 0.3917706742870108 -0.06176697314705012 0.11569114565965505 -0.2550248610274765 0.024950963484324365 0.024277525643613046 0.08539704197795277 0.5386295144520866 -0.10729850552897308 -0.20830273868831747 0.4953025363194874 -0.3465985829251765 0.11012492147165308 -0.3922851695973363 -0.08447940349954465 -0.4907372516432362 -0.17105518586414833 0.169520490518586 -0.527237264310229 0.21766752319311683 0.3766604246693524 ]
[ 0.25226110537625246 0.6801667930589188 0.2772558171696744 0.15949397016132988 0.11166775420750462 0.01322223494848236 0.4345335445807972 0.1875584279603523 -0.2794533466934865 0.6513332789102939 0.28433450992042875 -0.013496638441809516 -0.03665996437587756 -0.21317498254692946 -0.14218812698915023 -0.19520204707833286 -0.19893527054992904 0.41584057131214425 0.371976749150341 0.3682867615252557 0.15017683993297654 0.5387617695525199 0.3526693764737519 -0.09144876852792047 -0.04911708878728401 0.0023780690216468124 0.33130824333909104 -0.16223233564812792 0.11485243426964921 -0.4667262002538543 0.23024714468536975 0.1797516875578776 -0.00462617001383179 0.2771532789145792 -0.13643052052881352 -0.257531538666477 -0.0361756619200626 -0.4604689325007062 0.3690537131048782 0.002499574066865472 ]
[ 0.10623671852211479 0.38373229980669554 -0.2041731585900085 0.07733615298615422 0.15580795505879264 -0.1583848504970692 0.14703696346256243 -0.00895643771045864 0.2470879075413609 -0.09438789427082016 -0.25536038920076276 -0.26334400909938877 -0.28329422603860094 -0.36427215952323144 -0.6295497717706737 0.34290756694728275 -0.23836052335770197 -0.1605300854363176 0.2763924516762768 0.09315576586280155 -0.1107538232315925 -0.1022167247715003 -0.08360665847240263 0.07325944565348713 0.27255512895454936 0.07439335301025744 -0.35580880676959076 -0.30335129670742994 -0.2714939856017673 -0.33082413919884635 0.11680699375745403 0.40984804325818064 0.1529138777578339 -0.18029313834344426 0.02110632569138025 0.09134895734547772 0.23421036053969752 0.017114084373473115 -0.2248684201562504 -0.052151738834212785 ]
[ -0.21567287386483389 -0.3303665104074579 -0.2268802002674754 0.27339629146693095 -0.5550648845393731 0.38352641077791044 -0.7916290406979424 0.05453860579486695 0.42646558713085825 -0.5470438162912926 0.10068141750355367 -0.0004462432497959135 0.04688335496122523 -0.17028569909227592 -0.23040905150580915 -0.34568247772044836 0.165604989996101 -0.3686981057901209 0.1469982500060628 -0.10100692384385189 -0.27784855325221175 -0.6968828547551073 0.07678436764987004 0.18582937089349874 -0.5154488619670781 -0.25228033185704424 -0.5112308365581612 0.12191641111992849 0.44656103051819945 0.4424483372527376 0.23713968924892181 0.15502178675122968 0.04531461771610901 -0.18715895270131896 0.2510337296248087 0.2631452140497991 -0.10104403247636304 -0.1225031693125276 -0.2255491142466648 -0.009478333196929018 ]
[ -0.4277751984178807 -0.20412426943084533 -0.25019498316174554 0.11121338279120428 -0.22528772237201922 -0.4460675344721095 0.3955696906725516 0.08103994720527309 0.2493571182058027 -0.16296396553271122 -0.2388011443506463 -0.22646644798242052 0.183048365259785 -0.16602069909948872 -0.399409329617104 -0.011413416149165774 -0.12495818439357267 0.110158515021647 -0.15493981549737068 -0.30234178320785665 0.02883536036913087 0.2494775251400819 -0.18667072058779635 0.1869325576134886 0.40878991063976633 -0.01969728028603162 -0.00995631842299707 0.022428970910465685 0.07610539397497566 0.1116672024732221 0.25962384509260295 -0.25045215971099594 0.29462107413059635 -0.02527426847783041 0.2567089556922285 0.2225731523029986 0.09498517587541222 0.24712321230706796 -0.19092041234608642 -0.15529785951770697 ]
[ -0.13027755280463607 -0.009896898444078452 0.06241398215960219 -0.05434437805249153 0.16107946215546076 -0.22604682624273648 0.061522251069344475 -0.12645684363381393 0.4740698814815699 -0.11293883131338324 0.004839121523719665 -0.2577946783436453 -0.003816986941603071 -0.18799966896558115 -0.1706689783851819 -0.28058021097843927 0.3083719966488989 -0.3261883581275768 0.07217744045085972 -0.1959234506795363 -0.2377285442397025 -0.24299655128278042 0.33160422058914213 0.028336272580973258 0.21478584817816876 -0.1299384896888801 -0.15333961504998556 -0.008959817371847568 -0.007850491384841523 -0.23624231327987408 0.03228456790073324 -0.4967465447006416 0.41266732842690335 -0.10424374293236338 0.09501975707662003 -0.17973742657669034 0.016511203865353888 0.207362626321866 -0.26376218179492855 -0.014053316356136408 ]
[ 0.46500695379469487 0.3575902385279161 0.11452696936605763 -0.31945565223854233 -0.22826025888781767 0.39760570022922725 0.286891002258789 0.2841250199628313 -0.15329125055296555 0.4119719297377456 0.06870652005077023 0.22247706912135704 -0.09478574896928037 -0.026076071537267223 0.23156223044459393 0.37383806614516385 0.16359865447982994 -0.03663442515366886 0.3481924492052948 0.25294970402597605 -0.151569445020354 0.22141066446013571 -0.011465230284044777 0.019157611142614887 -0.208408635033988 -0.12012153088605493 0.09411167674472398 -0.33324746106844183 -0.35223954780121575 0.20439195714237599 -0.05097712909901304 0.3635574142988385 0.16880249161255464 -0.24045330830195338 -0.21581191388945853 -0.0912018226505038 -0.22430654270486167 -0.355481803661059 0.26217819693836164 0.03291868040443614 ]
[ -0.24823072333195081 0.0955784323238322 0.40931871214677584 -0.3560801305561561 0.054396887902721146 0.2076144419549689 0.15548311337143897 0.18030045553944338 0.05301385937728697 -0.041813386490355486 -0.15217869988820762 -0.053674702503656815 -0.2985948421497173 0.35711144929535715 0.11111869063070745 -0.3002448639728404 0.116030778239988 0.12464843009392823 -0.13159344652147037 -0.3485389048367364 0.15329105473553664 -0.13377043509326442 -0.3821967599462205 0.20049766541701447 -0.25275553334326895 -0.05696815232788225 -0.15293459878371032 -0.07220219792703965 0.12869365969910654 0.20942178809812176 -0.23563256019240533 0.02673498083997882 -0.3196520958775536 0.02608430725769058 -0.4373337332177111 -0.26802987833580083 0.11120280451067516 0.14570301528603852 -0.21321709452190862 0.4703335875818467 ]
[ -0.6529642934732505 0.1922607035983718 -0.13909947448368817 0.10695009990426414 -0.22391056412040058 -0.5456675567186037 -0.21934035699790316 0.1035651718163265 0.11872742080569607 0.2823423209011163 -0.12896752334802494 -0.7444816869718037 0.20129827125566868 0.1086795676616643 -0.27361988033397444 0.016223532412424364 0.22356014118474854 -0.28648136240358757 -0.02791477020054266 -0.474659221958771 -0.007240673017126265 -0.26150147781389704 -0.004588973740326584 -0.13486688864323118 0.23309217933392642 -0.0910820062395919 -0.16347870770672185 -0.19129632202892552 0.3647963681425445 -0.6041112753034309 -0.1287418106396798 -0.24550428279520098 0.18125333338099137 -0.13057370030202187 0.33544754009704225 0.03320802177562206 0.07615405241905723 -0.1580951516497451 -0.18827164226749865 -0.13455868712300414 ]
[ -0.17458898335816211 0.2749085241398297 -0.43034351560598366 -0.05528879710225231 0.32871715293565607 0.2749604790945049 -0.020327945189292044 0.06956761924369197 -0.3037242494674556 0.04824688706048918 -0.056717294649890386 0.29302089061656256 -0.12779474534787175 -0.3752870750702145 -0.4763382111347165 -0.24566670584967526 -0.09343166278765595 0.29049847480222807 -0.09313763399674965 0.122303271008531 0.022123736028117832 0.49978209479874325 0.2578810665453108 -0.24423993515678669 0.14874802825576713 0.011182387392161012 0.20689708032341975 -0.14830265086665298 0.34742367090571796 -0.11810032611318755 -0.0916755935562176 -0.026964473057104553 0.6712720053362566 0.2976545905772257 0.41439568273378324 -0.20832463237560175 0.24292234794222425 0.29654993526417195 0.28779887224039813 -0.16813020065190923 ]
[ -0.004304407723915685 0.17072055014109733 0.2239433504231977 0.1478367561290368 -0.022805925041003587 -0.2710868144130503 -0.10854626211828153 -0.2085813831932987 -0.11159300304960511 -0.01162033305297831 0.1088287103567984 -0.30864350170541377 0.3289435861177154 -0.04031776238503733 0.2439355839502997 -0.2252528155686213 -0.018658223883473303 -0.1919933059310706 -0.06991631067249804 0.24490621841937654 -0.18235607326560116 -0.2171689559043613 0.23216190344664964 0.11733982544715245 0.25008065476712305 -0.1691047445809036 0.2832568975620968 -0.3070944892847813 0.2338513894459727 -0.24876559540557974 0.28307838460096885 0.04724136466999444 -0.21917041693904896 -0.04476905457068569 -0.2744941080996415 0.39716029657573076 0.1325589370315142 0.02676120492102582 0.25379227489958966 -0.19393974416236903 ]
[ -0.5425349590787242 0.1354306071849588 -0.17014496668859794 -0.41913708297294283 0.07440725498575038 0.2146061482635228 0.2859737026047436 -0.3828601937297422 0.05120758130925686 -0.10419787798189854 -0.040326760584392954 0.24521012440925685 -0.3847734662161586 0.013724081424163922 0.22333897658223723 -0.0005417746191573463 -0.004349682698513313 0.17483824248308877 -0.13079571826041828 -0.2826721705271452 0.21076895503294388 0.4879787363007365 0.20290107285044104 -0.051243051200920646 -0.17491948411289904 0.09098581524770974 -0.04149404466789551 -0.011593676621562262 0.24883342334199185 -0.1286074393260107 -0.1727739790533489 -0.06768201086096703 0.2256127539723836 -0.0068771056583222315 -0.023689337416707482 -0.42239048169855276 -0.009851966721757524 0.2121367651386567 -0.1276357958712111 0.017844303957580247 ]
[ 0.1090599552747657 0.07661047626277448 -0.19325298721805537 -0.009927073870979445 0.19461356634023685 -0.0985433089119368 -0.014242598675639154 0.0044488054920971114 0.029401413036148738 0.2046748066948451 -0.19525598079862652 0.3230073407201124 0.01526092590518082 0.16908425596064577 -0.46310748308329575 0.03598855249440048 -0.06237738098151678 -0.011308904254043812 -0.31494423002026933 0.36999586852138977 -0.13234803811483198 0.004633676259775919 -0.21061072353647733 0.28660885988317114 -0.1252892523986494 0.033095086708950186 0.18218733006923 -0.2805381482124551 -0.42715078663149886 0.047196631783316574 -0.03910696645242491 0.1574156772644795 0.335538321386595 0.13395852501669095 0.3240117527478229 0.4602550986440802 -0.14262320608459383 -0.19941924640752648 0.1800883416938159 -0.09432703953155341 ]
[ -0.0007890988250123477 0.04799041747357829 -0.04463442415618173 0.03512224945432271 0.03030938696066622 -0.0904660797927387 -0.0844112252187135 0.13038776938953586 0.025533206447770226 0.13097803889883286 0.08314565009532321 -0.14580443594558343 0.05294401489920649 -0.05296836918049887 -0.06107565473640581 0.13241901219950772 -0.021974622337088304 0.05615508601563062 0.011266220246551379 -0.0029407765644315228 -0.06460557609054714 -0.025874446379906806 -0.00329825868832558 -0.023488843588194235 0.05838705890767561 -0.09799212933039975 -0.09600217821596624 -0.11779881204462066 -0.04218773735463023 -0.34375457524145203 -0.004448095821297534 0.17039016232285586 -0.022680438177995164 -0.06246066986931728 0.06904483755568401 0.162440478429892 0.11414833058139652 -0.26075026069881707 0.12638817193870497 -0.030269243044542093 ]
layer 3 Activation
tanh
layer 4 Dense
40 20
[ 0.13196452909911985 0.10298612184438066 -0.16890888048282876 0.28265150845869724 -0.0018640567304647163 0.4385652288777884 -0.16553703579926773 -0.37144428294362025 -0.35389725903549785 0.26844096822438995 -0.10799581892070537 0.20897255172110799 -0.09497708717143515 0.11035066787141527 -0.3241083359006272 -0.2439249457164284 0.3227085926793594 0.14866583265261116 -0.13449766718488937 -0.20256752070663794 ]
[ -0.25759230453664955 -0.04562245484872848 0.13231222899543746 0.2520801878562565 -0.34698398891102117 0.38626413860951797 -0.2547157873213879 -0.3254302449829796 0.3489637119101107 0.0276077414294755 -0.16006134118549561 -0.0759252461576038 -0.05993635327490276 -0.03669095342941109 -0.18591646131154257 0.12890210610013492 -0.14503655977084545 0.3092890712885382 0.3640357554803961 0.1063381652213885 ]
[ -0.09450392124567497 -0.3313097163550821 -0.26593406407820797 -0.09319102015215534 -0.20192761687547076 0.3023823329452032 -0.3821268800670341 0.226908340333021 -0.11768077538927228 0.14448899494694817 0.3003453279590738 0.12755887483195127 0.010043505104696732 0.13842152299482366 -0.024505869641129538 -0.20721023329362448 -0.0801177000241616 0.045509263122188205 0.07322343724574795 -0.15991289203496956 ]
[ 0.08534455471794244 -0.2648940604056056 0.1326208599667192 -0.1004534432666996 0.2906883327569292 0.04470547222130952 0.4329209740176748 -0.09814451913180326 -0.3782635111334899 0.2879435648596079 -0.1596990971861548 -0.29872798016783164 0.01741230162144151 0.24100289943572406 0.397742149829541 -0.08590300044585401 -0.2444017573109061 -0.11036229197567354 0.11540308077399337 0.3972608215049906 ]
[ -0.023783730929997565 0.20757868985347364 0.12610473162006516 0.19571987934839807 0.2489794851739257 -0.22455458117708255 -0.24294542690259302 0.2629160366422057 0.1357010163748945 0.25123685279213215 -0.21080898579940574 0.0658300977261834 0.012109931506912374 -0.07648123592442187 -0.08916746080684018 0.07050342230999694 0.2278031290246092 -0.10525670889080886 0.3311806516158715 0.06716506517537836 ]
[ 0.02493986256275687 0.21887561187687782 0.03013740795020052 -0.022291209236958685 0.3020090304406962 -0.24092959489717017 -0.5418331615412485 0.2543534362561 -0.03943534567166192 0.40614493114765743 0.15175344947259936 0.43056137107779063 0.29242637344984235 0.14501149263726779 0.007906444553875416 0.3351273283980427 0.04574405418841129 0.1915375624929504 0.4068563606556781 -0.39195039949634086 ]
[ 0.22605756250751596 0.38877561085508416 0.022735820611956725 0.46097891642577127 -0.18104438953540117 -0.03748496569227792 -0.2465367806692907 -0.2547658806466508 0.3099156928134868 0.015405620208936297 -0.018237637548001766 0.009718397827190015 0.007473732937952846 0.08731039072879382 -0.27508780509092434 -0.08678890039496988 0.29656817974788624 -0.035583323373904886 0.31563372915837556 0.23448578425856967 ]
[ -0.1187312226454223 0.05177553537086817 -0.25072984779061835 0.21824994268716086 -0.08363714546732479 -0.1718338195062785 0.05649671156355709 -0.20181457172932496 -0.2007990613421088 0.2544906534618534 -0.2856485191953117 -0.11575762788107351 0.2780978298878518 -0.008662914686371018 0.025112916403922048 -0.2787006741270041 -0.07508366534671777 0.03825365380960697 -0.24404895617674552 -0.04215312973339404 ]
[ 0.2611167867785893 -0.2536796961077236 0.05983554600094314 -0.05988976377403307 0.2870406664628883 -0.22656318135177586 0.49404486237404327 0.047748938255182796 -0.0405157384694714 0.18361578529844602 0.0890096868946524 -0.2920816147846394 -0.08128789997963093 -0.250220423303952 0.38324041429895467 0.27667186720028947 -0.22764685583279354 -0.18627139961887976 -0.04758285530121252 -0.24380494857549348 ]
[ -0.2597612601267516 0.2371501581588943 0.3435878963384172 0.25796439663364634 -0.48020073644228006 -0.05343915007822173 -0.11535762979964916 -0.13030138193612845 0.19799257177197166 -0.10072719561403883 -0.027338000156835015 -0.26342347416497786 -0.03749932950063919 -0.29905753225956533 -0.09422681617335299 -0.3526849901976553 0.3443828216398729 -0.22452206051639642 -0.10496843207511382 -0.08673997862307559 ]
[ -0.005204311030259542 0.14663285868296466 -0.37092119753036673 0.1627560686746309 -0.14871655891372815 -0.019034426319013587 0.06479835650885955 -0.27015908347376255 -0.1440028301568296 -0.040349181431282036 -0.15036902605418268 -0.049757036648894755 0.1628581963959224 -0.10449002478333741 -0.18571162786798465 -0.16040743288307183 -0.14193634881231626 0.16031646438676897 0.059455639996883046 0.06458595634432296 ]
[ 0.11690315126045912 0.2188227512435972 -0.03102975776603147 0.4573071659038391 0.16602404849312793 -0.02694006887993691 -0.5204454976223506 -0.02710960501994636 0.031694931045507295 0.20974652094638793 0.22056115175209082 0.35834631250160676 -0.02568646678218101 0.29876935230752366 0.05284590372821524 0.345237972031613 -0.009392545430067404 0.10822845437386726 0.36183669232552756 -0.09404191611210073 ]
[ -0.10920623857457022 -0.1758571141117381 0.3087837197100764 -0.15888968079317203 -0.2554277762896576 -0.12100355571496642 -0.22005003670655654 -0.2932000775918828 -0.11002400193035687 0.21931661200278613 0.04711381085434016 -0.2300631403764371 0.15442879238151902 0.2908487865515889 0.022711714023300862 -0.23885638250620317 -0.2233346475596344 0.3084296089382268 -0.1385764785429253 -0.029952365024193257 ]
[ -0.23207069369078775 0.0759998412121542 -0.04206179663275744 0.006801971343896984 0.2273360789771571 -0.13714522449242716 -0.19711892903341285 -0.23330302153937155 0.18378334092548945 -0.062455307306087726 -0.23514083434755914 0.25308102997980003 0.18532307284732896 0.4063319722464645 0.13802894181328523 -0.19650363202947746 -0.35329088910426815 0.2323540925030686 -0.3668059984391073 -0.12253142519472088 ]
[ -0.12353346185290225 -0.2954677827829678 -0.26856970771552974 0.4594461948949207 0.1144503560245999 -0.039322295107987744 -0.2523231718894743 -0.2519894951421223 0.22952266958285014 0.24072164854874895 -0.054315856447043225 0.2238998927711437 -0.12699924580316296 0.1485002352780068 -0.20417792002559804 0.06142621267746395 -0.05429702883142934 -0.027923569606716794 -0.16438516106873727 -0.38011977407305264 ]
[ -0.04768308906245737 0.2910077124782746 0.014691723161666575 0.3138468598500516 -0.044937457283251075 0.33758008332659756 -0.2689160113584725 -0.14878671271554336 -0.11576347137051042 0.11523205283427654 -0.031348841024333156 0.031061309340233215 0.009028818540171079 0.16291806421503977 -0.10967441537111836 0.04095021265581836 -0.13510717686399973 0.19811378656077352 -0.21946553914521832 0.29495298884787413 ]
[ 0.01208806725433631 -0.31516182859198916 -0.05031371941385196 -0.3088808810014259 -0.19232201909044833 -0.16451748531382093 0.13668874699082909 0.2825272772543402 -0.20234363118137386 0.14299011165293235 0.2608200479392247 -0.24108477822446356 -0.009997324966816643 0.1270613288253748 0.26476811669079187 0.013697050767183706 -0.1693745841020207 -0.14015830829777967 0.12517797420233603 -0.24817643735146033 ]
[ -0.027563758674030336 0.15638480802574944 0.24758643682067663 -0.027241680678384235 -0.34249846019134483 0.17812078865720332 -0.004666938714289889 -0.34766771412805925 0.1213662720872145 -0.24983953124890707 0.043568194005894456 0.046759562788279335 -0.29587862233035994 -0.040316905981524175 -0.016625517029780705 -0.1696968720539702 0.2681691585636647 -0.40569507910958347 -0.18369494716979856 0.3738890173054629 ]
[ 0.0370411627682287 -0.022765660289212567 0.023056375671933988 0.10275151005037444 0.027809483482655356 0.19013426115191895 -0.30451492073318176 -0.213326714620267 0.16995181995970426 0.18929253128546628 0.28800144243841075 -0.1829634335445633 0.07351238598457546 -0.2608670502228235 -0.09938275352773837 0.1715406607667661 -0.05724090938185679 0.013991676545564146 0.09988734730948154 -0.18551351535494026 ]
[ -0.09108119098869684 0.2816740574336697 -0.3379442537746282 -0.08067248166103415 0.06420623692179779 0.2991676524128671 -0.38484005182148456 -0.1302097201139511 -0.23474436997872766 0.36598168705628387 0.1098288165920258 0.16122212593809146 -0.12777077861415845 0.4524665486505823 -0.07584191164224735 -0.3695363699793171 0.33724170419323557 0.20579178488960304 0.32194546073865965 -0.03811786325351135 ]
[ -0.25360234966111816 0.21678626566748455 0.4286796819120975 0.1269972624242105 -0.05365100165175447 -0.340516899532518 0.1655455726261928 0.13227880902688438 0.07479243931918834 -0.3659230689288879 0.10360160500408869 0.09303227284321766 -0.16094989147770117 0.00686066975544926 -0.10482355113097074 0.15980859067350636 0.17884537049531954 0.1903613803675543 0.2075444475516342 -0.17667821998624847 ]
[ 0.03581616769733481 0.450831230680513 0.04218097563466804 0.22193193604551864 0.05874508505474412 -0.17405161866816718 -0.4864134837601933 -0.343519495060906 0.31924770879264885 -0.03544621081273068 0.007491080986292909 -0.20164063645339256 0.03989212437331993 0.01764677181209248 0.03387625554720623 0.2234871924181079 0.3209316246671931 -0.20596241913697924 0.41960416951267304 0.12916356182838049 ]
[ 0.042353727655649764 0.18668883959818047 -0.21815939468382511 -0.28640141000111513 0.2164402831626283 0.010953462247987576 0.10077009905455768 0.17850838968631474 0.25678390332293527 -0.020654241416008724 -0.08290562789632838 -0.3394015274725743 -0.2758046247452558 0.11493713844933784 0.12016654297739184 0.04659299848107381 0.09845718285061901 0.16937345171900078 -0.18171402361238692 0.1223912430888249 ]
[ -0.01474190477196686 -0.09536232589013838 -0.3126769566553801 -0.19944680345231905 -0.18537164468461184 0.22178624852391013 0.1376448844587048 0.05631256645967864 -0.16849323102758257 0.03480639960116891 -0.04921732913964647 -0.17503913151032827 -0.1542524597761959 0.15671218974083231 -0.14379316691058466 0.13760830498192578 -0.015861030487479263 -0.09695529342697151 -0.11243890097183834 -0.19731318019188876 ]
[ 0.330457457594264 -0.18917139453773874 -0.007390624752147366 -0.267964333968132 -0.04043157218917148 -0.14387239440719557 0.1252269714439176 -0.09935201052609952 -0.4367980708417166 -0.39512956406538546 0.3151371830754925 -0.006502333069261766 -0.23346258285636703 -0.19765533842324648 -0.1113268782556036 0.14640688356822723 0.1636051256705613 -0.07242413393222583 -0.3645722680889209 0.09271718535052717 ]
[ 0.08244433190699027 -0.1467911585413718 0.23359731474603174 -0.04112861010971259 0.22986392159395347 0.1194244026308227 -0.0436535291677076 0.08821529332920963 0.2041696259703262 0.05069816555638965 -0.07530974260661309 0.07555574078872399 -0.09538686891102538 0.26147028667159955 -0.17313835153655635 -0.04328299030191647 0.13103821986925948 -0.03911835901516326 -0.015384654859387809 0.20084631229985533 ]
[ -0.23825587343388144 0.31983232119235816 -0.14067495665891033 0.05111322016718976 -0.25792659896067976 -0.12242145429558873 -0.44712078740886374 -0.33696489552974357 -0.15322902299565366 -0.09950435065731172 -0.2051933494184679 -0.09612681995512483 -0.006425984640726811 0.2896140633794124 -0.4022031523733768 0.24865753224583045 0.09930195388106453 0.04476504418849328 0.09007722653900022 0.026151608410809053 ]
[ 0.3756884250367085 0.20971046581930736 0.27786952622602656 -0.26583279170165486 0.2266155322092141 -0.18359525573183053 -0.11027077894948861 0.059505262839959425 0.07208494135568423 0.13568686663827237 0.3190619810142217 0.22360682245423968 -0.09083592594837195 0.013768538027018247 0.12055613164014423 -0.10029156881913134 -0.15175968319152813 0.10912735178353872 0.17980694552291587 -0.04860642972873183 ]
[ -0.27137902709365713 0.20508705667858546 -0.037026864258028674 -0.11957996447885307 0.0016285365302859843 0.08225977294481226 0.49636309812276896 0.0683007992205385 0.3432277083497983 0.00969053925046845 -0.2579942571618782 0.12467735743737945 -0.326627731377895 -0.39111397908977696 0.04583802445881087 0.30666453265826626 -0.148440146656543 0.15580593061898798 -0.13788870211672066 0.18897781783666248 ]
[ 0.24761993527291243 0.46300148317708956 -0.16311973562671137 0.37073783991879916 0.2012623851399542 -0.14470099438301695 -0.2789111654089156 -0.21386006539911095 0.2331662162515892 0.13463340640383425 -0.24232513996655353 0.36496068895777856 0.02853842060275951 0.10004549240375289 -0.2810989955061272 -0.09261119611186658 0.10762879560657168 -0.3438103822101404 -0.008608524123020486 0.03125404746592025 ]
[ 0.0550981096867832 0.23551437150171814 0.194182090006867 -0.21919118725717865 -0.14071002487074719 0.14318181363441818 0.10544571112739194 0.13512088488182247 -0.07434984192268915 -0.08724597071566054 0.15111070233565133 0.055084565215881086 -0.09179391190483119 -0.3283927330000652 -0.3174908422575555 0.11321401149946334 0.16007346012955553 -0.0029283740572846567 -0.009579522387341367 0.07273101723754513 ]
[ -0.17950154589489833 0.027619463829667464 -0.28345374357754866 0.33126299915030444 0.20168125329107034 -0.04541137195233165 -0.4121981310820435 -0.32391950989823426 -0.010364244839553826 -0.14297343542552066 0.15842506795280686 -0.2051131044930317 0.019462685852906926 -0.24209492231699276 0.11178527521726149 -0.2806674378261548 0.1809304659349271 -0.12360934444889193 -0.07469322621868564 -0.19816843936133985 ]
[ -0.0808753209201642 0.08490549646906519 0.40679364259742723 0.05153542968911237 0.048908445195750355 -0.3470175975050634 -0.12887403293018548 0.0013390351667790536 -0.15658730880498373 -0.25796739128769947 -0.17037941257364284 -0.11398220257013382 0.03953291800786286 -0.25290863250888335 0.3997662740892776 0.363238508433261 0.4050173094002786 0.09245131820367153 0.1418221281323656 0.3334012072812399 ]
[ 0.15002683865296107 0.23844015071063204 -0.050828255157927514 0.24990551376925238 0.02177060266433741 0.2032984396109999 -0.006980332768554989 -0.03679534366674923 0.2215854258476332 0.2382334893523051 0.12778963184236095 0.07390081061398299 -0.19226080380754548 -0.24026321587832283 0.13512028888830768 0.2181863769865309 -0.026691672881217585 0.3057005029410627 0.10801742643540065 -0.01789915352870939 ]
[ 0.13411254391023678 0.118989341012308 0.3798787278649326 -0.3759449349290164 0.37393597035303583 -0.31903562834113336 0.3394421602112132 -0.2533795181846646 -0.15305403188625527 0.2653735068764609 -0.02906529038169576 -0.009345381561139083 -0.20086747852612405 -0.36815272776154534 0.4286221532269234 0.29026927377157574 0.3232388755025861 -0.15011160554619193 -0.2194568226799704 0.2376424071069585 ]
[ -0.09430567753582228 0.14874976936763298 0.10468332174326585 -0.2793768930355073 0.22104943715499883 0.19112508909894516 0.3224333773231117 -0.046192068197424364 -0.29471663203540566 -0.1711572615210016 0.11118968955702715 -0.131629339574655 0.05359520415797814 0.006954096807976818 0.1592330294277494 0.13591060358541587 -0.22865856781874946 -0.005891691110294673 -0.06052967613802921 0.05719388955053272 ]
[ 0.2864154621661409 0.10553732007095695 0.09486426885726379 0.021411314105221808 0.14118424656327883 0.022649232635546062 -0.15316916624562238 -0.19381697888108232 0.05789595362908419 -0.1464752373534732 0.16193017793351952 0.06459887940945343 -0.09108856496085624 -0.09307176804088145 0.20725190598868845 -0.07662894654735235 0.023571819007772183 0.053293757523899817 -0.10513931582592262 0.01647326328470114 ]
[ 0.3210628617105522 0.3394099950998716 0.15078782623452697 -0.17167669534690894 0.17722914326617853 -0.3726233357200683 0.28214819243793055 -0.13550668292913257 0.10715817204809448 -0.19741437461718842 0.2820874595260501 0.29773194225345756 0.003636187971167615 0.09359240350135756 -0.11213526440579344 0.15587116614269284 -0.05675373859960263 0.13877805438695465 0.26437977313811095 0.21567265697368548 ]
[ -0.219937415818812 -0.11246418982726866 -0.03481539671646027 -0.07612189220836599 -0.4085612198155536 -0.04137153162936137 -0.4249568066548646 -0.028434173052027282 -0.15821486255018968 0.06934317161741696 -0.33425389048889753 -0.17693705338245094 0.3087898111582958 -0.12746532460315102 -0.24468365040668644 -0.34213153726280565 0.2551739374326636 -0.11839217554350208 -0.09491986020082344 -0.06196798295400451 ]
[ -0.13912425155400923 0.10598427547079486 0.19148410383292447 0.24997027749441728 -0.002977513895500456 -0.07096694057560812 -0.07351562163036063 0.28610776020220485 0.0827795265618969 -0.1558728950526378 0.031043376365811972 -0.08930834903678413 0.3591246604607747 0.17632134871059893 0.05621365555384127 -0.10690352428963007 -0.22651098567788422 -0.24782753880243225 0.19320439284742916 -0.3149224383207187 ]
[ 0.0012450418253937003 -0.03822112515052588 0.0328853887240211 0.19912509581806306 0.018642580654741885 0.018244313830122802 -0.21207773617295558 -0.02059445338912845 -0.048507196583297656 -0.11770742995976824 -0.0501962673553951 -0.1491746252880142 -0.15025809378065696 -0.13540885286348206 -0.12797319869917298 -0.009379833719339923 -0.03624023533936319 0.07083020505456447 -0.035456275165174495 0.04940136726586171 ]
layer 5 Activation
tanh
layer 6 Dense
20 1
[ -0.13248505784804984 ]
[ 0.2865801462033094 ]
[ -0.1395820373784702 ]
[ -0.17057025581220722 ]
[ -0.12483776968438716 ]
[ 0.2961742748278557 ]
[ 0.1778059271806662 ]
[ -0.2410064817547036 ]
[ 0.32872733670461907 ]
[ 0.06350718388385806 ]
[ -0.012168905544723605 ]
[ 0.34311600952789645 ]
[ 0.015691629746781857 ]
[ 0.2745261616575398 ]
[ 0.07161827072214531 ]
[ -0.4126922685528577 ]
[ 0.4537308545758558 ]
[ -0.004740946147897454 ]
[ 0.48077067391206346 ]
[ -0.3780618089947397 ]
[ -0.00821685767722614 ]
