layers 7
layer 0 Dense
20 20
[ -0.18568060634272404 0.4321608051229203 -0.3643222607861456 0.10284119899179972 0.6653667335795739 -0.419944311616058 0.32166761768019053 -0.04537104078474617 0.3870817988382726 -0.13601340226906436 -0.08277482468577091 -0.597903923141351 0.11735261612654936 0.2031377956644713 0.2026485386754435 0.1532445920027109 -0.5320398842034346 0.3045272253996929 -0.38071354873588253 -0.32827694343211444 ]
[ 0.36514209575789663 -0.34760414095493314 0.23906408887726194 -0.07918823928209084 0.028210644179907072 -0.08225686392033252 -0.2735223655764044 -0.18668223500973896 -0.2598546997873318 -0.21756201114454746 -0.11381337461048648 -0.14368478643703186 0.011653153058674436 -0.06240010512702893 -0.1349314576000214 0.0301710615825853 -0.18815200231096224 -0.04957929908272008 -0.23821665469804099 -0.17917375902952334 ]
[ -0.17128038394036518 0.13529472635157486 -0.2205125537143049 -0.22303543088781919 -0.2526867518543408 -0.08946150668147176 -0.31557575955850076 0.22251934499326978 -0.07096271464957216 0.38334592639559334 -0.2778423604313812 0.30312156839954085 -0.10145903539280804 -0.22612841607506612 -0.004138909464402098 -0.14543141967776604 -0.17009024111112211 0.29837200810873593 0.20250624260194128 0.37514714144003597 ]
[ 0.1927693744536025 0.0755408114647465 0.2450220728251728 0.2592261922980407 0.4681928002941584 0.16846095952441656 0.4577574803250051 0.21420434724790827 -0.16121231633687122 0.024962280758368684 0.3127357330760676 -0.6801511196550003 -0.3463398445426233 0.2769562170016435 0.49226332310439475 0.4961590290387226 -0.6002597089238995 0.09019524012227363 -0.5023590969002828 -0.1845342099107707 ]
[ -0.23504125211484936 0.42773581491478707 -0.09213245857362472 -0.23170582108339793 -0.1995598572094382 -0.6278231263161077 0.24717041973889153 0.2650237511562397 0.029571170496766858 0.25152024544363233 0.2758832285120523 -0.4737484224412194 0.06353106303743396 0.12041179637011427 0.22919966978485795 -0.586824933981514 -0.6286237841927527 -0.29183721045434075 -0.34735037786020645 -0.5016553749932889 ]
[ 0.13768818583207973 0.21049887671356587 -0.1503157782003929 -0.25197436639746085 0.3304530415957427 -0.1369238255325762 -0.05874898124653425 -0.3399560133633016 0.21064233811114605 0.09702931091988688 -0.14529586381703066 0.3323737708387578 -0.105514291575999 -0.1930840615532401 0.35929069561519206 -0.36882698662322994 -0.23646846698854482 0.126273642792625 -0.05550708240503627 0.28161284473247133 ]
[ 0.3002552001095433 0.11860072094470521 -0.26894508944090756 0.3719633619084068 -0.016422781750630683 0.25436330850311106 -0.1621503650222461 -0.28023202039237716 -0.19344543357857574 -0.3607933463315352 0.28277761427779413 -0.20007988851564854 0.2356965754111459 -0.2497395039533276 0.030279706465870988 -0.3794556804051819 -0.2493375693111547 0.2985259158617786 0.02193891514640107 0.2509965343450435 ]
[ 0.6230477087095299 -0.5394387451842231 0.22130338681936557 -0.5490557549041309 0.3579339904223292 0.2762861759831094 -0.21899540182429666 0.2493465527276529 -0.2402812306770264 0.2073814766349017 0.1815499878466919 0.7258498478385559 -0.02153571322559009 0.025264703848856533 -0.464856765561669 -0.1673758818648853 0.5788108825335828 -0.06709570384215999 0.4364437369848604 0.37518333629628764 ]
[ 0.07868192359233847 -0.36661283597075733 -0.4189008906793746 0.3848708458549883 0.2870298825210044 -0.28125354439206474 0.12631554157548666 0.05875809057330233 0.017374796809483485 0.11351112658835034 -0.31546261967766664 0.27911600524862895 0.4183617778046717 -0.7514110247840066 0.34678876309154566 -0.45197684516130204 -0.045589738098291414 0.05949194249285502 -0.4795849797652215 -0.04614506449790979 ]
[ -0.49651262749156283 0.07781070333587219 -0.044839177497477435 -0.052514235162391204 -0.3602609552110945 0.6304711679679137 -0.1416928637695554 -0.22082444723210667 0.12978418275889775 -0.17145069914675018 -0.6257448700385395 -0.01607997702073311 0.4076958191792138 0.5874343976302131 -0.20939182057175587 -0.07203072617187892 0.18001077140123548 0.0223453195366694 -0.11676101898780641 0.19662623483421018 ]
[ -0.11453999024473774 -0.05439521028494777 -0.032347622873934445 -0.20458345165827657 0.48368826469697823 0.29071872321999553 -0.9456906178479135 -0.03044793497548906 -0.5513307987145339 -0.010265909541135116 0.35412372468545333 0.05296608160835352 -0.10950121797505724 -0.5763225979718382 0.3039307495086572 0.0038307370721087242 0.17756980792029506 0.053732149541445555 0.3451630960323221 -0.18422635945243415 ]
[ 0.9399229998891078 0.24545689138480467 0.1226642513147969 1.0307588306922124 0.6665192461779197 0.8876450664736846 0.5277395407399971 0.3213362601657318 -0.12965582404341963 0.42122583519648804 0.3165280553614931 1.2235940434651131 -0.045581138092901076 0.690782278791565 -0.550493368234053 -1.0945962943666714 1.215027007837299 -0.391851533369277 0.8008089456739157 -0.7321838847273767 ]
[ -0.6890682215450121 -0.10380870676653209 -0.34640401248795794 0.5329047956095893 -0.10661549124333808 -0.8207267105368998 -0.11584173395673693 -0.4700921573697318 0.6986680457438044 0.7446722682351022 -0.6726100924113961 -0.1935166977837886 -0.6481956904011188 -0.521678853779873 0.961873441157822 -0.02762798932800015 0.24653913347610512 -0.6008884977008145 -0.3322983523983439 0.0221795089909737 ]
[ 0.3083362290213649 0.05815535356719706 -0.013312977507204029 0.07878807850323528 0.5318237790527477 -0.09371881343834779 -0.3241719044260587 0.6050197152354554 0.025741163906973945 0.14200105890014597 -0.16711718705299752 -0.007063168316909155 0.23065828797597723 0.18090097489987642 -0.295182677131727 0.3177031043168645 0.11986013315829923 -0.44779046889225943 0.4792240567178922 0.6734737836377462 ]
[ -0.02424822740401328 -0.23428201275514215 -0.15496399717012282 0.3799705930241811 -0.8288106552242819 -0.09338122659523973 -0.34758954608134834 0.3295867357960118 0.05857164140075443 0.42449270906905734 0.2572080570109454 0.17838516470117538 0.6124561631286661 0.052906669925522266 0.39638974668823673 -0.5902998482904351 0.07644809554448033 0.35163138061042604 -0.05509042791007818 -0.23153284734756835 ]
[ -0.2679240253388405 0.5109213817236293 0.04864586119081417 0.9977488899439024 -0.38377029208756785 -0.3745702060277519 -0.09959978063495603 -1.246100704508801 1.0200338398366227 1.2620906411721655 -0.6159834316632544 1.1024313889756672 -1.5493183481543378 -0.3182761508819442 2.0282949393853817 -0.21463301553037673 0.7055902316776212 -0.7989597693423266 0.4260700530910142 -0.5042888292668761 ]
[ -0.2179207408379329 0.9886079894764873 0.056570908272830955 -0.8545012555709924 0.30375606809238753 0.3702706022525504 0.9134771669369689 0.6398852553972108 0.14468393060489163 0.3524300961144084 0.6384367153743873 -0.26219973902339017 0.7389319678123589 0.49312473126275874 -0.8684769005729941 -0.6922385811213815 0.016888219363619485 -0.15812813844183254 -0.5235235119261352 -0.7996198015613076 ]
[ 0.7428737502914426 -0.42440028105264865 -0.6250797543742079 -0.9218478710266778 -0.5192145403629715 -1.0644496797548224 0.2397639642984563 -0.7208214477656734 0.06359357781742513 -0.8686230850035962 0.9127965555698515 -0.1839533480291495 0.23104411723580037 -1.16480098144045 0.4670343333068516 -0.16665599537471273 0.32031570538172194 0.9297946636582386 0.09328604236032402 -0.48583854408532795 ]
[ 0.3820145375548621 0.6644179399798373 0.21449677292878572 -0.8275123067786018 0.24634761649796552 -0.47504765613163613 1.2082742271135303 -1.1904170829720435 0.4852353712356779 -1.0963514759227897 -0.8649656325929341 0.16627988746207362 -0.7634801643975637 0.5097745382307253 -0.43983563090687916 0.49357973744176 0.08792371507802561 0.0126728355049868 0.44059035204637503 0.7049108241445049 ]
[ -0.5943905882512157 -1.0013122095098057 0.29665893690181233 -0.4296861121593309 0.6291074206490647 -0.05120318010792786 -0.47926149004368807 -0.029961742667288075 -0.32966471139427866 -0.253056538273462 -0.1487491874030569 -0.709599289439896 -0.011998554226674715 -0.1672363181743616 -0.26979937061434406 0.31250726528508416 -0.8608589750600071 -0.3484333272696647 -0.617993417256404 0.6671356673925319 ]
[ -0.05603892539258091 -0.02402074440735316 0.035890656763919004 0.3135847555768888 0.04412315423494258 0.07320582092369393 -0.06312449981764273 -0.1277615549075378 0.0008513044473543946 -0.21981313386348741 0.00955871038165237 -0.2649046000730298 -0.16127630981617244 0.08456052859866253 0.17353713978941107 0.22615751041533627 -0.17572596616935993 0.2387713274069755 -0.25777548757059593 0.03736011075155061 ]
layer 1 Activation
tanh
layer 2 Dense
20 40
[ 0.26427947423041 -0.1860032531085952 0.2468315338538593 -0.15593271535095335 0.30258154585267893 -0.1307731086714901 0.36255117163551115 -0.36840543454390234 0.6674802457810585 0.11408019782541064 0.2959745988009424 0.45549332079107335 -0.011955343265656691 0.10026424825321104 -0.003228952249681888 -0.40005564943399174 -0.14731152953672302 -0.15964584987834365 -0.1482156918320764 0.30045868939390824 0.06896821329922219 0.22347463736874712 0.12549015397975716 -0.19569530593190418 -0.1993181049062515 0.05182470107608455 -0.46156114988657787 0.05789595949225359 -0.1867617989559831 0.12539582602090635 -0.2629589778640956 -0.5149630732085877 -0.36208829929561215 0.42058876317901805 0.22928392977675197 -0.005323289864767734 -0.20533649426507228 0.3081726076858935 0.594622400410356 -0.12904397238689086 ]
[ -0.06532223430735815 0.14246184658722436 0.07997185577036159 0.24874712018048975 0.012733229835137767 0.04385597492865169 0.2976733493539061 0.26999942797958115 0.38006785847498464 -0.4436047971184743 0.04138885324841384 0.03133264544053511 0.11216859234173458 -0.1693195755082749 -0.03915230156740197 0.3651986173102897 0.00712847069184795 0.33960333181185054 -0.3269268285685822 0.4198293341617689 0.23300962565670416 0.6939325602201744 0.47139638705772247 0.009240260621601245 -0.44741315681192534 0.3609593640195579 -0.4384869824167996 -0.43863604605516526 0.019792867247536292 0.2534400790524215 0.2114323133614069 -0.498700675931692 -0.4652402121833957 0.10112540805968828 0.27434308771784843 -0.6299250662237478 -0.2514512151935982 0.3892459335105824 0.08536782097329379 0.15929603545085044 ]
[ -0.4323356854360838 0.502728619121455 0.08548458855228969 0.03991687530726026 -0.4038680435860031 0.20345158824819962 -0.11458364421743066 0.16501715465793743 -0.1929367001510359 -0.6170612434771239 -0.18652434073637522 0.11543628708088793 0.1778492723321029 -0.12435396388222215 0.4842142735425737 0.13715600918532692 -0.09920373281710203 -0.13500207689703467 0.08354785519905408 0.025533486434045977 0.30545272356734654 -0.17490961093447255 0.1447076421556619 0.06788328311345283 -0.04343956403732589 0.18180073540464875 -0.11894600527143233 0.01985391872500198 0.04367036381777794 0.12113766559121486 0.32433129976662944 -0.009996998765191 -0.23523774478414297 0.20173070240784147 -0.22789914051042548 -0.44699277467896864 -0.11670614285197548 0.5466043775937002 0.007915544739617341 0.14658862563160924 ]
[ 0.2653399181257768 -0.13238967132845358 0.5977260683769917 0.6932932828513367 0.06840979381496248 -0.12917659537110968 0.38790363123158417 -0.07757294773224116 0.07110663410548253 -0.1742095715400988 -0.0014123614156113845 -1.3175189819593374 -0.2656751455164176 0.11691075286549185 0.3878507958986075 0.34654147707335786 -0.3133052848446581 0.13780628842288012 -0.04648671513019426 0.4871239642373298 -0.27513336714257636 0.2842179566926657 0.6159970118006708 -0.24318747468707652 -0.41300933196561157 -0.7264943558892898 0.6390491583359257 -0.00489284956438849 0.4877925350128779 0.20561795438365127 -0.5522118182042896 0.03374862407023111 -0.7245523414472855 0.3395540534714982 -0.39166976355185057 0.05228768436008591 -0.338603978884246 -0.06550220849518595 0.14206074007605105 0.7617184840350048 ]
[ -0.38613579500921663 0.1520260608882101 -0.13360102475932925 0.39158187566292824 -0.3562043879970535 0.3417353557576668 -0.11509307262193522 0.15819150454460557 0.05747143104339954 -0.028768096161212935 -0.22564205369940274 -0.04202981171366259 0.19681827752767797 0.023214014662451675 0.2271019818335779 -0.8357465539776976 0.18031937156412786 0.125163691376635 0.027323871523708396 -0.5655270183567581 0.3394356641548438 0.00016744192693866585 -0.14851503101596514 0.3525835007028638 0.09968395062252301 -0.5272188930277043 -0.17845183337044004 -0.45336806731861296 -0.20842597805939433 -0.33426958973829096 0.09798199491104277 0.5155712313303188 0.10855568643959211 0.032274045009962816 -0.12456215972171755 0.08603223446034637 0.10301765680575313 -0.11631217103829154 -0.24223740006969371 0.34141423333782667 ]
[ 0.24390288662231707 0.7958183092196571 -0.6616243327617527 0.35808376157297445 -0.6480030317858119 -0.6138027141531389 0.052271280585983584 0.5961923742435105 -0.463343859709871 -0.18422059723300857 0.19974756398395796 -0.7801227901266358 0.38855770978773635 -0.32100650856375046 0.20122966079108284 -0.7094314973605328 -0.23301627687715337 0.38944110965683615 -0.5178262728190084 -0.04665047026926887 0.2450385811466348 0.3073715600353351 0.13891017729153887 0.07484502314472069 -0.20058409747793118 0.5947501357463142 0.2017937576931152 0.4271022547937173 -0.3225410110238167 -0.13978896272824481 0.5674503060895675 -0.22287463901234514 -0.9170078666853321 0.19500412847516743 -0.34741990077785273 -0.4042078404408663 0.3755403664950316 0.14163347085299605 0.07890080207895812 0.14406604337288734 ]
[ 0.13369060617693881 -0.2581412273930954 0.03451285881932142 0.432330193465369 0.24963959184186313 0.01570660451007127 0.08048518023506601 0.03232453769880221 0.404588377624697 -0.031145273924411628 0.03755229350334724 -0.0500219317311541 -0.39191834619315324 -0.23506062749571466 -0.03812644460163449 -0.28371849464283105 -0.0890256712766098 0.27444712890797135 -0.2532570903097425 -0.5887604975250306 0.22060407479054053 -0.022928370824216854 -0.0950012229493628 0.15341164099115787 0.11510830836478841 0.7666539984913449 -0.5357934112989537 -0.1582836705926453 -0.355080369311815 -0.3575424984009716 0.3525671797553745 -0.1635913016686631 0.10165110339805383 0.10867010048680117 -0.09006249741000252 -0.4269881618972877 0.023632581802677084 -0.10028966972198124 0.2615392233602214 0.6123173401220658 ]
[ -0.05107469000795276 -0.008583553940483764 -0.32547947661237164 0.20672760623336675 -0.6999233770412885 -0.07288373059347737 -0.20719440101841083 0.6047231461566549 -0.4904589784445392 0.20419164131599013 0.05335014032047262 -0.4464540512229399 -0.10702053643557018 0.05412903603986713 0.5051732566392838 -0.07394895223048774 0.3032993127333758 0.8173718072115983 -0.0077582936914566605 -0.10003744943182713 -0.4935799766478307 -0.3886616125651466 0.010628706659240122 -0.010063467868187887 0.31851691768538454 -0.5408889543244533 -0.2796105311577522 -0.1710698470787949 0.0793319242401206 -0.27540242214004207 0.49912608104480566 0.25332031906470465 0.3223465176715694 0.16199817636711425 -0.034554814528126886 0.009419031061464947 0.16488110129790728 -0.19831346471570557 -0.28948946075112586 -0.13167499380214856 ]
[ -0.12159928353947787 -0.5028352261258074 -0.08368712714433903 0.06590757224297002 0.8672565552164727 -0.172960334862939 0.04810150845127855 -0.11898254727805406 -0.012981005121401192 0.21937686711174323 -0.2042437122433514 0.3445179527984213 -0.5414007240630794 0.41840058008844977 -0.570735152666521 0.34853445233867136 0.19389605673969673 -0.13978877771594206 -0.05799830207927676 0.22034082097113267 0.44011211548659596 0.2209006422313173 -0.613077648959083 0.38537406144486236 0.3538053428047183 -0.054602986896341923 0.042904615618430356 0.34096926633084906 0.38793524716146643 0.10564492261718819 -0.13616803547802553 0.0635700588136942 -0.08402513340686348 0.4984257518409914 0.0444727642781843 0.06370226768288426 0.4250089539032265 -0.21958990779518808 -0.31253817240913506 -0.17705116860012626 ]
[ 0.252006276721773 -0.23065699846365326 -0.6361810091345681 0.3653213428648476 0.11589852098830526 -0.4162281842245582 0.16776769864949917 0.4334059141699687 -0.48296688451325875 -0.2857469752496231 0.012314039190466234 -0.01012940219108725 -0.15815261015783047 -0.1831106704800823 0.31930822228859124 0.04663472021605703 -0.16112972326896913 0.27607510920828254 -0.35781676935056905 0.3883330573848656 0.29025498206410283 0.3710700074459161 0.18833302892611922 -0.03520601634481981 -0.4573077440271567 -0.6129248849721703 0.3638563456229001 0.21090611657009922 0.3177460758458673 -0.184728304146855 0.07454829691211874 -0.06130224684402576 -0.39537079582473367 -0.01482600385664817 0.03550046818195017 0.2559014497590771 -0.21883127804032007 -0.5477241841672821 -0.36015223508378424 0.06124399639084585 ]
[ -0.0035664257050101213 -0.7478668900924998 0.0003081211457626271 -0.04660163162663542 0.06775782157543006 -0.493463657306186 0.19482440994009786 0.2841240370736588 0.5890287973623547 0.4667489806680791 -0.13380032341212345 0.12263874541246564 0.2360233821556489 -0.14176411629538155 0.8364945795285067 -0.35683411087590494 0.12483269011026375 0.7180864552090306 -0.39013094103688367 0.17243112311969666 -0.3146872033057831 0.03641466316819292 0.15791968269705708 0.26157244670271934 -0.18303777628129325 0.013374187876708873 -0.8656370274382109 -0.840741745498031 -0.20903335495558342 0.25195283059311346 -0.04047965519929978 -0.06158414873114406 0.8010924393254479 -0.03999342811794881 0.1934064704916559 0.20077236340576524 0.10059047728282601 -0.11808507245179839 -0.1234684000871873 -0.21313962890781335 ]
[ -0.3436797117044981 0.42872130708220163 -0.46143080675891035 0.19456102049920718 -0.21634828187773322 -1.2913255452883354 -0.12321206691853165 0.6386044725935212 -0.08812498736143795 -0.2610321455756441 1.091697842634876 0.2825256872230715 0.46668747779124053 -0.21416899652750784 -0.5883863853269979 -0.8040455872346668 -0.27177552769412205 -0.1765393845962769 -1.2473968405870108 0.14468124375162986 0.5982071272798982 1.557878455840824 0.21002149837368642 0.1333008058050255 0.50390802513262 0.40697080601765134 -0.7000031605403993 0.00807183833748271 -0.7913138125180535 -0.09883818929149406 0.6414585658316161 -1.0010183770896066 0.0229207517864864 -0.27511708590563494 -0.004327488389915725 -0.18911095830530078 0.10545063437616121 0.31351660690774064 -0.007032546105036062 -0.9259459519933451 ]
[ 0.25673348712466804 0.31855655194057547 -0.33785148872791554 0.12650220792379097 -0.3112216486667695 -0.39476744340514436 -0.10667152606191885 0.7169659309028444 -0.3766977623802011 0.9198959661321737 -0.057278988072359316 0.22568905033842437 0.4714463237914594 -0.06666046767555231 0.5129210765424449 -0.5744032987389296 0.03691618173587335 0.6145111234850632 0.41763404819268 0.4755791106418104 -0.3239711150030978 -0.33280383961782883 -0.1893843683663699 -0.0425740046608168 0.3454222626857122 0.026095818395518687 -0.3875863233918399 -0.3916017111036123 -0.30400293565080677 -0.07356419484121614 -0.0005315345849614267 0.16318896458353832 -0.026686123349886785 -0.3497986990476529 0.8201147120539475 -0.06001734640565619 0.09234011387143427 -0.4573902383965882 -0.5265860686075577 -0.5440882473964465 ]
[ 0.07360520340655617 0.42679438257083396 -0.44876660145636305 0.5161056351172145 0.3468883426824604 -0.15174925990387064 -0.1822806131060861 -0.11198477232824153 0.2250349343090907 0.27923100628828124 0.07437046582299438 -0.387872570552419 0.2833688227888536 0.031928964720610735 0.0929999948647279 0.1301856405766069 0.0014357795698574684 0.22505074900811306 -0.061526221061111955 0.025169843735353314 -0.051411179395359254 -0.03453767663474281 -0.2510730943139927 -0.03364760549733088 0.09597724473419451 0.567827775148094 -0.20254711791775024 -0.02759867297515375 -0.2502397896110557 -0.06183970456321831 0.4222083918348835 -0.4950000224147337 -0.33566682585235325 -0.05270223620795631 0.16754278780428308 -0.5287694731566301 0.3377231566956581 0.5355505163182179 0.21068113180916903 0.32755404565806007 ]
[ 0.3509789838148525 -0.569782922072842 1.2560595212296841 -0.14636126719413814 0.2878454826097213 0.23000240846564632 -0.03353434139634465 -0.8057215536225485 0.6366281337079915 0.4775880460639255 -0.02657023662519573 -0.2762676622286874 0.4671199183928734 0.0830514179706835 0.43190400277749 0.4988187865283622 0.08942840940877812 -0.448874915352337 0.2554709614804979 0.969473376744535 -0.38507216117915966 0.23679554072944253 0.24929271064621925 0.19288640117395653 -0.3759928876132895 -0.2770318104935499 0.83479893837516 -1.0081777157058134 0.5716280279745174 -0.05520548154405261 -1.001577803306935 0.49392348184849233 -0.737418260762998 0.247173256776099 -0.10815557665494925 0.4763271631541433 -0.15406412455213153 0.06322865951601918 0.26567025318705934 0.8300910825903344 ]
[ -0.1667164383882764 0.2215112861659846 0.2997861441005102 0.2439511008322869 -0.6197145026704175 0.2706982195012484 0.04812326796996898 0.09473603493823585 0.30445758427546993 -0.4142099690716828 -0.15434772053928775 -0.37926365929543515 -0.07734871942536727 0.07930541850604257 -0.07057307104895504 0.22312102546950383 -0.25020501931848876 -0.346413350576492 -0.02622365369829578 -0.4155500869694855 -0.17620000716716483 -0.2616688196597477 -0.21669365998305112 0.2990597986564694 0.0482932928119079 0.20437565604990424 0.2953992727165756 0.1864398901605271 -0.03442574915478041 -0.3625928747422752 -0.11640876474891693 0.22787041573420835 0.03615880958145252 -0.025886647235110895 -0.18190678267365806 -0.43158819696541584 -0.12737544405721135 0.5000185527882385 0.3218230090472937 0.29395400283836703 ]
[ 0.2466102979586087 -0.2654355441168078 0.18476642288352355 -0.10251583268413732 0.07820452132236204 -0.40459683071658514 0.28358221803792194 0.4129817132898968 -0.27331695725812966 -0.48537001850519146 0.601785978489614 0.8076230186439708 0.47879526833057207 -0.11816981113146122 -0.20213598707203678 -0.43728310267572723 0.03632715695971733 0.01247909811382612 -1.0146631219865614 0.45419334111590176 0.27244708238736415 1.2095261486579225 -0.1788075832205105 -0.06853925782461368 -0.33630886515267927 0.550457688945012 -0.4075859329182339 0.23173577515749152 -0.16744067786576633 0.2822263585619033 0.34698488482812145 -0.7196911391966576 -0.4309921776361454 0.045843272925110715 -0.15503145195960757 0.03935829161101095 0.007066843842525884 -0.2851444699667408 -0.13490877362239412 -1.0424836784762022 ]
[ -0.13723906312680728 -0.15803252106241678 0.33689963901310443 -0.14658663805773295 0.2867669296403476 0.3464477873084843 -0.2561769727286384 -0.4965264268828224 0.7053142215986226 0.5323558842970798 -0.3960248276813825 0.0009095995273727616 0.22309135728007493 -0.11491608699352131 0.17691113903299002 -0.37122034052179637 0.34448968270719976 -0.05764360189948982 0.1495906849520743 0.5644070396760272 -0.20690757088850809 -0.10676640688699884 -0.2771813703192026 -0.14922986439086214 0.5157513906355582 0.6179309572380809 -0.34622006217603263 -0.20156659784531436 0.06732601739696852 0.3402459847320528 -0.07934261746986222 0.008556170836627878 0.05941771607440126 -0.1007760561087528 0.24383216848091022 0.11254517448660856 -0.15963182929199782 0.41257194119524887 -0.196978699701576 -0.09399683944568463 ]
[ 0.20330896273435653 0.1304124546531454 0.024771261106815826 -0.3666778105057889 -0.3803403237530127 -0.2919449225719046 -0.07603271463747857 -0.2800276182992261 -0.04837395566323834 -0.5413861070213666 0.4260410954935281 -0.11157425170664793 -0.24403877001488108 -0.06385521819259017 -0.2594072864026362 0.07921034685991292 0.030694896077948373 -0.265296735458882 -0.4984634401086475 -0.3044900478118484 0.12981516985179659 0.7504830020060917 0.3123947199073215 -0.20185783856514164 -0.48827814258996205 0.24692702194723115 -0.2175389167667875 0.39936784357834326 -0.03886676661151827 0.3664720162508051 0.16582151772178075 -0.17915302302373257 0.05184877601452664 0.4198033305521905 -0.48190274742981 -0.7216601627953572 0.21512468278525462 0.04459129071225316 0.3948105182476407 -0.4280640802028582 ]
[ -0.09408509901679929 0.6481770573890182 0.19521636740220688 -0.16978457307438533 -0.527956820488534 -0.06602978765029088 0.12500039486958248 -0.27450143446554526 -0.5408429454860513 0.08777810219978595 -0.45958848604204755 -0.18209486411659775 -0.49152567929773877 0.18705526466094036 -0.7397870314242352 -0.05745282896509379 0.08912899391299703 -0.6950564283495659 0.15085404974839808 -0.7215843770257794 0.5044947933780675 -0.5120047501245741 -0.38876789039590703 0.08865755628348572 0.4895033615798498 -0.40623146204040184 0.500239108703027 0.4850603732082872 -0.1876050319005578 -0.3336124523760452 0.33210414305565955 0.18516515238046094 0.29935948742260976 0.06596335710864394 0.10568624631975267 -0.17638237039398083 -0.03797398455403914 -0.2622809906867115 0.291747553239123 -0.21883938011575613 ]
[ -0.024423042629795194 -0.051406839823650255 0.13789481319589497 0.00271211116027575 -0.3057964182440219 0.5251060305905498 0.014482019785039355 -0.39369490582306094 0.34321645012253826 -0.0346387666468793 -0.48222384608016783 -0.35848799063335335 -0.19266973505836124 0.014210944676767886 0.30837916216032113 0.21046473521883435 -0.03246173787931377 -0.0895344088618785 0.4268683341771647 -0.07788099063084962 -0.3874647572529359 -0.5450788802105423 0.026766943757746346 -0.04219685884943628 -0.13806862969910116 -0.07922410509597874 0.10813574219294068 -0.1522464092574114 0.36363011094366254 -0.07205623526298902 -0.04126629457043282 0.22731671137146867 0.03057460291158306 0.1919848187572835 -0.11380494321389537 -0.1431966197471532 -0.12351808668182522 0.17005507200389255 0.22158932877637294 0.47209636188542853 ]
layer 3 Activation
tanh
layer 4 Dense
40 20
[ 0.16589648952465819 -0.005812585444009667 0.2647052130580722 -0.004227143804706739 0.1835556663922865 -0.16585815714822683 -0.006120304934272813 0.16118169255698067 0.0723424067657707 0.4539577268287148 -0.029674761542814232 -0.3014746583645676 0.176300181853119 -0.036491467974667395 -0.004390003715218877 -0.00905745181948233 -0.029507328542218842 -0.19476225806617878 -0.02320074590393759 0.12149414841425059 ]
[ -0.0692724728724951 -0.019084673951103467 0.059212933307433394 -0.39720674124590954 0.20407780047817503 -0.03831605142952238 0.3844194836115144 -0.20668582097693416 -0.08700804108878887 -0.3299763051338719 0.5015541458519455 -0.16011287870841798 -0.11787713985260255 -0.050361958607005486 -0.07129359788200462 0.24155341341107628 -0.12607545463265127 0.13019738022179708 -0.03845640315548743 0.0064046471150196495 ]
[ 0.10064727627757505 -0.27180249011748703 -0.020788321403220084 0.15440340091320237 0.15180661313174748 0.052587392816146585 -0.5657339208586413 -0.3272827607470109 0.01749921986155379 0.2132601108154345 -0.3121909042014722 0.22466940494688917 -0.03605351902827057 0.03094747135479196 0.09897674155382698 -0.29649087913199657 -0.12085722524505953 0.47227729673369406 -0.06768428028397791 -0.42949440453770876 ]
[ -0.2441104468523667 0.3419623502058416 0.10241232820446242 0.18942151001026059 0.31780465764242666 -0.3551446909646186 0.23922274251839987 0.2768009419609153 0.07571970333546317 -0.004140687676127287 -0.005827313569346761 -0.4654058356102678 0.1404969198134811 -0.13517101870816736 0.08803320989018426 0.41521066953631225 0.20882420500981516 0.009446795137187082 0.4071100097743313 0.0020582078614701793 ]
[ -0.2929467834226769 0.11589706252553848 0.09473443287985756 0.3602264799426917 -0.2309904156940132 -0.3049146058194874 -0.2857850487262894 -0.07837968566897978 -0.26786518533424547 0.2437517976177125 -0.24466362802361236 -0.2601143814613955 -0.2738377573743184 0.1664826555309788 -0.0007739391213295951 -0.4241487544056797 -0.16411700053809533 0.04434691112528155 -0.3030398612350098 0.24211283857828442 ]
[ 0.05146217291040421 -0.06947993568124662 -0.006893089031632302 -0.3600978579744503 0.1662282024620596 0.15690612322711828 -0.5149610985228672 0.011400017467389756 -0.43876436151811216 0.24991194356358928 -0.5621562729139761 0.18431600850707733 0.11498175846039066 -0.014394413608148002 -0.03835665960407329 0.17012532145857867 -0.14830662499524253 -0.010582925917509128 0.30221468657588574 -0.5847405389969857 ]
[ 0.041676800914670104 -0.06387316000941805 0.08766625235176286 0.24703539181327006 0.009587341002514316 -0.25824798145795824 0.012894342304890264 0.006755570209674616 -0.06792696912227955 0.30491409981284 0.026240997551310357 -0.13353556336227423 -0.10589125344401057 -0.15094579594927227 0.004497538713954135 0.03720544832218809 -0.10611831759483228 0.14865283080071767 0.1666299907572329 0.008717576566501654 ]
[ 0.14682463084412123 0.4324746365703935 0.4064520728297895 0.0620228266533475 0.4460994434003306 0.16701809158513273 0.5051132495323211 0.04809244601517787 0.9095902580541123 -1.014011181471644 0.13168022286512132 -0.5358719603399924 -0.0033816958000559214 0.11251385589772399 0.3529229960863471 0.306324691752293 -0.1087579506027205 -0.35588210126136055 -0.48691114432031785 -0.022692143222441882 ]
[ 0.1388281527728482 0.23453994478539983 -0.39356908748277936 -0.02760942306294738 -0.11951026934544365 0.3320649136688922 -0.07974380635177492 0.432877790505992 0.2211223849787921 0.14143443246235535 -0.43125038618196443 0.18483484587550322 0.1936722985832723 0.01519184899388662 -0.1879333748060283 -0.01774459435177962 0.20317856168147294 -0.28456950634334727 0.374873143078164 -0.43949196029807747 ]
[ 0.2623263253614431 -0.017769943842886698 0.2177260032030908 -0.3668236112817109 -0.00877064017223044 -0.6307549345208738 0.17226226924944027 0.45339651224973054 0.603116396355248 -0.257985107629457 -0.45166198074479597 -0.438591641743191 -0.2403912529322358 -0.06594639182772355 0.050628829177419093 -0.25712330927073473 0.009800799117843534 0.17143339374770497 0.23789927612062786 -0.030384922232322593 ]
[ 0.24163612008619442 0.5435252233420792 0.1378599389767858 0.5093661584353851 -0.13189167889089087 -0.03423296122240264 0.22115773416432152 0.07449958734323803 0.43665090873553214 -0.6155788566895295 0.31418210968616633 -0.21199535789738302 0.06318003493564915 -0.2578233853619512 -0.06090081942911116 -0.21916677611772278 -0.31030668662987154 -0.456368104584454 -0.5932288734008633 0.0827154471583715 ]
[ -0.22626442013745962 -0.2812529781249165 0.36628813589533415 0.18394894658188157 -0.5150917883360003 -0.1064748355426276 0.03168448090215981 -0.026145313395272356 0.08620334294955431 -0.033689498162359874 0.13818422878881434 0.7823170422928131 -0.39491092662370825 -0.3375517413348836 -0.0939007045781888 -0.29006199786552445 0.17306325042235937 0.30919440980703045 -0.10451794013874298 0.5294173486026419 ]
[ -0.19380914221309975 0.15980175412245273 0.010071642812659317 0.284494142542736 0.3209371975003471 0.08911892147540684 0.414934979930308 0.21834755084637866 0.46369942698575894 -0.5092409021284785 -0.03966650042048737 0.17946938559445968 -0.07330449291107273 0.021682492587507086 -0.17909008032012347 -0.32202173500044284 -0.12942575042908896 -0.5235901194380521 0.13265858975389125 0.021419969473772966 ]
[ 0.2534325420111894 -0.3460396580377941 -0.22042243372936354 -0.13784111955679057 0.0435158047464647 0.3067789323032323 0.16595413713663248 -0.12054364397910285 -0.3040106237376045 -0.06304097556354436 0.05386489115050733 0.17484419623924385 0.017358722231454883 -0.14948368913841356 -0.2408104088043235 -0.11596456509219819 -0.21898036052475062 0.2539217192802781 0.18065245944555264 0.004350799310277416 ]
[ -0.09490072042527904 -0.24859435358776705 0.04507003252718671 -0.1750750270499963 0.5535464598406767 0.03248417432000304 -0.12198572295155984 0.17350828257577341 0.04964949445481751 0.09450966786527444 -0.47760039969862844 -0.36649353505183313 -0.2506191957080044 0.08860706910337393 -0.21609645345503575 -0.27508154808560253 0.18730213694102515 -0.40276671003199516 0.15186525394916436 -0.04446326836782347 ]
[ 0.3037357323779171 -0.48883028426958536 0.20650119918696128 -0.033131027139371716 0.0608272666762065 -0.36597469757241874 -0.45355072354936615 0.10275048241126271 -1.0839157082323698 1.042247351296995 0.5161447299720315 0.4247631298651408 0.06661706735801118 -0.10156414203052377 -0.2535799103330176 -0.4314801811924939 0.31637275066331955 0.3647031233435523 -0.07406375346754361 -0.0037999212102024773 ]
[ -0.07215436409839719 0.030782134822762864 0.17070338634506438 -0.19728654730100997 -0.26646088662909134 0.1944433709436492 0.18610629917962393 0.1659006343660853 -0.17249830303981772 -0.1059478702909584 0.00959807416703873 -0.23195255223502462 0.4037754409485249 0.17401262904234877 0.011188014672831356 8.506131361143044e-05 -0.21678840821507372 0.11677828652069522 -0.13242219275214293 0.038603704816304416 ]
[ -0.35572918060891884 0.27138040801260016 0.5914236668644727 0.044519421296887116 0.20683160293892425 -0.3259527586781246 0.20191720663590673 0.515527640394004 0.16228181075996392 0.013785387813863062 -0.2433368203153959 -0.6602545543051571 -0.10335166305023094 0.25169924577494845 -0.10617303529486359 -0.3088031399647448 0.14182936411058827 -0.22935920247414032 -0.20751668222850456 -0.15737070247914156 ]
[ 0.1625522992321859 -0.4712906681167569 -0.17573992287376314 -0.7641278337093662 0.46743747608557806 0.11573691094953956 -0.37351367164368554 0.2535527796937759 -0.5772567997404081 0.5324342691790297 -0.17155735207602918 0.2829896209346923 0.25296986702990354 -0.1178932812583284 -0.19111114499656154 -0.3755351963331195 -0.13198501936988521 0.3245237768473746 0.3011071848545177 -0.49039877880796373 ]
[ -0.20746661814967893 -0.17264169032880894 0.26914332402644464 0.6798921976259564 0.07375217847680329 -0.06968276401698832 -0.2891360823227316 0.6597391022423115 0.03236265591681525 0.11081669442596624 -0.22067384096323084 -0.20579451186061132 0.16813450832081084 -0.2623996301339668 -0.1646307095309229 -0.39937646928384374 -0.013006307524672203 0.022823692994806764 0.16070840622056234 0.009930881842886666 ]
[ -0.15366747660767383 -0.004659503627282568 0.13854971638764976 0.2547600531881628 -0.3582907431904201 -0.15423773802431953 0.3354231710705854 -0.2797460556692612 0.08114336765695013 -0.30769304877501813 0.38452085683788584 0.04870545801406872 -0.19697099102299398 -0.25852750500983945 0.10852828241247148 0.26496457425920145 -0.003030596765854491 -0.03249297342891933 -0.24540666036462394 0.18035505873459268 ]
[ -0.017847794185758083 0.34729815784093804 0.2314407061708477 0.8897145323650365 -0.07810120288994932 0.019103234275722112 0.2812645295685183 0.5179753077851154 0.9447592494588756 -1.0163975527529718 -0.25763395215863105 -0.28019515788272625 0.222017260650008 0.12446659637141269 -0.06321104069070303 0.315528870180488 0.03917211283928717 -0.23605287249291515 -0.4943011075198206 -0.0696053499725435 ]
[ -0.0029496185055514932 0.1140239308279797 0.33762154215993845 0.4283489850838405 0.3572985341367089 -0.18242604377553837 -0.20502406306131912 0.13007075239139854 -0.15395218908407965 0.5193681642462294 -0.27094123746796905 -0.41247085374831416 0.28468362911084877 -0.045291123406133865 -0.24091888986073978 -0.15336065275541813 -0.1279798375986219 -0.02077325082267844 0.2077403605962689 -0.08908904640165298 ]
[ 0.03296157402470051 -0.007401573467530847 -0.0253220373803053 -0.09522544116442187 -0.13221263956493717 -0.02607057348517945 0.0673907067220211 -0.045992640443000915 0.16608688517871192 -0.17511054377193347 -0.10193707648026638 0.03248611082224137 0.10223731866964257 0.08025800127044443 -0.21018121944981563 0.01279305093597911 0.15550225941283416 0.25979661958125544 0.09274149579079449 -0.05106308790126972 ]
[ -0.1270877923289587 -0.06526057981010375 -0.15728287942251643 -0.3540163067371288 0.029730200407103873 -0.11687179942848037 0.2657386401231792 -0.09771351480317583 0.2604387014734787 -0.42663520979605135 0.06382247258573429 0.18116948733091356 -0.11272318322778548 0.1937002930095837 0.4337369891208166 0.07366206451918543 -0.10475323467543851 0.22103315956100145 0.11128429591620984 0.12076601846545312 ]
[ -0.3196703461409733 0.8150260587856414 -0.2746491909505193 0.27957248062576184 -0.2416695029967308 0.048758056222267004 0.11924974991135795 0.11670041693106595 0.7394536452475612 -0.5616257173739895 -0.17073523945876842 0.23869329883475207 0.05438213543747008 -0.2360347636191139 0.696896327261225 0.22315941292626695 -0.02248441253185729 -0.009972819490851546 0.21140882355285012 0.1111836163168542 ]
[ -0.0021567803095562097 -0.28162702937609824 0.5206423374567398 -0.09624200418808748 0.03364375216412802 -0.11208569436852464 -0.5984332105896984 -0.5672006291917984 -0.8290326893672874 0.7936301586267268 0.47422161356221093 0.5011819258314781 0.2230423902214273 -0.16784702559011289 -0.6777947249978393 -0.2908622763445331 0.04600642395716556 0.6026211675207794 -0.11964455213189609 0.33479274718449203 ]
[ 0.07437166928387619 0.22907964150460153 0.17041092405601915 0.10633576130007115 -0.058785280067383074 -0.3145200500850287 0.09680621957745125 -0.5894334783738188 -0.18105713257873968 0.3856365552841314 0.006686006913797733 0.251193318645989 -0.13106686332341555 0.30520209683633226 -0.15560342598005747 0.2726495589221433 0.04880047085592113 0.18374992221924616 0.06981934174632463 0.12316442846081202 ]
[ 0.15742965868818817 -0.3467183637043471 0.2202850364744948 -0.01620049961518075 -0.05319880428369182 -0.4443482704730033 -0.2764447222204996 0.25133745375737226 0.12961621362609382 0.642600034608356 -0.26149526629631525 0.12749966203933916 -0.041777580446980565 -0.020369871010459728 0.062493400380585346 -0.32231394041905254 0.019641662056525313 0.3090228409125864 0.3306814499771447 -0.35793283185952973 ]
[ 0.4688006571607332 0.23550519796592412 0.11797658335441819 0.2904284311189314 -0.009941461780515122 0.1292373966626754 -0.10184514085213632 0.1914033997566953 -0.30299079156749054 0.17338979975363775 -0.056094260659725156 -0.3244431176207397 -0.5559253183728783 0.13377377167588864 -0.08157757471274366 -0.060162716467232945 -0.19773637286306092 -0.020859138600530975 -0.11914760254802391 0.3542894606190422 ]
[ -0.34632791484947684 0.42617087616179344 -0.23805092890902343 -0.1851185653367452 -0.18071122191250505 0.02986027570842843 0.07479862238441937 -0.11285784060828671 0.047849069410719675 -0.2999520078486565 0.2522995930308612 0.054173858298019406 -0.07576574679484091 -0.13068676408994695 0.24793368130365673 0.28358807389884927 0.06021676631588146 -0.14212231509635265 0.23545160490737554 0.30325137264304797 ]
[ -0.2612508405655087 -0.3453778767305172 0.0001958730037845089 -0.5857891337375798 0.2145053833589832 -0.1703284129404973 -0.1831884253145489 0.22341708345277606 0.017244412728241044 -0.03204164681426595 0.026895452790780365 0.20992479827605875 -0.1147426369834483 -0.24945144316895645 0.013205543326237083 -0.15495016616996632 0.0770342550157005 -0.3334250105711322 -0.20985348912011711 -0.5979746226707775 ]
[ 0.023886918915439745 0.311020866411544 -0.26950074286237036 -0.6338789025863518 -0.25763669297690145 0.13887198456496475 0.33124606716757216 0.1870265389317703 -0.1273390809736609 -0.03720822170643333 -0.21015081410021377 0.12068176725636495 0.24368084730423265 0.03535455320868632 -0.12947747918720504 0.02890480948446514 -0.055820618716876116 0.21935014032898972 -0.12297839598142146 0.22271397908746737 ]
[ 0.02944262283184912 -0.3726011556799748 -0.29127917358591593 0.3096193225409067 -0.04142672902764143 -0.22240455376315482 -0.25576827091910775 0.08670652803547692 -0.012188292223712168 0.43723388984308004 0.20949333793406838 0.2239829588250578 -0.4188766055373808 -0.03802206931256965 -0.2310439985337564 0.051864558974702595 -0.020629143226009734 0.33300426614564854 0.06580283561933016 -0.4356944471167507 ]
[ -0.16461966154543412 -0.05566593690526411 0.08055221067380046 -0.1809417053463875 0.03315175710341148 0.2618738693529358 0.24242239886345973 0.21176149682265172 0.23679995142815732 -0.06422894387727363 0.034696793436885275 -0.22364278022098294 -0.19593082006340673 -0.17020520093411656 0.6142159288195624 -0.09291719898902485 -0.18735293107044476 0.07952574384203588 -0.1076560015767745 0.2283397282925747 ]
[ 0.0832681784053634 -0.2873114175056319 0.32309451292784896 -0.011329827081944441 0.10836676412866732 -0.1120211631238928 0.00833649492676091 0.20452190816171903 0.07016589614306133 -0.18959557929337387 -0.23055176565577254 0.16899676360257748 0.23990010723791774 -0.10701895509853775 -0.48669345825480564 -0.2495334585299962 0.13313366780977695 -0.23085260092087523 -0.32643833536560735 0.30586843194103014 ]
[ -0.1624059063391743 0.12241629955884822 -0.024075017806202116 -0.08691641158125851 -0.3484113705889911 -0.5100594552503984 0.039600356304356064 -0.04511260985691856 0.26924864526994446 -0.34677795499977415 0.219168079374679 -0.2512518064631701 0.032693773293479146 -0.03382738918973133 -0.026511297600230153 0.1679266808157647 -0.09859238816659543 -0.1538655981684729 -0.20660504002949903 0.02129671609593567 ]
[ -0.2149402514434916 -0.022961628338333758 -0.3522956385092472 0.13195427799302084 0.36000606453973927 0.23307260910053273 0.12153267839899129 -0.08108843998092437 0.09412665202139942 0.24326229363053192 -0.07939421366566074 0.32008305317823205 -0.018217986035000532 0.3125157384350039 -0.2220769974362187 0.0959209439093445 -0.14490163284162375 0.13361866025014485 0.23149382691943718 -0.2173450275168476 ]
[ -0.1166768142515431 -0.1584325728892803 -0.23974838459719802 0.03793849529088932 0.29060632465793357 -0.03671167946338178 0.07698987946354285 0.08387940166231223 -0.4329250622940029 0.29983810086938795 0.12242030274177032 0.32775299974951927 -0.1635948041799464 0.11160217976228676 0.1279066914578723 0.08141340305013482 -0.13748266471155965 0.35459305420491927 0.18216260331350442 -0.03790082244078246 ]
[ -0.029352391740069022 -0.11052167020996634 -0.25147573052478367 -0.4018518382982678 0.43311811732631994 0.06098146671308189 -0.34542767320941814 0.3808167813239406 -0.43565436010270514 0.6088659447666617 -0.31539531646156826 -0.33095078529495997 -0.09336938731003544 0.16086311879939702 -0.1489498626700705 0.40800579270605714 -0.07003365981826849 -0.29842036555202134 0.46064303879210367 -0.5125764237784458 ]
[ -0.014113223543063168 -0.017699949694487387 -0.17709565568739913 -0.1745045542485183 0.15406567493527443 0.01468513698757486 -0.11698073500304225 0.04329980455648805 -0.2974743652830266 0.5976955958682362 -0.07253089304948698 -0.08519967368359382 -0.0029463971242331146 -0.006529565762072658 0.017951883846046447 0.10031592582147934 -0.0196840705353096 -0.02125614607094213 0.2376823784345141 -0.15789877583146952 ]
layer 5 Activation
tanh
layer 6 Dense
20 1
[ -0.09268684586189868 ]
[ 0.2512576861915896 ]
[ -0.3028153713781962 ]
[ 0.25217858317114444 ]
[ 0.11461593377719205 ]
[ 0.00862234915733634 ]
[ 0.31028453632769887 ]
[ 0.16637007337231915 ]
[ 0.14628336970427153 ]
[ -0.5209705134855078 ]
[ -0.19260092923030658 ]
[ -0.25320166621954515 ]
[ -0.005603474879763001 ]
[ 0.021406890730438055 ]
[ 0.10085117861805398 ]
[ 0.2831978502441407 ]
[ -0.011199378808393154 ]
[ -0.10112841745426883 ]
[ 0.5851229204123836 ]
[ -0.3697438256466613 ]
[ 0.4126928473376806 ]
