layers 7
layer 0 Dense
20 20
[ 0.22113920947594873 0.24769889996038488 -0.017134616567542182 0.03457067592500499 -0.17811142492208104 -0.24741802845656785 -0.05547730444206874 -0.2904260470519339 0.42116456340367875 0.2806293394855975 0.05964548767756801 0.15622044091608756 0.0035591607323165334 0.17608840608382018 -0.18565394875737462 -0.2556693091450047 -0.25985050388424946 -0.1272811333399773 -0.26720138168224933 -0.2566625103316512 ]
[ 0.05876679573665779 -0.00720768192138565 0.19427488272178112 0.2051942896725332 -0.1280164438693119 -0.2940784356017482 -0.12036788135874237 0.22493569765795698 -0.0005586841085700783 -0.2138961093739536 0.37320913548417817 -0.16696392013607775 -0.33540329155419063 -0.3090760115387702 -0.2538014196746024 0.25310453452388515 0.13161066509958178 -0.007616863532014928 0.03265674199359645 -0.019512853552962395 ]
[ 0.32330163569112647 -0.10010173274591705 -0.1796975144980266 -0.03023396506630099 0.14220642570099631 -0.2371404988671942 0.31208284308425294 -0.1943950721784377 -0.31646167531943237 -0.1131591883646053 0.018969030042218733 -0.2676395946495481 -0.131780549787692 -0.36728988322381095 0.30111329659080377 0.14393547182572108 -0.14255130499072047 0.34286713096434196 -0.20390101915704037 -0.034459038573798575 ]
[ 0.40998565736378856 -0.2595171011998641 0.31572367492555947 -0.038032974554326436 -0.32429032094462473 0.32425994649683687 -0.21327419798424435 -0.21906986424404978 0.27938657318040233 -0.2539058257004554 0.028711472189086307 0.20320420516117377 -0.042170917998201725 -0.14357924783342962 0.22628158810896573 0.2808995492628438 -0.05585895744692139 0.4031043662143856 -0.00986363545797928 0.012035525272865898 ]
[ 0.38151178532839963 -0.15795319290503917 -0.20145249435899762 0.28565159551672 -0.5673459885101219 -0.8011746037311755 0.07529799374774658 -0.30225901481411155 0.17447400788623968 0.1806130215598407 0.14742495080019255 0.8159657782480431 -0.60422976933572 0.37160697535615855 -0.7519365195963389 0.46153177995915157 -0.39651733774647596 -0.30362824054806997 0.12381633235056809 0.15798242725198708 ]
[ 0.19668535126689662 -0.12597083736665038 0.10348639099383442 -0.0950796939985297 -0.028524130221835448 0.0645566126305707 -0.07554638449618593 -0.015634406557787736 0.14835797481136567 0.23177634164172725 0.310135721663449 0.25964151047819606 0.06049421738022241 0.09556842014249461 -0.1852787342851544 -0.35654951792375655 -0.25672122900735844 -0.003614254686759054 0.22296347199550753 0.2296720917548513 ]
[ 0.17684647059605227 -0.08547928276516031 0.30843790763580126 0.016982199097038134 0.3037083962772073 0.06035962699854754 0.13580587846248338 -0.29252164857805796 -0.13845668714447654 -0.221214957397315 -0.22818045843411033 -0.33700659397930116 0.07800322377396786 -0.32673143170151314 -0.23466144720566437 0.37705665166505853 -0.00930464545216797 0.22370457069903368 0.028061797226868246 0.301584109179623 ]
[ -0.19925624873731274 0.3193832376346603 0.31675259457531757 0.2662774402197375 0.4082780840609942 0.38473857213446677 0.055599935532977145 0.06663803771802476 -0.5908767673080472 0.12574099153139628 0.06941546104010542 0.3197498381232606 0.10272056434357063 0.30121160422731286 0.42455013138768044 0.367105820982374 -0.24674137551584738 0.22610634892773307 0.35321136077828774 -0.2714368663427248 ]
[ -0.1661504897624587 0.2710200440796054 0.04602250538043849 0.424866719455653 0.030982799435587353 -0.7260595010728133 0.27460857222923846 0.16328828350381158 -0.33623120594570993 -0.062366463601796755 -0.24119041417930273 0.8427192574452047 -0.5159627128943582 0.3189470305910728 0.2279576549754987 0.13663613308427994 -0.02598552051026104 -0.18845834788239735 0.02420436252781065 0.5361870627923137 ]
[ -0.8144742275780291 0.8208626057201147 0.025622231128463232 -0.7653261099173305 -0.11964376623604402 -0.1811849420825201 -0.5737514301139012 0.028920078855253013 0.22699488635384843 0.6170789797453031 -0.10655253837169316 -0.1825943254367365 -0.337920000725143 0.3102253717580029 -0.18465414507096625 -0.5651228159572844 -0.6600846087347966 0.26676500262753416 -0.0050277453210628735 -0.2054202677646022 ]
[ 0.19881388790850757 0.21363420458127477 -0.5028614813577904 -0.3245940867995025 0.2803885609182774 0.8297772457817976 0.5560224721810172 -0.5514228745948133 -0.036884676495638716 0.31744213181235154 -0.7392401239429857 -0.003710672786555424 -0.3950544330909382 -0.3996245504487425 0.12531672270952637 0.24717297838373656 -0.1513041861251051 0.09776194748969602 -0.12352638322883691 0.35516947670920296 ]
[ 0.12272426868585988 0.25730600085634026 0.43526120135831636 -0.2880528688431586 0.11248237377831402 0.22373712168308524 0.06108933552695798 -0.5294187932857187 -0.6781734263912308 -0.47302084614656464 -0.5513834200232136 0.19976870475821648 0.4401538379478953 -0.45789698075427576 -0.5552377039660118 -0.0264363430470838 -0.06800363847296531 -0.9547221999590916 -0.0387446362841195 0.1441633820951372 ]
[ 0.01655678966662498 0.040222160532642985 -0.20466097334890365 -0.17680855791227026 -0.3486451232687372 -0.48635572491973483 0.45030069581030724 0.3518187841406724 -0.20917313904093476 -0.22409793058896996 0.6076299707742155 0.30612122626681204 0.06994794222768674 -0.12385449119875153 -0.07280328905446189 0.5441438973761281 -0.3612463861497747 0.06282648866737656 -0.08212814512082191 0.37628184226880296 ]
[ 0.6899035524568691 -0.6903207742594901 -0.12020294307132086 0.5975108773912242 -0.06402090198701908 -0.1702873258406523 0.35645951553465727 -0.3599573103934571 0.031185664020534173 -0.7494820093884361 0.26198935652556526 -0.6072634659322916 -0.09859752023972554 -0.3212362027530737 -0.21628007111580483 0.7695244056127916 0.33272298033340375 -0.04566152971956103 0.3324109289874603 -0.22040772780749995 ]
[ 0.47343457473530476 0.33630422456030196 0.48713200596997086 0.6593228315158698 0.17106564927569032 -0.849059140662648 -0.24848923361530967 0.2120426018016035 0.2421023171700263 -0.5751057129391718 0.6131173925384213 0.06248749663965681 -0.005823748402617842 0.5374068900258804 0.44762683234310335 -0.6003156027234059 1.0074659197488758 -0.5964080845468062 0.31795808469034903 -0.2678829675057551 ]
[ -0.0603640799723955 -0.5457659441301747 0.6805878255822054 -0.5492473819779669 0.7323086605126606 0.09949686552251624 -0.07281746719729765 0.45427535816637343 -0.4271251863322757 -0.20152021120612026 -0.3027017646971871 0.09454795511772637 0.3385402601141064 0.5656859826182739 -0.18383105275710407 -0.18902713519886527 0.56536167319186 -1.209493952834161 0.7655398692431598 -0.04715347264020141 ]
[ 0.6013407572731746 -0.03024764147280022 -0.4278172879001577 -0.15466228934611845 0.294182488810487 -0.31778788281363557 -0.31481468226452053 0.2947825421468856 -0.4762475814111622 0.33628433991671225 0.19734793125282124 0.3289526001135081 0.029120215249429683 -0.8447636533056502 -0.5765502917255112 -0.39668224809639246 -0.35168084364848773 -0.43554680398852463 -0.4677669683518368 -0.4626686143477361 ]
[ 0.1466339785616402 -0.1427822988097265 0.24308317337633512 -0.0876299477719168 0.16741486229610728 -0.22880401048567345 0.2721895324406329 -0.037370093964845176 -0.48302120173920793 0.18227441736898395 0.25264804699629395 0.01600061690784483 0.02805459955269571 0.08009510342627688 -0.04507976374986392 -0.0645755611287564 -0.08886364678776244 0.20183700131789362 0.16671562322652167 0.04211057320740365 ]
[ 0.15234039997570326 -0.27988619636695006 -0.17450921899694705 -0.33970917585167576 0.1848360733625307 -0.2030320941686816 -0.5041692257607991 0.23433328824424035 -0.2065395670316882 -0.47805922541274626 0.45515584864834097 0.22540686337075128 -0.12858832330479814 0.18544261487370856 -0.0785929010031834 0.1005437593635259 -0.47047316036054493 -0.1483351612369771 0.009720665171176205 0.06611523621213784 ]
[ -0.46004326095024134 -0.18388336127117738 -0.18587803405439313 0.5411343008912313 -0.2724154215931471 -0.2381068964115335 0.2785820426442957 -0.13105503184716893 0.274333155589044 0.16972192239179207 0.7164002890343392 0.11279899906791921 0.5018299782879906 -0.036103081855153804 1.1426976099338833 0.02446593669294753 -0.10696554254312542 0.8661071459041295 -0.5383962577462454 -0.1636707846889892 ]
[ 0.10549478735167948 -0.03397629049452665 -0.03163593099997525 -0.09266679739192567 -0.08969967138220453 0.10841217033794695 -0.017623039552466177 -0.06984882940429789 0.25064684829154815 -0.089082355740974 -0.0011529304911827914 -0.21366809380486376 0.06291327980861532 -0.16336666170348063 -0.03825172659173668 -0.15443890681739522 0.0005341759472510723 0.0992274213950933 0.03105835910629692 -0.012404597312028288 ]
layer 1 Activation
tanh
layer 2 Dense
20 40
[ 0.2842925543265822 0.22550101189809224 -0.24893200983304942 -0.22872315270981294 -0.25255664011522366 0.013823310874327975 -0.15993418730166173 0.3723695699311444 -0.3753577127619859 0.3627476410501917 -0.14013501654065666 0.2360317184379651 0.06809436447761531 -0.11113321523171511 0.09747448957776414 -0.10482449493468146 -0.2958674724269788 -0.13969986949227708 0.11561923951580544 0.08741468664811979 0.668679769822848 0.28376608709505985 0.2567558857962889 -0.27816410585941914 0.07751290527630818 0.31988554690609317 -0.06784775141321223 0.05598931322837431 0.0417311474380676 0.29936497086869285 -0.11188304574145082 -0.9155502065547565 0.1369712459119039 -0.46314355241566457 -0.06110420352848311 -0.2438342072249723 0.1837020535561777 0.2988146131621804 0.07017024279799353 0.5324967420489872 ]
[ -0.18196074151298142 -0.07219631778100713 -0.3945305229954025 -0.20064322025034081 -0.24378543069701386 0.2878140070984593 -0.10392648507470036 -0.31239478952458344 0.09646565266073388 -0.09022270228767047 -0.11562115078140343 -0.1678599213138682 -0.24323111193310218 0.33727420517609347 0.2574729584820671 0.052398336881657834 -0.3371594722604229 0.08638576704892006 0.19602008708704513 0.20418886550561038 -0.7268049484933758 -0.21270223054457282 0.03452974597484481 0.07524392221113452 0.32128855254428196 0.19375257490982134 0.036773351689187855 0.42118235405301907 0.01790399028877307 -0.11718734142656348 0.03337209984717668 0.7075071633851121 -0.20723971213215958 0.621774527811013 0.26231513519823596 -0.33241891873164875 -0.31396384899290564 0.15324023392652036 -0.23464047761327902 -0.71950628384913 ]
[ 0.17344334996626506 -0.11623134919759964 -0.4522839794302984 -0.028762178410311312 -0.09251123130599181 -0.07479857641842023 -0.0444403997299186 -0.3100229868342319 -0.2678932802616372 0.025381819901305513 0.2766572740682708 -0.07687876285584293 0.1768866802554888 0.19000343117447394 -0.03160237484763639 0.3326863735928706 -0.03609765184031594 0.2968896553991922 0.25839104047759326 0.1949317353270605 0.07732820283878966 0.3611432251068631 0.3036531330588818 -0.19543981239615538 -0.02471788891496472 0.15439433059097873 0.14919460072603968 -0.186304912193223 0.17242896073074673 -0.05203087170504666 -0.1107513898664344 0.19576436899819902 0.002902141162322617 -0.19725653528854095 -0.46049011447275445 -0.10444879711786005 -0.03741595831375191 0.12288243363072954 0.2124821767526552 -0.19006433563950081 ]
[ 0.36066399216497647 0.6199843043563695 -0.15578206929570795 -0.18181704460359935 -0.29702615912478525 -0.48920958635756406 0.1928054516564581 -0.24703345066630003 -0.2724710469984462 0.3383700794277361 -0.4813419732571346 0.06651498874338015 -0.35298852050051194 -0.022425326603126933 -0.27354619921419276 -0.02968970748776762 0.11129885749857264 0.3429465652826803 0.2440841575113403 0.3577879482606545 0.11437771786062413 0.20736801808007246 -0.4743874418909219 -0.605985432426051 -0.08567722598998469 0.06415310766596251 -0.368562470375684 -0.41592113322150054 0.1775135321567233 0.1459973935547256 -0.21465339686841992 0.20879133704817626 -0.03895117687983491 0.021914477234307738 0.3374934167872254 0.17291520966426258 -0.17365656104886562 -0.11097248450493213 0.15541729166743234 -0.07312821711605215 ]
[ -0.20246960111133055 -0.2822819990264202 -0.34244370077126923 0.014440273644486006 0.156810379763716 0.3097377537325933 0.0819607632591556 -0.0074355008455611205 -0.07926007043140142 -0.1365024301955414 -0.05790939683036225 -0.15021256595025778 -0.03785825580387638 -0.27111054094060877 0.14298055173079213 0.3115096557121706 0.3323776667312113 -0.11936709288838963 0.13962745616145747 -0.0372626680597045 0.0396463896361263 -0.21149186555244268 0.16915459620461448 -0.14646066123737086 0.05815424561927969 -0.014925146255432079 0.1078903911386948 0.13895453386678497 -0.2920628558953813 0.2770248019052728 0.22003270915194922 -0.20440781946350567 -0.11940255333378219 -0.10869997569836197 0.24400702104026342 -0.08821219536961751 -0.2236235527892746 0.05945542980035579 -0.19267328134103595 -0.044245755937753546 ]
[ -0.13037275014644753 -0.601417945252913 0.10170395187787279 0.16821278629379183 0.05059247246210978 -0.15064707221331888 -0.016087351205224483 0.12600826696243872 -0.04487382640826586 -0.4722227489011851 0.2705889697729967 0.06469664797356318 0.21981038459445662 -0.08173798970385275 -0.3620874195217469 0.2419309502697134 0.11949387152511504 0.32995982695171505 0.05658599480729505 -0.4341818700789741 0.25924530174955257 -0.48442609984393414 -0.06607664943008867 0.22267017898526117 -0.17303801946451272 0.2574038409546374 0.26544948124808937 0.13950592274429788 -0.10565664557633941 -0.23844620106353034 0.23130891372344176 -0.3070090837862986 0.17379467899177475 -0.17427694278614514 0.17955018917321677 -0.33635035055096146 0.2128040907218374 0.0769121807548445 -0.4195401108386028 0.09358561195412343 ]
[ 0.4815544596609063 0.27914864643720266 -0.0016396272102687278 0.3538732370627858 0.022536288039983657 -0.28154640609952497 -0.10331810082449058 0.04374356131109651 -0.27776025288376843 -0.03338008003283738 -0.14139713762301553 0.34708591910975706 -0.20723039203525198 0.27754047392054915 0.20260904998633744 -0.3005082695980703 -0.14591769408885075 0.21181632225702873 -0.01752898200503909 0.011038801766980482 -0.2362875915047609 0.0978295441695421 -1.0853961605990479 0.17085946612505573 -0.027083602010641188 -0.2713346211194499 -0.43792020968856094 0.1589634556220181 0.17178236070342073 -0.21257061045832523 -0.11477277617383193 -0.1524034769703434 -0.10511987098312069 -0.353532503423734 0.3911598260479269 -0.16647760115005142 0.01684151122807392 -0.2729940525008097 -0.3741842471714438 -0.31717297998208344 ]
[ -0.035942056897319476 0.2348723541269622 -0.018082572966476387 -0.27742567305895816 0.21709733554880334 0.01145535973392827 0.09523651776783355 0.257458347005785 0.12979527560859053 0.21942400735547515 0.1341043067604796 0.06218519492764973 -0.05992982630499136 0.2047184454165984 0.13176455349331556 0.1174621373894196 0.1181697992413567 0.029289260100182957 0.1789958312479857 0.5655330409848699 0.20186040263671812 0.3831343183618491 0.3317098584506755 -0.22087955911171359 -0.05594617818201943 -0.15128293580400312 -0.014416183926072397 -0.3226612130030294 0.12376606105820627 0.20115757986767427 -0.13633636206471533 0.3049062450252664 0.22568212083761352 0.32326641743654244 -0.4547471069251433 0.13771692224422458 -0.23875606703382143 -0.10762317125707484 0.31351096075862966 -0.11096016465493744 ]
[ -0.026732500503841627 -0.0438691566340288 -0.04199810842515277 0.09997071377209543 0.18940265117776223 0.13643219009080287 -0.3085122969131564 -0.20133885654595784 0.16605755639053618 -0.13374636421875705 -0.029444591888274196 0.059490531740766045 0.022086753515465365 0.033410913063876266 -0.06071284487778156 0.05517089661005118 0.23219615397315246 -0.046994765110210925 0.29402013926771864 0.4539639936201402 -0.32325269724870664 0.16204410818811757 -0.0782858047479816 -0.22227827518671023 -0.16557938558413007 0.04131661567141786 0.07750887963178198 -0.4352130087996948 0.18361759332081337 -0.4343777810667002 0.003599420303195247 0.41921903863299675 0.1575987232759321 0.34740886856590514 -0.16557994819445565 -0.10631855441855122 -0.09833056343435734 0.11180600251993655 0.051569146993185024 -0.009556524508422004 ]
[ -0.3233243923817102 -0.24065733432402198 0.27625190357945617 -0.14255225654692866 0.1572875891693411 -0.10392764026466161 0.1397102631114133 -0.21841296559534676 0.4046701281672149 -0.21846803894882363 0.3860681028766233 0.06717116946141473 -0.24192172467603607 -0.0245151809230212 0.02451161510450676 0.21464917420059473 0.20252172615581743 0.018631490443560255 -0.05646663230051434 -0.04940354244854095 -0.648353428231631 -0.1303915379699708 -0.3044503284199211 0.22288877950282854 0.045384872060694616 0.10224409773514692 -0.1897684106499287 0.6085708157013456 0.22681387168952727 0.0917739432779415 0.15712177395728613 0.49073543841573036 0.13856213578221124 0.4269156422786419 0.47012818257099714 0.3120071694908011 -0.23021158884503692 0.2797286075385218 -0.23772584024518703 -0.6233156577158451 ]
[ 0.029232573932733447 0.4474987686643631 0.11817658892600764 -0.2819369440528688 -0.24910961080144156 -0.38627575621971116 -0.15002746475440315 -0.1767817575239201 -0.2486387958820834 0.03620544567002739 -0.38515759641651065 0.017030624663106595 -0.2401509992568015 0.15588837848263348 -0.30678218718926326 0.0938806697186213 0.22499287400008544 0.30346710204796296 0.15826190029585077 0.045623281319791376 -0.3089795061988716 0.24565669736361473 0.4757368620166438 -0.32230212623893434 -0.002799108145703957 -0.22401710872736844 0.04075229709082247 -0.3611363021229366 -0.24736497934416962 0.038748796541760146 -0.27321557937022317 0.003682917857362707 0.1752763209377547 -0.10880422372730109 -0.12092567709889732 0.2980188979331593 0.1466234058655101 -0.112775108360711 0.3376695181018453 0.25203285374671686 ]
[ -0.037140633348242386 0.15949206326286758 0.059963611259527656 0.06903523909768026 0.3054020762504728 -0.04782640718600924 -0.1819470206741934 0.1412888384343678 -0.011517816265380466 0.4228550216882539 -0.35292539592104744 0.04883926783869263 0.35083029384377956 -0.018697710590418613 0.38730358523006136 -0.2254078409972182 -0.10283160842900557 -0.2367928806140979 -0.5462641749823964 0.5214589577723122 0.2930313099927074 -0.26118364068035427 0.0332096544614448 0.1598226820365755 -0.19792546056388252 0.14370742410281098 0.22366363501191763 0.03676993460046758 0.03173743960155838 0.005232840101937557 0.30892224311313315 0.35119934545816234 -0.0819064201577358 0.3299132771825641 0.26808766350415664 0.05389631269092336 -0.0907415457593062 0.03201056342949535 -0.1473077081502275 -0.6345653924520952 ]
[ 0.28035910615643855 -0.12538233416206213 -0.21566427994140708 0.025518329005221975 0.003092757673804189 -0.11550899483498603 0.12714022475696032 -0.10740647157910874 -0.3891240628968979 -0.23393634115949 0.1767992452777817 -0.21709587170174507 0.0038333847316543157 -0.13945213594864192 -0.04884774743706091 0.056871319707405076 0.21208358589665846 0.1031372709101086 -0.10347752814190046 0.27667050313916314 0.15896583883350904 -0.2138599812756496 0.2521936961547538 -0.25934912560493606 -0.06897780059345003 0.14131675316505923 -0.1365633871258151 -0.197800792990997 -0.05420387091145738 -0.2771408204779246 -0.0325997728558697 -0.22470435467561642 -0.06721521028003531 -0.40534908423051264 -0.15889009190605322 -0.26691882525362487 0.05878506709808033 0.22695275795284195 -0.28736207778420164 0.048265703227068586 ]
[ -0.02858876573669343 -0.08653370215652123 -0.5199787193772906 0.17430839493259767 0.2765078620780674 0.0740611122048563 0.008777317845957353 -0.016661956266311503 -0.14996299079163894 -0.10503879750548509 0.17768589339471275 -0.05735115248755017 0.10575036448405589 -0.09039381274667639 0.2864870263500043 0.32727148519946436 0.4661887980867042 -0.09605753587757453 -0.18543277290819543 0.7018916556434495 0.17314687135582751 0.04732614239989781 0.2357008966342747 0.058035344262713916 0.06723236121197378 0.10140012691176709 0.025450697977472403 -0.5597316796282924 0.006398528897219275 0.067358780775523 0.012620291431482767 0.711929181399251 -0.017723060474645294 -0.015792142289830183 -0.5106055871628898 0.32561073134420615 -0.18835208154477742 0.22317770409898455 -0.08988893953788503 -0.2478174168445296 ]
[ -0.24870453449043609 0.19046380774793054 0.1038885882926797 0.23005315710148583 -0.11543804745177669 -0.2307772839364209 0.1883377216683705 -0.47785294338170275 -0.5275025100823204 0.1364191819183928 0.0911025240896283 -0.0013134853786038727 0.13949543733774092 -0.019825080119353754 0.0385775364385383 0.48872797027649545 0.33961200190933843 0.5586021497476159 -0.12945081481422976 -0.10250511080968625 -0.10008456235931651 0.16320668870850094 -0.3983740448999181 -0.3581929048624369 -0.011690990538161014 0.06938324851417815 -0.23333358235184062 -0.3180677642309371 -0.04988943515352558 -0.227109859890049 0.014200921942744357 0.26196737130095193 0.29367100636566806 0.16281613324336236 0.03428927885957122 0.2692791522437562 -0.08744669670740281 -0.18033038285264844 0.0987122224341562 0.17837632011475146 ]
[ -0.07087939056623377 -0.30921283014459694 0.15908407334808256 0.35412836856645524 -0.3232036801928406 0.40583722063163047 -0.42819547759877813 0.01628760171259978 -0.0975665276556514 -0.08772988612766297 -0.5209530851469878 -0.010893843200713052 -0.009864919272829092 -0.22190149285328828 -0.3712392005236517 0.10399519118972195 0.3241345078439201 0.53844762319344 -0.012410671016883137 0.09963453742008742 0.21690917869111764 0.34567972322356344 -1.3230986175359691 0.1602413278674047 -0.10703016475501828 0.11844116742802178 0.1258306490771344 -0.5714971766363562 0.046227835477426975 -0.23185765303797165 0.08617467572692146 -0.00480141206396156 0.20699879414274772 0.091395490897568 -0.051525444879708684 -0.016626369560798587 -0.08807236470307671 -0.6202132638266077 -0.08372326348201248 -0.18467327561224592 ]
[ -0.047417036483042414 0.5797183341338087 -0.3570073002276613 -0.26659862840536086 -0.19885759898777441 0.09152746067002172 -0.053767959970262305 0.01562754601386495 -0.30096884973707316 0.2260682641215682 0.11169694269618625 -0.1331157019514563 -0.04470887847375461 0.13399732982475224 0.48131987557386297 0.0059256055341725105 0.2913510118974342 -0.27406753996984184 0.34746765652449596 -0.03701789619720672 -0.24244437654445322 0.33511667402847284 0.014363548794550155 -0.23370555016178413 0.12787217320961433 0.3103883083276232 0.2742273100761256 -0.3493302424877325 -0.35252336379771715 -0.008030361214930774 0.1962890926289201 -0.3491841495377516 0.3187951613615431 -0.10124057444292384 0.028419147598120455 0.03773018687590198 -0.11363864985324447 -0.013554473957056995 0.20729316536872958 0.09045844040289926 ]
[ 0.4913614243628761 0.2123963589943881 0.6009645336525187 -0.16639943669375304 -0.37354190264655673 -0.1484655446095584 -0.16468120729965818 0.0005325190524243912 -0.4190175474503393 0.036595394547346664 0.372059532449396 0.5144599255581119 -0.05682559202526976 0.15882649095502072 0.06869643955047595 -0.017673724543081925 0.39886156287913616 0.5152784250701211 -0.6014527647556464 -0.42938623116784796 -0.1900526085316703 -0.10399555647259517 -0.25438726310352033 0.281039507408849 0.11299453220753014 -0.16746862815280003 -0.1734179169650063 0.19795853119782128 -0.014715628046782255 -0.3801470585143942 -0.2002379047615256 0.09557599787236486 0.40943288108434595 -0.2425334417195698 0.3902787554690593 0.24261560153631304 -0.08709815457724703 -0.22796531959925767 -0.13186409561540618 0.22779918451426973 ]
[ -0.20236024933305286 -0.0013627167960327067 -0.5006705550141036 0.2838110304354677 0.27345038590109977 0.20344198447289152 0.252656752596362 0.2952332072514405 -0.10336839354107445 -0.08532890220206231 -0.07848887574282468 0.08797987267561536 -0.007000984594867615 0.013164468833098053 -0.08775864217203623 0.011505260863760065 -0.25954383423523025 0.01843167893062168 0.14211781305171484 0.07209375717869018 0.15704909399791273 -0.13711864898411127 -0.5922622679644516 -0.22034812739855208 0.21185404353234966 0.23857269123963268 -0.21976371928789556 0.0984186843583828 -0.20956028069611748 -0.09818575763693807 -0.2572370048746997 0.3419719654836142 0.2534160508750218 0.011013988431450426 -0.37054208536620636 0.11306161380609678 -0.01695051216658627 0.024093163717809153 0.10717970974562764 -0.01640366947579559 ]
[ 0.09116328620799179 -0.06576549762809412 0.3503108335436218 0.3356843925322702 0.021081549417820325 0.29145734764627035 -0.011579347243909235 -0.13057073528804988 0.19883421890248465 0.320087619397002 0.1736909455934301 -0.008417251176467796 0.3440511696016867 0.07831335229068118 0.0016000608925189179 -0.003409880760821242 -0.19522182625922616 -0.08794319224377548 -0.4429225346853251 -0.34258598790412753 0.2197554153974271 -0.010271805608905308 -0.31258609739500254 -0.13690306042117933 -0.2843489277817661 -0.02177139775214126 0.12520779563203477 0.005371089808785678 0.07014151391730121 -0.23135598157333692 -0.3431018028438635 0.12161525760246898 -0.00282341401809436 -0.09350125197281232 0.051414529014157016 0.24416235667279965 0.2011106571847811 -0.28408824877269945 -0.05949225263101722 -0.320546148562771 ]
[ 0.08054310237346926 -0.017345569924400814 0.10726262154479722 0.01646045330789365 0.03173899168258813 0.03064279062284592 0.02352524664213434 -0.05481497764054167 0.038250865350689986 -0.05143345400951484 -0.0030220409091488527 0.05285738693364855 0.06997596829963107 -0.009344996026139715 -0.09513630464421283 -0.01622483814643399 0.029250135994233244 -0.10484582110798782 -0.10258507936513266 -0.09401727741549602 0.15630790927272073 -0.021666715868619894 0.26074872478988415 0.14759502869458097 -0.055337479682126864 0.05401314237511498 0.011557934126420599 -0.06775169068574535 -0.009018290989877496 -0.11662912428208494 0.015484181602042285 -0.12083524972960386 0.10471921398063247 -0.08696457571510875 -0.060741789141363946 0.04107827391052333 0.08784846586119163 0.020798630993079353 0.06979323118548107 0.21631073518363098 ]
layer 3 Activation
tanh
layer 4 Dense
40 20
[ 0.19844681991612376 0.15836415493189185 -0.06681116815624469 0.08017238905178643 -0.2629712266189545 -0.24778896500983172 -0.1660011885813176 0.26792770899511736 0.0068050541641097 0.09061727319537669 -0.22601382241092308 -0.29939211751675515 -0.20412901107673964 0.32358763167630433 -0.06576022848575072 0.10996542175054465 -0.1301000502800508 0.08724084751656125 -0.27321474271988083 0.1470456430408416 ]
[ -0.2974321856625038 -0.14816245451043922 -0.27695448458062094 -0.30548111156499497 -0.17895339492646842 0.27247220973980507 -0.22094187378186786 -0.11854525951132881 -0.004893947672331154 0.3217636400220943 0.09229483180286478 -0.16035654300223454 -0.07037738008580717 -0.18538382734291695 0.00510368015799868 0.2794827097856128 -0.2023044450930316 0.24095079806055522 -0.4051717466099081 -0.17061544861419678 ]
[ 0.11813377346334583 -0.04730657198039731 0.0835172771528283 0.4096778347466545 0.07900287952611729 0.20803501058873655 0.17200695734070492 -0.04698947608334299 0.033578407363008295 -0.12127493805489771 -0.18308038977037103 -0.2360942976672144 0.013916026589802701 -0.05700299266556577 -0.001992984576627788 -0.1975208552956962 0.24758965418309428 -0.2751723238366019 0.0344923852992096 0.3428267423362098 ]
[ -0.0015761180181818179 0.25460133196899565 -0.32682670980125866 0.17299270602571382 0.35878613994631664 -0.030224033624298752 -0.10257010793369287 0.18349718081851707 -0.23750150443802132 -0.19951739392896436 -0.26264655718310564 0.2527695783969038 -0.004221442227930426 -0.052956271198696905 -0.0003806340798503657 0.11529140673875653 0.07877656604820446 0.32156486902695863 0.030559483723185565 0.18977038788838907 ]
[ -0.1854543683925317 0.06823962390104521 0.05205085337494268 0.023760879320615408 0.032501010976183936 -0.06274054888949551 0.1659355523973261 0.16902830518393383 0.2602407377867682 0.3031212237469495 0.13722154572948075 0.06974904939849598 0.21475511703056605 0.18265629398443844 0.12532522221241063 0.02293614475734424 -0.0643568226531958 0.1585075750683751 -0.11961665647634634 0.24309663928147807 ]
[ 0.16528859926621617 -0.2693542573636226 0.18964124985117997 0.06435869627843537 0.07785907034076409 0.2160590382240565 0.178853141386908 0.2020517291935892 0.2563212563115208 -0.02447484816788967 -0.1212433850311775 0.300875373258269 0.36656554181577905 -0.047538558722355226 -0.10397543613758314 0.052838668656047326 0.33280268441375405 0.22664007065936645 0.2294537478110778 0.13432291731180906 ]
[ 0.1159856731550703 -0.08758491168443966 0.23642288050140306 -0.10267959707862455 -0.03809632116593139 -0.0043387682143959565 0.2217420464031791 -0.04150942537114166 0.026330118679482057 -0.0859487828797557 0.2720434671348811 0.043713308118980415 -0.07739024774474813 0.17800058357789386 -0.26531254061744053 0.027257536680772573 -0.25730418995725707 -0.012561425772749435 -0.1057385323493763 -0.09506091639274208 ]
[ 0.0654295153201472 -0.13438915601452459 -0.14446843916281843 0.12109903911860717 0.05878194506401019 -0.02268314817124403 0.22451202914673216 0.050764273300771254 -0.23083826097260624 0.22319870308980538 -0.2213319496076151 -0.19612824453885902 0.2970283769761751 0.13848485150523296 -0.13296347896588376 0.15398523496566144 -0.21345576095115432 -0.059158355467341266 -0.04712663100624309 0.28445022399613745 ]
[ 0.17192760325297762 0.19895806393245666 -0.15562661435249844 0.1167137953404435 0.12309367456323723 -0.11329506384164201 0.17941734108005067 0.09990494440363375 -0.08019195654561849 0.3214830974048618 -0.0781933195110004 0.3230936101351109 0.3530650341648566 0.30519616715943054 0.13654555985629171 -0.20339484460884466 0.25935330118261457 -0.13351401259432477 0.23539854953016878 0.04388286002735218 ]
[ 0.25701603950070406 -0.00014956449875407616 0.24371526583045688 -0.23708945657114522 0.08196621053606838 -0.1862182489033337 -0.08920973735224577 -0.12121145516353858 0.03195778751124903 0.30968005699622664 0.23804666059338392 -0.30449745504026227 0.1810485985143629 -0.18841733247703865 -0.0017160418778423268 -0.24364378924482105 -0.17353582493294417 0.15242662375835211 -0.22379024969230993 -0.2657159264627148 ]
[ 0.14770043741993824 0.09107218585619427 -0.1667125542334274 -0.2263912513021246 0.1742013560446058 0.17807480636292614 0.3272180976680293 0.19804430058159034 0.25077568458151483 -0.4268399843153284 0.006513369256191466 -0.0010897147099083056 -0.00417004786884662 0.07204239150347629 -0.07581559818001612 -0.04229097266042185 -0.2958921362512568 -0.17701841438178567 -0.07911339257120908 0.3047564122719697 ]
[ -0.16672443054008593 0.23956814869445603 -0.13871913503422298 -0.017848126724552202 -0.22276061785123663 0.15128735827936896 0.10650063063205252 0.012316615892533697 0.0648863060746623 0.08708299008383528 0.3756866329750077 -0.4860755203156499 -0.1553923431205402 -0.09793505265028855 0.06545119113695969 -0.16088143026682528 0.12200725580244128 0.08140376874673382 -0.21506827079714153 0.23613339495198182 ]
[ -0.0039726749852644315 0.2509400600669319 -0.2752897281101401 0.22553676230523914 0.17510423394147187 -0.2930227627135181 -0.04115467670401911 0.2993686643963357 -0.35020354485291344 -0.31973746624010957 -0.1041107572182367 -0.2354452152907188 0.3219779774363181 0.13461911916374894 0.0955373304263923 0.30346631886640113 -0.06186839799101519 -0.16165890088640783 0.19297338799876668 -0.1489213816409501 ]
[ -0.19180677316644165 0.043200960534844485 -0.393942630450029 -0.28956035898359783 0.03321748196870523 0.10123078832071455 -0.15040537993244546 0.06938676893886447 0.12960181526830702 0.12014954822874466 -0.24288827151859285 -0.05167869260557731 -0.029582172858021057 -0.16999974233369194 0.020150973897731142 0.3218574324155951 0.0681299789287527 -0.24711123439964913 -0.07277846325655984 -0.15897288841377477 ]
[ -0.10983772819591335 0.21404331781357264 -0.17273523862148946 -0.3220986970448524 -0.002035364765779985 0.24846998285767374 0.24300030057937005 0.25692508790286017 -0.2626576761526694 0.25552501002603895 -0.18593363853611594 -0.010099266545918 0.20636961916612362 -0.2945866367930612 0.04470614071764613 0.1289643595183386 0.21297351474960594 0.26468916889424116 -0.23162211454061113 -0.11928300966803104 ]
[ -0.3466801175977043 -0.2605964585459443 -0.014729206822082464 -0.07974854469272845 0.25987516536814964 -0.07171241269562506 -0.21077891860852865 -0.0658685632197417 0.08175120938964349 -0.4630123865012594 -0.09073996045544362 0.3029647445409249 -0.22500730418192447 0.17211932540523342 0.034614067584396994 -0.22352523603848568 -0.1657394972910438 -0.18706632189069058 -0.0016676719906671847 -0.04741484205923522 ]
[ -0.39588275266228423 -0.1179260494944692 0.3470618948752892 -0.012286381045892195 0.14430666315333215 -0.11588333569913821 -0.22473633326498843 0.24061065130260212 0.030788732940652454 -0.4653692471657021 0.13285952709145643 0.14042421298915367 -0.419529604955389 -0.24808590081471257 0.01341341479587756 0.20520573716108959 -0.2244081598369063 0.23601870140554831 -0.09547148266663325 -0.03538842050523888 ]
[ -0.24029355857845364 0.2678067525485111 -0.11677224639541088 0.3061309961616796 0.2804277463575454 -0.14856194165069841 0.1652894876883319 -0.46549552314040105 -0.009470979110861593 -0.30599825181661217 0.15313329236324646 -0.21510964291184262 0.0306512063436305 0.018537232093637394 -0.10957051582211275 0.10586437496283664 0.17637912211840806 0.32783122605578224 -0.07506711665647021 -0.21464156111608834 ]
[ -0.049599492063968055 -0.028349886712959453 -0.1087274090483748 -0.16766436023134693 -0.3962608194469723 -0.24723176199297558 -0.23085147168885303 -0.33643395582869295 -0.1943982085373554 -0.279761864817159 0.038550468359781584 0.11539991378892842 0.027833038019171818 -0.07496596580038492 0.09349542918295475 0.36301806735908065 -0.06576599086256235 0.2772340869841143 0.22617564690187633 -0.22579401862544407 ]
[ 0.08094399457449225 0.008719038042757766 -0.17289736100751435 -0.26626903913364885 0.11426261833466672 0.08953592834161435 -0.1295514067737621 -0.17565098229201895 0.11589989903894465 0.4053221092368922 -0.0663355890938344 -0.016307611967339635 0.18493714935295658 -0.24366669769829236 -0.038791931762056225 0.10487483166730488 0.09509002518159733 0.4580671758611634 -0.17380385336445273 -0.19438841639088703 ]
[ 0.3299007976645366 0.16321608981957686 0.29129253567215696 0.2346735787196293 0.03198748800992062 0.09583266011358957 0.20167982597324327 -0.11665273466017806 -0.15021789019536494 -0.26602646861462775 0.25581481731871164 -0.3095826965416179 0.056995452367659065 -0.115893987019022 -0.014373725694293682 0.19383577315001949 -0.30119434381447024 0.24928727387669752 0.20215596209911543 -0.21640700918627262 ]
[ 0.13043910365799966 -0.21142322892301585 0.03552098800352823 -0.016291599354668968 -0.14730548421581202 0.19186732448348431 -0.1863371339638061 0.2159790587799856 0.2725557616318687 -0.13230989077336888 -0.1279313889523564 -0.13632174050309065 0.1917579847798227 0.058841599289645455 -0.3175652859985147 0.13098621766472215 -0.0796874559209782 0.20695616780792894 0.021241331386158663 -0.1720550923970454 ]
[ -0.21636772132390356 0.1883128689366507 -0.3795065606641685 -0.2062703131984913 -0.3951410161926258 0.06666373857390706 0.32078499143009404 0.19916308870508234 0.11764294032333432 -0.1464901987262473 -0.0547087371239006 0.1582609611520828 0.22638493179380156 -0.24915530731243316 0.1178113863238887 0.35495628091501463 -0.2614482889125699 -0.4436995750061254 0.10390532646591771 -0.2055321055784641 ]
[ 0.326240396216106 0.09691226933943765 -0.26628610396062274 0.09269829664926418 0.29272019340223104 0.1816027427232121 0.2911731290504775 0.18369610722783541 0.15592692476560374 0.13998448094056842 0.23071833338962577 0.11093757641631732 0.038339860420959805 -0.21385756863863337 -0.21427217518594968 0.1862048026981173 0.3575223667900294 -0.19746553746212944 0.15307709031872677 0.19318856858991665 ]
[ 0.12245709865172666 0.10572196837360674 -0.030772515978813943 -0.1800679262266502 -0.008571017901719564 -0.3109440998225954 0.007114938009980752 -0.04597936187536704 -0.2182376784235743 -0.19567049405080697 -0.03641293152329569 0.3516881061761349 -0.11658831499461295 -0.20088802937831973 -0.4058845575253066 -0.03537173693385962 0.21213327403803714 -0.16127915239941207 0.13279714158702263 -0.2100839482131934 ]
[ 0.13876745426213963 -0.2977385398640461 0.1831117050682736 -0.20902110572173063 -0.16384996948654998 0.1660925717499568 0.19244227519938478 0.30536844272594066 0.23667700945426617 -0.31706743332554516 -0.21050001917365677 -0.008816363539394845 -0.02043693806470938 0.045166388712564114 -0.16159199715327235 -0.02154156514402529 0.2993859495977472 0.2528679183886955 0.22101539735266298 -0.004461727553771596 ]
[ 0.07109935931135239 -0.16654687345786695 -0.005055899199831518 0.1945863396548363 -0.19638061037943094 0.07425061832181958 0.26191306776438633 0.08493443517459658 -0.1548281109175604 -0.14993118172294642 0.14184854621202075 -0.06996635495488633 0.13054630600214104 -0.24073289366000974 -0.03479249929082333 0.07528678292402119 0.1504231288043198 -0.11821736688731851 0.37124873406023945 -0.08423092307440773 ]
[ 0.154377494319878 0.13413880323439104 0.13821919461527235 0.043429257312311925 -0.016176577724780244 -0.1983207476260058 0.3170415278840073 -0.15803994460975263 0.1507084478985267 -0.25406321227463907 -0.13793505826558544 -0.26725520985237256 0.06241395985968904 0.15530339696490975 -0.08122954255821481 -0.17712145450941758 0.3768371139555604 -0.4234836673243884 -0.32943038890270965 0.1989462401678745 ]
[ -0.14918248883092292 0.11579609764383407 -0.05437576268453639 -0.03499574534044745 0.2746443537864417 -0.17609631741765774 -0.08493267509363449 -0.19078180777737078 -0.26812996555606167 0.31801173553595674 -0.046761584930844764 -0.16838112061217883 0.06403343865541862 -0.08257941563140678 0.023237868341282036 -0.06199385997194717 -0.026248439311519628 -0.2361642402763456 0.07394332796203701 0.06818788172519746 ]
[ -0.08633676035310985 -0.22477428543100944 0.12909751443177303 -0.1467679815393975 -0.20769882378560364 -0.20438659182504942 -0.13788880938738157 -0.10652028516889016 0.0816931068231601 -0.07744931339150747 0.14018664619209303 -0.12863158671704258 0.34535196998915946 -0.044512468183425996 -0.0856737996625141 -0.12973917667726922 -0.04527627743933996 -0.0349175929453418 -0.16885025678331508 -0.011396553107132452 ]
[ 0.2178071724974631 0.18888074677472394 -0.11745625432812352 -0.10234073481522771 0.18486876583596015 -0.23945181868731194 -0.03418603724767341 -0.1997997336649054 0.0829010365127137 -0.21518608243711476 -0.026661811267687345 0.0017174177610963257 0.015589041375299517 0.13672443369542128 0.03152451501705998 0.049416658368063436 0.2389887556876689 -0.122111917630726 0.24079833284016236 -0.05705474069199362 ]
[ -0.4681164260249625 -0.029045754029843385 0.38596821399779313 0.20552263147210958 0.5073955280102915 -0.1805781296862642 -0.34602705199959927 -0.07329899686831877 0.13022001355679685 0.14637671120490114 -0.283906783717311 0.08299814440068778 -0.30287207266182736 0.018824956909821392 -0.17997263704653343 -0.29928030513519877 0.46095902484961737 0.3080552608561806 -0.2394009321747248 -0.5152559075596994 ]
[ -0.014485975847097552 -0.19745312645267066 0.1410140699601648 -0.08158021809969261 -0.04101958188521637 -0.08276143600102541 0.3067829723459189 0.13854315485043361 0.07212566926747077 -0.13452657551952554 -0.10847114411071763 -0.05249350486356882 -0.26840835412600056 -0.10946168929888378 0.12525008839966545 0.2163083762397543 -0.009418445802903666 0.25379993133390183 0.01563205031949961 -0.028258205806886393 ]
[ -0.2258344064890903 -0.14201224754141245 0.208066319419648 -0.05085048129127121 0.22854091929565956 -0.09135863196714679 0.2135865911602828 -0.28148185384568164 -0.12565596986462274 0.23429871149812445 0.21186126164053132 0.18532890520521858 0.13768251255879976 0.21745313394443436 -0.013030741666883085 0.0890776699893026 0.08085312339674443 -0.1740835210260503 0.22123252014330436 -0.3301951080839389 ]
[ -0.16885007413667644 -0.031421400288706006 -0.11904642958239176 0.13955206562227926 -0.14350738963492488 0.12660241169117586 -0.1762214240875202 -0.21190354376394502 0.00663625054464846 0.057771319624802406 -0.25204323079956553 0.01405713980010566 -0.25021735769520287 -0.20514483295922198 -0.05043127650352971 -0.010663764586189544 0.404255667717763 -0.16483282692192167 -0.3329837156551454 0.02001674713875791 ]
[ -0.1903337630009442 -0.21390416232736323 -0.13179050586501245 0.010995202459170758 -0.15823073353241796 -0.1345909787731607 -0.04454190170278906 0.05444538663077705 0.03710098729613567 0.29856301242451444 -0.29695171614413146 -0.2140461663753858 0.06297988050695595 0.12923566774898196 0.22052374193866006 0.24724682986595373 -0.20789188678818527 0.19199257601649045 -0.39803296678958017 -0.28429477634787076 ]
[ 0.03626628971995088 0.22546753506737205 0.1778490264587974 -0.038383563429146596 -0.18906867504053662 -0.19797797936068515 0.19098630288631122 0.31241470783717906 -0.06244720807251342 0.2501631944662606 -0.22014068364869516 0.09754238425932252 -0.0652797747316777 0.024654000843444036 -0.018552743048403705 0.12972640219316403 -0.15862098654016352 -0.19230509475354177 0.19495695198497653 0.09709058933408123 ]
[ -0.23273250145448415 0.05977188930991514 0.2521075268514969 -0.377847902314195 -0.14056289334465627 0.12154243991746252 -0.05838958892886409 0.11335089442179107 0.02089188201447163 0.17947831524854163 -0.00035240982027150386 0.042191564671479366 0.2820883850727892 0.1481599128965343 -0.021448703210691436 -0.2616710458901591 0.10139593250855242 -0.33696266022689775 0.12310016531648568 0.0021738643168182155 ]
[ 0.19190544099443663 0.0467946593682652 0.02024020612167665 0.003965919169879819 -0.24096348117873165 0.013193563781841455 -0.19345525635173164 0.14742697797881654 -0.09104862475304387 0.03234688584071922 -0.17885218238791212 0.06743236164418041 0.19719569918003127 0.046120998964328044 -0.13821652249024716 -0.11200837432145681 -0.15781930969061148 0.012369012589688286 0.11224433061017838 -0.27498476501584995 ]
[ 0.07043307644659597 -0.10006674688154937 0.1855244551506018 -0.25800452671951324 -0.38453119905648286 -0.25913466419048603 -0.2589441905128027 0.12493676821898822 -0.02772041461246577 -0.15791191829334106 -0.13643607740276084 0.1282952648573621 -0.2287304148208035 -0.1665418327290956 0.12975939349668522 -0.30004962235549787 -0.27652901027199533 0.193738924615222 0.2871496602667635 0.453936717299703 ]
[ -0.005209072412039194 -0.07053120312543729 0.01547280349259932 -0.017468945181833104 0.0017277033165572968 -0.011660434304434392 0.021864122663555568 0.30812469429269457 0.018641678240804774 0.031920847342880025 0.08372993622717893 -0.11180519515528506 -0.09250629921970392 -0.007911617705726919 0.03952822175575682 -0.06669171872297636 -0.03656647487624293 -0.06249387669925344 0.22456250477571219 0.005875636979049346 ]
layer 5 Activation
tanh
layer 6 Dense
20 1
[ 0.10125925252674882 ]
[ 0.010585455701674837 ]
[ 0.004094422107405427 ]
[ -0.19665087810184154 ]
[ -0.1867851578223955 ]
[ -0.002851577603960327 ]
[ 0.12767124923890028 ]
[ -0.10495441948552298 ]
[ -0.011523836566136118 ]
[ -0.1118612050061322 ]
[ -0.0011096617007274594 ]
[ 0.09171482505167257 ]
[ 0.1571497782273931 ]
[ -0.006249716119507912 ]
[ 0.016893826710497974 ]
[ 0.04720772543118582 ]
[ -0.16303877657742355 ]
[ -0.22434940034146925 ]
[ -0.14341173850669692 ]
[ 0.21942272498581866 ]
[ -0.043688214210220074 ]
