layers 7
layer 0 Dense
20 20
[ -0.14288743282089356 0.34550801978332635 -0.5977225650398645 -0.13381770109050206 -0.2222085688323055 0.1541252153086429 0.5702872567451832 0.40102786204076263 -0.07776883259062022 0.2167493942923609 -0.21899797552272293 0.09261212862520213 -0.12551433473079784 -0.7493638639671285 0.11521273108562557 -1.3012495746516348 0.6169277628698562 0.5748014595658689 -0.33156309942928 -0.04233903467776969 ]
[ -0.25809962396916275 -0.3868106982892944 -0.25993298820733884 -0.21862585919603136 0.2500964533172202 0.04982558431043249 -0.18370031147413834 -0.144911535426617 -0.1389321691666659 0.32909102301537824 -0.020692843135736758 0.04270943738584812 -0.20357127973433412 0.3804810012478998 -0.017080901915825158 0.12580931936115688 0.21812597119908397 0.09488835551741107 0.1445395297827618 -0.03010883039071362 ]
[ -0.347663081071088 0.15133114639572945 0.22275405267739778 0.08783728564983806 0.2917182207174145 0.07903950291597103 0.22915967808587503 0.26567870512938657 0.18303373540000867 0.15030050972751122 0.018761402711807665 0.2231171639918639 0.24127083550861006 0.3202503444550737 -0.2271940760595593 -0.36461773300815364 -0.0641300198396549 -0.24141804576842543 0.27331039794472445 0.18698965710914794 ]
[ -0.3059133373188997 0.39162387823126477 0.13396565377224146 0.118428575469421 0.21791571606577015 0.18847343667718466 0.49822033828521683 0.31199786577378724 -0.17303405429856403 -0.2969547321802369 -0.188613440544439 0.3199774176309034 -0.4047872414175259 -0.44990200231629285 0.2005328942816103 -0.6324114350687781 0.07175574372650761 0.5910043108578151 0.00901545098222767 0.1932252056087686 ]
[ -0.21168899302141325 0.19027913881137606 -0.09042784333693574 -0.19710425295936945 0.16737668802565966 0.04196764911119213 0.018096090385520174 -0.07989984926993632 -0.16028527185171565 -1.223649706264346 -0.14046084623276647 0.6103966400508061 -0.1751634745281029 -0.6243633623533051 0.6326583393589851 0.27290168283100413 0.41727547463891346 0.4836199928679695 -0.2993988310985627 -0.44039558803443735 ]
[ -0.2710754942653902 -0.2698482083725646 0.28821071053317354 0.12386553559052839 -0.26539759069061797 -0.30637243075022846 0.3578645617763814 0.15101777782208942 -0.11777737976058246 -0.15119365577912933 0.1447094141369432 -0.12820188407055508 -0.18158993211785257 0.33815822178408966 0.16314856585052037 -0.31357518461715644 0.32004556586968985 0.01784024965857753 -0.3394860132488771 -0.21425916725574318 ]
[ -0.0770957478560982 -0.2772846347726922 0.27422591799403606 0.31478765051347857 0.28986607635199624 -0.04405430656076646 0.3551761306680658 -0.1636819692741896 0.20021960678952122 -0.18799514970083311 -0.02160657076403953 0.2673236357552928 -0.29086933560857975 -0.21679544260228215 0.12409273482640808 -0.1452880675828832 -0.1549582459339725 0.09544998596633791 -0.12827174346735173 0.026334113810664292 ]
[ -0.10862237786966686 0.029293230337635662 -0.30007540885211254 0.012440208222950977 0.18235994718061288 0.03844560044629321 -0.4013622679291261 -0.08870722003041995 -0.26133835767474767 0.7599470636887923 -0.44911487407397016 0.1623555229040566 0.4479512449202654 0.2911120647901163 -0.3156004096968044 -0.19097633148283608 -0.04695645812652465 -0.11008345775815635 0.1844644176469039 0.23859354833254384 ]
[ -0.6637171328091518 0.3291986953398914 -0.31700194813630084 -0.6129484441554621 -0.07280817011626348 -0.14485917300999046 -0.7416812109493526 0.3705918013023992 -0.27246982735416214 -0.4160579822116306 0.05311801394243207 0.4776099331727381 0.0573667386128958 0.15346442445720226 0.03856416831793844 -0.05899509238171275 0.309831888543764 0.2742498678877968 0.06268143333191628 -0.585328055428459 ]
[ 0.5924030227789986 -0.43508798708904983 0.3046028744419364 -0.33459521629604666 0.714039689308363 0.01849745201622977 1.0218015675551515 0.7830706458515375 0.31067345920274203 -0.11978696020301319 -0.27530869356338505 -0.423287745984102 -0.33671397677039255 0.20439965983273736 0.14446054480369389 -0.5815987977941474 0.05052155371477424 -0.11213130459175435 -0.04929798252595895 -1.1667321977776453 ]
[ -0.06367441284322341 0.2902865855112511 0.368548241330276 0.5700331275474525 0.22693164420283948 0.5367558243024055 -0.5341345679462463 -0.3895400462703262 -0.36165721753345037 -0.10365553073537426 0.05971252506346804 -0.4098206899118679 0.2814359367399786 -0.33104689653521663 0.6629445356526179 -0.608747516942413 0.6957852364254821 -0.7037326167321589 -0.360811641473375 -0.5115982137335154 ]
[ 0.7938689290148857 0.3716823827182831 0.18914026179693122 -0.6361982333648618 -1.0708849705599321 -1.282388701884964 -0.5213695347811456 -0.47571833032595556 0.4302210436761458 0.9759638005351189 -0.479904185682802 -0.3811770115170299 -1.290137169779344 0.777357793378273 1.0664124796120065 -0.5996797375326287 -0.9980877301925251 -0.9520856532949303 0.8158225184977826 0.5055826763641394 ]
[ -0.3471341653273546 -0.10806232861634374 -0.04746387885084831 0.9064012499468188 -0.07650127547032934 0.30159963803861795 0.30846647517449927 0.7242527197277995 0.2822044329435505 -0.3858656001174217 -0.46707006272902435 0.0046525668115748025 1.093432017906528 0.06355155592542099 -0.4990342306745102 0.06594819264715236 0.40800864274539983 0.057185544520779084 -0.39780667343978104 0.1725157833073274 ]
[ 0.8333138733120725 0.25289754233329537 -0.5150743596120633 -0.10745612082175741 0.7520772345371074 -0.6110631309627319 -0.5854236535324203 0.38121948119820154 0.6552693490683552 -0.32985065369650135 0.11742093800717228 -0.09512675259872153 -0.34087954335269666 0.2372684359651243 -0.2811488495881384 0.010379760896899324 0.34385887860128284 -0.34071461900598554 -0.0529696125034033 0.7189828501534782 ]
[ 0.4152877313184562 0.2994168018822374 -0.08726038552948007 -0.04703264993783059 0.14813987567112175 0.060653706650561925 0.264533670749657 -0.24327097732775185 -0.9516064522071765 0.3044337557629261 0.3946242430096574 0.018575104243826617 -0.6133406217417086 -0.27791120489579224 0.4314915955877003 0.23774956565975114 0.2870483615078688 0.37633636626141503 -0.14674698597298996 -0.15474919394285228 ]
[ 1.064307732499773 -0.312370325282199 -0.6159328759101633 1.3169885215184503 -0.8303863267990276 -0.20983185712148913 1.7141875545741967 -0.2916618575876151 0.6460049858836424 0.9365222317622985 -0.1223888390779865 -0.40511880729540267 1.3041543385102419 1.0527253706463628 1.3007391984584058 -0.17600073176893866 -1.0066684657269815 -0.12484319927481839 0.46750424284363423 1.940088199066778 ]
[ 0.7231609957628282 -0.7135817725641902 -1.553985402370744 -0.0682877784585977 -0.9316114920785034 -0.020346692609181736 -0.2850214570287464 0.16891627509004156 0.23752745871562098 -0.6634833709774702 -1.631238539693546 0.22812007326577455 0.17551631009535584 0.36047847580214315 1.2749482390187594 -0.5726845018412496 -0.04762709216993333 1.2953001525817802 0.22504879351552626 0.6943416591928778 ]
[ -1.7149249087815588 -0.5266572795167993 0.020702130780117144 0.8359188964975406 -1.701450607741689 0.6031439515481946 -0.7728630106368004 -1.8015403888816526 -1.4998222917352024 0.5495642662831646 0.9303232249699276 1.2077127611123082 1.6190071334316047 0.24981090066256312 -0.07517857739117938 -0.02898846110890478 -0.9518081293992066 0.18960903224447048 0.2451706273715255 0.41595804501037353 ]
[ -0.90640649855142 -1.4768443239306315 -0.05678963404300437 -0.9728692908670048 -0.5112523764704219 -1.073355473419204 -0.23809572291664582 0.7713761665090542 1.4198952126930944 -0.7026043223608894 -0.5785074236872916 -0.3071014207379301 0.9758492265572429 -0.19663320531488152 -1.406264399787318 -0.9225451605673706 -1.3230269927105431 0.3389106149878683 1.4681176219138177 -0.12695611849633323 ]
[ -0.7675209478093139 0.31523707224000697 -0.1545657434858264 -0.4362711048544627 1.0528595255359738 0.06596911986947082 -0.06327734876954302 0.6654762179006326 -0.8362691451076745 -0.23374713834308103 -0.18492518264857086 0.0038718890776905748 0.1869186876463728 -0.18408983177278693 -0.6467191673187564 0.07048349151332803 0.8371639931189141 0.582580024717469 -0.3837843945630512 -0.7890113979389295 ]
[ -0.1881265418808469 0.17010381004473873 0.3526132113348962 -0.12439683194572826 0.16125481365109245 -0.0791072058438433 0.1963055315489073 0.06834518550830176 -0.06543501468154432 -0.018890803322520588 0.2502277047784382 -0.022796722466251054 -0.42219736950141284 -0.246051986424681 -0.008601255122539153 0.13068874358572868 0.07574975602696549 0.04803791147736587 -0.17744826656393167 0.11358131532182465 ]
layer 1 Activation
tanh
layer 2 Dense
20 40
[ -0.6729144068341393 -0.024290206656607666 -0.5866765695653698 -0.07441613756668244 0.8761296535377135 -0.35262291185135053 0.33378093808393344 0.30147574977810165 -0.15495740787758078 -1.000903265492463 -0.6633729142748837 -0.3674803460745572 0.17711519906476839 0.9117854426122453 0.12210983391562981 -0.6581212721072888 -0.12316927803907247 0.561755635962531 -0.2832079348349653 0.0777320465299788 -0.1959819904647292 0.7941474406605519 0.3410084393541568 0.1336454111264502 -0.5830913606177103 0.7952205146575578 -0.006841687557979313 0.5116991301705001 0.07673619779209293 0.11448307847838224 0.21534547440383353 0.08137562459529492 -0.06781388767167629 -0.2804711477870725 0.17304554489369617 0.5044972244374636 0.2202155217641681 0.43433953317905016 1.1354607472595222 0.21256376534855642 ]
[ 0.26953329914476154 0.2898963960941006 0.017098920654290455 0.002198296985252677 0.13867632285391202 0.06704522882003747 0.28477299158890446 -0.5360866909170916 -0.20468578853686453 -0.28693552306034825 -0.5352051514402844 0.12736765920154186 0.04339476429413185 -0.23843174443752038 -0.22920317711147895 -0.016100773480328862 -0.007415061778142657 -0.4751414568496508 -0.38125266097239396 -0.16245550903409164 0.4497167007835115 -0.12441058885994591 0.08045963236421472 -0.3057695582294566 -0.3635612747855352 0.3968218833375821 -0.07050582063235682 0.17310028818821177 0.031858760131949444 0.14861666621389663 -0.016815559834189506 -0.04493621979475565 0.20521221524589792 0.15166005832017643 -0.3048245041568624 -0.32773780218609944 0.022408350959608917 0.11232777153366716 0.18594258458608875 -0.15091180253916228 ]
[ -0.07681764867949654 -0.012541395996246226 -0.6367665953593562 0.09638418019165937 0.313819420542072 -0.4800466520626836 -0.10850775402340335 0.33821679243181313 0.043398150801406465 -0.16038261211106158 0.04896897670924515 -0.0089887272120801 -0.5503686425100464 -0.6848166889932995 -0.04432468050245645 0.43349117074550325 0.03596920066246824 -0.16442567653216925 -0.022933249087428255 -0.33919793012975824 0.267920473101514 -0.09827427814552367 0.08380054038757992 -0.2909268871146135 0.11661190990923107 0.4234470063234272 0.3642129576267809 0.4947837233517965 0.14445048976005634 0.06969971329623043 0.265676223417288 -0.20743309095941087 -0.3066966397909782 -0.6410998920530504 0.006539069555476959 -0.03815620874912697 -0.20528746189313277 -0.20177115089553355 0.23745503582608224 0.18564608947778097 ]
[ 0.5716735868792379 0.12575654211763754 -0.07800717626491352 -0.029184485216363607 -0.13658693825650758 0.014210553939233143 0.04083528306402089 -0.07532974626468518 0.06267059279428051 -0.039204409139269085 -0.046275910403890605 0.359015293819527 0.6773709692351598 -0.2125955053022341 0.14485553993449693 0.17488174542380894 0.08353143072082363 0.1648877679787419 -0.3771384791145382 -0.2438294367553633 0.02241032988154789 -0.015696950540015762 -0.23346334849353922 0.04573317653534439 -0.17707284344142732 1.4601595630324318 0.025520212794379805 0.1931697346055641 0.0513401970234869 -1.1215110830677282 -0.1964860198842498 -0.22220437354504335 0.24545954036919124 0.32360916050714134 0.06826792445585658 -0.1275273899315126 0.0812239262755134 -0.060882416272134705 0.16611508972613787 -0.2947721103471948 ]
[ -0.012169311670673047 -0.4912201044315927 -0.14953919961612933 0.3893867051533865 -0.5500439992137885 0.7610066672570582 0.01666713732981503 -0.555512548595801 -0.17360239063229674 -0.030299275588526575 -0.14303023342481597 0.5218777120561429 0.592681219503517 -0.6861517152870055 -0.34096859730774454 0.5344902207804534 0.030488313292960645 -0.35709207405503984 0.49650527244343307 -0.30262340276904603 -0.2575131567042184 0.2244076551697186 -0.11850877781746098 -0.5557502128547792 0.570788521333286 -0.4471704618244601 -0.8276368342318017 0.19426462881177986 -0.24341057496892957 0.9417942503070563 -0.48319808325942876 0.007899708659180346 -0.270262039352488 -0.048192056321784846 -0.5886026406227104 -0.5553745183706733 0.1654481606638135 -0.8938600646006168 -0.10596517755973589 -0.6045300753693759 ]
[ 0.14037616461778785 0.19825937239941974 0.3365524989953718 0.21409500294481038 0.19559844120876715 -0.19009091534329473 -0.2555058086239653 -0.06557867715343982 -0.1967112902326291 0.49524030657338075 0.24919304520720062 0.07537714638393565 0.1415704550626461 -0.00988095318781094 0.1712197277403829 0.21446987602812553 -0.11617117867730234 0.3050973687070309 0.5177302633420126 -0.2593459892851777 -0.011475983493349152 -0.2803260828155942 0.12831544238031284 -0.30544048627690257 -0.4016507811534228 0.6436654919694499 -0.15369243133888197 -0.4734953483964294 -0.10877399803484374 -0.7948438768944877 0.08388392825184245 0.06574342496064774 0.0207625824703969 -0.33851714452324705 -0.3160740102204574 -0.2982727546364925 -0.4725832533513042 -0.7392779819929447 0.26103881989911176 0.18006900479537272 ]
[ 0.3602839671117452 -0.07035640982090721 -1.0222638503647432 -0.12468250835934772 -0.09189131234588215 0.47138722571833613 -0.33145065658957945 0.6718819058995176 0.15822261702051194 0.18766740059531842 -0.3243269072236386 -0.3696701350122523 -0.07874370907853367 0.18507436437909972 -0.2640358129250465 -0.3438695613602845 -0.12497714305544487 -0.0641712746413528 0.2087465153129207 -0.36210697426552807 -0.5134287080855121 0.18594138144702935 -0.42518614532983134 -0.27589764858663046 -0.191931975162215 0.5981208618388806 -0.4726513458434699 0.42263548522571043 -0.22160757425105682 0.06009447687361666 -0.13783874198403254 0.41752194215928223 -0.4402111699592123 0.3708057058756615 0.3301514748014267 0.20544010675980573 -0.1348743871148001 -0.6310241471705026 0.561690425009826 -0.39045940041786803 ]
[ 0.2151612817669619 0.5479842967616472 -0.4685752529834567 0.019539470352622303 -0.26863347842514473 0.6961696466710938 -0.5507560958597698 -0.1717085525673251 0.1961243418066507 0.18075184577659298 -0.023114042486444785 0.10532762696342504 0.3445659427180449 -0.053945909322740696 -0.0554980007106324 -0.16409455930921737 -0.3925428416695087 0.3302664972302188 -0.0378770596522141 -0.3870679414113336 -0.22481180815894583 0.34154756580617784 -0.08582090697021777 -0.4909634758451778 0.1332948216248389 0.054195605231789755 -1.0614811833684983 0.0876043083419163 -0.17203726227247462 0.707919522173979 -0.13046863847567544 0.16042513391524477 0.1851042763864248 0.43769688124645867 0.05322390090515847 0.2591315747221934 0.37085796892542816 -1.0291672072486058 -0.8795120836730301 -0.2802296847172693 ]
[ -0.41108889557042205 -0.27059592413081696 -0.9839046544451754 0.12356947383914188 -0.10287911707636826 0.5022667445144149 -0.10777091037528097 0.30076494070475623 0.1036586038623374 -1.0276566881973195 -0.4172956798075302 -0.015688399558904963 -1.6238338454142236 0.39013822038816426 -0.4544966973604342 -0.6452069962010254 -0.31458614696321013 -0.260299250725503 -0.5625884753309742 -0.2856930352533084 -0.4040451634713732 -0.08797034502137292 -0.16179111591858142 0.46045250243153557 0.3663664764492627 -0.14803684169664236 0.015380423506213063 0.7518000596975628 -0.0644006076838194 0.6472420351083515 -0.18900656204742014 0.37282283573949887 -0.8634702684228969 0.019339738142762963 0.15067740160510107 0.6501062672718749 0.10117884001847757 0.25155629851561145 0.00938281374752101 0.3208354037829207 ]
[ -0.45550457817183104 0.13610690461117747 0.9772579748692447 0.1788475771028253 0.5774207934058175 -0.5313111723999124 0.6056537574638916 -0.08656866876631798 -0.02368668539866272 -0.15521909259362177 0.36705685144042827 -0.15628318176746592 0.5564253166915175 0.2990979499940179 0.1213080061061408 -0.017931404263340656 0.12441587434558289 0.16804516770508124 0.23404506421523574 -0.02506308659076358 0.14291469114205643 -0.08830941905640347 0.08174858543885383 0.19057447049949383 -0.4069866384139026 0.20239823946110688 0.4454950549536671 -0.5623059949989365 -0.03302178079522052 -0.6103913086824553 -0.43025463595336577 -0.8094164044554222 0.8170040590833838 -0.34214376703047994 0.0012899365363431 -0.3229198216085321 0.21402495204273625 0.443549114739349 0.6489361040370086 0.5254115511704368 ]
[ 0.13622419968180433 0.10354140714153434 -0.3267629573819126 -0.33438724743746395 0.06783788505199634 -0.9352057762436344 -0.19981979583466986 -0.5276090203173928 0.22387344285656524 -0.07363793436170273 0.10800838751330095 0.3315271578561448 -0.11809151896215815 -0.5472689603881166 -0.13821330105147528 0.8595003907996185 -0.21941524482674962 -0.2256997807089114 -0.53233233358259 0.2983484490823817 -0.41188190379045536 -0.2538923111154934 -0.036205270016086526 0.2770647584681325 -0.07758750596386045 0.3542124595732163 0.13236697887715762 -0.11707856525392714 0.008343317356235055 0.23252970642388246 0.4897257829647066 0.3071823383366781 -0.20043252005181741 -0.4116012996712828 0.316724265244762 -0.493605532829543 -0.4912412343814439 0.38145210424889325 0.34192669680566273 0.22470541173564876 ]
[ 0.1686702727399763 -0.03849558065505426 0.5636797706266278 -0.13245026264239484 -0.00017247267274885685 -0.22434797914426421 0.10538681719352498 -0.3251297136931426 0.2603236791283012 0.27383286866481776 0.14780429110903098 0.1839370119676774 0.20016114372145477 0.4623651689827405 -0.36754666607507197 0.3887643578121197 0.06337416522605345 -0.0962811444862024 -0.12050350185257072 0.07039686586471965 0.293320083518023 -0.3364396553813116 -0.2790203722914999 0.3247140570583992 -0.30087518533221996 -0.5431450828437272 0.27232039424866844 -0.3598712603288591 -0.12145139914629295 -0.29622599976064273 0.10613221247775953 0.1311051064397523 -0.0781514968317029 -0.1089363933292422 -0.436940796831615 -0.13937220788089186 -0.20088614496765295 -0.11192977600689952 -0.17760512795163438 0.03740147851620865 ]
[ -0.162456458465888 -0.25588970342836276 -0.04898845459979464 0.06942299832859988 -0.11037770282572866 0.5456238839122102 -0.3411264000939044 0.49999132099251675 -0.10248079897376157 -0.0884569348086498 1.2244222357981367 0.04862123389028753 -0.44645465789082217 -0.07570649982644151 -0.28328457527188383 0.11698523529302293 -0.01191452353202549 0.11746540564866209 -0.15274197299962847 0.20787542654462926 -0.4395777046382521 -0.09390672844960139 0.262149176010709 0.16835575847853193 0.8283358527634634 0.13960172421469963 0.46069476054270453 -0.2235595610385394 0.11751376458021108 0.09534817642451522 -0.43201883892664367 0.15710557978388542 -0.2597613766577508 0.4259848018179149 0.15685281712139224 0.113583707240472 -0.08008621116686099 0.04793408835751153 -0.9584942880274048 -0.06770746568857257 ]
[ -0.34820594797466425 0.418903318112099 0.24533789309151494 0.04382780765206885 0.30473651091274034 0.03320918078364078 -0.26507027767196367 -0.07375578132393873 0.19232892789595502 -0.6807127755420361 0.6584846652645835 -0.6451738113446525 -0.30597021144316866 -0.003939559642764873 0.2467835650879042 -0.057540725854932855 0.42760177992147314 0.5484725343215631 -0.5134568045724127 0.4644817218202506 -0.4909683506133269 0.7091329456479611 0.06243767251591149 -0.19411572278681474 0.020329082384486608 0.05388002341464496 0.31501284378825584 -0.44040397219882454 0.4809338760003158 0.2735752418141235 -0.8091708695852201 -0.9635022197979731 0.21991566457066902 0.11861309467124022 0.6169879833008767 0.42747775978102265 -0.05804943008907862 0.3378210582302855 0.29415392078156427 0.6164744159445287 ]
[ -0.2602614732801063 0.30005962674727016 0.7442968650780144 0.30370028053360426 0.2746882987758342 -0.1048544811113957 0.14427808665860312 0.670033073235594 0.07155547469126566 0.5301921518077615 -0.20241260644652115 0.18782071153957763 0.2840474911335575 0.6648906683111504 -0.09259090377017272 -0.5303104670825671 -0.020852068860940102 0.219539235392679 -0.13037732391192186 0.207562976711681 0.037611517059162214 -0.12092832213145467 0.2662718374450721 0.1827691371694415 -0.3318222113935888 1.1580638601362627 0.6689919532881661 -0.1668237970446325 0.12574016195229615 -1.6189025271416833 0.08773970267217508 0.05545472197987053 0.531312102914442 -0.33568887995230673 -0.22439170776779815 0.19776702513411412 -0.4952110319709081 -0.13644224471879737 1.1020825460188743 0.6265991520227036 ]
[ 0.11707378229775492 0.15222637898790287 -0.19642819143128015 0.09846418113035858 -0.24299201001948137 -0.4819056203521106 -0.20148541243545884 -0.28479236528191 0.11298390316067244 -0.6986721849087166 -0.022257747832651473 -0.15898363852108763 0.376604795138115 -0.04979761838360267 -0.012439968734983185 0.7484182540637557 0.13183792200747008 0.24145448489244242 -0.09966465989805161 0.20381149089725425 -0.06951266503908837 0.20595097206786453 0.07466867338049427 0.24786161705732052 -0.3159321219085751 -0.5136497776320509 -0.23566843101743162 -0.26757367376164654 0.015447137856364562 0.26216392923590015 -0.4634963785588567 0.08257460732916629 -0.044182987341083925 -0.24065473652947633 -0.11018911207755326 -0.532016506878271 -0.3269263715750975 0.16355163643352638 0.31541454790079376 0.021884734725820976 ]
[ 0.0928117623291438 -0.2291796156190691 0.6846136902621214 -0.10032839738995272 -0.35483754029843056 0.4902612371709005 0.5323904428027638 -0.7942665258363263 0.0033098669767160447 0.5284068345661238 -0.24106787208057534 0.4122891131868882 0.8439276540363693 -0.5718859457087359 0.3502421710390672 0.16708397385433446 -0.24191561699875241 -0.07754961921981245 -0.38292888170691103 -0.3193035699064499 0.14349977476058484 0.3567019129898658 -0.5413313389118507 -0.45161637507098795 -0.5103646907461594 0.20867555382836192 -1.1588593974172874 0.25806194078838396 -0.36090201030514074 0.11127460405661023 0.0021049177242663257 -0.03233466279262489 0.0026706070766232054 -0.3234770617637964 -0.701790069878394 -0.7705846776446922 0.4426341775505046 -0.11431216491198258 0.11758896381933177 -0.2965926661257644 ]
[ 0.76389236233462 0.02231203158428633 0.2598275345689332 0.33139288758155877 -0.51170560577709 -0.1910834984040668 -0.22774132390097843 -0.3904502571083668 -0.24737077770973376 0.645737976579369 0.3149547150964216 0.233386643117388 0.6563727571841163 0.7984687149209357 0.16031809081919096 -0.16536518950982362 0.10653067916469362 0.26718326500110845 0.4699990778127989 0.00019638482417339665 -0.23345611845483488 -0.16955555043257114 0.22482171661989275 0.23619476742246343 0.19795686464171322 -0.9901239255293471 -0.4842898775031957 -0.6195040083579714 0.20151747505065995 0.4456335891922543 -0.13591247964151681 0.06111543943831157 0.3486134071660663 0.4322654339112614 -0.15582171293741678 0.23258005209273178 0.11686283988997043 -0.28232497478868784 -0.4189933621423118 -0.5564747792424102 ]
[ 0.02399685929894687 -0.04216548197726881 -0.1250529444846436 0.1865887936979311 0.2363696374594522 0.111284521858849 0.19453526486910627 0.5844191375960381 -0.16700391943693974 -0.38480512475854756 0.2964014165504117 -0.3037838571596754 -0.9189383369729978 0.16853323140558502 0.2916827185008092 0.11822406828556822 0.41867637984766615 -0.16114191927440658 -0.06978220260600203 0.34849230838961104 -0.6008072702245815 -0.0014309776457268495 -0.2629368178433348 0.49033679326269297 0.760096429820019 -0.7943526467852929 0.5104901819176637 -0.512230026944216 0.2601479037686715 1.1806909615140928 -0.16264740378499212 -0.49482866560114275 0.05198744988508166 -0.3393078741236786 0.3409705116962107 0.3250302231076406 0.19297083687063507 0.7933399082931029 -0.37331456915676625 0.06782900203334263 ]
[ 0.502149341450094 -0.023271299263995716 -0.11158168120468925 0.4105235059104798 -0.8392451246059209 -0.03371787042116458 -0.37675960005670167 -0.3020797229727693 -0.11936548611970467 -0.277207394899032 -0.10699349619523914 -0.07363824765187484 0.10183285393978377 1.0996259567302766 0.17406220504687087 0.09482326049447912 0.3804300884112765 0.6983839255019874 -0.11609725106130867 0.4854909122611554 -0.3882833741413175 0.18741835969080736 0.3347220674767098 0.20212157503858458 -0.1992009716052338 1.1235969590782315 0.46700060033188745 -0.4525652393952141 0.15592710334246815 -1.077551418193087 -0.13667417153731826 0.014386686561513738 -0.18542552898995465 0.5767449982850192 -0.17503959153868093 0.6257042869362542 0.28771590688359594 0.5499093143357965 -0.4041019852520773 -0.4081665905724263 ]
[ 0.39979124460852744 -0.22320870152712177 -0.2912575352222386 0.0740378614523228 -0.5328858982724158 -0.009004926347329282 -0.010121285191293976 -0.2337723318995308 -0.12332485988301198 0.5996498163321812 -0.26686744092960785 0.50977897739874 0.1801707386903592 -0.25770272289458723 -0.08177977422435302 0.25270562764850496 -0.1746672097890134 -0.3869165210942988 0.35122874943655097 -0.2472779776890475 -0.11969465199585669 -0.4366528709125334 -0.1861399084041949 -0.36349022004293624 0.2593987868567739 -0.10833342635217696 -0.3366070824617956 0.1279888834365233 -0.3460793400453429 -0.07718347699435545 0.507027254105262 0.48260598986545655 -0.4306215588259386 -0.25708969669402426 -0.3612930121633654 -0.3068567070635925 0.009040846863469424 -0.2994748118116853 -0.5049290611328333 -0.6334409971119646 ]
layer 3 Activation
tanh
layer 4 Dense
40 20
[ -0.5290860686017856 -0.22266137706997638 0.04637724420047271 -0.05106697568212274 -0.3954815816673641 -0.18783648417380341 -0.030593970096563127 0.16871672460224454 0.1026143161267297 0.08358132732914997 -0.356564685738279 0.4444913778465432 -0.22131000319045901 0.09280609531516275 0.15824332911672082 0.283678266776007 0.23616023649496615 -0.06743735757435187 0.009564358842118766 0.26581931793773245 ]
[ 0.16199977984418595 -0.0703897800685391 0.01038795611291313 -0.14981840192451026 -0.08574647718237459 0.00540630027080116 -0.20547768896115692 0.3392830260049029 -0.0992455114024723 0.07933696124514109 -0.04170561195913912 0.27936134188472533 -0.05300199163177571 -0.02369971322849404 -0.20751523282174159 -0.05991023966930218 -0.22102553693023555 0.2541327360623773 0.08177050375322213 0.39635807748605234 ]
[ 0.6116639152646716 -0.5342686235565202 0.22907510153337998 -0.0979742279953379 -0.13949175406485698 -0.08174470959862741 -0.044460968434001547 0.5607787636896983 0.5286931338543954 0.6534327510539626 0.5334967585077274 0.1026850723422351 -0.5228549592631255 -0.5995661364133104 0.5791667651763176 -0.05077716340015904 -0.25921987199374374 -0.11484285090374724 0.2659280365209469 0.6566480093154397 ]
[ 0.027998979076040167 -0.07064785111194427 -0.09366898920444205 -0.006007434318339836 -0.1898946619613767 -0.051280837692716505 0.04600914567861954 0.027821355270924438 0.21847779648844382 0.07008636963314616 0.17087625290204747 -0.2513568224095468 0.048867703463478636 0.010569163598185176 -0.2573559613330068 -0.009218403569187048 0.24214861096152876 -0.27914329584864095 -0.003327622078139635 0.18085326444196712 ]
[ 0.4827318029974914 -0.27396440447179937 0.25553438538484136 0.3887629447251118 0.4467799988600502 0.4204942735096485 0.19915956041986752 0.14572658753061102 -0.027861279818035795 -0.1405362284308495 0.04950530141701283 -0.012383816572827677 -0.2177794680535352 0.029726671875580982 0.20145630191372405 -0.6422808397194846 -0.009325147151743929 0.16857888751930253 -0.12268928941427959 -0.04714448567480344 ]
[ -0.05446263961126259 0.437970014783335 0.5876229574489454 -0.2206205086973892 -0.6918073116258239 -0.41835880116156193 0.16454878115259533 0.7475542347504396 0.3192587690579204 -0.03979533285882217 0.18209965215924548 -0.011610306923791924 0.5594122200350882 0.18584736751312197 -0.16740093977301795 0.055026197608282576 0.16072684254188993 0.006808089562613954 0.34167134826002216 -0.44806460912289847 ]
[ 0.31716331404692877 -0.2644027192246725 0.13097655354850107 0.11321590261395885 0.1892937976642742 -0.07281126873859856 -0.3129267992917091 -0.04748161348123246 -0.19034912744667618 -0.04155476136960396 0.14386213335991166 -0.13540223743694574 -0.14131641765287672 -0.27577666488498825 0.0345424371792309 -0.05641768625433435 -0.17539449524284972 -0.08325511799216204 -0.0801427540624596 -0.2751958510392839 ]
[ -0.255113860395515 0.30617169271281225 -0.2808070858907918 -0.2525726586986214 -0.15804839977113927 0.44054570336587834 -0.07748781043842459 -0.015108514424378557 -0.07234103427783559 -0.49200630359939984 -0.09058956492383347 -0.18299140229158975 -0.07850997750851887 0.3284373124639231 -0.21515908325177138 -0.5372285169326645 0.14376076081086261 0.3501400175883845 -0.3949534186012056 -0.010763806430050576 ]
[ -0.06538633858888707 0.16726834290337142 -0.11963027564726907 -0.022596327653970235 -0.23066071380908257 -0.24400534002706234 -0.1602318962699022 0.0709262637574703 -0.0878003624067252 -0.005326068225969024 -0.06973372975717612 -0.05131846378540019 0.04431016735043233 0.0800233881387834 0.11709863310710777 -0.0027503952269957344 -0.014881765400196489 0.06860166303694225 0.1679775547434863 -0.0590672174234258 ]
[ -0.3113299436428904 0.10146717158180846 -0.16803695117861628 -0.16484480731761156 -0.4020499013106241 -0.409101104421065 0.23450840224821312 0.41690254993769554 -0.11720663410654636 0.43317437078215004 -0.11895091680206311 0.21548067595509504 -0.34883834535808034 -0.43032165577855785 0.2814324090752325 0.6204765394714361 -0.19848039639003812 0.34471978731094366 0.26098701308265726 -0.12469871811988828 ]
[ -0.25933603646367376 0.1939734432707576 -0.3768834059760991 -0.5615314069324919 -0.5232424910740223 -0.2908764179962733 -0.012764971371421121 0.12377640388857167 0.26943985493521627 0.24084415749684623 0.022056603501736206 0.5120200383829531 0.21964656462699994 -0.12826572182205273 0.4654464488187121 -0.032616086963696084 0.08099166189340154 -0.01218481064253808 -0.3889815568660066 -0.23875874753395696 ]
[ 0.22831239288051455 -0.35811652749517864 -0.20173409215184307 -0.047291523119057946 -0.04779179481863815 0.1588046024535309 -0.38586403658075585 0.035415557495778745 -0.07900758447390795 -0.1139321860557396 -0.05412556889220906 -0.3212037193543448 -0.09037858420346105 -0.21129538127182357 -0.058458353348448455 0.2369220252638164 -0.17630231623109333 0.074471375992068 0.2004590599019144 -0.0405266999563506 ]
[ -0.009347918638496324 -0.5391408356578452 0.20018366984123478 0.3289128016258539 -0.2692646677985811 -0.33072521854127235 0.04731217467700618 0.6043803968721807 -0.22882097759261794 0.6739039976786302 0.4771191963486815 -0.19297359613353648 -0.37874138355584913 -0.4820597766663023 0.08003430965956711 0.025621078450799795 -0.34059076858608284 0.11660734176601353 0.3983632464204856 0.48969789005243836 ]
[ 0.6479717386088559 -0.30626429278348916 -0.00924474632430018 0.15830988732586054 -0.32397672062748456 0.8649458529394353 -0.13698177614139548 0.36066654499261497 0.592773249656233 0.06955027037929726 -0.7355768076940749 -0.46554035467306804 -0.1251687242263709 0.6519922456702415 -0.42221964828028086 -0.587198640237784 -0.12915833759803433 -0.02297947574508852 -0.36243972135381514 0.7231426231669545 ]
[ 0.07201102933463219 0.08065863286279308 0.25213342336439104 0.03884921656779708 0.13591531071753557 -0.43145889747430144 -0.044154520636191755 0.21193098652459866 0.14426032962775617 0.10578903408358678 0.0976915926875871 -0.07852856988839765 -0.09501934687691953 0.011447933266048649 -0.016380459092806877 -0.014716122154455903 -0.05634883875326812 -0.005554247331997668 -0.07423811986636686 -0.03186643090554225 ]
[ -0.26539118715489535 0.059466662971825845 0.35382118825397396 -0.15218488403482258 0.2937036708311351 -0.5733578213692568 -0.03412295152035033 -0.32964490780131167 -0.16947998978796505 0.3705067398533191 0.17773674735114636 0.36691310303624713 -0.14993808866549696 -0.5320303283681146 0.04277479463923493 0.3971172562348316 0.1111624273655755 -0.03592458643935764 0.22664463805468413 -0.5296524886422381 ]
[ -0.1819557974915607 0.27885932612855696 -0.10616977272475503 0.19470889670701083 0.05518799921906691 0.12251068108219608 0.19513371442011504 0.16479267584133828 0.14866239935995282 -0.03434441694146065 -0.033406646277424304 -0.0036252091920693213 -0.181044663077047 -0.20841949449685876 0.2507748356486669 -0.04474841269822455 0.07770807562827937 0.1939152979845811 0.030181156083167196 -0.11018279570602106 ]
[ -0.08302214782111193 -0.28249083010247494 0.17970438143436931 0.03930478684498754 -0.42318742915897983 -0.19942006626001893 0.30499089660500084 0.21482343988361793 0.27391848624345105 0.31771371931659287 -0.12661203282548672 0.03176632078997795 -0.040967560514386055 0.22330854380730758 -0.05507064725290827 -0.04714598635098514 -0.03813135780017909 0.2645573784998202 -0.5199818508135464 0.2789199438767748 ]
[ -0.316029101366962 -0.14105769307205213 -0.16163447168622258 -0.18665513410004178 -0.15724274438746405 -0.6999642800883887 0.029356395677888916 0.09105328647485245 0.1844901414299094 0.2711594718628122 0.46162474143431115 0.4962429536035377 0.1731443499292582 -0.2938212543480197 0.3103004761539545 0.12930326191226693 0.20720862645638374 0.2747429040111456 0.3021360038767975 -0.19955919288712623 ]
[ 0.2718252948134004 0.1360147353136115 -0.23036082355059978 -0.11623348877231121 -0.15894876511007014 -0.07542908367754575 0.11547030441959184 -0.09344128672947376 0.29432664997821123 0.009707360606064839 -0.053889449687390366 0.20980885620536482 -0.013117455335838284 -0.12140759475271319 0.2979020098092223 -0.017325787267276675 0.03793592554415923 0.26821937565387505 -0.344353634908384 -0.028384172714790195 ]
[ 0.4799315371793906 -0.3997000260707042 0.175818597591711 0.2507492390083287 0.350601677164489 -0.13954397301946184 -0.20530459078156543 0.01749392809972728 -0.15266960574179242 0.0723352291693248 0.18453478197936451 0.18303472250250985 -0.40114161151179617 -0.3541539037897339 -0.1289579256673965 -0.07736454521027629 -0.1880254257863319 -0.0858726418055353 -0.07118142809158749 -0.263670677657619 ]
[ 0.016496009647740097 -0.2230050937242684 0.277519332398876 0.28093993663153743 -0.3549434887434328 -0.08772944199710192 0.04930556786615618 0.06466077926855092 0.045527507644631884 0.3106786470654265 0.08778610117105887 -0.11071357922057798 0.2536771968131079 0.03560460160968376 -0.17262633701138919 -0.14802535025142013 0.24975437404160342 0.05525484293420291 -0.23229603118357622 0.019915062891520802 ]
[ 0.20353265671179238 0.16642995737061447 -0.11559999869680376 -0.09325056945083045 0.06517645053007629 0.2101795873287999 -0.052173247670522796 -0.09517012398219969 0.06578136622003386 0.0064445304631735945 0.2360965096984009 0.18026627019283603 0.03166484885774237 0.13749401002288697 -0.07750094106940536 0.033394011430113064 0.1386077626970878 0.30825399264946984 -0.3057153169569299 0.30600559056790577 ]
[ 0.44292175988191995 0.02371904140950946 -0.20960814376667006 -0.004468778908820865 -0.02280190347793686 0.10685898710339421 -0.14206743036583183 -0.11566258878235952 0.5637884874922936 0.05668208268929918 -0.22926368647048262 0.059467862183861665 -0.04966259432978866 -0.16448168285162543 -0.08930524219411368 -0.10674862378471957 0.18787465221965916 0.02732084904820909 -0.4203270776941182 0.1492438775821056 ]
[ -0.32638896005835993 0.2420764985448745 0.2082916437361204 -0.18983595372388493 -0.11597779546735704 -0.45781398592385575 -0.07655787110253502 0.015352250401104961 -0.1254122957823873 -0.23667585388428017 -0.1436976147888922 0.04694037638441456 0.3066629732108252 0.07537226119529211 0.31717430551246856 0.4073885691857314 0.143518044770839 -0.03040455794091617 -0.3050302524483236 -0.33290404365121296 ]
[ 0.39448516266538647 -0.39280518506722484 -0.007372511214607083 0.7455967845600135 0.3930597270923853 0.23429600278897067 -0.09511005366850861 0.03714224139279379 -0.1993601790354393 0.2101157592527739 0.5531500380669666 -0.3116225902102592 -0.5091864919255835 -0.5721767698399184 0.02259671043817492 -0.3182372543187071 -0.5716865584892686 -0.18221112637285752 0.20214517367483195 0.46683774026145014 ]
[ 0.45558710941597613 -0.30695560318599474 -0.48947236075921813 -0.5034156205468808 -0.003608994497060472 0.3254932363235861 0.22338916263855607 0.2868858118354365 -0.052297671778591306 -0.0011788510318102789 -0.19865608954827257 0.5308825488674553 -0.26014616755293135 -0.28015856474006107 0.08751010104030939 -0.3505256954250288 -0.14451383515062127 -0.10542931530735568 -0.25958647785045336 0.17621118217586343 ]
[ -0.2200358524718042 0.1811643545360883 0.17867277595550246 -0.19788612162085115 0.4737706483856508 0.17170672958025318 -0.16830602638160813 -0.2074095956157605 -0.38503396071754004 -0.11841734314880055 0.030781454895070438 -0.4361513998604241 -0.017133455906797657 0.41508582813353545 -0.3883995718610272 0.007167420509274101 0.21121906521940714 -0.19220380202988968 0.2959655899168673 -0.10024539838100195 ]
[ 0.2230814222789289 0.27244789409495934 0.00282845678266957 -0.3227324437315109 0.04061832284885861 -0.123509182510071 0.25445078659529635 -0.09588279612285583 0.4422682689950649 -0.02781124226109905 -0.12481658944159203 0.03163588123398801 0.05821386998293333 -0.12692010570871715 0.3279828368657014 -0.09517907955784492 0.21300398568456516 0.14218442340191015 -0.3101718583508161 0.08739207826521124 ]
[ -0.3917635890241212 0.24670802758044996 0.1194697765341678 0.027586802580535395 -0.12087285509839568 -0.41527949431614275 0.0845066107564665 -0.2967442417752073 -0.29047991001627893 -0.5754899045121266 0.013362189120944359 0.032715653216127176 0.6246800779313662 0.43472404780738916 0.25209358776989704 0.1166805856441813 0.222621817251358 -0.21956964190954872 0.2348922792484158 -0.6274315663023702 ]
[ -0.0236906651973915 -0.09547408013298726 -0.2316712234046374 0.4433013396879974 0.22465718591219874 0.732047259848097 -0.17251461540498858 -0.22232543759514375 -0.1701887732394581 0.04515300922725209 0.1383153338668594 -0.15767886827473335 -0.3403425243356071 0.25123746005790704 -0.0012561408009374774 0.5790546585479753 -0.3421551305297645 -0.3062553184070722 -0.11462174365812262 0.4367286293746108 ]
[ -0.19013032485052409 -0.3913132017714051 -0.04565364373274395 0.4103738149118497 0.09176258198658963 0.6904712899911322 0.10047682999280355 -0.24380620391727006 -0.29598928414061876 -0.4084965636288067 -0.3080549706045966 0.00016986586473110226 0.08709246472771796 0.1500716732184292 -0.28641410199665024 0.28447632723656985 -0.31234879924973574 -0.0481619279639887 -0.051210887345978395 0.2908655559008355 ]
[ 0.36878192366390716 -0.5140842541833535 0.07038892488338483 0.1844951962652338 -0.2782927455897157 -0.36908284222725857 0.06812289118069478 0.5275794758733092 0.09390982882793128 0.4025967452469632 0.28203632123320727 0.21643889875726768 -0.23622468350143946 -0.13960901089765698 0.2877768976641969 -0.16930732896334172 -0.03930674171286088 -0.15742105594681743 0.06291393859219893 0.35726944420519263 ]
[ -0.2931189384493278 -0.016293551277714032 0.0031794006644724386 0.024788680368580302 -0.15166200565932925 -0.5668996115334644 0.22687488658663454 0.23584813478435818 0.3303216877841124 0.08479224200362802 -0.13514822240809388 0.2995462981230325 0.3426893183552387 0.024420815884162804 -0.3727756990298283 -0.03383130747124846 0.2280488090139715 -0.03768808645411116 0.29105596387382093 0.17993316066052456 ]
[ -0.14171894505659197 0.46569349908674945 -0.05535171837819606 -0.2752149717939413 -0.20821946907069544 -0.16056190242679383 0.1076430399992201 -0.3552918326524056 -0.06980664956447093 -0.07121454462815963 -0.4848761431370411 0.36392302850498265 0.2426801707977908 0.2487523487538099 0.35115172497185215 -0.1759532441901194 0.17563940502557746 0.2934675500931611 0.1975056180829903 -0.12207044289376955 ]
[ -0.10898940344150124 -0.06768940448991764 -0.09541888580554038 -0.5112757125563484 -0.6002294713930614 0.35774454719244503 0.2741743176243505 0.004490932626686273 -0.04130606877579865 0.04199142125651596 -0.3779949708957228 -0.044450014329059984 0.4588528634045575 0.37391382023917547 -0.40425688955491323 -0.49108737132633895 0.00956416426881999 -0.037279577191528565 -0.31488693993528316 -0.12467483880644119 ]
[ 0.4689849331635174 0.05360359420883839 0.3698264875456762 0.15661874184739197 -0.28967356545269884 -0.017110018920433127 -0.10362379919532572 0.3472247901823647 -0.29606109966881633 0.3034872723799274 -0.0061338676840752135 -0.16362298769137404 0.08770451717134599 0.1136573141881848 -0.26490741051608574 -0.03141529497160938 -0.08458506625587058 -0.05538065046519374 0.2682361807651529 -0.13869059699809413 ]
[ 0.3724871935230608 0.2105676622091935 -0.27532263926491657 -0.2437401548274675 -0.16413997243153905 0.41555125073874527 0.19778452576500485 -0.2705102612969036 0.052357072212931566 0.013330858652112868 -0.32884835952877467 0.28247881286289084 -0.37834059531501635 -0.04459686742585116 0.31425067792795675 -0.19378992441846746 0.32006769862865836 -0.175044881883493 -0.38381667861160734 0.3586053695387728 ]
[ -0.15985250966435327 -0.2148857475974714 0.01971648246979479 0.7059067468294482 0.20586342946638678 0.14798607274080952 -0.12867352870617654 -0.11662442791292697 -0.17637727619691432 -0.030679750925193764 0.2375520074107204 -0.18030037644422867 -0.2249794832566931 -0.2596430774052346 0.1737297895237383 -0.6690811859493381 -0.5096367466986644 -0.3710963339102008 -0.1725512774713425 0.48035923389776947 ]
[ 0.37223239486042964 -0.03825299901799581 -0.3698999282896337 0.09855374444264066 0.13947435213355486 0.0950974505165013 0.07106238943762584 -0.1751971540012931 0.3472899320674932 -0.22502226709853523 0.20152407615070028 -0.10254561778778017 -0.06174832770638958 -0.17169134846753295 0.44208209527284653 -0.6050481668589305 -0.20977075619232272 0.06447891918638698 -0.21797883132226428 -0.03185866118132302 ]
[ -0.19068162308901793 0.06723110498253856 0.0048929165324250925 0.13410334750192157 0.12817169830976854 0.3427304901595859 -0.0671204684383493 0.0747862016199787 -0.03753178280055567 -0.1046209915439511 0.0024968724696991062 -0.046181838981940684 0.029682415858035657 0.0534423867889871 -0.0521741806094487 0.9785073095683794 -0.05616424468600739 -0.0015566820514325615 0.1604061265491323 0.050380531192438 ]
layer 5 Activation
tanh
layer 6 Dense
20 1
[ 0.06717840092143898 ]
[ -0.05797729413059601 ]
[ -0.19398443839200438 ]
[ 0.07248509250023517 ]
[ 0.0176019293610355 ]
[ -0.06142557936099388 ]
[ 0.013158016836733094 ]
[ -0.061267732119673686 ]
[ -0.022160221060095932 ]
[ -0.15139210755142327 ]
[ -0.14332575835194716 ]
[ -0.1675067479057904 ]
[ -0.24585848979140032 ]
[ 0.26293097482575356 ]
[ -0.07754502094040852 ]
[ -0.570328449868932 ]
[ -0.08337339877164764 ]
[ 0.004186883516251093 ]
[ -0.03061195212498222 ]
[ 0.1471921105951922 ]
[ 0.4063196002659295 ]
