layers 7
layer 0 Dense
20 20
[ 0.08940435427141677 0.8776862094990564 0.15967320119143555 0.21932035148251042 -0.15089409469321846 -0.4989291207458749 -0.0114662090111683 0.14151625999100675 -0.48947074327981543 0.8288836766308477 0.3416398760241369 -0.35641093249001377 0.2765100021656264 -1.9000415366453527 0.3932395417686574 -0.4446157263283921 0.7686394276594012 -0.14752893567221204 0.19668440897095826 -0.3505573707438774 ]
[ 0.20435045931965812 -0.059697479386537626 0.10906278131231674 0.3550705894164055 0.38672975259573056 0.2821412856776277 -0.29381662193707664 -0.024780336335308278 0.0625451024798129 -0.3724179177346799 -0.022245762404310986 -0.25310385472466024 -0.35057168855703696 -0.26695309387639865 0.35926019907210893 0.3846955162332908 0.17213116051673108 0.23150085300479398 0.07418226117071336 -0.3559685205618847 ]
[ 0.38603213152708726 0.1886279594000651 0.025272623436224346 0.025369973377570066 -0.06646246048747405 -0.2382264916014486 0.30013577566032035 -0.13496176098711796 0.13527888736333976 -0.012201233560153851 -0.26155624065099803 0.27823894170832864 -0.32930795226182047 0.335854671053103 0.17232739511931508 0.09636462620662567 -0.37935384025047625 0.1449779181882939 0.3550238514621097 -0.0696534996814076 ]
[ -0.07799184147058587 0.7217824316738528 0.3193531732968718 -0.08661940810672827 -0.1373135275230909 -0.2332584664379616 -0.2689620404914377 0.2708360211848674 -0.5270086882796156 0.0675000024157689 -0.14288422170677126 -0.3492924787474946 0.21533734543006736 -0.8645449914996928 -0.3929949627430207 -0.854693481968475 0.27949250406191856 -0.009753418893988163 0.37297565674235755 0.07448317882691917 ]
[ 0.8627887441778828 0.4190173424252145 -0.5118035034283376 0.09780367948682836 -0.6331888964803579 -0.8065268260283228 -0.3831595731552351 0.6625458416006225 0.07017794137237515 0.42071225669418183 -0.4553651629976779 -0.5047377251929532 -0.13023563380011208 -0.026047525677789122 0.8565236927057569 -0.39519973277181614 0.6906400948213303 0.7095975116288108 0.6393297464932302 -0.022651524473975514 ]
[ -0.32231758032553354 0.12433689972320718 -0.34194420579531076 0.20249432457214392 0.18957816280741316 0.33110727694430503 0.24447644194385212 0.07953423571474895 -0.37234040300145604 0.22307509224830877 -0.3493905539310904 0.3161600654397524 -0.2321764230061034 0.10342727743486775 -0.08321096758812892 -0.38558877548987275 -0.0325914868804328 0.16205386738100971 0.07733217277577531 0.18994841210601993 ]
[ -0.08466383268688989 -0.1263392450296552 0.2129579552747405 -0.3479879178771497 -0.34125557872216344 -0.3569864489860775 -0.08160815881526777 0.08063956647164676 -0.01686936639988806 -0.08301847367304993 -0.2173966218265201 -0.22957552894032637 -0.2763887551767565 -0.17811518183679514 -0.1386211404317631 -0.09839128067253972 -0.14082575750862925 0.2016721932475907 0.16644818603715342 -0.3108877950824161 ]
[ -0.22800530069695146 -0.07284904911481185 0.15489643192762226 -0.06151435756795894 0.641966829702435 0.19300379320034364 -0.3405757224550186 -0.10129495587434849 0.5752851284422686 -0.022377572983974223 0.6828800041644701 0.563250814241847 -0.03673814173558343 0.17920585123173982 -0.4311355739133173 1.0827421028158661 -0.8642566060995392 0.348861582662974 -0.629922178970098 0.018836249525138623 ]
[ 0.11577750573234412 0.4395093054413176 -0.8599269779649026 0.5791042061901985 -0.965062676214438 -0.4653724256282747 -0.18379652529766238 0.8676173554810733 0.08819380333298713 0.5864860832711882 0.5909088462644537 0.27922360745045743 0.3341915469272718 -0.8748987989537161 0.1565326613825894 0.2885659046088937 -0.4453954761819683 0.08436050864749417 0.6556993112145543 0.39907134715057335 ]
[ 0.1096983240961793 0.13648374100676341 1.0735850569044356 -1.2508795020179335 0.26071984165732665 -0.7163138936984216 -0.2787996089220306 -0.4265506839942664 0.030839570638075374 -0.19631364901293316 0.222906412605686 0.30905738124862103 -0.1484259502176434 -0.6166178598002552 -0.4727839779884464 0.15494481918720035 0.3976518526056131 -0.4957536971725439 -0.3014127437594466 0.09670197744784882 ]
[ -0.15924801597719968 -0.027130625803170723 -0.11622555295680773 0.14955108099380868 -0.5945400130184598 -0.49793823749923366 1.0216682482490762 -0.004024464563154627 0.18221159164887243 -0.8395071840452988 1.002660957640616 0.5986975415571921 0.07261183969942746 0.2579009306948933 -0.7111094316098154 0.22608893507319036 -0.040878373150581 0.49058006175255653 0.17933311290251364 0.6116341644319125 ]
[ -0.7945320417912108 -0.7248035767963806 0.02099258996872047 -1.2921691159871704 -0.6791932620741744 1.0061945281896671 -0.2503828367987663 -0.04237181590684428 0.9926288969317107 1.6035380257359948 -0.008925536643968935 -0.30304504227816137 -0.7722272794689756 -1.022044628789944 -0.9669127324502732 0.37875527105502915 -1.4339924816847551 1.1600834527951012 -0.8674316129466282 1.2532833852903285 ]
[ -0.19750118555757973 0.27445262065987525 -0.7076441497838648 0.2510367204055574 0.35815680270722716 -0.4401808571062975 0.6494448851870065 -0.4284355438293465 -1.1316438335905044 0.6915148426189239 -0.03446340297646181 0.5021434460069342 0.9472729836060562 0.10688082702229323 0.9635352880169374 0.31639307639063374 0.014625341825025819 -0.5656910119480776 0.863414322981851 -0.3043635886751323 ]
[ 0.061726577792227996 0.7436749314521067 0.047479948587871024 0.515219756975269 0.5866286861612255 0.7010013975080763 1.155833208512279 1.3642425615572706 0.03842242111119029 -0.271516365873981 0.03576087816347171 -0.4097578143236029 -0.12227371725623569 -0.1664923393002267 -0.430362764532621 0.047650923560940625 0.04327925493914267 -0.22414225386195913 -0.07912367361111146 0.9589768508803023 ]
[ 0.7137549749983659 -0.3918962573086436 0.9105312333745784 0.875174069939897 -0.494406641617655 -0.11460925848601672 0.355145580870521 0.42107548023201646 -0.016081951632032035 0.808883372541233 -0.3628240011082056 0.2166289284367083 -0.5462263772767018 -0.4082168219675054 0.6896635039591424 0.05598069493577501 -0.23050988439779252 0.2833126651949173 0.5584986896367222 0.2309561979630028 ]
[ -0.8176671846783162 -0.5103437460176691 0.013837340647810187 -0.7186867190609955 1.3155301691595362 -0.5860874308800127 1.1049311624230223 -1.1131400906468998 -2.8628350589773266 1.9935572503095327 -0.3386414933833283 -0.19784714237276188 1.0901814492179964 -0.40589117506088745 0.5609201546697041 0.4340979662385913 -0.9549606988824411 1.6927651799324153 0.2772161385727631 -0.8311585355175602 ]
[ 0.13197629970426322 1.1632025183343229 -0.5803730001478289 -0.18350142023013885 -0.8135620825420883 -0.6607930489897316 -0.9400407715876303 0.3804204110166468 0.9843241201354298 0.641655890925597 -0.33725653217170803 -1.0047409528618962 -1.1919957833014534 -0.4411078620158136 -0.08255774587745783 0.08872964917644847 -0.1493443467868445 0.39618853502942164 -0.6059925611273856 -0.795988228297299 ]
[ -0.6811024474723671 -0.14416434376969775 -1.2146210723884359 1.4879961970483853 -1.0688870084972877 -0.3803384602212522 -0.9566958522594202 -1.3738984956675981 0.27331252325312855 0.7637396525344097 0.0498251793870902 0.4732469785657417 0.052724454119330806 1.066513215821028 1.3560901791196533 -0.2392868012078378 0.13065315790759027 1.2623349392762448 -0.03760138702223416 -1.5525160711422192 ]
[ -0.8246717608427937 0.3122671708162885 -0.5676897546672812 -1.0456191933524785 1.4211625325190758 1.5721262944299526 -1.3665270015935946 -0.9324720799788893 0.23166125913943456 -0.09363014806872502 0.1496301635656627 -1.6227315187905607 1.214429999554706 0.8304201398174619 1.169302671094714 0.22103090284204305 0.10429296733862115 -1.0311196156850988 -0.4582959765062587 -1.0820449186004086 ]
[ 0.27860630037599554 0.9671400206290631 -0.4597589784594854 1.2535737848741983 0.4035971919318478 -0.3029351754928099 -0.19601492885280797 0.8165386993359222 0.2947597665399327 -1.2224871225860547 -0.029367937895775985 0.9416835780635967 0.6271412024427169 0.32544813115532695 -0.03675625363907252 0.23110532336008152 0.9336643113201811 -1.6349945041597034 -0.11892493706153827 -0.12038484404750056 ]
[ 0.0652147571248346 0.05445187937397786 0.2683604785017582 -0.16342380189208897 0.05288850931293772 -0.03567344504174056 0.1239787195779011 0.0923129655045396 -0.19022060462287718 -0.005541092671220822 -0.1198368491539497 -0.0067157370499984 0.10202664299398038 -0.09444625250771863 -0.08016573322010856 -0.6487162267326586 0.3404542780987676 -0.22045079340134704 0.3067134450156926 0.046996599398042974 ]
layer 1 Activation
tanh
layer 2 Dense
20 40
[ -0.11306641984900584 0.12079977186732714 0.9271996301751415 0.3295522075547884 0.02730298807418222 0.0050870923736604685 0.007644305325907218 -0.5234746796165101 -0.16339544349150503 -0.18774155140849047 -0.3369301065573338 0.11212213752007544 0.46184689442458804 -0.5578837687858583 -0.23635991050443356 -0.6528893926217086 -0.019005044755546374 -0.09038040415885407 -0.44205966108627537 0.4448744400884141 -0.1317236200629714 -0.3349247330925493 -0.3087263881482847 -0.03802397014322947 -0.2652428089799118 -0.505124126593039 -0.15545857351039946 -0.6117269099310196 -0.20563697792190988 0.15120446685585354 -0.040290367582358294 -0.28079518905120904 -0.2314744837915688 0.22692207928312477 0.2934142895255353 -0.29275202720911536 -0.02884975267866389 -0.32947318375851425 0.28440852553086976 -0.558138056453206 ]
[ -1.303414905327325 -0.6155902921590989 1.2239565772058418 0.2755134947204503 0.18789882549654438 0.22065415763517304 -0.5259229865975615 1.154820588232676 0.2709633225787263 0.6365633325738089 -0.8547855690655903 -0.13077729356574033 0.5709756038380511 0.09896375438697241 -0.10737582791303678 -0.12061566529280882 -1.104440327367288 0.199601142832427 -0.014394371586244107 0.9213451260116177 -0.8030246242619515 -0.09125785188473426 0.23950551076608262 -0.12339070684793857 0.00030240525051428114 -0.1318359426934897 -0.36410189283399175 0.46096700659226164 -0.5520540574670575 0.50254939823036 -0.1677729780123591 -0.10046160688821745 -0.1563479692985211 1.0855096100004162 0.8609223745499391 0.5167227437304185 -0.10424951435658245 -0.30611596400177254 0.2880434018956676 -0.18487452902921447 ]
[ -0.2777432985173275 1.080483686490948 -0.43487243562522976 -0.3636125451723746 0.30657992406251044 0.09460263599177604 0.12224644322382347 -1.2339992534744884 0.21474960751846525 -0.25515240810475665 -0.23201294017681284 0.22986705263759596 0.2866179396203456 -0.5567506565995554 -0.6070041103752022 0.12886347627306366 -0.057034450697415744 -0.395311964458552 -0.383825362715682 -1.0154175777250525 -0.5802589721455227 0.29575300297510576 -1.099911318437032 0.41200529119515034 0.5497904872411046 -0.04939032311427818 0.523640756865285 -0.25830087027657656 -0.053335291567173614 0.2010342482419097 -0.21877015590896073 0.809344414926272 -0.3964036219984735 -0.464655756959349 -0.16800362350424605 0.11065114331770556 0.02311375182833258 -0.16800813544535653 0.43868852017352533 -0.17088525714820338 ]
[ 0.55626117153014 -0.782569378240284 1.0291483912344965 0.051015156189747 0.17443404860958334 0.03025977475120548 -1.7332132691600595 -0.06763684897606713 0.8900824511415143 1.3301728527564969 0.1774614989920038 -0.05172153691713168 0.246990548270393 0.31604161844395223 -0.5046004188007366 0.8786445778119227 0.24196896619064293 -0.11082088179206716 0.01317262392443342 0.7050816495558294 0.2106596766150738 -0.320778899974535 1.0722525912434384 -0.22411173986669025 -0.20418158793326893 0.1748838493032181 -0.9292969850938615 -0.3091290143788719 -1.394045370343076 1.0127579889971878 -0.5596470580039581 0.9721977383123878 -0.9940075616212253 -0.4154222596524106 0.5355083595688588 0.34619908574632474 0.21544970659009796 -0.2518722033306906 0.5579987983170356 0.08465283297524388 ]
[ -0.5779498615450489 0.613199697441486 -0.1571206344419958 0.5975892589534647 0.0843801993513228 -0.0322139128145929 0.7941479419095518 -0.05615455247771205 0.25599238924715173 -0.8440496940032957 -0.9082555723137213 -0.041709411153525756 -0.10604600438385357 -0.05339793210730601 0.4000966276983088 -0.4935875957008864 0.5798522930011771 -0.4049539635973337 0.3651901231884013 0.33759225916314073 0.0032888764558074344 -0.4106715009093968 -0.12039668143514147 0.23817278040656417 0.9135822036986024 0.5350005129323999 1.0000913957089652 0.9043447877447726 0.35563349977226555 0.22658932359326897 0.3859061169254267 0.24451192101734828 -0.08687148404529427 0.6630216559206387 -0.12918803439801863 0.18114798798985374 -0.8497775248873327 0.6559693231158091 -0.17481208962985306 -0.6037472748369164 ]
[ -0.08006127544098364 0.027770367922034616 -0.29621728068797337 -0.0732900198786612 0.08191679626159533 0.09468154194331026 1.062834251709816 -0.24357428564363925 0.04113656941728378 -0.6789708216250903 0.4916015659643695 -0.11291136984590358 -0.37167899861695086 -0.6688320349380773 0.037941930834989826 0.2406570050302432 -0.4654792251707584 0.5090412078044491 0.9320550427102731 -0.6340093788676407 -0.6861706150691744 0.3256926028531775 -0.24988883101213208 0.23857990323096184 -0.4059426099211771 -0.8207781215290229 0.19167659566277814 0.28277708105729 0.3479192940248955 -0.35197891829945854 0.34664821113255306 -1.1848129798364455 -0.13110594773722858 0.10720671241667563 -0.34517358800637715 0.2548463064715091 -0.4378588197304344 0.6597562151953706 -0.273563516812204 -0.03599386856070837 ]
[ -0.17515600223826522 -0.6747944909715455 0.3423224045637359 -0.2798437916762884 0.22892764931856263 -0.08469952845233805 0.5417492539615464 -0.7134982867980109 0.5436828523807793 -0.2587839692327848 0.03144960932565889 0.11434776087301686 -0.655611257565092 -0.5978526188527161 -1.425602754230974 0.4622425984996653 0.6222167491518252 -0.40687040777581013 0.20809539720919001 -0.6971916232661176 0.10603543859582476 -0.16277896647151105 0.12208524748987254 -0.001338129847416968 0.7698402596902427 -0.19089193954443565 0.08203615204214655 -0.04669866337898371 -0.22619647687577835 0.6947746556750141 0.32032734517278244 -0.2073671905940858 -0.8846837101685402 -0.5310699610602255 -0.3291451017168576 -0.2885302879295978 -0.2704886967424884 0.07577629618909766 -0.011490755092108913 0.7659446609417294 ]
[ -0.3316471058596191 -0.6593830386764137 0.013107447353155909 -0.11027215401263815 0.06865967257900997 -0.13983498677376696 -0.2194398348587749 0.5690201547688213 0.6429757470652938 0.36839926457709327 -0.6920083022106454 0.01796307970238118 0.47008854758448027 -0.6614567258587277 -0.3228014267194026 0.02058302730756996 -0.782184088696634 0.4792047516223775 0.01631243972351668 0.20265301312648393 -0.12423774467645722 0.15514870241549258 0.15222546628762879 0.10529312853385703 -0.42885240987246925 -0.3743890718807384 -0.49321704973155633 0.5076416459848535 -0.7019926371238423 0.5092397375571752 -0.3428320317718665 -0.049421206705452456 -0.6103026546778295 0.09281300675473031 0.14125068056849535 0.3014113578797084 -0.20681763418509594 -0.0787353971620435 0.4460269211953105 -0.3919138801732829 ]
[ 0.027639658263938646 0.12209709339300566 -0.3375651870754858 0.20494299656924206 -0.5242832963575538 0.7888035939295643 0.11076799545386434 0.24603988989650938 -1.2987087494718055 0.1364419009626054 -1.2675142211346295 0.033967359831930194 -0.007811816731431158 -0.09955894112649151 -0.058170657871148904 -0.015362708647069522 -0.3396458730272377 1.225166528627335 -0.9124937722282679 0.5189114634188754 0.49868406501160467 0.4291103288933481 0.963462451302737 0.2925824395649535 -1.4937492005575095 0.42179543549104714 -0.7697397906080311 0.9527021295462899 0.3168782348548445 0.07083985740886611 -0.7576066834660956 -0.6261493740825593 0.3871096539230946 -1.1520175435807964 -0.3941299305745136 -0.4275138042541186 0.16712365950873143 -0.11884063189247926 -0.0986156270849824 -0.12644421989897628 ]
[ 0.059644888988812345 0.15086127067813268 -0.7359289330070538 0.08823448201017263 -0.22652604127226736 -0.2167124801024028 -0.0009799887988885857 0.04518520771437097 -0.47561582030476934 -0.3291611802009061 0.7862233372480767 0.24356060386506714 0.012960091818881638 -0.44244735414519337 0.1813673496478859 -0.3090520869049192 -0.45386666426824235 -0.49180610303762645 -0.22316722298556052 -0.8598954856695377 0.08515069181035227 0.3654270767178574 -0.5867362184421379 0.08585016990799856 -0.09034692255163834 -0.10928085124039191 -0.14447229390487562 -0.9953902630294423 0.887481233448344 -0.41823058229352916 -0.026934755090421623 -0.3960498811737954 -0.48925739824919756 0.5322064183631413 -1.0369417999173398 0.08425027041734531 0.4293264374136104 0.1237606126161232 0.442489330299834 0.1772593576913552 ]
[ 0.4906977474694499 -0.17679103799067342 -0.3471930513072311 -0.06829432574786395 0.2042156658780057 0.15564387110224048 -0.18448361709458308 0.10506866685650203 0.4770340286300983 0.3080691643113014 -0.36757335287310106 0.341825856876354 -0.005167928218726093 0.27713126378593533 0.03671325057112692 0.7540276360489951 -0.1481861549244266 0.2386708937731898 -0.5071771768883037 -0.32978345468989584 0.0578494077926327 0.41065687915789806 0.21766945787604441 -0.20605658698769203 -0.08190559314248586 0.08275343107506704 0.5754870501247474 -0.268445276730521 0.42279347950642715 0.048674649567660995 -0.03320720383299264 0.3580558864010258 -0.19658573563429732 0.053546376562719496 -0.6316202800939374 -0.055393574458301356 0.3874817258761594 0.41565113680005944 -0.17054555350770775 0.05364688195110731 ]
[ 0.4694814818184229 0.23115906119162288 0.6201606135033507 0.6929432369142622 0.7057601188538504 -0.3445937549855455 -0.6307388577182955 0.5002558387706527 0.7182017129310257 0.9089831517727472 -0.895749436980358 0.07064831058439687 0.47748248600430715 0.12359024586497683 0.47494557481792865 -0.509966319125644 0.4202312454724212 -0.2690729820247071 0.12157525172655695 0.3526715476035263 0.5804854449239694 0.030844397121258398 0.4739936414919787 -0.09091467033561274 0.4728086698511043 -0.3337009999793674 0.12342404481896202 -0.2926837863174456 -0.7218663182914707 0.17414697440916757 0.17237444262161397 0.1068174964904162 -0.7728725825860985 -0.2600280059698836 0.5509254015043576 0.1447961139670265 -0.1477027302730336 -0.5717578256981106 -0.2030324733242969 -0.1902097887335424 ]
[ -0.684983541544191 -0.6315614125348116 -0.6200763843247246 -0.09365966608005233 0.34289679864432193 0.4190938421165836 -0.15706591501803827 0.3902122997493666 0.46526435506678965 0.14278604380369989 0.2491166346234172 0.2852827340696615 0.10163999932474597 0.5132661459731224 0.7333929669924854 0.4943860118950577 0.5334071518540021 -0.29237455622042713 0.8163600832506243 0.3508279246618443 -0.10161517227707163 -0.4138473249785976 0.45076186867868284 -0.040068726779491644 1.0205789174605853 0.1429794067566953 0.5820418340203198 0.02646793951146037 0.20070350631044084 0.21656144245815415 0.477092227961703 0.9460458078625434 0.36019986813177624 1.2855331596731525 0.12301195743866003 -0.014094183167013065 -0.29256588157815 0.7334634146996141 0.14184247581526002 -0.2698468778017454 ]
[ 0.04212751949957557 -0.548249848503287 0.15509647075294153 0.00298615949658543 -0.0066527565029191665 -0.40744705797178954 0.536860040836416 0.24710788550153323 -0.3058215182072384 -0.5503464282461452 0.08343919791189405 0.50664362907421 -0.3294286750210253 0.16641342254678101 1.0539183849301041 -0.1899869463208327 0.29610864101108925 0.008785367688864808 0.2356436484044354 0.5265133623842333 0.8672238085493564 -0.33066291064513914 0.5705104755491953 -0.36517734739463403 -0.17134833319419973 0.031863085399615874 0.19629972635899343 0.5454655141648653 0.07219964509628563 -0.42087100806169536 0.17173895403113043 -0.2875030393031771 0.394032675527181 -0.22918878371939264 0.7083022586376061 -0.19706089884062494 -0.1640572710564853 0.09935627320244281 -0.36193036253201066 -0.28186100024073996 ]
[ -0.1928906635049821 -1.17087108422229 -0.18566635149625194 0.4732921625855199 -0.049282293079879635 -0.5193956486631922 -0.4911663076326699 0.9330591279964884 -0.15374848253654183 0.6792599356912873 1.022658621273029 0.10119864111684478 -0.03821491205431028 -0.07963609102832489 0.5702746128318384 -0.7830796244467308 -0.25343717680466066 -0.6498144746315939 0.4134556856327586 0.3946335826768641 -0.013215519678812014 0.06667907921450633 -0.3419529384593336 -0.08244987856405121 0.3964659049098527 -0.30862472156412113 -0.3021974292907361 -1.183160914171042 0.061441181738398166 -0.4632584268751918 -0.13739175948700358 -0.3217741792546516 0.9419337264900289 1.368794057646366 0.016978980866499332 0.5251840116371547 0.2393339491857399 -0.07597619875790164 -0.0630564185233872 0.7354696384453451 ]
[ 0.2848456931623284 0.29394196691319535 0.02185681228423566 0.9264161142045702 0.5638800866299191 0.6448037038587131 0.39104899891051975 0.4431929064013621 0.22780603136592795 -0.3498110108293912 -0.7339071548852215 0.01894116288162776 -0.4472566772544478 -0.04423251664910558 0.3936554037703197 -0.4284000876506255 0.056684579272193156 0.6064706948638169 -0.36493571486028736 0.27284554357401214 0.2877762836658525 0.05093036223515574 0.20655101002454382 0.2570824880938164 -0.30453327802190866 -0.29782818392417487 0.3032648325099521 0.34020694720764044 0.40651245070638753 0.31981550376818824 -0.5456834919143199 -0.6768112062538041 0.022423119413956697 -0.09452182897496215 -0.6580682205661883 -0.44495995806821304 -0.12444092665985819 -0.17605644353620387 0.026041310359481557 -0.4762926984295697 ]
[ -0.5638867430279685 -0.9117211897458648 0.8645136928494227 -0.7516386954126781 -0.00394254729369152 -0.4019059691679595 -0.7135979933766035 -0.1257026696259551 -0.38936445284782206 0.36147264622142256 -0.010653775787764871 0.2473717901365449 1.1681501516180772 0.5670827772859984 -0.1551130954322984 0.35209161316437515 0.3392139018386875 -0.6836679017558264 0.4683543389762414 -0.6033991051017404 -0.23627092222631535 -0.6101552538907168 -1.1077655601268381 -0.540733501714185 0.15498073823132136 -0.19103439549306392 -0.32516212441006215 0.03146097621480294 -0.6123854387198635 -0.2513638489410396 0.893641575470254 1.1727247366700346 0.6757248623413186 0.14719512233735388 1.468124703285507 0.37998267702831146 0.6062364258587107 0.17926860414186738 -0.2459658191174343 0.4669272185198236 ]
[ 1.1789297905263192 -0.5482917972128175 -0.4690055525486288 -0.4915915230732359 -0.35338841406298604 -0.16483900136304516 -0.30569693894102373 0.6051975960339806 -0.2368342144316822 0.24173162805383153 1.072216174803354 -0.31340026582130087 -1.3643856098733678 -0.5358701839579628 -1.1302997110240665 0.20141431068576124 -0.7402709968683961 -0.283422692057507 -0.8731435938887245 -1.3843789582332837 0.623765891086621 0.12776926255689178 1.1079005972476115 0.25913263283313287 -0.49114796189902654 0.48748458077781576 0.050920304466172496 -1.2319653939928155 -0.05096451096307729 -0.2757208189370678 1.325007067002666 -0.9311732797884265 0.3219288863912958 -0.47909117928631295 -0.4418742665002766 0.25442842033104335 0.3293376907101137 0.17280042143350616 0.8520368638414757 1.9327625656676546 ]
[ 0.08277854681766411 -1.1481120149977748 1.3310175292290367 -0.5638080434258116 0.049998759921112884 -0.5121766718833626 -0.9059414928473883 0.04843581641537384 0.3275089443944665 0.7291846670928044 0.5899902866034611 0.4936039591745143 0.042236663206565876 -0.11940947333683977 -0.5886435915849558 -0.4382454082605352 0.29595532239640115 -0.896045318392004 -0.22782564753951307 -0.14480026805295546 -0.4650208335839227 -0.18477015477665365 -0.4354463004895157 -0.07292916866018546 0.21822704622736547 -0.8882469017126693 -0.6898343962351632 -1.2547413785431876 -1.0144728211605334 0.49871286905706536 0.08506175889932661 -0.03641545948586228 -0.41537458120275134 0.9421429410986124 0.35063530121781583 0.24731820523947196 0.4290855258294677 0.3441108081764203 0.08226993209000104 0.4634267450825955 ]
[ 0.49029142392553243 -0.1121837435327016 0.3111130340745195 0.46806181585474016 0.06010482626085266 -0.5839913385944243 0.30002823977623605 -0.2777300740391464 0.653509000523443 -0.5669638437461861 0.10792377034170794 -0.12896935415878524 -0.1455636853933607 0.2048782273778697 -0.19938190053749885 0.15496720738302872 0.3434120465892826 -0.040678207861529814 -0.20775635124114314 -1.2983138649927268 0.09173328326508187 -0.0267552171340075 -0.030590765145355293 -0.9266146697759836 0.13818158267396669 -0.32575035913783323 0.2912564111839723 -0.17702418990975521 -0.4666050141612308 0.4661165459959496 0.6452580544161085 -0.02907725305725445 -0.49873052320207834 -0.19115095852835684 -0.3364466461241515 0.43563941402171286 -0.7235139594702644 0.8066642817199731 0.07756895458826499 0.4835429694338353 ]
[ -0.17209126471830338 -0.3832709267142793 0.1910492979989691 -0.6757892994636729 -0.1110183310288294 -0.511674271291009 -0.18695438804328166 -0.3377720496279443 0.07291690514539899 0.4411121738105224 0.7264517481400103 -0.09039515474941032 0.3666572828045219 0.041748616484646194 -0.15817383872110358 0.5023409371000077 -0.012054264513092942 -0.36790461542907626 0.4475340365058295 -1.2056743112537485 -0.29194612170691464 -0.24804318446170218 -0.6179014081607646 -0.4117657299649177 0.41637461318339336 -0.005836624200979712 0.0791868601161308 -0.22400391209264583 -0.4932858768853919 -0.17063814271791639 0.6533835761751161 1.1455902813684287 0.030731474088191803 -0.02984743220237747 0.7547757064687424 0.17566530584767395 0.28567013611027003 0.23966785579878647 -0.10020591883034322 0.28297968897234127 ]
layer 3 Activation
tanh
layer 4 Dense
40 20
[ -0.27670607711796563 -0.21646955467528586 0.490622022693343 -0.22669820156091966 0.027307815525679645 0.08063164117332752 -0.30971326667775945 -0.55221648431454 -0.3355875680833753 -0.09951082199249779 -0.25802283708840906 0.33013597841013126 -0.05070465924804755 0.1921413988910041 0.28828937117561765 -0.4010865743234051 0.648869120879094 -0.08481819768678 0.2738314886106798 0.027616210127682908 ]
[ 0.036497183349717896 -0.21501811305920937 0.3305423067847252 0.10641328531159511 -0.5002887690822275 0.07575240182705972 0.2759616649635176 -0.6548743832991287 0.5124311237866168 -0.556108869147415 -0.14486074893375578 -0.8990039225073172 0.5933811925850431 -0.4138094160264823 -0.5836132211549346 0.204148626295883 -0.04803238796976239 -0.28233831914570223 -0.22357971509282432 -0.4333616768859039 ]
[ 0.32291868481151986 -0.17297836653429133 -0.02370217935690547 -0.46673940168709427 0.6406595720540581 0.019419796054418955 0.3581327131071805 0.2950087801398259 0.5025853244161961 0.536665239402541 -0.20925269130546464 -0.2697573573227088 -0.22467565641129972 0.5201723015602334 -0.5271192741644519 0.18997556957176526 -0.24597336351716198 -0.5673389749927887 -0.4307305296662488 -0.16526831217131466 ]
[ 0.4814267295071145 -0.2356073783070479 -0.10212717942570615 -0.31302174656624293 -0.2569035503242728 0.7954388350559548 0.13860721328654982 -0.09557140810360809 0.5069654120890486 0.2530908345117228 0.201056149850912 0.23753932987441592 0.3063088809095617 -0.4133960553612018 0.5714293912138781 0.23119882187516522 -0.3461677762492497 0.05026525854943667 -0.33746468623420317 -0.021613036972353603 ]
[ 0.45308765074326457 0.06449232281038246 0.4741309893798599 -0.37947379770149786 0.1203369687662512 0.4413760170250729 0.057225541958311546 0.33480974740765607 0.026457602538316 -0.30027836822672327 -0.21289368848769433 0.021027826176007788 0.0017031208666497984 -0.39900713068011456 -0.20677072876512928 0.07089489830698018 -0.1787115677025106 -0.4537905398301973 -0.4519892179669464 0.3128279944484639 ]
[ -0.12370218370200461 -0.13767388444892673 0.08576788070844903 -0.0644174608695892 -0.08838034921638781 0.13051985678780667 0.05533979431885796 -0.3202183826520003 0.2046697259070167 0.15963434558388492 0.31301949950098423 -0.2473566931123786 0.15398674537295978 0.021579871977880964 -0.3438498190500436 0.33604894411506336 0.01929656091249158 -0.33141018708469394 -0.39422952008120843 0.18649175533212742 ]
[ -0.3602700937052756 -0.3937164205592645 0.39377162230117896 0.3310922195637406 0.0016917752048562305 0.018786389704429952 -0.25681164742835577 0.2231346304663687 -0.3880904249052972 -0.7835136262148189 0.14331104913766776 -0.9620913823308309 1.0340338266708156 -0.28032921970712393 0.2725056640148072 0.6270541308149649 -0.36047028163974637 0.13587949946291222 0.0992722320946557 -0.26968720338290936 ]
[ 0.2476785713532315 -0.2131387520085484 -0.37822816281226723 -0.2565111119358688 0.24597162057559324 0.3437195486426368 -0.14504321558366282 0.12452151088212257 0.06814443993175616 0.21982317199337434 -0.13690917430054303 0.33249246837420865 -0.11334580675804823 -0.36237776066411254 0.0865908998788735 -0.6455857903614713 -0.29912396317349554 0.060594853875873614 -0.14066181276348902 0.33675501244225825 ]
[ 0.5386035929641084 -0.12592331477302607 0.6133144973452106 -0.548626316705955 0.1367611391593509 0.36288902903606723 -0.21434705714837393 -0.08597304755573734 0.01353256812292719 0.31834768050428197 -0.5393262699536245 0.2281569490244541 0.18975233087255583 -0.0896319148187612 -0.005146079115511137 0.19720969989692758 0.01809495647737434 -0.5740924732331585 0.5163852391491599 0.12756168805616278 ]
[ 0.4549077032942046 0.19435144926793108 -0.5213033463688374 -0.06335977884478708 0.05943054969932373 0.1099759099661987 0.16282053830192048 0.07719189969244443 0.6902135550470272 0.8087110095277067 -0.2524952862435025 0.6403419920305498 -0.9566047730128683 0.03794881362639067 -0.5562983637007812 -0.44829688464147177 0.31337329886775944 -0.18141108408924073 -0.34355363378622084 0.3194819062560441 ]
[ -0.8289719532682571 0.07747542977372122 -0.34791167119595423 0.5400193095530214 0.045052754768701256 -0.4845548305352914 -0.17687074158757268 0.14511650268645387 -0.6269460392043935 0.21856533420472474 -0.09005757281299259 0.3883496321243055 -0.6468618050488792 -0.15111062508601814 0.6435329865452539 -0.23945215075682033 -0.3046526855546928 0.026788965974345578 0.7177992039176809 -0.1597666132505719 ]
[ -0.09708115947225535 0.07791445768908223 -0.15936193604718532 -0.004093670795801502 0.03172329460717097 0.1133783108391782 0.13333812613540041 -0.046149143350556636 -0.207938259459993 -0.1608522221965617 0.048298241792887914 -0.0713116287543099 0.05676995764107668 -0.16218702063093557 -0.26015604197047215 -0.0006547599008855776 0.0785789335201847 0.17048387136682422 -0.1696645497144192 -0.23974076413741907 ]
[ 0.9252314733231921 -0.03962209726735141 0.1494845556652462 -0.008631648216934983 0.3553206612284214 -0.41906105933721816 0.01940690064816095 0.6363866304793003 0.22014904334025853 -0.10303517342785322 -0.1887417551441426 0.3869261085824827 0.09326503652644108 -0.18404501941484747 -0.35247446894279016 -0.7802767497912583 -0.7969652239405762 0.5872461884347827 0.16162238283461924 -0.3400576898009238 ]
[ 0.619481139380656 0.21248408013861325 0.06336709614531195 0.4900819607526476 0.08719041842871153 -0.2980433172167712 -0.2549064801811882 -0.22234763203868393 0.12117037034941318 -0.6076632427322013 -0.05561648720380486 -0.07497018016571745 0.051798566865870435 -0.04683833507079334 -0.6002960674937472 0.1079403577386838 -0.16530320982114036 0.41126132051987935 -0.22319936533291201 -0.034545106620796476 ]
[ 0.6314684696683466 -0.1217145441866555 -0.10786921836343424 0.23423592095277618 -0.31835794456696986 0.1353218683048681 -0.07007136293201555 0.07872399355908719 0.07256952348235672 -0.999929674769452 -0.38520915147570917 -0.24392630155428435 0.46345518813486347 -0.5666410420145273 0.4380975168555344 -0.789356299095422 -0.6494733651591125 0.6546938838502654 -0.15429044907140213 0.027980051508705642 ]
[ -0.09204612387053923 0.2792524180689127 0.262204844197802 -0.057819386429153255 -0.03202786351450279 -0.4209917283774486 -0.4888492891686361 0.0746559507912104 -0.6626347537899472 0.5195743535880295 0.018154538647429382 -0.25366912262005925 -0.03851510126542059 0.29942001152057895 -0.28538495725079804 -0.0015078476221999427 0.39176116342050205 -0.6685065820105235 0.5082260962660593 -0.587096245239021 ]
[ 0.2887976351238055 0.08812642721956519 0.5520580153751059 -0.2873359319573612 0.2649751719642645 0.3100570183655123 0.3798281412858994 0.6726792967378937 0.28833450377889963 -0.5658530232052968 -0.24475113119194328 0.23724741389851947 0.26260302867757707 0.06615063258287011 0.13034203439598607 -0.17579945112270282 -0.04271692202739837 -0.2756510449597734 -0.07851204251250052 0.07177071040876774 ]
[ 0.15042054591650322 0.1417537298731265 -0.29165712212466266 0.028479373828631728 0.0408908380692886 0.15281922240248136 0.47968501083700343 -0.3365418482152082 0.29447330857838494 0.08892172187835541 0.5217672583463826 -0.30549680891046216 -0.16676657350719223 -0.16148777574425482 -0.03388169331057605 0.36745955168461175 0.704785879972361 -0.6646918893893052 -0.7718218341587939 0.2701455680024059 ]
[ 0.2590439422149047 0.49208724944718585 -0.2381987198102981 0.30439405123851415 0.3779662733913471 0.2608374168700255 -0.017328122555386273 0.43615320468287233 -0.002837329954861154 -0.25787535362499875 0.0546562534049361 0.12545998174209566 -0.1977161684003782 -0.2449787945028173 0.21632172879145536 0.06513055455471096 -0.15410003457510602 -0.20666178344168704 0.15977256038649112 0.2982751072439499 ]
[ -0.10249204023669112 0.06323255772110106 -0.49756191834510677 0.6483715152874849 -0.8446592063165171 -0.09133804033643167 -0.04379434750566654 -0.8792821548849822 1.0839093235717143 0.2389514189972687 0.2632365635859395 -0.5076662559384036 -0.3727380619943444 -0.35575265670973283 -0.24885719028094677 -0.2726383973780921 0.1901271302625782 0.36747899248375054 -0.7534672859673307 0.39218893833336044 ]
[ 0.3696350147600358 -0.024670613930491768 0.34424556246971505 -0.4941033628041926 0.01908908766685804 0.05985588587721973 -0.07029497053269104 -0.12203446526137296 0.5819165581473843 -0.9812602672068441 -0.3209038449993698 0.41871824527774065 0.30414092026742284 -0.14428877487211614 -0.10910655095537178 -0.20802659807355603 0.11273731409538441 0.20629155569892962 -0.22904115211090972 0.14282554661570507 ]
[ 0.5724570839712043 0.17343394893484806 -0.14379406815666668 -0.12142104220396362 -0.09124709290350888 0.7506079707773137 0.11293876948171623 -0.4392909088647169 -0.16209244719834426 0.22991245830504997 0.3422851512715984 0.07732217670476796 0.1948816588231861 -0.03070860514830631 0.45917051573140505 -0.12508486356700882 0.33457301811543183 0.050619687770320616 0.2040705526133102 0.23942650359695583 ]
[ 0.5991357749156155 -0.25378370626331925 0.6519382204754115 -0.6045159273314245 0.7688472069429343 -0.04908555896090794 -0.21719411367902802 -0.24837808973812192 0.2719536766537975 -0.0060091260069145315 -0.18612803451136914 0.38341906347384 0.16096336005308062 -0.0033181712546184 -0.13719048561556546 -0.6125736427498635 0.263324029597519 0.15439875026182928 0.10001000573711397 0.4189212520154341 ]
[ -0.2518786030384574 -0.22930791301292022 5.35349342108912e-05 -0.09625180788084697 0.043387155638624324 0.5439527019590787 -0.11829185167970979 -0.0692442851028358 0.42988488177683193 0.30222651958873054 0.4268018961493305 -0.14601716276375046 -0.1041111331597043 -0.1476373593647284 0.2589552435718236 -0.09828323269062712 -0.1260111154441689 -0.11126634347368503 -0.49887094944266286 0.04399664374172812 ]
[ 0.04654926690154595 -0.24667812659965652 0.3165297255126878 -0.1670487790192993 -0.314021237944248 0.17498930874606308 -0.10474721798468603 0.5856062961980748 -0.10988060022325896 -1.0282185959510295 -0.5883546426396705 0.025519306182046772 0.5120109967364077 -0.1587692919125978 -0.03564231169247789 0.4043524386388148 -0.5348316235110252 0.2702962049609648 0.07782050692791956 -0.1819936204404852 ]
[ 0.15963961522597253 -0.4077800458104643 0.22293208064965134 0.10446208444336973 -0.2217623055603697 -0.6836522565572599 -0.180173083445904 -0.08147251911739081 0.18414825297919543 -1.0048669636162169 -0.2570750140245758 0.08653200133481974 -0.24039835476273305 0.0834543024199617 -0.19641305540738405 0.2701341282055337 0.3809462666623388 0.4501874489601814 -0.16276976779632132 0.18746355738338022 ]
[ -0.08037425828961249 0.07616940231669714 0.10296120327807085 -0.04104726945669799 -0.24466544796070075 0.08144251362212118 -0.14130708669335704 0.2526452845024352 -0.4721214123855336 -0.853301078150055 -0.27412074390804575 -0.43555314297322895 0.1816159595809021 -0.3798601437300491 0.08779640706231498 0.28086099339629017 -0.2961378792834013 0.1228621687268451 0.33115697575603953 -0.025168574260103563 ]
[ 0.4452506065399556 0.035977493874952124 0.6563738178355087 0.047016152919156486 0.0005371725398468628 0.1718090091416314 -0.08877371709653625 0.05470850410920782 0.8421074052963406 -0.24902354768876367 0.2673026155473032 -0.8947558877590788 1.1320868819045018 -0.3594489416757239 -0.28316626824996277 0.31981715693106083 0.07802524477122669 -0.22299264097897192 -0.5384947887711121 0.24886618020825432 ]
[ -0.6948667514852326 0.2572682981117721 0.39332981148511775 0.3581764320469345 -0.5164855519393076 -0.030135843844328443 -0.3616854320123204 -0.4238357950528067 -0.22795243114982167 -0.5847718726323895 0.2715536741816768 -0.20930810433708485 0.1943297079972284 -0.38029633798228013 0.33904485541915264 -0.23117346300798788 -0.5419080509477655 0.525462095909411 0.1261129750309984 0.02283411548519095 ]
[ 0.3965289858622448 0.12545937375841223 0.3149081888710017 -0.5940424930355167 -0.0701116608563602 0.041212171593829824 0.049417173551689 -0.5300330818759305 0.3731079158319446 -0.1768422917768734 -0.2791200708976456 0.09189284089090524 -0.14479721098093515 0.08477458511179047 -0.35063228949400516 -0.20320647116170354 -0.18573394518637482 -0.6911654166865604 -0.07681434770725802 0.17935441418039927 ]
[ -0.4701628835132291 0.21079628759725008 0.4366194768428252 -0.35247271946855907 0.18585722091665 -0.9634058066538297 -0.19719858159361411 0.26206810054092616 -0.2787727920597363 -0.11103546466556764 -0.46644783616048985 0.12431933891265785 -0.3000352317698784 0.3790886789027632 0.17787430814993652 -0.294412483405132 0.07140924837693118 0.5862783366955756 0.6877079012374745 -0.15456208134328195 ]
[ -0.07007516456574722 0.04284126686999726 0.7331315024304418 -0.3002089325442701 -0.5868245205865446 -0.09040396991788531 -0.05921492691318048 0.3231086022204363 -0.7902342923899726 -0.6383058668817139 -0.797215285207225 0.3700863504376981 0.13808513953944176 0.2291532378574737 -0.4900933987509866 0.12693748843840258 -0.38110209059137135 0.35365817143268136 0.7415670417776207 -0.7004373151108977 ]
[ -0.44268398981908824 -0.06406988843333367 -0.35017464325814057 0.6721058659991423 -0.15960990686136145 -0.14218264123575733 0.13200993740106276 0.6593638642545845 -0.09404325679630603 0.27173611244634516 0.3280696026299203 0.28379731264309727 -0.26668488185536815 0.051200722267987546 0.04045813090215879 -0.3490893818419051 -0.28957676519637976 0.7163640327845326 0.02660489441798798 0.14316299502186255 ]
[ 0.3122275679200316 -0.0021478010505448205 -0.3236482812598581 0.4468065002807362 0.17416965405838825 0.2329440705250944 -0.029508002303849274 0.7687744430997652 -0.015530957092136892 0.5319565659358192 -0.41625401762033015 0.17248085155932166 0.26519898309911616 -0.19372641855164907 0.09884850355161479 -0.383133605351008 -0.31734959796510553 1.100487858053009 -0.01802091775368593 0.010279993636601785 ]
[ 0.5587854467296938 0.3216652959249559 0.1185318653203142 0.1681359645800661 0.6303836960205896 -0.5523715969167105 -0.08068991206258644 0.8110598207445203 -0.2368711067592519 -0.41147222940392153 -0.34501591896560474 0.4457392035753492 -0.146813899717206 0.27546203000322267 -0.46160639750114335 -0.03633712701802181 -0.30483997840648724 0.017652874053107052 0.20418784338946835 -0.34022309760374725 ]
[ 0.05371609368212279 0.18329594583177475 -0.3688072466073096 0.10112129812004984 0.020605245590681016 -0.4712148200117006 0.048947623993723766 -0.06254049238245471 -0.07051281899248912 0.5876175479116852 -0.2588852054328807 0.010960543322221423 -0.17136983949686294 0.1617669750512077 0.008351111686638487 -0.1856888404092877 -0.1367910206843182 -0.12652725253477012 0.050742988022677335 -0.026934657668941188 ]
[ 0.21371225302175978 0.27241689701790234 -0.7002910445706615 0.7140267185955851 -0.05862435952828061 -0.12273755714945812 0.05544545273121091 -0.18796830944916745 0.006372825036592211 0.23846062694861958 -0.13693001027302149 0.5529721002257773 -0.49903251619567857 0.09712112927212019 -0.31890988102704554 -0.17230679461607526 0.17612386188846807 0.5134062214182756 0.18782614626251565 -0.34222006313807024 ]
[ -0.3768743352625479 0.12699843863492966 -0.08073355873593244 0.08259073487922322 0.10867629631266477 -0.4358005990709707 -0.02410535617283331 -0.27093931819856354 -0.47327745476647487 -0.4456126239795697 -0.2510953315679358 -0.1589193840512622 -0.17583703589411256 0.2064996397279368 0.1623722615709347 0.3364263682903127 0.19318536284047708 0.1698867664815052 0.6301772874569387 -0.15653714367079086 ]
[ -0.3225460590912135 0.02968086055221755 0.11149746990547775 -0.19651562414347898 -0.34761075725833446 -0.02424483336035302 0.025311993846505978 -0.4750744912433037 -0.08412460761746986 0.06648434098178309 -0.3126101797110836 0.191913211300276 -0.3483479329875098 -0.056396990712898866 -0.09886002360781908 -0.017851739904413782 -0.0006397545069319128 -0.26369848090337983 -0.08762562340845384 -0.15766912005099262 ]
[ -0.16234419273072254 -0.05755607452205747 -0.2727780966224649 -0.3076176475215128 0.46717848000716666 -0.28828217674065587 -0.11015107653302225 0.05740159353499326 -0.5684094913426492 0.22641478274997437 -0.18233014824901578 0.7396709743685924 -0.8431671752822766 0.7675960155028678 0.37254869601132756 -0.3793789134896952 0.5771252831958743 -0.5102799459015748 0.2282353411296257 0.0674219474469037 ]
[ 0.025364429656808837 0.1329451359430211 0.03875244097238701 0.1887681866105247 -0.09231394028286853 -0.4672587847717811 -0.028021947903172497 0.26465299387714175 -0.7707555563824028 0.3049007394890068 -0.21713975015154738 -0.10650912432111556 -0.38780395762452 0.32761272387972434 -0.14176066400338677 0.17285298145048222 0.14485659499605358 -0.10727608852376802 0.566080380930576 -0.5742397976309204 ]
layer 5 Activation
tanh
layer 6 Dense
20 1
[ 0.0817572739353948 ]
[ 0.008905146857948186 ]
[ -0.09425645845732321 ]
[ 0.22429395890280265 ]
[ -0.27242369608418215 ]
[ -0.21909037725906697 ]
[ -0.007850597135477255 ]
[ -0.25797418280135415 ]
[ 0.7611697746290823 ]
[ 0.10024171399278399 ]
[ 0.26171830003538454 ]
[ -0.306617201080464 ]
[ -0.27847835070064514 ]
[ 0.2547439276830689 ]
[ 0.07085883626890872 ]
[ 0.16178931849207862 ]
[ 0.14289647922440094 ]
[ -0.16594584958530398 ]
[ -0.17903739231771543 ]
[ -0.5848507163590382 ]
[ 0.675888538606492 ]
