layers 7
layer 0 Dense
20 20
[ -0.7963969321520283 0.9994013738872611 0.06949679676089873 -0.21273641506630436 0.23062877602386514 0.06911599998711311 0.5735491956891309 -0.20056455476028545 0.44238641433614445 -0.16279028582153754 0.7405916605790258 -0.3078358906243975 0.19290128362184875 -0.3191475379756243 -1.0971971154311635 0.39657013531603896 -0.3360217778018409 -0.30990475406683476 0.039125144151387875 -0.3931337964046728 ]
[ 0.14930464584096687 0.06606068072386712 -0.0820606538876655 -0.13904700998569167 0.3184391746070969 -0.2083194920598718 -0.05851123560930903 -0.32457952798855416 0.3730620727808595 0.055434103596994 -0.05733566892868981 0.17660338583999166 -0.15718765711382865 -0.322423716413925 0.03961181337201622 -0.38341114374038293 -0.005939076574077711 0.34688018237057683 0.10580051676529158 0.06780385252165853 ]
[ -0.31226415569998095 -0.2088069534800709 -0.15709067540957597 -0.3509338519330819 0.15331337088694608 -0.06972029502215389 0.010784868653413309 -0.12307619534977104 -0.37184849719650703 0.38650033936120426 0.24920209564032053 -0.07311297048028131 0.2520602799432208 -0.0886369011078592 0.003437538721819495 0.1909847647941549 -0.35007557909026443 0.29372480448437854 0.31806973973826413 -0.3830771767482657 ]
[ -0.48074623290272506 0.5198250690713676 0.24394369763892718 -0.08435382423129612 0.023078523913557674 0.275268736521329 0.17991457528577326 0.21837805129646715 0.45873557147342203 -0.033016912795562944 0.4396561315682274 -0.17213637251960298 0.42215313389133724 0.09608843539857909 -0.8374086941467437 0.14014242590231826 0.343779819036893 0.36459889854922733 -0.29193408180876346 -0.19156050073434475 ]
[ 0.26149848691795147 0.4975056388718769 0.29997318973431913 -0.2802789372127051 0.3310119101096429 -0.23704358012888668 0.2491965101698208 0.21434884425469497 0.26470863888555585 -0.10086789105107072 0.11206943687234755 -0.0024857030523436265 0.40259553950043414 -0.5452934190717384 -0.2229113312219635 0.3388639468205912 -0.4441417697196642 0.5480730415849743 0.5531324830992425 -0.8678074291223103 ]
[ -0.018485714885032433 0.12919863958108102 -0.10874013854853394 -0.023714646987586817 -0.13747235093599325 0.30391138133837314 0.30671456093594796 0.3436870976862219 0.22115654722788047 0.3554253375129251 0.2355980015392287 -0.3099344583081999 -0.18975096135638958 -0.015500483976742358 -0.13195922561775864 -0.043969538461017726 -0.19260686214046158 -0.09627227271141565 -0.3862852569544583 0.21471211205882842 ]
[ 0.004928697379230563 -0.3744599404308643 -0.2807532347491975 0.30969045977636955 0.18879147779467076 0.16575631443887032 -0.14958927504623815 0.19358047825157068 0.16440044755315947 -0.11008718246648716 0.14169397982128568 0.3357148743106924 -0.1166616595199559 -0.31908970048616175 0.07543151824858131 0.25941188552364924 -0.15814618263773464 0.03884993785976834 0.19107973442694287 -0.3775034524320341 ]
[ -0.23630655194735217 -0.7354025994951743 -0.4646070646903117 0.6434065520144003 -0.10263151407035885 0.17643997456221325 -0.5509761559520346 -0.08290794255693504 -0.6460963714314057 0.47768694902898795 0.00199284505137993 0.6286985115382163 0.16880721034558896 -0.09657518006539682 -0.1327937971634115 -0.7952230034306023 0.13582790354177107 -0.0974905788206788 -0.10063992109597976 0.5586038709259014 ]
[ 0.09508204846850912 0.31203560724142204 -0.4322756360154765 -0.4147747364037904 0.43983766449240547 0.5272482837402311 -0.044086869897604575 -0.10829777462616637 -0.7768176940665793 0.2646454746373675 0.4321040824278269 0.32459200147518386 -0.13633953857614808 -0.17486779110653367 -0.2669201481006953 -0.5443100424209137 0.12220046012353435 0.02029325520105673 0.15473270802222414 0.6716100279830167 ]
[ -0.6061603736944354 -0.12652699175295576 1.1476532949423865 -0.012460069056065198 -0.5427043436440778 -0.6115829169201302 0.011408009941322966 0.2946393590100164 0.6068468142096882 0.03617166290470758 -0.26225382713985507 -1.4229078628545422 -0.38755844898060554 -1.6736539055194584 -1.061893956941426 0.7950787261226598 0.22794574722460498 1.2505779226794147 0.7812623432524347 0.5107110048791881 ]
[ 0.47573682966987163 -0.16089052156350966 -0.3526477806119105 -0.41368237172801275 -0.823854185810011 -1.6257219780929504 0.4523045971670808 -1.4252186484235674 -0.08481500571638775 0.6350137503662245 0.028323814261694884 -0.5507599863119866 -0.16762692097663576 0.08879903248349666 -1.369890609347037 -0.6025249804266296 -0.6452593045832588 -1.2403962304294178 -0.5859734951021706 0.13443930800027662 ]
[ -1.2551807116608316 1.0836021700425267 -1.5715601412615459 0.17622475983851354 -0.5375443994487944 1.7181935851800672 -0.3009392437856013 -0.2378229300294898 0.24476302732939628 1.2019472123317152 0.3283499167318908 -0.2627839336339666 0.010871214363358883 0.017113686533195702 -1.1117208417965594 0.11792381325655807 -0.17618227003205233 0.22583093482412242 0.46370573589430336 1.0383987380126456 ]
[ 0.6918112729557624 -0.6174755760513255 -0.5622324883095038 1.4085412102075467 -1.0540508376896234 -0.22159558055913264 -0.16492691447382504 -0.008419138202958977 -0.4368573104704023 -0.07681120716767895 -1.5314417745132476 -0.5720211497464865 1.27340313849589 -0.035434598610969405 -0.004426793121527384 -0.18494427193000088 0.9534462317983734 -0.20707216665520126 -0.4325397906561658 -0.606097369182866 ]
[ 0.22668387587276312 -0.017831889560524755 0.15923437135063237 0.20225851679661835 0.04501220086891053 -0.3770924840735725 -0.06548482714688567 -0.5484857476682642 0.2708095001773759 -0.11936477084926506 0.09882036023334537 0.5286937868955364 0.24025729614334007 0.8461030211469137 0.13722656969403 0.33495801443440276 0.05231732238495671 -0.4768957628263115 0.34987704270968767 -0.17940878906873353 ]
[ 0.34376477562439295 0.0875310320095252 0.08066351077326557 -0.12930991166303768 0.07358428738333413 0.07712310277974097 -0.05096528806318298 0.44535492347543165 0.13061035164769852 -0.01748127835691427 0.11371772142838363 0.2375282388192262 -0.5643710671643418 0.23244824805977396 0.3385446120011387 0.34112286997361735 -0.455632710241738 0.4688530859265052 -0.5396570008355597 -0.08010167827717649 ]
[ 0.4069334490599144 -1.2203374618699798 1.149255837409509 -0.9817267141028682 0.2410995412107918 -2.3906052813410503 -0.4833326127858485 -0.037154458781318775 -0.4750291475981183 -0.5813761555937497 0.10361302505749052 1.476660690567111 1.6758881576538358 -0.6268142072950837 0.2144632190795949 -0.33231360646104163 -0.7529606764985729 -0.3067252832774522 0.2699503643926442 0.2232563145915449 ]
[ -0.6477704838347391 -0.14688195161093281 0.6893027146536593 -1.1864985941533204 0.7545594002919181 -0.37446246178556286 0.27490308604992286 -0.6489693217460525 0.5985725344033871 -0.03332396623738248 0.7106419485471244 0.047206783927339666 -0.3440744960117508 -0.019743988424039714 -0.38651594736034073 0.159672482536938 -0.01095485537430745 -0.0034359200640511015 0.49577819045472965 -0.9686353725258506 ]
[ 0.9678263363506485 -0.026574451867109782 -0.8405539126041662 -0.19116553510200981 0.6219581363676425 0.06580470784848519 -0.41465882865287756 0.53074401848178 -1.3533947237271502 -0.29983733501490445 0.20361174427211873 0.9320346004329684 0.765547323315441 0.47067824136182496 0.5688272529889508 -1.2768453689202237 0.560245803365716 -0.6300024972508881 -1.9536370723277976 -0.9220353426245723 ]
[ -0.5316314349230428 0.14428792786444308 0.061392852167976575 -0.21103838093186567 1.068184452080145 1.0326794015775878 -0.6385202327772872 0.830294356423946 -0.45747550760767963 -1.0264965731250282 -0.2043142125252982 0.0500715950203096 0.14211542271590172 -0.5362675180916475 0.09463038705234607 0.38421668117682556 1.5859452783691643 0.27636967405017837 1.3586371770554497 -0.4590643663568208 ]
[ 0.08089199626212784 0.751574335496616 -1.491664312409187 1.562919511435866 -0.3509214404817779 0.4407220015044308 0.693911620365216 0.9387568709822315 -1.27535384167659 0.6778001171537997 -0.3278414943856285 0.20303874598518581 -1.3907420975596227 0.2533086580192743 -1.1592465279904958 -1.157535540513978 1.445113926879741 0.05833248581991757 -1.7297031831786052 0.27152991538413324 ]
[ -0.016198094356271828 0.256098781969085 0.30582592536360925 0.014916429667753903 -0.0072460752254175 -0.03406679340811115 0.09726620946426565 0.055779865191456036 0.20253242431460514 -0.20797763227328844 0.04613075140978319 -0.2236660329291801 0.09823416391093766 0.028625238625227617 -0.13054414358122024 0.4407836005394477 0.02058515478607428 0.06293868838666637 -0.06054894023973047 0.018350144176631517 ]
layer 1 Activation
tanh
layer 2 Dense
20 40
[ 0.19845015391948284 0.01821586200293557 -0.1376467276063347 0.45641104418258854 0.1987179448582175 -0.08463513371321162 0.2394585712364037 -0.11873516385530011 -0.17819140213051105 -0.029746718057796554 0.016978101034417905 0.4929276322922189 -0.365887957142419 -0.11974061828015253 -0.033318346318429684 0.06189198290844958 -0.05187460964336467 -0.3214145943108699 -0.23842749135010186 0.08648679837523059 0.07079562780644888 -0.3613430707712654 0.038931285137192365 -0.35497624082355106 0.346964081130414 -0.003801194857521283 0.6806929009168565 -0.16612561237111692 -0.2799853622852546 0.0718815366955286 0.7716965274963252 -0.236584151561591 0.23170929299133952 0.2974133899847694 -0.5626669735610148 0.7414456091911452 -0.028999528449301357 -0.04973937306396815 -0.16054180365380388 0.4533215083557943 ]
[ 1.3072989234904981 -0.2815452646319238 0.2183248094816469 -0.06794584125516885 0.7197536007086088 -0.3265096545172206 -0.022223768352519935 0.20817366801145462 0.5624407620391161 -0.1615970370116374 -0.13091230286894548 -0.01033400031436028 -0.18553056432298248 -0.028870327353140025 -0.8559951478784691 -0.009053045450727758 -0.5053555670478848 -0.35483852764474283 0.4504601211982775 -0.18732075528215517 0.338482887456 -0.126932302286977 -0.34972237455190663 -0.46217126095631755 -0.624861604119393 -0.11382876625320806 -1.1312248440683843 0.21447085344984892 0.11718438568683119 -0.08174413826036299 0.17671943850365676 0.41712383717555707 -0.6189622870502751 0.26133654256345634 0.559742699416644 -0.1067200828491926 -0.09109491949941201 -0.05490596175703877 0.19074299497872446 -0.30256765551088033 ]
[ -0.30688178335152677 -0.20323800207420137 0.29566011631140077 -0.23736719024015335 0.06790266322544941 0.14807915576923686 -0.6178155218060581 0.49387964298132464 0.05067236096913231 0.31218452838863886 0.08720958425368915 -0.5435975738491265 0.13169639869909536 0.11793808349305018 0.5762197236540427 0.6889484467386441 0.6431536051818842 -0.6258367387936344 -0.014965719010043448 -0.4947998326913043 0.18628164838750627 1.023526249671873 0.049905165703256725 -0.09124599589527392 0.23779387948441907 0.32032208387883837 0.4371130912724067 0.06173286102711379 0.06109053566761502 -0.0048068583502249825 -0.5867763673021715 0.0976308620450437 -0.04642808811447641 0.6308533929699448 0.17790184967623102 0.23128181606312895 0.2906511186606216 -1.1737253857106933 0.5351503470889836 0.6322347415987716 ]
[ -0.3177730988530951 0.20363654503976072 -0.3630816710897005 0.5198210318791964 -0.4087378456108694 -0.9514111939914232 0.33614837517864954 -0.2344127878292317 0.2782615844671015 0.04443859412757919 -0.06962937518701544 0.7572914200740101 -0.07074885685349404 -0.3163191144075543 -0.23448275118318096 -0.8080882260421121 -0.151542264764819 -0.07096998969702238 0.20841848595124218 0.5608228828117339 0.46165667234400876 0.13448721743988734 -0.26519621935224735 -0.992079901666969 -0.21458367460512864 0.29615834572317656 -0.3284456635092322 0.9773120573017703 0.3463289517558904 0.11754041774871105 0.7976257251685398 -0.40056148654045326 -0.4485580619273089 0.14350186312574037 -0.5404013906417828 -0.09915850504146047 -0.22841095250258434 0.6667904644265454 -0.9149571665916313 -0.9159134300805221 ]
[ 0.4844812018517984 -0.5002136569665634 -0.012386194089082076 -0.16000474436799805 0.3105660360323077 -0.5156063361333253 0.08259815910128161 0.11704543492578502 -0.18164024041997343 0.5485147656400868 -0.0654304744922505 -0.01291668096996411 0.49708337735474456 -0.04125761902526775 0.19710982961385357 -0.08972276258582829 -0.24033066379621046 0.16519219610605318 0.14347424895021263 -0.41149161510220467 0.8399696208068042 -0.31151910811796213 -0.11993501830608316 0.8326905244157865 -0.7858159331214296 0.26783109118044773 -0.1634731879876454 0.09001494041052806 -0.07721024326825983 -0.2889506586307982 -0.8959862033148248 -0.06338243033266998 0.02893956044379004 -0.1233482369609319 0.20219169150542704 -0.14444933802159002 -0.34651263547829053 0.3321126582947443 -0.2887097031349298 -0.4105256950525739 ]
[ 0.7640831091869715 -0.04021812558474367 -0.07274284017897445 -0.5765408026706071 0.390499525293314 -0.241229477401941 0.2722695555668514 0.1886644333814051 0.4282095351006974 -0.04466474731542567 -0.054464031899298194 0.40370098906382507 -0.1816771361803926 0.25841584614625623 -0.24524467675746853 -0.32557772470530233 -0.1933536609059868 0.06516150584838677 0.050230016560546965 0.07823199211665316 0.8667919811153431 0.35096543068898955 -0.17030259966794978 -0.398200528537235 -0.8320852936695613 0.1995518752113898 -0.3776259829541019 -0.12988116198385138 0.5530829941949906 -0.15369159161981952 0.4380030427243671 0.5868547525089756 -0.3561358570373608 -0.4377217466192598 0.08632263523366007 -0.009830977200149216 0.03490721828344445 0.6036665936226283 -0.14453292728184067 -0.7118130249861958 ]
[ 0.3966024769804611 0.15668679973202165 0.3086279264943557 -0.13657579627657462 -0.14510812812273355 -0.1519055187796709 0.2485004125207963 0.08111107616055455 0.1394969608272858 -0.6451476724356257 -0.2666281075647062 -0.18386615782923343 -0.3958220300994461 0.004764506116379745 -0.22964397903094985 -0.2752792919666569 0.17013582995415086 -0.11315009425888116 0.5809433864120906 0.39648741634987705 -0.32814856865270814 -0.3868190859266686 0.17076267171004647 0.11188435887536777 0.5622573713002826 -0.26016638590724583 -0.20918865076273715 0.124562305577783 -0.18483491897604096 -0.09380665878086891 0.38517195963826023 0.19838302911477304 0.22042586693102417 0.40895850730761185 0.2031221954908783 -0.16472232761255617 -0.027683383277831295 -0.022152423795535173 0.2763867385041062 0.14303390380985218 ]
[ -0.03612475446925855 -0.3120153228979774 0.04072596424595058 -0.145127922861596 0.051552530754673934 0.18915882427629327 -0.2562955390442603 -0.2381352890416973 0.17103140757730786 0.5804042901234959 0.13009877807202228 0.2425631408937249 0.3039411819557185 -0.08022548220999061 -0.30701661831035243 -0.22953507865405978 0.30087906546607857 0.16517310518134545 0.3921062164225411 -1.005632173694541 0.6355107352060242 -0.3427845556935447 -0.24705095367634464 -1.2250962261727927 -0.13445735107439677 0.24333583637805759 0.39997991138386885 0.3022513090534711 -0.07557243873373706 -0.2738805671182836 0.16598888472194606 0.42611470917736705 -0.3736241546782277 0.10596786135535492 -0.05575194787311463 -0.18701182213756887 0.026533659694941238 -0.3748527381831945 0.31144609996232014 -0.38828257276339245 ]
[ 0.5980142144805286 -0.2812051762318314 0.43440472879238695 -0.7338972263778617 0.5301486355815552 0.18128656331201617 0.12972463203649973 0.3604746143701735 0.6468549938223733 -0.3666111658146873 -0.29966095001102705 0.1764182857787552 -0.2542267825132367 -0.3054232581011515 0.07620804995013046 0.3603917078952355 0.36917893415943087 -0.4826683887133353 0.23535124000801239 0.3635581137621367 -0.012776617020932263 1.1614222076116365 0.07678897074493628 0.27092952123107084 0.1581769371319205 0.058420422172271586 -0.30620318604989977 -0.13819599961758924 0.7862627504949167 0.08323095715939148 -0.04477027619221846 -0.03120980371892148 0.18399178785303705 0.6504200253198418 0.3163720003573842 -0.3584500686026543 0.3833388569403177 -1.3734439497281512 0.45516973546881356 0.42357438057359825 ]
[ 0.3537594091527536 0.34545308116352336 -0.2297925462812489 -0.08240901994766711 0.07900670589837898 0.2668593405621547 0.2567678059362424 0.3972742006258817 -0.07171664294526492 0.13784747803417816 -0.027392984869247673 -0.5037257018441228 -0.3727964569589718 0.19103121657499592 0.033931094816917765 -0.36048222695223525 -0.15682401774530244 0.46887042280954033 -0.3074487337195056 0.36978991694686686 -0.08664487525690989 -0.22270585300540865 -0.24357882857029567 0.46098176625052056 0.11717576330516392 -0.3378880523372854 0.41793193489522595 -0.2647231162313187 0.0948208289530532 0.16344018648427833 0.2773015696379932 0.2256867944976611 0.19777648044832494 -0.42870354207943506 -0.2303951355350226 0.28227044381826144 -0.14928325745344553 0.1195407901499405 -0.5502733464183185 0.2716777574643988 ]
[ 1.2943586879625497 -0.031406704350731104 0.1834188915852724 0.1591928640205777 0.5883383050811095 0.657059757827548 1.332556780332147 0.4199306934934167 -0.06625839188726657 0.4405501152309625 0.11471931378594019 0.3766355128637124 0.27358032938314786 0.130188739425445 -0.4230056148346525 0.08870204440122427 0.042088370178760874 0.1513483210619119 0.19078649690227145 0.2644626302977648 0.20037804076316915 -0.39921275567477177 -0.004324100182856012 0.7789278131224042 0.0941969006045423 -0.3859213553077826 -0.7257202580573 -0.1851295137969177 0.3541989105389135 -0.11729697748012435 -0.6503943690726441 0.45590974767557735 0.7551584095788995 -0.38467300524641423 0.8891789210268978 -0.06128751376379133 -0.3655235239874242 0.4958218655837508 0.3554327548421734 -0.25230337632357586 ]
[ 0.17291892227113076 -0.15982060507830673 -0.21897789902526893 0.5539489550380211 -0.20547015291873272 -0.5269535550314699 0.28978136477954003 -0.4066917728386395 -0.7034696474950201 0.5906997669127483 0.15805275125968915 0.6487882125644044 0.4878617077861869 0.11810747348352629 -0.09437100847119011 -0.4923202271164837 0.07238556954185911 0.3809652416285865 -0.4270109328880958 0.010498159204556698 1.286272171855493 -0.6772999548560859 0.06318000311643722 0.8703477380009503 0.06322894138232844 0.39784391282175774 0.3350460326621814 -0.2577492993807791 -0.5683156273202377 -0.07804734220831723 -0.43139517745851197 -0.3486253725371624 -0.36407088346713173 -0.4639597806168143 -0.1983926952149343 0.5165071097352862 0.06773061118625377 0.1074249510309479 -0.15631342895296702 -0.15138566019908578 ]
[ -0.7112250739034409 -0.7676901504098882 0.06510058374345719 0.11076540266017265 -0.5395008063897203 -0.29169530530685295 0.08995971178713605 -0.02580868255882152 -0.5963891679185785 -0.19289016146567886 0.0361895523910271 0.001853535375921165 -0.41968615674821713 0.23925853027226748 -0.2695447673198291 0.186423773557283 0.05562911733709718 -0.1931867898817193 -0.07859650854884884 -0.6143237149024874 0.03456205113747814 -0.0873938243798406 0.04597659468150303 -0.4082124182928883 0.5939969976415609 0.06397934107901322 0.12176414962078634 0.1801406155116586 -0.4355741137878161 0.12405559867759428 0.006121787613928368 -0.24821047374618474 -0.4406075615928283 0.6839235149928616 -0.25289914254400936 0.2696472186426873 -0.012923364396238195 -0.8252849095726283 0.2956694984283189 0.7911206502903294 ]
[ 0.053986319934831155 0.23075651120856497 -0.1852096446676824 0.16777171829822365 0.06138582736646455 -0.5179123274217036 0.7999791268997672 0.26624936855218434 -0.2903874098019275 0.182159835683871 0.033455597498984975 0.8197041052381145 -0.5294387605429777 -0.14975320442400378 0.28539257935478224 -0.628308075552906 -0.21617784984566232 -0.3946584783681332 -0.02762593327164675 -0.09122907668630874 0.048379480347824695 0.3046493594564996 -0.2545869097723592 0.0940495109812955 0.059772966674760945 0.24628822496962174 -0.01417739113127222 -0.009141054880658426 -0.39785549250814034 0.22314582134402008 -0.017796008817527482 -0.3645698224833354 -0.08197477211334755 -0.05408918053952585 0.3047219562876139 -0.05341105655906127 -0.0742530366514969 0.17745056058610295 0.1599990460533744 0.3387766834100921 ]
[ -0.5203650068228164 0.1267349346169595 0.16622027925006197 -0.6391439637226767 0.0010018135947841534 -0.00868857627690607 0.5307901236968876 -0.02651208006137488 -0.3124250994428841 0.1071136863979275 0.18176033003824227 1.2243620499433236 -0.12057569572980295 0.17073580538921443 0.5283096543491527 -0.5590304631328694 0.09887268817879173 0.2789503127622073 -0.31012904229556115 -0.5467344721381894 0.38265135730558497 0.46649787468832776 0.06166029802915722 -0.13429561922261093 -0.3624570936896545 -0.2073015517370285 0.3181267501857215 -0.3899045363064386 0.17838026086673028 -0.21074218778690992 0.29918209699865744 -0.49254102826998 0.7233173931322867 -0.3797639072140759 0.06424392956920334 0.39061496974072457 0.33359065739895555 -0.018972635845136324 0.27002076992018775 -0.13267264871355353 ]
[ 0.16468003979972298 -0.11718620846366296 0.05931282119201736 -0.5985931850244918 0.10954728704586544 0.17813786696575548 -0.12087198304933573 0.43568835586668964 0.15190064327955854 -0.07938631706524193 -0.45499464103043963 -0.007177146861935165 0.10035759054756513 -0.09135138745078451 -0.1520931710771537 -0.2357975185661629 0.2559650570733801 -0.2602017138519968 0.2588451264117515 -0.05565429875216602 0.05807278706461467 1.0318642243988214 -0.07073006837278974 -0.5465069854758666 0.044595033100052237 0.19475508446977077 -0.328312749406445 -0.1899362469085535 0.6939596898895185 -0.38435666103864385 -0.616400771316242 0.05071636214571489 -0.29346249847033823 0.6443280541448902 0.24847903491067574 -0.4796275207096709 0.5461430635477195 -0.39941934683000163 -0.16138411046809079 0.11652036744393347 ]
[ -0.14897174827017998 -0.5164982393635892 -0.004927936922224467 -0.30955275731568255 -0.39748746943775654 -0.27789845190467755 -0.3931085099433089 -0.054474652899481724 -0.017258201811757273 0.6643187808251507 -0.29264006954518795 -0.03636696523598236 0.5385156368171629 0.01754020276392288 -0.011436834580306244 0.18673304694052215 -0.07437419248847547 0.053144230306949584 0.439870153495944 -0.6649986353160129 -0.06570791295992592 -0.8315536086221732 -0.4688423577537299 -1.396898362648966 -0.8990958663943669 0.6088483442663397 0.3350877528740729 0.7039543092599354 -0.1283891259093911 -0.204437884977681 -0.1453840859114947 -0.20819768062144847 -0.7239877479632508 -0.22995844365466578 -0.0642120795948283 -0.3508196813043994 -0.4079455600274662 0.7744604477111576 -0.36627582930254865 -0.9721856743642927 ]
[ 0.09188783321120539 -0.10380069225341224 -0.16702109066979093 -0.39712555856107357 0.2953957565886994 0.7153839784341772 -0.9153516122881681 0.33670700668634557 -0.0766398332776099 0.5309014644001719 -0.32486009400891536 -0.4562516157011633 0.7809021031784101 -0.21199848980659733 -0.12039642101039788 0.20010162058666772 -0.08655493795076093 -0.41076279892673306 0.23857011429376046 -0.8171459565931797 0.5290195376167598 0.2848672973855259 -0.0352238217022651 -0.3695789827928705 0.009598459364571202 0.08151036787747164 0.5106296412939555 0.20164605571753483 0.1669799079755898 0.32580988233412383 -0.42508372026062075 0.6641143149850504 0.16346562935237674 0.33347659433259685 -0.6413017737552427 0.16312220772020325 0.2306392548243837 -0.40751039979231096 -0.5208876455986594 -0.21621890439669977 ]
[ -0.25802423402433 0.0002743355709702627 0.0903850599635859 -0.764534020351918 0.14562059027047106 0.6053169395233358 -0.14694096694575384 0.35503030029299854 0.7372287954107204 0.4925205592920546 -0.17237621285470972 -0.050425496210276075 0.7954482611474263 -0.27841525230486674 0.7376134419361052 0.6822148789265435 0.5383861336014694 -0.4006542639469484 0.48233680300361836 0.37547086823054976 0.9345261442381257 0.48699096260399805 0.06752280337680872 -0.2964429924818204 -0.2216152572041914 -0.3813742010184892 0.02889170685392516 -0.3454867086587746 0.9376472694062135 -0.054837671980651176 -1.5272576149540396 -0.2933355080502043 0.6135285357529249 0.22634648619635972 0.2393222863109584 -0.05162107483097475 0.5235194392333372 -0.16208958443978225 -0.3752482129287056 -0.0467599103289551 ]
[ 0.053652613635662955 -0.11779931970183243 -0.1288702678229081 -0.7630939022927345 -0.04624090919188597 -0.07678437673177356 0.6498476406731418 0.15169781257990048 -0.02536419704325928 -0.20245640723034386 -0.24021048497376027 -0.3183540732727882 -0.4141198726866686 0.18581219198675802 0.2664502408366199 -0.14331089413618164 0.23051551169482623 0.38886960483252353 0.11978747002479762 -0.2138677133327878 -0.3224864114163351 0.1014736056002459 0.24551192964705232 -0.4097842533855232 0.14811932259788663 -0.13615212024080592 0.2077907557592429 -0.25140040152007226 0.1271191428163316 0.3738728050743667 0.7040079843674587 0.2534127390465365 0.3955638197355007 -0.2782304730604085 0.2533365532160329 0.3856966706758573 0.28150961147799647 -0.09514687552266395 0.0060044848055849235 -0.0040299947677951125 ]
[ 0.33703318720672387 -0.15391212525152909 0.24220300426918423 0.10388440193454039 0.06815579013958958 -0.16167759681095664 0.17564535154591598 0.0791795722057445 0.24670937961307743 -0.6243160539317967 -0.07101023333507034 0.3581689643172383 -0.5638574061983668 -0.16895565816370375 -0.053927232024312884 0.04994046791230882 0.07756699577226822 0.06901102781911651 -0.07243465180419616 -0.05823797860943587 -0.6681705927974209 0.25265120145404457 0.13265707863489576 -1.1175181818730056 0.19223258618992242 0.004881453275750993 -0.6385097578788598 0.007100338058133737 0.2361348290098155 0.06632410450037639 0.5030356478030625 0.0761225113368213 0.08077697696587609 0.14405001430502778 0.6750308435659411 -0.35858214543401495 0.2406107896888719 -0.19832118484712294 0.7608786035544908 -0.11674157039470433 ]
layer 3 Activation
tanh
layer 4 Dense
40 20
[ 0.7387122152554741 -0.1367349136075867 0.09695493347648775 0.05140039840826795 -0.015248148942008816 0.11987022684119415 -0.3250921990781703 0.5461548646617058 0.015262545517159642 0.22272255560901233 0.08563063955695846 -0.045471489930886726 -0.4355399569223549 0.677068709954787 0.1996450518314633 -0.13080877860984202 0.6818002807926252 -0.6045858279164203 0.35254944459405413 -0.12905551920942704 ]
[ 0.04565393906819176 -0.012022486826799208 0.047457628502207146 0.158121007014492 -0.06849881475779224 0.21027038563633768 0.14046131525696923 0.15966927576429696 -0.05569568867737234 -0.07286822754607238 -0.06546171269553196 -0.07466632584787554 -0.05127444932934824 0.25234777252490587 -0.26156142410418626 0.014382783843097251 -0.2829112766763855 0.018227525445721655 -0.2037229131299906 -0.04008248333073058 ]
[ 0.19041161808195217 -0.20421574723319075 0.12729149660220793 0.09260023281111923 -0.10854443089629436 -0.29272754176231663 -0.3032882484239337 -0.11749973230607522 -0.02854218120304267 -0.21545025800902115 0.36324105242775 0.040535344467454056 -0.1152571598501652 0.05051017371739572 -0.17878256601836842 -0.17171027236162154 0.15858315197867112 0.18084888818562941 -0.04761878067310259 0.034416665464118285 ]
[ -0.007883314552961021 0.1211547714939101 -0.1467713118960645 0.10302776109496725 0.002499229911170237 -0.035248941757057194 0.21469471584185912 0.036075495057832724 -0.22236468219947428 0.19859929572061727 -0.7334836409785859 0.006794280531637606 -0.12141422523772614 0.2987354926296788 -0.2355515719514756 0.14810983593586796 0.43937743232167986 0.6424514845842915 0.6933960996566495 0.13339786236649595 ]
[ -0.00863615972739031 -0.06160087771224816 0.1212650948133426 0.043917684511407436 -0.08433928876417372 0.5682860689184945 -0.20167157286238885 0.3414054052808671 -0.052482238676256884 -0.019653013768047074 0.09814933911708942 0.02326424162728808 -0.6955862336743367 0.380816634400236 0.35740765806743174 -0.3475787040384142 0.3954875232377412 -0.5239750069855262 -0.012104764294795081 -0.01856331921368819 ]
[ -0.023214844116350362 -0.3412811680994793 -0.24535862353030843 0.18769009073321982 0.034603820667552736 0.411101361563394 0.3783330533979515 -0.22163020202396497 0.15286846153490546 -0.10324471096729512 0.5050852662274508 -0.1884334236572713 -0.4818551059413073 0.17940948516034017 -0.33078250938816234 0.12908417624876053 -0.1774671892022151 -0.21681906269144355 -0.06612502202522194 0.12956873080633763 ]
[ 0.020548070159208797 -0.5238543064717804 0.17239033128207154 -0.650279331648674 -0.20696642707899257 0.08267242773075718 -0.20532774511806562 0.31251070523827246 0.15669804032659718 -0.077109786692201 -0.4937517817952422 0.0056558878747882905 0.2802668799203486 -0.013056022944757318 -0.15517551162029158 -0.08775850252942906 -0.10684874765726594 -0.04005564834166368 -0.6974488229390544 -0.18872821448348723 ]
[ 0.0709024869606809 -0.44217524253858587 0.02429926851025679 -0.46375975762325855 -0.2231423571505764 0.3698551320230532 0.12988049345825697 0.2215722708467433 0.10647136805202084 -0.16924822356083538 0.34040938432508955 0.05965391970106708 -0.3622568099761554 0.2117880838488264 0.06231995797422557 -0.02033212820245496 0.07354122318094593 -0.3721685503532547 -0.48940203981502783 -0.06102574585125891 ]
[ 0.32946430966748413 -0.1694458652095299 0.32592232363634727 -0.2842799672858028 -0.23046062836869194 0.2366287725907728 -0.06330420075531498 -0.2623163711172402 0.040263729341272605 -0.16956653241797248 0.6124970962914552 0.17862839156519061 -0.2891687755171467 0.07890883629579827 0.1762401650057848 -0.2775047671876402 0.10011888535432496 -0.8175997704658783 0.026100203699167646 0.14735649916020158 ]
[ 0.11062230676793894 0.5311558186641495 0.024686775882765778 -0.41911640431045144 -0.2556939345698514 0.45227780905974574 0.37304837182786443 0.2712787748987704 0.08842688396875711 0.09617933586014325 -0.07657525166042817 0.08135613312337937 -0.08090418546160671 -0.0042513047394509805 0.08917556814130717 -0.15098735065598054 -0.15439212660555385 0.14198116277531422 0.5432281168290938 0.04004390941520738 ]
[ -0.14065493937192478 0.11104096409371991 -0.08461271087511904 0.25154995810495295 -0.005145099483701266 -0.22132512838471421 -0.052914966977687286 -0.010234879607399936 -0.26219004230983856 0.0917731025017354 -0.429222372224834 -0.0729193374817309 0.13234026845521785 -0.08869506905133853 -0.013095422918775851 -0.18346890182870335 -0.07406811146940409 0.7169323190981467 -0.22691568045686003 -0.09344313889091874 ]
[ -0.21142094932641187 0.18366589518921442 0.0428569007928836 -0.6985804588843483 0.2866485803100995 -0.30672479116268986 -0.24510883233135813 0.11128950064708168 -0.0044336921695539095 0.003974502074722389 0.12527409562059044 -0.048548154574959194 0.07595024780197132 0.49057569533436907 0.07626359489019048 -0.04167740242341654 0.3384166127128271 0.02302375538473575 -0.39633222512037547 0.14499341130168514 ]
[ 0.140559696555991 0.31483039173089156 -0.15368879055675028 0.013701441383014039 -0.4483724225539093 0.37473101287267163 0.08048923912189203 0.09587892804720012 -0.1818740689535601 -0.19623932750025622 0.24796715843487355 -0.0441624725638864 -0.14032488856477546 -0.07068002571343866 0.15817939670768894 0.04646266436379872 -0.05078120454154799 -0.16178610619338477 0.7714328451612587 0.2431757761965628 ]
[ -0.07775946101946564 0.09283131118009308 -0.1060034436087849 0.034122427917256705 -0.059842276410144675 0.11239975338920341 0.12963717498423702 -0.06449288475243879 -0.14783864190764193 0.042146000289953675 -0.20018058502793448 0.02638554144328937 -0.006419516111173006 -0.10734056727825375 -0.12778146939040516 -0.1991210896889412 0.04569161853811776 0.2437511234552653 -0.0365498520930989 0.11604224701330768 ]
[ 0.29094841251455705 -0.08333981123781731 0.22208657878224336 -0.15404310619594488 -0.15244881116812734 0.45658764305938004 0.03943158994008976 -0.1827347248907851 0.0021420830413349475 -0.2723743016303805 0.3084628346873946 -0.07892731144960073 -0.09340622819988043 -0.1889994980485564 -0.22956167313817055 0.0539041965310349 -0.39870313170871036 0.02213413382527691 -0.028185430549820506 0.07114770214960454 ]
[ 0.3810193884209394 -0.48658617420153233 0.09700427616559602 0.4120554353124022 -0.24995995955363598 0.05249399558325233 -0.19016527821602736 -0.3674524237231441 -0.057601670855886244 0.012709371670319738 0.2042743977932663 0.06749782986947722 -0.4051376038890834 -0.20113257348677152 -0.0359662147273175 0.015229558728585418 -0.11341567893753299 0.34976443542653474 0.30550644421310774 0.17668482017624806 ]
[ 0.3777487305083687 -0.1017108807522762 0.15710459413866523 0.0020642395657580154 0.028678590432484722 0.10991206010316384 0.21417053210483863 -0.1917459683437881 0.03825012738937011 -0.21842235792137382 0.29167465638748036 -0.02274850810083947 -0.2079693907376222 -0.08338973256688137 0.17040170037544475 0.10779222947869165 0.0032856635675700165 0.016643958186180013 0.033895553230996175 -0.21709373976620655 ]
[ -0.5495644704915678 0.6143746617734286 -0.020786723838113873 0.016089014610735135 0.18603332270204173 0.10153053109603666 -0.21534986046149715 -0.005525105879714017 -0.3001376137858816 0.32776916312348064 0.013524741052311943 -0.09660189732662866 0.4661443363287208 -0.00525484413897564 -0.2762727728872324 0.01604513528856926 -0.006557354618189066 -0.04399364183357915 0.04815905656062607 0.2919549373934994 ]
[ -0.07824577327228928 -0.19648849215004532 -0.13830117613357698 -0.19960191485401169 -0.03522610485804484 0.15612631097179552 -0.20751699653724645 -0.06421132095876946 0.20846864112168934 -0.0696151483439028 0.26420675942313254 0.04596455819715145 -0.12133967824396845 -0.006509484484540673 0.11656379652693823 -0.0535159380093228 0.05142537995718654 -0.1792503927346022 0.15694323830119494 -0.08610482009617883 ]
[ 0.3961933819794361 -0.30625974924672006 -0.10936844441945341 0.0770012450185235 -0.6357457669933911 0.2786756849228661 -0.11081805999461344 -0.21448490102459086 -0.06404998912342778 -0.17058686831118228 -0.6426952100964658 0.1286080001768019 0.050994230828387256 0.661948272012623 -0.39021157982238586 0.04424903413647289 -0.01984590929540258 0.005863048704101424 -0.35077893226118645 0.011819785920731452 ]
[ 0.23495146425733587 0.5289138179871317 -0.12128136803259604 -0.34920805420466927 -0.511991070502939 0.5265142305774524 0.19419017984641498 0.7016909345561626 0.015303918698772841 0.07370430460668544 -0.3587464612761547 -0.05399022964794614 -0.23798476165900243 -0.2485630216769633 0.4228631503219201 0.0082301116249242 0.29196743150791 -0.13133098223454284 0.5604133271941688 -0.18169930641927712 ]
[ 0.5388804993016201 -0.499403913712984 0.06548425181786256 -0.5353236743475971 -0.18356774821997499 0.47312402013550814 -0.00875434832663835 -0.4184243547236164 0.4074210626797452 0.2674384064504588 0.23128283774777716 0.035513720685793074 -0.22697365352210463 0.40055563372043124 0.31081813989185403 -0.24331023699425827 0.26020604661545943 -0.6622871059534431 -0.7578974236070798 0.07844484501188081 ]
[ 0.14821975947319802 -0.20947006298457982 -0.04175980681007367 0.20170389315062034 -0.15548113589807033 0.266752773146857 -0.138069398646405 -0.14053735365966347 0.18268434389721824 0.018495003653082612 -0.4054541965912146 0.054437675172196304 -0.324675356909418 -0.06500424587760949 -0.4276475487228144 0.303703961354431 0.14571959978440713 0.015235182511914542 -0.17639106552313163 0.053537135363886115 ]
[ 0.2616510698487226 0.7387222275272233 -0.05221343417954865 0.8173306331617112 -0.7919092533981484 0.39587115108831733 0.538245551508425 1.0072074207020312 0.024749691425445027 -0.11649157311861924 -0.9162923726840325 -0.10074900983351695 -0.08266251377484016 -0.2802435102291341 -0.32996476279306486 0.1279026977597493 0.09461396755740291 0.22355202873645677 0.01688421180100145 -0.21390809612467754 ]
[ -0.039131845612879766 0.015434718499295246 -0.0717742461400125 0.27767735923098924 -0.21765054636937536 0.018068880415300487 -0.07190602206086853 -0.11792965889350157 -0.03118759715337877 0.1706739079444086 -0.45832446737661825 -0.20637894035651672 0.05394439635938299 -0.3304541255566785 -0.46679241945030153 0.13076522399125748 0.27837572049653436 -0.02225126722387967 -0.4189927636741301 0.037420006134328526 ]
[ 0.05560351615001658 0.28601944921061606 -0.03656126017521851 -0.23227365150442988 0.07321766974467885 0.0022972196130644075 -0.01195494185864421 0.12916235589113684 0.12383263511121248 0.15042197757561807 -0.19528512774201448 -0.003687848576053859 0.035953741414798235 -0.2912639446049362 0.5443223250387386 0.10549818890805161 0.13609504114778986 -0.014721995647697012 0.311546644908042 -0.2540796008727567 ]
[ -0.26857008380074615 -0.06360960682695414 -0.19958135551229667 0.41083344223770585 0.12474212914103165 0.24286349617437236 0.36251133351866116 0.05855245458854366 -0.23219237521843855 0.40332464381048727 0.12030382328523839 -0.1788246496911651 0.1339160691827642 -0.5829341001411559 0.16194994146679978 0.226596975767587 -0.3422900739371428 0.42848858815996277 -0.12074567869438116 0.10154568784686085 ]
[ -0.01848966753553033 0.158987829788247 0.14412103037757112 -0.29811687620049004 0.06605634976096116 -0.25454419396229977 0.2200254287126876 -0.11516111435687285 -0.06716240534180047 0.25102777833479306 -0.11497172600509284 -0.10768028785607253 -0.20193883367556992 0.06704379839392181 0.3487411698164449 0.11425607439699349 0.020179230026069393 0.17151784606496978 0.5469244811614159 -0.08701507959092905 ]
[ 0.07955056742564048 -0.39135941595945467 -0.032638611281222696 -0.21064104134756303 -0.051189909526820454 0.1167939290132768 -0.03316905200830611 -0.17266685871578205 0.053759581174001626 0.15320856061550145 0.5824037765519707 0.07729117758360991 -0.33102988000233474 0.2552388156933023 0.17019814741768408 0.0409564141098901 0.08963757082828014 -0.7469231932982043 -0.3884589421480599 -0.13566429736776012 ]
[ 0.09806277474005584 -0.09176745335143145 0.08537003008015794 0.02941656633612191 -0.012628338205531144 0.09127991066314778 0.21573935222364254 -0.053142660189187105 0.09393572585447238 -0.011279956190006254 -0.24560990345187356 -0.30158965356352657 -0.03505184705080097 -0.02973835039457043 -0.2022184120662177 -0.03920803411671079 0.05831761768677646 0.008033725692308098 -0.13186350613149586 -0.1356993645976292 ]
[ -0.08273305196221474 0.2522184406866307 -0.10996264164259878 -0.054023122418115826 0.6119700594502625 -0.5574608150372388 -0.030321066214496525 -0.30375748167316885 0.08658819734804009 -0.03673477116550781 -0.3495916227226188 -0.14253504361634642 0.22552567223418746 0.14498033201742366 -0.15259778998142515 0.16562507851798808 -0.19536361491656412 -0.252980923745606 -0.5514111416940002 0.08312330834521076 ]
[ 0.20256027180460692 -0.23684944408475647 0.02188322136420959 0.44388794183621705 -0.11632557289931078 0.6376119245791173 -0.13961927674283528 -0.25863140055770173 -0.2915920152993164 -0.25334620312225786 0.5171647237018 -0.15656455414281456 -0.2855028017816974 0.13265308834958645 0.17114911302263477 0.06712440607788081 0.2529949288886602 -0.24801795197353768 0.06866258086302054 0.15981589191208243 ]
[ -0.3906407489763554 -0.15456804406506183 0.11054470925752916 0.31535814134882 -0.21508755417208794 0.21326988595580074 0.43858579815649973 -0.1264061825531664 0.24794816288059743 -0.05644613412349267 0.11084547780523209 0.07083045004593791 0.029648540113342867 0.10663812791636348 -0.45146348197048236 -0.21651648260946724 -0.33249261401488245 0.03058496455444231 -0.48443325089311856 0.07401550775627853 ]
[ 0.5744487694635659 -0.463156347639614 0.01218133574743245 0.12142248738110774 -0.45085104703164036 0.07297463332006403 0.15791631305178205 -0.4680827922303478 -0.06422863707465429 -0.47131831560159876 -0.13659932975147204 0.019507988421582974 -0.1386300544468074 -0.4525603326308909 0.34240000721715247 -0.062445070990660045 0.3199322592357678 0.4349369296682748 -0.37753926407316485 -0.24754320673922092 ]
[ 0.05062106961800599 -0.146935820053927 0.32914867279235077 -0.1431975391052778 -0.13230406989597873 -0.29817424446338064 -0.39358152023979875 0.046116264513513576 0.006840880490767191 0.03950721844986141 0.1755592492442713 0.11073482967156453 -0.003974556656801133 0.6303186241756299 -0.3549263858679621 0.05117812658408976 0.4161159008925142 -0.3080380943826929 0.04898225084891869 -0.1068480781839044 ]
[ -0.3073240871086662 0.25842868107519584 0.021732356345870965 0.2652243470733008 -0.016640144608368802 0.10507352568516112 0.5824406299475546 0.06676254105263528 -0.2585301174021692 -0.09178618764155219 -0.2531909282837363 -0.08574666759088789 0.20891086917454849 -0.2164746113290248 0.23334064184143438 -0.11473151604849056 -0.1669500458921203 0.03043415262187458 -0.19250935485771886 0.23084498473592863 ]
[ 0.15894879060559533 -0.2636835274496922 -0.08389667377069986 -0.06385110021637887 -0.030909204237504727 0.17497806529589305 -0.06141189473582503 -0.182212385783972 0.359079350238797 -0.054921722323617424 0.13593118461875262 0.026193455682831497 0.2837495493095515 -0.25543917124369236 -0.13126847007952697 0.42002511686873667 0.06446527125221216 -0.1292294454068031 -0.44402273286354815 -0.27202123334983996 ]
[ -0.45672406253395065 0.7090942717694372 -0.13287762847081624 -0.24570176485554265 0.5313066413749498 -0.0434873426075429 0.032804859505315295 0.38399966138685576 -0.2072830204862532 0.44429689549232787 -0.02198995660817166 -0.23177279951546892 0.10016676706854327 0.720500341114149 0.1396950623116762 -0.03650798526270637 -0.3735177216258666 0.04470129405919048 0.5968212658277997 0.2888840723196612 ]
[ -0.2565342229740856 0.13458547690474346 -0.15304795907536023 0.1189720985262643 -0.10083975313311389 -0.5033638901673935 -0.5802456710846028 0.02496269696631629 -0.31830643818788007 -0.34960799622651223 0.3071822912751107 0.002297543863857141 0.024020334284011076 0.11828102240461734 -0.32734974886029355 -0.126848314669137 0.4821593421260009 0.3584309643461042 0.1376134573815096 -0.07477370333969625 ]
[ -0.027236782755635736 -0.009656359108065293 -0.07005897540329481 -0.11870352199301897 -0.2146243780600134 0.2728424645224021 0.2948573320049961 0.3352568878064474 0.08812120476770471 -0.06729247480165451 -0.4570274218624726 0.06016861305359524 0.14429514764115411 -0.3212122471746234 -0.2311036277621961 -0.05681802807575296 0.2584288580892261 0.17104680534000252 -0.3995433453943503 0.1399955904712676 ]
[ -0.14154403241286043 -0.42674136005928154 0.01773323264357879 -0.1056334818070041 0.16572501028238948 -0.29938342559393055 -0.44585101273532507 -0.30344679407366254 0.08347084885192396 -0.051276792931443896 0.3322602119615304 0.14442134096334738 0.0702966207763585 0.10857726239759405 -0.3407232322898245 -0.07303136556102909 0.21516296576273883 0.18264370285779274 -0.2575000303405513 -0.04810306802374868 ]
layer 5 Activation
tanh
layer 6 Dense
20 1
[ -0.060490263742381076 ]
[ -0.14909658606674897 ]
[ -0.00350595945759794 ]
[ -0.14967545387314346 ]
[ 0.13922856915110543 ]
[ -0.1032971931449071 ]
[ 0.03785248414102865 ]
[ -0.12130549578743882 ]
[ -0.015859038802663802 ]
[ 0.0022719852291169743 ]
[ 0.03651064031583479 ]
[ -0.001754079966367797 ]
[ 0.005012526914547349 ]
[ -0.06902707066333078 ]
[ -0.07960377835321863 ]
[ -0.011623112104190396 ]
[ -0.1261597709825527 ]
[ -0.02078478873344969 ]
[ -0.08511021702316311 ]
[ 0.007728869760214549 ]
[ 0.06303357052566348 ]
