layers 7
layer 0 Dense
20 20
[ 0.14018550237733335 -0.1483254030437854 0.6938882677045907 -0.3326918071442883 -0.1313965757878873 -0.21487838399472667 0.23304940480520558 0.08347164012175524 -0.11286382726941585 -0.22430655564479834 0.45499930379134546 -0.30298338792266766 -0.39284797608725885 0.7765119653288511 0.12119787796444226 0.4406448068957461 -0.28039361530508533 0.02585588927251273 -0.2479967291390832 0.009308569508353303 ]
[ 0.2641897586910415 0.05239526063096918 0.33400245443070686 0.3302115856268635 -0.23094121258047703 0.14810347721832276 0.01866192882103754 -0.0565363503926045 0.29065790197957586 0.17840037013136145 0.23313547449357044 0.07716211269113935 0.3660609822824019 -0.12418572592414212 0.28090485598676 -0.06357556092164093 0.2876306345592412 -0.1674512858749518 0.22991030354258904 -0.22422352518648406 ]
[ -0.33674422933865295 -0.34009370650906573 0.09988053400529638 0.0731011813288987 0.11846723072607203 -0.36119956869433295 -0.20982547994646142 -0.3266474844375426 -0.32796702187072735 -0.3604936642245208 0.01412758358024454 0.04489118495400937 0.13329401573161287 0.19583316053722816 0.26325600820701234 0.35785177727666184 -0.20281205003898817 -0.2389822725695382 0.02758659484675236 -0.1242998421152186 ]
[ 0.20633151608515865 -0.38242044204431264 -0.014878368478214981 0.08532561928882186 -0.29777752422649645 0.26584893389989694 -0.06756946543373041 0.20530726658789136 0.133673702192444 -0.276536643378694 0.1344451739079915 -0.34162119337354885 -0.6228254159328608 0.5217677513932437 0.3075698514147576 0.33102297173626943 -0.0425217107536229 0.04682358905451109 -0.1575228079979113 -0.20874655120653063 ]
[ -0.2272095739572837 -0.2991062892178959 0.5823029834145959 -0.21377359402458074 -0.20736161531828978 -0.2938166709092843 -0.3721690757160874 -0.6042209676496334 -1.0280529627447779 -0.46793749020096576 0.4267612759488158 -0.34596352972069305 -0.21433465476489683 0.024626665267467304 0.5826711854533734 -0.16733120375701308 0.18465144136962006 -0.45185022392655305 -0.10086966116850643 -0.01656364720069301 ]
[ 0.015552264013445304 -0.13375992375551252 -0.24631195024564848 -0.021561457317321064 -0.29674844847994836 0.29255323604432 0.361633468198672 0.3720554776776405 -0.0028907740746523082 -0.3620292071456967 -0.21603563732375067 0.3674936524580282 -0.07582501837243517 -0.010485084156689714 -0.34506718549537824 -0.3664606985690556 -0.23330929271388506 0.22649534961661508 0.08190718339244625 0.07507090806636506 ]
[ -0.03825364911630778 -0.07392820689193393 0.08800808910656742 -0.318563523721243 -0.29205676799265157 -0.2104542987135589 -0.2237750093601551 0.193773878007573 0.27037628374953676 0.14447349055610692 -0.16746728725281923 0.09076704510835762 -0.0931927983310964 -0.2447889427542933 0.061608696815904064 0.2300979922528567 -0.32727053418994323 0.019344706724008728 0.08516256549725394 0.26125818987664934 ]
[ 0.356757068026062 0.5374355828267217 -0.39071826476520316 0.08778390090634437 0.4465067552934407 -0.16040942988143747 0.20421659593091265 0.32658528214681426 0.3196091308955017 0.6006408952742327 -0.04167534030778586 -0.12364465477702445 0.6605261147128073 -0.062246730644838454 -0.1760082689141109 -0.6066939939843472 -0.21298103380471592 0.31636823726503477 0.16762686916445693 0.23986687775836907 ]
[ 0.40374271380760074 0.4000325421969686 0.3838649235737469 -0.2652587438491983 -0.019819798161813472 0.21280806189456733 -0.13003796523462524 0.1964544614048564 0.11267894747563165 -0.35324103617907476 0.4572558724887944 0.18407647770519595 0.2809565671089266 -0.26878750463955126 0.27842477238214275 -0.47362052962629436 0.44745832033017785 0.2919050203872817 0.10163344976267354 -0.5723339474018071 ]
[ -0.06732864612292773 0.11807468073060101 -0.24555123953393357 0.5658027000649624 -0.20886247944550804 0.6845029700062152 0.3498621610283688 -0.6942362772025127 0.0719260312666748 -0.042990891444247586 -0.08992347450142452 0.16326085599930384 0.08129030835917365 -0.4477257602200239 -0.02333745876130656 -0.39408407253411065 -0.7110693661139992 0.22858277718309117 -0.24236510039238762 -0.6301360274425404 ]
[ 0.1425659261630479 0.5072696462596736 -0.01799519453599926 0.6289672332119666 -0.2544584544091794 1.107810888927296 0.2701834029991154 -0.10020724541119784 -0.6624266489117616 0.08809690348943079 0.45362746959187933 -0.3114622628398629 -0.4097174722676533 -0.15007307222710384 -0.08013281029280749 0.4140352956807265 0.3368324477278017 -0.0201054343909564 0.25852032114399465 -0.0900969895932219 ]
[ -0.27603698948443567 0.21502335494440872 -0.4610036780215157 0.7920374447945862 0.6838504316524552 0.4843907649633409 -0.905458212410213 1.0661048293709277 0.15428860423230398 0.9682412795627657 0.4525280508932421 0.34505687806523416 0.9586309943981798 -0.6864922379102085 -0.2955710074048421 -0.17958578075911816 -0.748873222335519 0.6182608144590482 -0.4034064498372016 0.3209357130877283 ]
[ -0.03112872036372352 -0.5097327587814515 0.4273261597459606 -0.06322494571376958 -0.26212121923910775 -0.516882749735821 0.018063877198780748 -0.2888612567058012 -0.5745346594310652 -0.31957964535543903 -0.3520713001206307 -0.7219836522278462 0.11296133283561235 0.19501258908764385 0.3033706614762792 -0.24920245100320815 0.4098281061485565 0.013467075464597711 -0.05780780854427252 -1.0560901133181697 ]
[ -0.6910938765975243 0.03607085825175064 -0.08147753662571623 0.8010142844403889 0.13484421968774574 -0.2568710122841289 0.31387676520591207 0.6783876681469779 0.024418256690027493 -0.029774079221634612 -0.013813434729939454 0.18387161574911487 -0.09434896636660334 0.07362104956923185 -0.44579524772667967 -0.13237322604340224 0.2927601213647151 -0.9141352363668742 0.6083322054937509 -0.14828820427110304 ]
[ -1.030286224880499 0.006362853465721908 0.19586633282167423 -0.48446607074137615 -0.4164925136009172 -0.10562725174180228 0.03310835798725573 -0.12553998764415134 0.08917472999842974 0.17156422917196043 0.18124680402487073 -0.20642516835860708 -0.3781619998796465 -0.0869935818452975 -0.6390282770841333 0.16701049102577437 0.44438574016297905 0.44720771993409875 0.1066732068137158 -0.09621490621995993 ]
[ -1.0248658306306533 -1.5035954911947897 -0.37040599891617193 1.2929488734868853 0.20650382859170555 -0.48382584564764647 -1.006012275156706 -0.7261928792177068 -0.19878787514936394 -0.8106715267708638 -0.12190740889491888 -0.9316925698824354 0.3372944329380652 0.38128185968806666 0.5957327202462139 0.651677499610671 -0.008528868072374603 0.6914252786587403 -0.0898921788649638 -1.1771270736199055 ]
[ -0.15662962911811817 0.4560261325701719 0.3282316809466678 -0.1527048643964531 0.10848000346054457 -0.7916198257580773 -1.029369599721113 -0.1982175747200592 -0.5038976462513787 0.535056964596337 0.6566964272521437 0.4399893338136706 -0.15682258412402791 0.045609596831843804 -0.6286677341549676 0.0546969497828205 -0.3966925628785814 -0.6603756873926645 -0.6667362768107413 0.6769530153538467 ]
[ 1.1479932980320446 -0.2301599901396006 -0.2490724036692712 -0.7441580712615963 0.2741591075643681 -0.33160766303305156 -0.28792831816643144 0.1976808399992604 0.5979648158433706 -0.3352484939311514 0.3981091952849835 -0.823846131269894 -0.07373547917743667 0.2819071445591921 0.05544157859790837 0.46989599005964255 0.769425731124282 0.3077370557041377 -0.026973977894389066 1.129216194766403 ]
[ 0.9656849514522071 -0.19364279449413932 -0.8372456727439325 0.039167383598337546 -0.00676759555345592 -1.0786863361130077 -0.06793612413765378 0.712175411015632 -0.08281578026407667 0.4167753980424028 -0.6758934024031993 -0.08785026404270391 -0.18718132891289535 0.07981916195072794 1.1687427570054434 -0.18163965759045073 -0.9841929559255227 -0.9429613281132123 -0.35014194890019984 -0.3935125009692439 ]
[ 0.5963188493835706 0.627237177608316 0.8263950068627278 -0.32495426066649086 -0.5293822025993186 -0.5063064446659813 0.8272328969131042 -0.34964565746035303 0.10937385283682217 -0.12146616299224335 -0.33355782842140863 0.400914256524174 -0.7184257668676727 0.28647165213427983 -0.23728559708857996 -0.21033492243588886 0.46507108778493167 -0.8049240268262963 0.19931558662748655 -0.27212865476385517 ]
[ -0.0066620138427631835 -0.057190014759812065 0.03962010628404386 -0.08028113825630294 -0.10729996238829285 -0.047807979680691295 0.053297040127726646 0.007843299774234619 0.04339292360065796 -0.07232421608701503 -0.0457933475635142 -0.12655801334921446 -0.3444167876073773 0.23743154917281717 0.1175352494105597 0.3446596147392593 -0.1433171341624232 0.11793654734297403 -0.09793944316025958 0.027832236789550144 ]
layer 1 Activation
tanh
layer 2 Dense
20 40
[ -0.19310316229828828 0.09900690374307905 -0.5524065534211766 -0.2888054280594633 -0.06603861342999444 -0.17778895965131974 0.147809806317431 0.3904403152253817 -0.21740196787471344 -0.2515695898540675 0.37085315093718657 -0.06291652229170037 0.5946738346038397 -0.011929136724056025 -0.725995974292252 -0.18057750597067648 -0.4615249356069498 0.1340921074979393 -0.7005510518352027 0.28989119030300825 -0.2633057511838894 -0.0345242587349171 0.3126853282009717 -0.21889450902585708 0.2038116908020917 0.25755586403020947 0.020128418730292415 0.18798097771862754 -0.22164846347614933 0.4883285216596347 -0.35483402646080914 -0.02597550100072566 -0.5872137243822869 0.17334056511785048 -0.5117418374683137 0.36773087639164936 -0.5835413429677703 0.44773806015167555 -0.13043041804521416 -0.23707065005698316 ]
[ 0.2951170308109096 -0.3662486363445304 0.4159709260461574 -0.0883273673658214 -0.20436539544287954 0.2545478732961254 -0.2881724241546664 0.14611681195073634 -0.022841611978753916 0.175037739864663 0.25361267627012307 -0.15083476796010895 -0.1535114383247246 0.05653404955052767 -0.17892107387589828 -0.12230573057467027 -0.2726345129768825 -0.33706500771046183 -0.258222545716715 -0.10741392180356947 0.5510810022863074 0.06901592592986862 -0.1901830389227502 0.06245079854848222 0.28765369415410547 -0.5111932031532772 0.2123976958829587 -0.3173047530603639 0.220132688844078 -0.1987963353506864 -0.0730695647210535 0.40471277887996066 0.09765462212234552 -0.25593941095798156 -0.44080662729341774 0.24574510132194516 -0.3944231989696996 0.4219591207205862 -0.0394941485511248 0.2686078096510785 ]
[ 0.16413066566820728 -0.2088097828034144 0.010648050377995932 0.25119323804122856 0.4695551157845419 -0.05488326234582505 -0.18669084654949095 -0.18767942820193736 -0.24540203417496287 -0.4867456258025543 -0.764176251015823 0.2172118880985474 0.3323667902005553 -0.6643909100198572 -0.47043605069136335 -0.8738342652735478 -0.4215975786950666 -0.4474305982134935 -0.4105141332215723 0.3487554176028351 -0.3316248667547345 0.0009054682918796307 -0.7335192290572194 -0.38923020742375714 0.18689493128630094 0.5129547654286288 -0.08109321246715061 0.0730717813135967 0.7394222667622241 -0.5477114937079332 0.07858399874936241 0.16905561659446813 -0.7067927227230856 0.0997230123722181 -0.14527416644324814 0.48103679226202917 -0.5757574240923662 0.06550942768540298 -0.4373895855200064 0.255395947445893 ]
[ 0.6036643968480455 -0.09829644305095045 -0.06921435347790131 -0.26131616724095524 -0.03720471586659727 -0.1481531177720218 -0.11902035748594804 -0.11736349364652973 0.19798660802080373 -0.25344596619044346 0.07855067858025563 0.2493678712294808 0.09922750807616021 0.45201622105667666 0.02992380037060329 0.5353844575756996 0.44237408050016314 0.1369201337660925 0.4002553281005569 -0.33263502516345905 0.2500885520292107 0.4308732476667391 -0.25659665242562696 0.2612616058174554 -0.11957818685727241 -0.222823050508144 -0.10831602461414452 -0.014424384650546997 0.5097060849549956 -0.43610882349103924 -0.39428894190113206 -0.47956725503914527 0.7325859078955316 0.19847416413211538 0.3523899449047722 -0.4729428911199243 0.8719602708365867 -0.5726043272545422 -0.06451746305178263 0.5410602288512831 ]
[ 0.1183351620339734 -0.23173261109439794 0.11583089489417824 0.2554915728160686 0.32142380264482856 -0.2366422693889759 0.04159075040871567 0.3469769964047682 0.17998485383995325 -0.24271069452983157 0.5980538426846962 0.14428939372533886 -0.03094309910201584 0.40609582869777483 0.043205381697831995 0.20259193890856697 0.442201395472696 0.22211774919007735 0.1811867515679818 -0.1676870882020298 0.08824850449150144 0.07641911889065972 0.1953702350239244 0.11577235087311227 0.39013112667941563 -0.08615299896061043 0.23646613260547442 -0.34308970474174283 -0.2818779880932924 -0.08246086250581834 -0.09422472808648322 0.2928990879010958 0.39439983611853213 -0.21733978872443935 -0.18010461813645076 0.13588819716409908 0.09421591457683759 0.3454923150850513 -0.21678597165845143 -0.06266789432984092 ]
[ -0.2373032666255581 -0.4391676408809225 -0.3864994746023182 -0.1895551722478622 -0.5785579519913602 0.08862952890232381 0.4103600672535788 -0.8053555819385794 -0.09700645017808304 -0.16467111660570452 -0.47507611313214226 0.20330888916503057 0.26618248296287467 -0.1689275987248888 0.069859944103169 -0.2173656856972173 0.1813482737402791 -0.330278838450076 0.1633869423082466 -0.2421652965606239 0.1857356602296102 -0.05729126193408689 0.3434148687537831 -0.06304435469594977 0.22878883815584378 -0.5739536223531734 -0.04013089484165244 0.08883331585726198 0.04890980352440188 -0.40793035985157433 0.3822676654932692 -0.1353062172032023 0.671738770588407 -0.15797847829489356 0.38796852900027984 -0.041151713371048816 0.1433340404947169 -0.1537394910835734 -0.05030056038203773 0.4530587115208821 ]
[ -0.5128202986965142 0.30052476470686484 0.47168615448698653 -0.31804801407312433 -0.006809925922703163 0.009682904785521853 0.058677693386361515 1.2376628427867837 -0.2673954481178775 0.5375167415089291 0.42948976036262354 0.0068580420440578676 0.2826423746060378 -0.4639567703030483 -0.555580447245922 0.03182176336869588 -0.7383000290689882 0.567807568828747 -0.6192051319166523 0.36323784363725364 -0.1456746325443264 -0.6144149512643684 0.19459435317648824 0.5302066237121397 -0.2641978871329472 0.03233245246113645 0.00283328113572926 0.24736931701541068 0.13485961530011253 -0.1510745981068489 0.3441762987313206 0.11596049641792029 -0.23351037191802052 -0.049712067772621646 -0.5369787355817298 -0.563835146014901 -0.3526976631991599 0.4530010891606507 -0.3370325544128411 0.699577434403081 ]
[ 0.197739031452671 -0.4036572727655784 -0.577457382629198 -0.5035793849828291 0.2205161741526149 -0.15855479581611187 -0.23176352407849105 0.3069314441520694 -0.0788295882908865 -0.034343521597840106 -0.04520082568233122 0.15669864314988502 0.005704776781282221 0.5725191947935473 0.024079700729047256 0.4769871433442332 0.4103884258620388 -0.5969801832474466 0.22181224511409448 -0.23057462066279974 0.35642726687743576 0.2395051240267645 0.40474791078583183 0.18349801404785326 0.01166975219687398 -0.06800296780129404 0.044207834392423886 -0.3391077880620385 -0.6430023249430474 0.26873169263868585 0.08015778343180754 0.4799970098896095 0.5883816707317852 0.09999250699401814 0.4626055432081927 -0.2276344414555691 0.4342225110643088 -0.11934824687766825 0.23852612572059587 -0.10006416550590856 ]
[ -0.400428136727003 -0.18821567816096835 -0.5379807546372631 -0.26285573154960384 -0.2041329840825236 0.4184225037485077 -0.1813503582707363 0.5469228683397765 0.13498920300046482 0.13284508154583125 -0.47018797241483795 -0.06517715572837735 0.018779792050342418 -0.14772321894146395 0.4278468748522066 0.44041479886906126 0.358177586986143 0.07331093070548718 0.07025778302594013 -0.29659014204137113 -0.1215754521531344 -0.4960197540694207 0.7346643972063476 -0.12526411030819673 -0.21683057788318966 -0.20648852052952585 -0.5083967303198231 -0.20059769546273207 -0.7446594413572925 0.4235140545059047 0.27672142887062046 0.7379070836391931 0.23684431679053788 0.061495857277019214 0.0812449398301159 -0.13793645498784396 -0.24813357843850103 -0.15424049375261226 0.19350461355332016 0.016879733530944706 ]
[ -0.08371656341777378 -0.3202844732627455 0.7201640284927165 -0.4756746838767552 -0.12196582368696102 -0.20435072755000336 0.2205158755595166 0.12106253261180702 -0.2400578799687207 0.28619927449431865 0.12731225171624905 0.36846525647323225 -0.22893716217928287 0.14198205335789174 -0.21949743750208917 0.3143984109687368 0.37690788678782833 -0.09780458529764238 0.6098611345030112 -0.4674379938915782 0.05122225687630946 -0.21392944629078325 -0.028182459666655675 0.12329873561725262 -0.15339234168229243 -0.15065465902355474 0.38663446511755295 -0.001983229330595391 0.24308355134879492 0.18658343536935582 0.38663992583605045 0.6058007820622854 0.014138623815794045 0.20863909907133107 -0.5894742055786146 0.12065474169676746 -0.2877730975713133 0.3441894218641025 -0.00827572230021204 -0.1693620179410637 ]
[ 0.4701534514633141 -0.6946749785598166 -0.2090797613434088 0.48502225616653666 -0.38082102278798297 0.37429552806699595 -0.3761499655703922 -0.6817864986002008 0.05664923746013723 -1.8479761911678099 -0.5736542621538562 0.2551723392352448 -0.03407180490750841 0.04096495713131848 0.11610208459818991 -0.09573220110005798 0.7293501018268531 -0.5073442000750725 0.09957816065545433 0.38275506090394007 -0.0389455602178996 0.15819806164645284 0.11761924898877933 -0.30550523213450964 0.0007856552520739794 0.41778897896510203 -0.260364253913324 -0.10401905094658334 0.2080042927616489 -0.3007290832875416 0.019157705057514143 0.16262327230206708 -0.7923761143217091 0.1484780263085586 0.12025788744753163 0.26115821266670736 0.29556626639682143 -0.180032629651075 -0.012180717871800608 -0.42433637885461506 ]
[ 0.5495115418394784 -0.404156710112916 0.47187578010138526 -0.7100204699428189 -0.6893084517024709 0.08498425816160353 -0.08981591317925826 0.728170704651461 -0.04730168350505581 -0.17219951394203184 -0.37134322732081043 -0.2751994800650212 -0.061991319254528846 -0.15034899914830258 -0.5675884861948084 -0.4163639893098055 -1.0064905685095138 -0.6034678925908112 -0.1716756255807977 -0.5889988737594534 -0.048459033000441104 -0.4077753811972862 -0.24179994360527063 0.25612587036494927 -0.055551230961921785 0.08675909103080882 0.1019057525552586 -0.2799972931977625 0.9111965786031767 0.31707901639161795 0.6411084902889854 0.6224759682678405 -0.26950808974893065 0.0685576444948418 -0.2371153682745936 -0.7121968415927672 -0.2821624045932209 0.6353222331846213 0.5511717185905114 -0.4860439064417265 ]
[ -0.3042531077941721 -0.391590909554523 0.43256617254347407 -0.2197519727503213 -0.3093950159007508 0.03697318344062579 -0.2090002107447742 -0.49203691790405085 0.03263556081286435 0.3702326075856065 0.3601629662841727 0.05440725467298903 -0.07039425088449082 0.03188706493699259 -0.11669368773112546 -0.262284187941398 0.5304751399123553 -0.26067150565139735 0.6819194915385232 -0.10623200149117211 0.08997444323212804 -0.22380154243444889 -0.10982109971422929 0.04982428198039073 0.5631684120034833 -0.2924738879743384 0.4879798120523509 -0.4541184909507853 -0.2060205899272154 -0.2732068870652809 -0.3169350773983936 -0.021790138658743265 0.6834529278640871 0.11423038778798482 -0.6105155238777122 -0.022880250915723637 -0.6069510502521281 0.5930380499970067 -0.10371968368898038 0.08622906859968722 ]
[ 0.31326396015424646 0.05420432592302646 -0.5384292722134393 -0.33401847211516733 0.4207245824805678 -0.09011576041729996 0.01264517770550822 0.5013276172200928 0.2490788875374911 -0.1497876997652372 0.4153086045143444 0.18814133441379033 -0.1690532831894803 0.2805134833868743 0.20073557353192736 0.2671973648333986 0.32202873847456587 -0.17509489569023431 -0.6230716870595255 0.11236623018802193 -0.09283047335932583 -0.09846788413431516 0.3392234072463016 0.2655775794853169 0.022506239828181274 -0.032765557334501844 -0.14522465300523937 0.40899301971957036 -0.13748584512887 -0.1325731796505551 0.2488563949352776 -0.2473418043388488 0.11731035512468338 -0.004457674256094827 0.0776988261311226 0.5118300985395545 -0.3161045161851429 -0.10153108706191635 -0.2646013221585428 -0.011244354510941308 ]
[ 0.15654481264499281 0.28843300695782037 -0.49624287354268753 0.10157608233854712 0.286283595685416 -0.2470968353459608 0.11481184851610399 0.0629384340788426 -0.14913917793913653 0.13879397399699134 0.33873232767711764 0.3448722232790726 0.26102497895173843 0.18352675909852822 -0.09780193291201435 0.8600743360408316 -0.16481807201097903 0.3910109138182149 0.24414877163027301 -0.2598692491901907 0.03431596059881352 0.2608386715675309 0.18436282410653612 0.1465232685619021 -0.03593775248685383 -0.08078314072446394 -0.4530610325793205 0.1684755912523605 -0.36517769979077425 0.28481140892109175 -0.2697568300858203 0.03820174577994307 -0.007320093311129627 -0.15510088343194273 0.6774212212534158 -0.16578113354031787 0.5709630286927028 -0.8225185927559648 -0.45202068225886555 -0.42096096337813355 ]
[ 0.23160602513587267 -0.28901827792343526 -0.6209982475274993 0.09478721876810912 0.15137861668580416 0.2290228673845352 0.07294418605030646 -0.09048383648680376 -0.08965403677073874 -0.5994974905224565 -0.09462638219740978 -0.22661324340797162 -0.30401640479135644 -0.14728877607641605 0.21551750781685736 0.34508760352359 -0.12523574958928513 0.09330331961808436 -0.3489237922214099 -0.00039383606795679194 -0.48956983993331005 0.38319002377094535 0.483063571974637 -0.0072449465260327785 -0.6715506509723823 0.041486125090960134 -0.7486520122731855 0.43793939400237825 -0.30272355986992605 0.21861230430938414 -0.10011707628268465 -0.3872648031444484 -0.10077880103505951 -0.21481897855809987 0.4263692796462117 -0.19750114027507365 0.7454412050541108 -0.5470222183608431 -0.0506434787046762 0.1189528195284106 ]
[ -0.8464745316592118 -0.021221604047060087 0.3819316367871303 0.6624163534008181 0.47817726996623733 -0.12336587979716802 0.760501056902117 -0.42350264822045275 0.03930412672805836 -0.32791979743195027 -0.4497820448142463 -0.2517850426757822 0.31747491636712666 -0.17048895565386252 0.512302922058496 0.07921379383429598 0.3472684843326584 0.4378508600655527 -0.23850314311275633 0.45780291246801447 -0.0801555445869925 0.3411871023517356 -0.14434176867883275 0.5819750782632014 0.33094605287002105 -0.26492125399783295 0.22074348690531206 -0.19118833754860032 -0.07584878740755502 -0.45536688916747253 0.33534763596490424 -0.19544729106962005 0.2744497587040534 0.05908028944594824 0.20292639292015993 -0.21699657540060346 0.09688433352096731 -0.20313228955729282 -0.8516749338972218 0.8330032887917138 ]
[ -0.579478025259076 -0.10689495153554689 -0.4730005719150192 0.27114778016860785 -0.23262227802516783 0.593583232232772 -0.18899853883224052 -1.081062049068736 0.0773715770188703 -0.04390338595460678 -0.2964484388039714 -0.03578892238378388 -0.7777668117378304 -0.07735728212203177 0.3789956688953809 0.029436662168132153 0.03952007961093205 0.021924816138245786 0.4139930701388622 -0.3195956531331717 0.7300492642275205 0.09413917734313798 -0.06119901804270445 -0.3004873072674751 0.031325698848799946 -0.6378279823531071 -0.3186562162987782 -0.18275935214274402 -0.48929887542938993 -0.3416318498911195 -0.2571861143423396 -0.14123198962078692 0.06397198207309639 0.21980722640778927 0.22572615686435438 0.29661119263196695 0.36041764207293653 -0.2125943008665824 -0.20106112005622148 -0.07301084161025154 ]
[ 0.07978394157352599 0.03572637494588648 0.13833747273355065 -0.3747245760970516 -0.006363174086983749 -0.15520041370347623 0.07901593255491049 0.2842971654894868 0.11688276655433624 -0.23114643858430595 -0.23971443266663556 -0.03706435816081327 -0.035954726735540184 -0.18743497161056158 0.1964278722086604 -0.0827844032435827 0.35646519037176605 0.07448817923581132 0.0817409307863498 0.5115246924667728 0.1476142910150769 -0.045501889386338305 -0.13764260859281355 0.15207469054458564 0.4905401878199587 0.06866181723287347 0.168264576865175 -0.21365161143336486 -0.446794494188655 -0.381567327696888 0.19275766955434334 0.25364531082659847 0.5177185294589843 0.11964061793924674 0.08420449296394372 -0.3304971419044452 -0.32707635026764414 -0.23430085676335527 -0.3135009241642557 0.8826211373492571 ]
[ -0.04168547907997949 -0.9353045379023313 -0.4670997007045518 -0.06702718006773618 -0.145954395164589 0.4649529343064056 0.294019117117233 -0.30174008109841355 -0.21342144496619012 -0.36057483762613374 -0.21997425634128479 -0.2151460131171865 0.27353105854764426 -0.14416437838799212 0.5631630450890852 -0.23252478804210805 0.8678685856710595 -0.12206608108851985 0.4347700740705842 0.47367172231102866 -0.05332236600555671 0.09884945224069627 0.7952663001916547 -0.4503935199907698 0.2709029056946196 0.07040216829226455 -0.13151220774239158 0.1667606428796776 0.0901927171126221 -0.04947218801708183 -0.16720905169598402 -0.1697581081335729 -0.1010947893932858 0.0339520828061545 -0.47588894636016965 0.193924069352514 -0.3761969119040936 0.19610224394647235 -0.13418920569849416 -0.27841519562591316 ]
[ 0.06839597910848765 0.06027698600760175 -0.2506213241524263 0.0005043626061101631 0.044913613575269566 0.009797853497467441 0.07549265160774431 0.15142863077299415 0.0008769014443608592 -0.07923379978207525 -0.20187082996490602 -0.12551727332076834 -0.014037371639534488 -0.09773637869735424 0.08953218096347233 0.15347608599486873 -0.2466581073468872 0.08655846857675532 -0.44088619768135506 0.012390926801718749 -0.08573917221501333 0.007208741099771712 0.1742310182720087 0.12431631022841498 -0.3174444961993073 -0.004014707701050995 -0.5690722421971497 0.21526646965077598 -0.010232742640066824 0.03079983350306546 0.06448239160504991 0.07876269673999246 -0.2668829171253956 -0.0003147906772851005 0.33954831840059757 -0.25217882683713044 0.38995458422600887 -0.3854018283639722 -0.0258619701252289 0.052713212067005875 ]
layer 3 Activation
tanh
layer 4 Dense
40 20
[ -0.1288145945422595 -0.30387955884304885 0.17277931582890416 0.5048177711736764 0.1922334569031227 -0.33929324922466075 0.08696335746915625 -0.029882365884922078 -0.2985737438825493 -0.19451829048326624 -0.3190680168766072 -0.1133832681266099 0.20926576254314683 -0.1987436903997138 0.3258779790206783 0.11540795763274714 0.3328359789452936 -0.1600681780698012 -0.485106553208743 0.1657916305823465 ]
[ -0.01739436238444217 -0.0895417831631318 0.10679927233039686 0.22007263469129276 0.023743420320389744 0.33433548933593626 0.16158042214779625 0.5342465367769371 -0.31425612107061307 0.20294881987840435 0.6657867282103609 -0.48021246341470986 -0.16886438134165743 0.5921980836323452 0.09378053403099298 0.04165138033085849 0.4542537472036106 -0.016090746018861866 0.6763249232046281 -0.256647790818762 ]
[ -0.22968347080164972 -0.3329109355865714 -0.21187902761094285 -0.47918261906681264 -0.41150090611847917 0.12708638547785303 -0.17556427882644904 0.12374788455816212 -0.13453841499165264 -0.5228719381376641 -0.2827379615516898 0.23851124894415213 0.07562418408606424 0.2281008849143722 -0.18463152052218818 -0.006145391617679165 0.40883406999762456 0.5302009540303542 -0.015320156906343512 0.03499046149615153 ]
[ -0.20684492528785486 -0.11437149527559966 -0.2637990535985103 0.3007420968170864 -0.029882070389553914 -0.29377958986776315 -0.22704260919386407 0.44645700103427943 0.37533354065461716 -0.4449438291695419 0.2042320417278451 0.048033975904226804 -0.43704103651891757 -0.6494852674752124 -0.5162245605532976 -0.17346704597712487 -0.18000973398620476 0.11825056524144892 -0.33538936468258734 0.08752974118223296 ]
[ 0.13345062586283352 0.16455912136764522 0.318567317207135 0.23433684509390718 0.1665713384856667 -0.2853541286651653 0.10113574156287379 0.46730179591999166 -0.0007584287749595338 0.3641469457726409 0.23327584222586725 -0.13477450357338733 0.04738417877921207 -0.5362321745970969 -0.3501449679737454 -0.2997169575537703 0.09318101214228447 -0.10368398756298121 -0.06711331752378052 -0.44595529652093413 ]
[ -0.04963544009554935 0.21951849451551383 0.07986477331359282 -0.335886227345221 0.5026638260042728 -0.33000200173035193 -0.25851180642795163 0.026555583103492847 0.3373100783700674 0.22665025467388164 -0.603563110603745 -0.23967404715058588 -0.011792755093882452 -0.009009879192180135 -0.18913493815979007 0.2534416090263802 -0.3508880370314935 -0.36187114668654263 0.15490948911117464 0.533169867166435 ]
[ 0.1805420241080389 0.07225093147238805 -0.12230592611715274 -0.3722232122569332 -0.13923166018845398 0.02978471891114038 0.04727650570976578 -0.04704138599479606 0.2639086097368905 0.14327592430713088 0.05843141824485918 0.42621088858736894 0.010526907950942042 -0.28019413400175863 -0.17016026025928876 0.08840506416192725 -0.05805415646054994 -0.03173347452043822 -0.4273137036065085 -0.5365760104092979 ]
[ 0.5309479976351442 -0.48566768454251885 -0.04237865320282553 0.18756081950434872 0.10821174325480995 0.42513021235611137 0.1325202804997209 0.2562549966100175 -0.5972085341360465 0.6580897943482369 0.3541907399404688 -0.4215244121165213 0.5573443004920899 0.9497621239113636 0.5206056127102912 0.31608459084948615 0.5799069854188003 -0.018891811605653126 0.5354138698698518 0.0021412435912215293 ]
[ -0.46257586944893275 0.09618384179602828 -0.048989610027625446 0.1012492955838289 -0.04440779645307001 0.046391932366749204 0.2682237381754239 0.04717860304746051 0.045397728924329764 -0.28399705968786365 0.32497481231442304 0.16592362981551728 0.07276088843656421 -0.2833757423945426 -0.2613121058161143 0.09122936159707722 0.11705355767631936 -0.026137136558057356 0.08380583108482928 -0.15663215502106692 ]
[ -0.1790335077620551 -0.2641251019002147 -0.373651830372135 -0.1987021214046792 -0.2527137467911611 0.3930409463740601 0.03009413739306867 0.2422028531194869 -0.30688106827085837 -0.2627763203334834 -0.06473288336280006 -0.2066771894343442 0.4024010294363646 0.4545006591430266 -0.18625084960751576 -0.10955375778800408 0.07557732241874947 0.13487715736273312 0.6395932604371407 0.03691935560717419 ]
[ -0.3953725595885993 -0.02433441775379492 -0.017536559323993842 0.24254016637254874 -0.31350943834975936 -0.17980721312820366 -0.18129465449123713 0.16629527052359844 0.08473537154743552 -0.1541542845204538 0.07834873206362146 0.011059663140594454 0.19032822822927148 0.48231345620315796 0.27057960162727507 -0.34480802250335146 0.5076305819683967 0.3566667907342583 0.6624256474750501 -0.19345256398646474 ]
[ -0.2206119363782624 0.020545616706430094 0.09356901986845936 0.297058270016125 0.37078864529589034 -0.14734708085831946 -0.06029970947701845 -0.07251027203194647 0.10159731730657437 -0.10354491563715544 0.14964379028235963 -0.11807704435672751 -0.10924689213171901 0.41018393741663844 0.19264941712747238 -0.15652715551818916 0.19212856849512863 0.09017705539589774 -0.060146637177057996 -0.191428960594353 ]
[ 0.3202983476045244 -0.0364461067925745 -0.29662512237872074 0.16386692715473777 0.10647053746504549 0.13912036413783443 0.21072951249897706 -0.0824121061581508 -0.04994337200771714 0.4661876655830437 0.2841444348908903 0.145557571594715 -0.10991394404142019 0.06896061293699611 -0.19068464341323263 -0.13211527135664197 0.11918218736735317 -0.2753475841349622 -0.14220711885923099 0.16589311267699025 ]
[ -0.27300490634086816 0.14452486610879234 0.1886140213554602 0.13979532594700553 0.17796665976003045 0.02198771583013662 0.18337891546742727 -0.09841077984232957 -0.026928135806110004 -0.2884831318461757 -0.10077437969105255 0.24502758538559888 -0.08876262499077074 0.04775118454846304 0.32606288361002217 0.05510943108142318 0.42830833547738556 -0.08656836748845353 0.15150425623320368 -0.1399963704899991 ]
[ -0.2519204745382211 0.42540077521645797 -0.23524548211794277 -0.2827006297278211 -0.24493468799128587 -0.105179038189721 -0.01202490218911146 0.07642102811692592 0.7578479542181576 0.044166017628468966 0.0338232634554459 0.4165684751831422 0.022208728250792932 -0.8208225451096276 -0.4331819942264359 0.06090991647275367 -0.009649449186385928 -0.38457766124485815 0.2035776471913364 0.2579466494329962 ]
[ 0.02530234282302985 0.41699256762287723 0.2091905208431059 0.4709779097742691 0.23490314603910487 -0.07690297918129747 0.09955422464674536 0.19472490009944388 0.22460503671157458 -0.2617781778230595 0.1575207959278433 0.13121882795287754 0.29417493649939674 0.14066701012540617 -0.2961064207636613 0.2556558380239466 0.2292980379251258 -0.34551458902799054 0.15813278296691988 -0.32702602187129165 ]
[ -0.5278889782112216 0.3562963382993757 -0.14239970637967753 0.2053871908182293 -0.46646508084265637 0.13981156252180607 -0.24336700541469033 -0.3245727486934269 0.5051896386040958 -0.46295186954579776 -0.11304539539259909 0.4833969230464544 -0.21495863601212822 -0.7633355643790228 0.3255086908270218 -0.11818840521254567 0.26697608497989256 -0.10804959313893713 -0.19468368942075095 0.553547174960569 ]
[ -0.15184719092339555 -0.0721408146954594 -0.13503081457395816 0.10785770864481457 -0.22434823844912594 0.11454571178022285 -0.12433540793533523 0.34828162999695017 0.19628512712092788 0.23679102331062224 0.10496091526187483 0.1360646170687361 -0.0897700951142918 0.25059750314981477 -0.1437540876421014 -0.003170876551393911 -0.07542390439130572 -0.18290793545605055 0.046978179440155234 -0.6800799262524595 ]
[ -0.7963172063063537 0.24002028747378457 -0.46048520215985406 0.49033287170776513 -0.5656656367148735 -0.3086187861548045 0.3719546987356432 -0.6957917646025085 0.2804499715805072 -0.669762750507406 -0.32957975849398996 0.28026820524541063 0.18675509853988828 -0.2860073922575622 0.4732573886656857 -0.11498761816261517 0.11750394015698948 -0.04135420888364349 -0.4028416590188073 0.06941352231930276 ]
[ 0.3522633271503728 -0.24636229555857883 0.11399639675866508 -0.07187034497748493 -0.14580419895824168 0.04117914440893559 0.09297018435652546 0.0015646942132221718 0.5172219398753749 0.5191377670819391 -0.05481008270833728 0.1862294491543503 0.029952065997503365 -0.9075078567905862 -0.18648397743552472 -0.11693023022235383 -0.06073023069938994 -0.28692088633394397 -0.2590645543211849 0.10817744035211062 ]
[ -0.2613511764281824 -0.16698898242847326 -0.2253768327657407 -0.15273373225590828 0.2670198546475248 0.15562863896339985 -0.052575751123403354 -0.03334003145272888 -0.24583721024795288 -0.40140730830802795 -0.12421684553764735 -0.07127687774006264 -0.0759553886592111 0.31557984946243617 -0.08744275271077806 0.19573521663731852 -0.07762077282197881 -0.01811473794809862 0.16588170873141683 0.2612508172426107 ]
[ -0.2573721872556793 0.2100338252074867 0.347368960841526 0.15910017330631684 -0.010680321017694363 -0.14482960718117446 -0.31017821314261207 0.2504719158812654 0.3065145372094921 -0.41006035810807623 -0.03952326297668358 0.06711248359631977 -0.05750169470312738 -0.11576718982878645 0.1484626171115005 -0.3789532661567281 -0.019786394680595926 -0.06418322759265623 -0.2620019057011874 -0.26339823200153323 ]
[ -0.04444343594268963 0.40573115482770905 0.29376410105027995 0.13952025359167058 0.30888931723938073 0.11819434466297762 -0.2240391043044555 -0.2647299864162851 0.6564267221457922 0.23031317780218052 -0.012347943817904728 0.24844898025144097 0.4931440521442859 -0.29769776902514605 0.2968019351214826 0.04026667367181926 -0.46717465773913897 -0.6997205098075071 0.07047987751619247 0.14225925023668756 ]
[ 0.040807285913881115 0.04739027417286724 -0.15334000264822625 -0.269671900661754 0.3699762687738318 0.28716247454044364 0.13791246076093366 -0.06119657794280994 -0.23520120284719162 -0.11487700617226736 -0.22803387389202606 0.2911732089576439 -0.1329501713407953 0.15690447368179777 0.19140833111518926 0.34368931973367056 0.04676782001952256 0.1955710319382778 0.049401117605348314 -0.3738499078235781 ]
[ -0.4641213214724266 -0.19683747455663025 -0.4026060122418578 -0.24941516560437885 -0.1445156226466724 0.12099480528897522 -0.4275922744167367 -0.23525179572473254 0.14764416368214048 -0.23673073356123944 -0.2689518794669678 0.39136167171104336 -0.326503625681255 0.4627146264629467 -0.5276050380058298 -0.1318961968950954 0.05320812844610959 0.4086573330546115 0.015128219006998535 0.3262671880654474 ]
[ 0.4443145261828012 0.06983407212991437 -0.16647316600478296 0.36416685437054375 -0.14201067379405996 -0.26230805711223465 -0.04370598120413654 -0.0931084206919507 -0.15827687036378052 0.470061248206363 0.2388340913170142 -0.30070671694868334 -0.31581761096140626 -0.3874942278369909 0.25598132120722905 -0.07632432841862553 0.22538728840480013 -0.0920393293474685 0.05975170500878318 -0.032900492502951274 ]
[ -0.30915258451655125 -0.053870405538625446 -0.3494703520355473 -0.1282721632160578 -0.33128477182794946 0.05936273982168366 -0.11130394120584648 -0.37937926897282664 0.09277345099989283 -0.3346561376539873 -0.08608114922730298 0.24694620211767598 -0.15252494305115255 0.5880864988455071 -0.1009354691410408 -0.3362591618093054 0.3917770684790594 0.40032777288501803 0.3540860099351036 0.5101080948397437 ]
[ 0.32252901078287965 0.3444061486954572 0.34277702800779425 0.17967640487423847 0.4286812002776555 -0.07835546439220453 0.29431889010959883 0.39274425774812877 -0.28541039795421497 0.2409235643919625 -0.12421294787368163 -0.11576240973512246 0.11152593895395067 -0.4443634452744255 -0.15751550920573568 0.26942060920641225 0.1351887883248483 -0.23043641089375483 -0.0683045325355995 -0.13671701267557787 ]
[ 0.4854811562093697 -0.4772964114207769 0.07383849929317989 0.22633407924186263 -0.10437096196848143 0.030585448335516546 0.08474200399136045 -0.2624785285414151 -0.4104794901126899 0.04335637840083954 0.037106861872563485 -0.4041256012814376 -0.0728326231153366 -0.006870627671542129 -0.16554378807245354 -0.0020797479975002407 -0.07052525782707939 0.4395046294707886 -0.3127959106085336 -0.005235218943283397 ]
[ 0.3868277167252566 -0.043191087869602456 0.013837987528298958 0.6371844697458143 0.46088325731720253 0.1962094856272139 0.17840333280569814 -0.24673317252228855 -0.09338401125055229 0.24815175839548725 -0.1373264583229509 -0.009160603747057402 0.22306391915246182 0.02529252294204411 0.18481600581017935 0.4785741620359974 -0.04651684745379893 -0.3071114454806211 0.315141547355686 -0.07015554788593624 ]
[ 0.2710253041772248 -0.06758025583062968 0.11916220334215781 -0.4334529052228544 0.024266893528022332 -0.013163249763640056 0.07046562630765701 -0.16926836354168226 -0.39158969232478386 0.354335084437964 -0.283632434091587 0.03737150944827141 0.013180516237318005 -0.003341938467953297 0.0695859239395206 0.46658710316952395 0.13189567322997425 0.0889466827944414 -0.06695425969360612 -0.13905469118504293 ]
[ 0.2955248167429154 -0.1711002237753967 -0.04947806887017755 0.32657065276175534 0.33204194148407873 -0.05517525262592111 0.16013712102442343 -0.14930638933982096 -0.2702489772645498 0.6295653475007387 -0.29999810293773543 -0.10476282269493105 0.25786828235784176 -0.15392690258907718 -0.01902267429958697 0.20382572546168437 -0.020834496971053128 -0.09764073302616132 -0.11479329606706253 0.619965314307552 ]
[ -0.760219480888854 0.056759448165769055 -0.19775645373064288 0.036877119398416904 -0.10764573006258216 0.3155301149347382 0.14127056717461706 -0.31145363118959307 0.2867622669869608 -0.1395851279497059 0.024913868443191135 0.5567211976824579 0.4371255802616192 -0.28407330903061423 -0.19399546813275917 0.48585678958139855 -0.0862567318792264 -0.09863465211068657 -0.12146002891900742 0.33921918004201324 ]
[ -0.21569029218238434 -0.18600634352152004 -0.22402714197271353 0.17333187957411775 -0.5258916620657557 0.14497475744493477 0.2689450212039422 -0.06435939823080115 0.01641925205884416 0.11227759940621762 -0.01793931764965942 0.01015521732243035 -0.21094211784414618 0.15931795730688547 -0.006469908006670724 0.051835046462495676 -0.24524764875165722 0.03508036894898988 0.230365650754387 0.08353847061628368 ]
[ -0.1629077371823927 0.41875679668487586 0.33325775045249445 -0.10500088826746964 0.5376728987634852 -0.24851965475165813 0.0015672674874284043 0.44413029667566334 -0.0039000900320016203 0.12779930084855023 0.3696363234566938 0.05697956219608302 -0.12385295709025124 0.18140777968779298 -0.2746879095002026 -0.2859119509658685 -0.09527724376745061 0.22738282568294274 -0.11199258783580263 -0.44311354834631667 ]
[ -0.4258717258814005 -0.12426097856615984 0.13967455244518504 0.48391488235672653 -0.031787764562409414 -0.48018344106597804 0.03371851091148945 -0.0753689924995684 0.6028343116220078 -0.024856037258398033 -0.15035720148379692 -0.30883737375442893 -0.24850810044320895 -0.269346418945682 -0.17195068621686 -0.34603755139393766 0.11739226215926762 -0.329211314272082 0.042561233087536295 0.347430641447533 ]
[ 0.2050256668724319 0.514069129497625 0.35095257112177525 -0.02969176785280543 0.18908722241863443 -0.09206142852903332 -0.40147356968573145 0.44597583645448996 0.15605805858591815 -0.13031117536652365 0.3443547480780354 0.1928253040907591 -0.2955925259213831 0.33436548484325834 0.24149383038158945 -0.15386374136534925 0.2920517013887582 -0.2350340146433246 0.17425846367934528 -0.6274975494014055 ]
[ -0.28218956141382423 -0.3308961346935674 -0.4174998090542593 -0.049809912588420296 -0.231250249514095 -0.16744632931400039 0.17056550810300347 -0.5319725059144308 -0.3873258614864576 0.0664878973605525 -0.1838727777661312 -0.47603535916633527 0.2829269955273998 -0.1677112418655613 0.3418998943101826 -0.09750995530679504 -0.06964836353100179 0.2418815929383746 -0.08311977054205931 0.14466032535593373 ]
[ -0.14955643254367199 0.0342311689012648 0.05254574274707365 -0.06880651234220768 0.3125690759689385 -0.09191899702897137 -0.005288020843875864 -0.20729513007364286 0.08027098521157616 -0.15457063646190117 0.20853478722830432 -0.28089565478787065 0.11387110595730228 0.34152808613986474 0.24349422901248655 0.20788823119728528 0.3291401260404406 0.2547306871135796 -0.05616050183758954 -0.016484539219837203 ]
[ -0.2546063355381772 0.10330292898838778 -0.38348280928588163 -0.5967272171141509 0.33990205279108016 0.3430698393473233 0.1508646604621954 0.42558264864248424 -0.4761728756439341 0.17658269823266223 0.00461727032865128 0.42416770673421356 0.09435681514251237 0.18181062241460622 -0.16562112818401786 0.1867974212977355 0.17049328007031203 -0.11446222210940361 -0.062886180335066 -0.4366316363573502 ]
[ 0.1541803414453411 0.08745804418927812 0.2025097620467896 0.04143159547446089 0.27721550012338375 -0.10660421742881214 0.02299124221495514 0.13914908975572737 -0.06578394249263339 0.224078108620739 -0.06585929204064342 0.020954255314838265 0.06538202515174173 -0.16982276716613853 0.05155873936187378 0.09056623473120907 -0.07960561881271193 -0.09315080375057423 -0.17438423855607296 -0.07444287358775063 ]
layer 5 Activation
tanh
layer 6 Dense
20 1
[ -0.1715483377132476 ]
[ -0.4913181393308169 ]
[ 0.4022282809947832 ]
[ 0.05707579644260418 ]
[ 0.4469272113126323 ]
[ -0.16427060306239302 ]
[ 0.017198115771094733 ]
[ -0.6816266108289059 ]
[ -0.03375499868527373 ]
[ -0.11352707303970144 ]
[ -0.06459979445650046 ]
[ 0.03998571438938956 ]
[ 0.15186152691426663 ]
[ -0.0755858808675304 ]
[ 0.1408467593932773 ]
[ 0.09753120535008628 ]
[ -0.15260770664650172 ]
[ -0.30667324576306937 ]
[ -0.04139559998829541 ]
[ 0.21557414764300106 ]
[ 0.32380459468523637 ]
