layers 7
layer 0 Dense
20 20
[ 0.7719561428196854 -0.47177713523862447 -0.1859796159389567 -0.3275547417373858 -1.2009795848127596 -0.5166106966418105 0.651541738377525 -0.19321617584318307 -0.4222564893182585 0.11173180279675633 0.24477280334968954 0.37271949549592687 0.19793141873513553 -0.3796682525658132 0.4010234700265139 -0.12170945399147289 -0.16303692616639162 0.5733240193562469 -0.6896741403036953 -0.4971170342731612 ]
[ -0.04026082640191577 -0.08638121525548219 0.10049168380586058 0.09222658831168988 0.1882726982161649 -0.1324026411065374 -0.05593072428608965 0.010095810009721212 -0.3318851749972906 0.07735919176145248 0.2541842236809611 0.06157134465529826 -0.3000730718500669 0.27689047580058807 0.1031953026963771 0.3217345069093834 -0.20272291179785992 -0.23610207307045036 0.07995292411012317 0.35160538966788213 ]
[ 0.05682819262219723 -0.20835674401318285 0.09903622641146409 -0.019050180736277546 -0.32708294166137175 0.2812867873140817 0.22108103356434086 -0.02167938147300917 0.2698681864630865 0.32394506031708353 0.07924530442136198 0.026575693417062913 -0.2349101494231931 0.2689398991690953 -0.13810268240493936 0.015070069003803345 0.3073001990012318 -0.05169969952999636 0.3685314613019975 -0.2329200789352147 ]
[ 0.8221606179970811 -0.4878898689495957 -0.5177237813165542 -0.38265094367834657 -0.6308560089050391 -0.7145927505624163 0.32729792822649084 -0.8047846664909473 -0.6690662329573369 -0.4181718253103191 -0.33932951727768695 0.024099343179332763 0.17081411035198643 -0.29345088318566964 0.08311532644241877 0.1160022531878352 -0.009810770533565768 0.4057114196362311 -0.8395079933920061 -1.050038125985799 ]
[ -0.6333363707126995 -0.410653002125553 -0.8622508414418637 -0.18012492583621567 -0.7592235173458906 -0.2740269452402103 0.5110581792204588 -0.20571816351758873 1.1672742406781522 1.208197694743458 -0.06291487081553696 0.570463815391056 0.4349863631122407 -0.7289044524771336 -0.3958392514544697 -1.1008346838213516 0.41817236117488654 -0.3212688552901326 -0.7948981127949124 0.2779381435617548 ]
[ -0.1428938498460786 -0.06024592273614704 -0.1057393793344963 0.05216115649356565 -0.04862524581723974 -0.057419300368974475 0.1056192467730012 0.0006087340990597894 -0.20781740094035672 0.07799372026593884 0.05903916857183762 -0.2901954606706404 -0.27883908394499285 -0.32381160727487646 -0.35817031633770335 0.006059294894154159 0.1540375290716014 -0.2267626216095609 0.20174131848687046 -0.20760507253512114 ]
[ 0.2773703727885514 -0.37328703331161195 -0.06627512226647325 -0.3014942062944615 0.01569071758432031 -0.2528008482979435 -0.2360244484685112 -0.35469713708092243 0.19572848136706705 0.11664172244764773 0.17594622768411028 0.31844280339803765 0.23782797124017102 -0.19542546609034553 0.031352686222679206 0.2543877458924974 0.1668927664460407 -0.14081893058372114 -0.27235881548083124 -0.10288717200611631 ]
[ -1.8385391150117432 0.6105477462838764 1.2560271218414285 1.3533455170623752 0.5299145692461378 0.850340398931968 0.12435073917057021 2.175572958211188 -0.39274516185053165 0.9810540132110291 -0.10830991052965348 0.3907219955804791 -2.088095892630668 0.6796698144821772 0.75433234051512 0.7732786359227862 0.5867337505360539 -2.1361892261496265 2.1508645695481032 2.754877756426239 ]
[ -0.850393147725388 -0.3019624448400433 -0.5454992398339705 0.2772486658955858 -1.994816521855073 -0.9292856186618151 0.32697815221878784 -1.2281157889951049 0.9678067311773464 0.6551576390783124 -0.9247527228509292 0.9117365635568732 -0.041896468311026815 -0.8469155671322346 0.1214980367406546 0.16365448808520391 0.364239697780532 1.2346106326915853 -1.835337526926692 -0.7074763597623387 ]
[ -0.17640142107899942 1.0687492712952575 2.0954194566425683 -0.5475085802800349 1.2454278334539297 -0.8327159788706348 -0.6077354423638197 0.5138905495676481 -0.15291041513193754 1.302677996733783 -1.0291752657703883 -0.3185215721997553 -0.24384766733197913 1.2063038667543515 1.0559387808999412 -0.671199709777617 -3.356522755008861 0.85201100093833 0.3079879398674615 0.1993663973556398 ]
[ 0.2662348779535491 -0.13556977907034165 -1.1656699801533146 -1.5208446393147101 1.281485014298604 1.7218060718209744 0.20386593257632585 -0.5075732516109475 0.34363428700458015 0.3630115530322646 -0.0034002989225156766 1.0497991572558338 -0.240099940154139 -0.4333592918851305 -0.8748584380079077 -2.2651831274146526 -0.12191588758840866 0.4243513288313578 0.3211155877029543 0.32609270479610364 ]
[ 1.6160792953607142 1.071187535811533 -1.4936313164324444 3.10134409663786 -0.1397217334594996 -2.2859442915843293 -1.2957708308561922 -3.8300410286462934 -0.9345515561735593 1.6255371151337155 0.1919594294674981 -3.3729390309809 0.9271195160115498 -0.8943530545166014 -1.215348481751044 -2.508115307311398 -0.3908635726851687 2.7452539317029854 -5.291104018118751 -4.809485513020026 ]
[ -0.5565102427701399 -0.5110088688117795 -1.3242551683904085 -1.0240484876983265 -1.846811694807152 -1.691434939842871 0.4252407710393317 -0.18732811511586697 0.7506186145909771 2.2421685064555934 -1.092977006716535 0.885033635622117 -0.2657203193981424 -1.301388500266841 0.18641786307770938 -0.9587563814556688 0.9701199425856667 0.31658083820086874 -1.0616207721348228 -1.1868486921960053 ]
[ 0.2403584182658583 1.1250540482577098 -1.9513895498821887 3.490051151796247 -0.7621287322891946 1.2647557201151032 -1.3224423722508614 0.4727881968071929 -0.983135013598865 0.47674096241174635 0.46154552878307537 -0.08056040511103504 0.2539648966477361 0.8280661320203645 0.5291952890857787 -0.6157778530206675 0.35822621974077673 -0.056312411530034974 -0.17817370196717724 -0.06612316368552205 ]
[ 0.19443257051943172 -0.6408118064831175 -0.9907599437537201 1.5791899897189643 0.44297375453332155 -0.3372442745785648 0.9072392545698291 -0.3433626889394718 0.823244650926542 0.610609930130243 2.161131870516961 0.2588764444260666 2.287122112993159 1.5441300566315095 -0.6270794426411165 0.046856676658974 1.4592325957817058 0.42886290886236594 -0.10826555680540113 -0.7821626986195553 ]
[ -0.3482239830125127 1.35644857237645 -0.04383773770650803 -0.014746268790058437 -3.0113251368883227 -4.635696834440738 0.5212674163515804 0.3314065777631764 -0.3555102022738709 3.1418804331132186 -0.25387914081146307 -2.739734997448323 -1.3999083556823084 -0.12142697806932642 -0.463507835588514 -1.1100482358272379 0.5784358038219878 1.1713341185561035 -1.0320618015274456 -0.288058762082168 ]
[ -0.7066064139638312 -0.5470072623081011 0.9357109056740377 0.7150524821385784 -0.7524655242400194 1.0496860194280033 1.095972943038598 1.0104159580095835 -0.4267718568031328 1.0081614572460724 1.1455717508184438 0.4062398084675361 -0.4884006654601266 0.24799704412473347 0.5347159842504993 -1.0873887083930007 0.284387375910504 -0.8581763366888436 0.7071523948557967 1.6187014845779657 ]
[ -0.11446429896689025 -4.396595813006077 -1.2675732252156768 -5.0459593900625945 0.24160287725047558 0.10118033850020415 4.472535318251305 -2.367122773556212 3.43104620783705 -3.8071285068208787 2.001490503701316 -1.1311710432098483 -1.5471535470881164 -5.7270136101547235 -4.095507229224422 2.485653589652872 4.922056328468332 -2.155463695141034 0.2752140283478519 0.0589708589511466 ]
[ 0.28498848191940157 2.1891090914089704 3.9708901439774236 0.4690003296020719 -5.015514318762733 -2.8020568428695585 -2.4736737274742495 1.511712395316987 -1.266681622115606 -1.3311728931959204 -3.250467121425629 -2.3177589828210756 -3.6610519029388056 -1.6005877474717967 2.3625692112702734 3.9691268778093667 -3.308807375243109 -1.1037752109608834 -0.17089902532052392 0.6802356567236718 ]
[ -0.3737350528336013 -1.098153962055187 0.4313321125732264 0.39752792803888265 -0.3407346423565403 0.9592198292428007 0.8574890892283252 0.8937748463719216 0.0320287780892319 -0.4504054946107397 -0.09485391543879997 1.953298412387622 -0.9821368683039845 0.034189662416082706 1.3223828161703592 0.9770404670001238 -0.31487094519529624 -1.051140380753002 1.091308989559888 0.9618399763638951 ]
[ 1.303351545280703 0.14959706854822025 -0.326982728565683 -0.4106647380428292 0.3420628710707394 -0.6090821600088838 -0.3764712263423559 -0.8428844472753896 -0.4055710128373643 -1.0912596167623119 -0.08107256513510265 -0.3413466336493383 0.8861516599331509 0.03890694511890809 -0.4847011559592073 0.04569356638083104 -0.5102777570038989 0.9973132273239841 -1.0065782375686958 -1.3517804862299558 ]
layer 1 Activation
tanh
layer 2 Dense
20 40
[ -1.6069485221692517 1.3005365923180179 -0.14257151892674283 1.4521276514501813 0.23721818071534556 0.9642896231182752 -0.1289142314469093 -0.47206515775270486 1.6307819346660288 -0.5117423617481395 -0.06383522405896483 -0.3342939578727206 0.28213260888178443 -0.4810449009234083 1.031547646491891 2.2700555497926707 -0.576696825722626 1.3386067701324478 0.3498545885352959 2.353983115876316 0.11509432630745292 1.0042122485067742 2.119133702796097 1.762615659419595 -1.5693920227721645 -0.6377053615556799 -2.3892318478213266 -1.073855040642875 0.7024477078474561 0.4193055401986046 -1.9757491866929677 -0.8170146998603252 1.8048883564977323 -0.128303865048747 0.9885862666300743 -0.28097381727068904 -1.2277920100575959 0.9312060429498733 0.006083621019145643 -0.48453773382180254 ]
[ 0.1431621745484579 0.6520664321656408 -0.6137719890982943 -0.1382271211375255 -2.3465114397025237 -3.471277509708216 -0.806889513543781 -1.181247472008379 -0.012413257980996182 -0.43209321893960256 1.0607173806614962 1.0907843327249382 2.103126006245578 -1.905064049473126 0.9319449463809129 -0.6560973470352102 2.7830394827262857 -0.9999660576022457 0.32083802116996607 -0.5282731890049536 0.12521677097382733 0.381444803208426 0.8997548722459856 1.2469644375269917 0.4252730550345592 -1.2951009375846236 0.41788755750573564 0.6908918409515544 -0.7624605594906502 2.428465279222268 0.008267649693635028 0.5724019526073906 -0.7417266712367653 1.775502909040985 -0.2237930969464704 -0.0031160867133006153 -1.3233397451688145 -1.2135788236241538 0.859491916167454 0.07745352706418922 ]
[ -0.5813411553168926 -0.46158706332914007 0.024091206276311283 -0.14036972081016907 -0.5075874799626293 0.1736750056299231 -1.2568712087954639 1.7586978691663393 -0.7116918495234773 -0.04074464295086258 1.618573028784465 0.617095986113559 0.36162213519816877 -0.8213532904413829 0.31248771749177473 -0.48773640200855184 0.22642984338735817 -1.5853465059674572 -1.1751905356068488 -0.8367552073197361 0.4509165331933622 -2.1351649982910823 0.19241081185465622 -0.5684461349567385 -0.26709354599077867 -0.5117159340284158 -0.32349540649357644 -0.5935906112404018 -1.9220031513644613 -0.05652479024830793 -0.026074007615785613 1.321084273370161 -0.6311018800831433 0.7103136490180789 -2.347448317876763 0.3189824497926503 0.0018890958355337495 -0.80418594581874 -0.43855375100703353 0.4980388123964466 ]
[ -2.39547684181613 0.5831448239608609 0.538148661529996 0.3597944243926045 -0.9396902718509343 -0.9475960066029651 -0.971894422485384 -0.6523410219187161 -1.7945767204693475 -0.6884327799769797 1.4956973970427299 1.8331458925635808 3.3189583565931957 -1.1163209832645637 -0.8128882637279388 1.4078892789578474 0.5041285367950181 -0.595860685228097 0.45776497677343364 0.22950567080451204 -1.4694944390030686 0.43154346730977977 -1.0040410463528489 -1.9471576298266307 0.2634286257705284 0.7038350836842203 0.5059515343766993 -0.004149204935168962 -2.268176234070505 -0.7414709672652645 0.03888556806320132 -1.3160269128650954 2.290617424240532 -1.2824640617702756 -0.45879294138360754 -0.9577730464640551 -0.48465820732122167 -0.2605319989076549 -1.7678518695687402 0.2276806091031063 ]
[ -1.2052851220952376 -1.5396766228170182 2.1761818840658953 -1.055014253044876 0.0196577126770055 -0.5319430873740744 -0.11017537532167246 0.4560164118268061 -2.211733180313492 -0.9119766782240493 1.99816668959066 2.025754722150794 0.35347496104829196 0.20229945029595786 -1.9259741759059055 0.6893140325443682 0.11057706188726679 -0.3939458768918927 0.1672157154872584 -1.7359490251739211 1.10080936679595 0.5505862098333518 -0.6755347246521181 -1.5645007701444196 0.4237766269349693 -0.38525235160642723 0.7325829135596135 -2.172329771773357 -1.6338940427592745 0.11678066509526444 0.7920370210444351 -0.7876832186519807 0.811952290525417 -0.7105336612241981 -0.0701176176250549 0.44551913355480854 0.23370186387397207 -0.2624625708829557 -1.551741520514252 1.500492694946695 ]
[ 0.6189904250987229 -1.7382209988268078 0.6563729771532529 0.7380964710036714 -0.4966566703790423 -0.8017511729760872 1.0370524346324694 -1.0117209874477484 -1.8350244556177413 0.08568380116767557 0.6329170887047149 -0.6189611856901324 0.4457342714723376 0.6958943720573356 -2.399341058328878 -0.2979594839255581 1.3587144468939694 -2.148048309077209 1.4758247915687537 0.5889566650649152 1.19157372518501 -0.46385922253889156 -0.8021665577464213 -1.1830542652532607 -0.22508425202106544 0.9514478205777352 0.0565555695869185 1.9604462466841208 0.09248830072503106 0.26583348205162555 0.5404717663195231 1.7888627267910915 -1.0459816947797755 -1.321287283352597 -0.2116465629837444 0.31561640854767564 -1.1829219302243275 0.9335562322623496 -1.2850890109517612 -0.2515459607456238 ]
[ 1.394276335417687 -1.881131262979648 0.8966323021582309 0.25214377713381275 2.51012218900354 3.938274317245244 1.2333630689915593 1.114636986072545 -0.3269592515237519 0.2528467271805711 -1.218141311197846 -1.3819804543809149 -1.4154755589504606 0.3056376049052828 -1.0500854577002947 -0.08196357268844491 -3.072636801912389 0.7679594376773045 -0.08527316406842131 -0.2433708653290912 -0.4238803648856496 -0.6068972260883999 -0.9133673755658059 -1.1103114628243602 0.0947870341365939 1.4704664369161466 -0.5500303199674095 -0.4193723768125708 0.13165499089705865 -0.6590083718267122 0.047218093930490035 -1.4673553705628732 0.06212077945114205 -1.2928266556841754 0.08932131555221723 1.011172933428464 0.9245751952388774 0.9678697809545924 -0.32905641988115364 0.20880602528380934 ]
[ 0.7834233057044169 -0.2945466918316177 -1.2773092080201307 0.3034212900041983 -0.7508244078601278 0.16736079364951856 0.5725143384393494 -0.14286956152199906 -0.4726283259817277 0.7661743904970137 0.5237160474222783 0.6444984492109134 0.10639114955319058 -0.11617636526177996 -0.12545561945736114 -0.7849715000456082 -0.3413086999619982 -1.4283159802652954 -0.2003191753060725 -0.7622960107509025 -1.2928547787786333 -1.0736957307471053 -0.6931867983088958 -1.269461387476389 0.05567836109687644 0.07600582037023805 0.41434058835027765 0.7726553488867436 -0.38331719631298844 0.14544486978601873 0.5366794722691429 0.29310651059364223 -0.9297668080390739 0.4651739261861704 -1.1178668283638225 1.1755812808306187 0.38560740337392285 -0.11054344294787365 -0.3257036687342243 -0.5044175730818021 ]
[ 0.5528762282932569 -0.3733547446192131 0.5285440330514671 -0.44011990358240427 0.9882887542212373 0.4030952738892289 0.4192607314722042 -0.11017809589992096 -0.7408311070419682 0.30662541705526963 -0.3490226076193453 0.2843198324539095 -0.8742091707752265 0.3029061560564522 -0.18422097725372713 -0.4519175768382932 -0.18380843336325078 -0.1720346268266731 1.2774830930691479 -0.22788356486242078 0.785204949773957 -0.23264798389642993 -0.36107751768204777 -0.4001904309036527 0.6189141634759742 0.9892270857318499 0.5766348474063175 -0.11130736583984534 -0.32302782249741185 1.31103883312059 1.0396138751429402 -0.930621794131947 -0.5846999975229767 -0.25744245128748544 0.06721215582452683 0.7092009623716695 0.6628810296739679 -0.5680868071373751 0.4892031661744892 -0.8687563825636193 ]
[ 1.206443298308508 1.402691783197183 -1.142396402080917 -1.1871183693838554 -0.1473945917631204 -0.5238845993815314 0.6686576965648137 -1.4695862299078066 0.86606641618803 -0.1893605994821362 -0.31624330661718697 -0.045251798421356904 0.3489917616624862 -0.5022729865174739 0.8561650768939659 -0.6802770616412297 0.3119977869601689 -0.4350008999939473 0.834886660507082 0.013822318137252137 -1.548188712254542 0.1468528595151598 0.23878799038106635 0.7126831068729225 0.5079359602698478 -0.6208887891471121 0.10029388106962361 0.11920644814672211 -0.19414841823305723 1.0123476209470812 0.4672663516692749 -1.4484421671553565 -1.124646714673534 0.9948931512801196 -0.49823780397592843 1.580332881526133 -0.15989861029328753 -0.02004478278518669 0.024660070316143493 -0.7915571816671633 ]
[ 0.11659482955614144 -0.08707599744129113 -0.47859284909224475 -0.8108427059533816 0.2957479099017985 1.0498167305691917 0.5367262373660451 0.3879771072630055 0.3068860290634056 -1.003545378151648 0.45131023523299674 -0.6859864120219622 0.1783320896293054 -0.08761485194559317 -0.7526540667645713 0.20145914338769874 -0.6030870022768602 0.7892840903005868 -0.06816950550968676 0.5723341483638347 0.21365315533739104 -0.6357893442648966 -0.0814422556780584 0.6992812456543017 0.08701401503163986 -0.08202402297936158 0.43690621680631 -0.04227562694810837 -0.14992521614812374 -0.7533245276124403 -0.19066298717992333 -0.4431821405936209 0.8219853076760487 -1.2699295878336998 0.1812400263138464 0.37251045011102124 -0.21716136870755284 0.654118722799073 -1.494599231137256 -0.39448880284183613 ]
[ 0.919703920717773 -1.9237882997769498 -0.9760935292782913 -0.9127123858609895 -0.1823490971688156 0.5964158960783733 0.1799057285875678 1.6293668307488198 -0.4239875004613462 0.08445306238079194 -0.6401251824664114 0.25336627867241945 0.1966206248813334 1.5285769701324776 -0.7117283221953127 0.505310347670557 -0.5507680335836879 -0.791545354308637 -0.28449140794190125 -0.33827963027381763 0.7877639876545998 -1.6138740312758375 0.08099654688429751 -0.18385121717749173 -0.024293018765212754 1.7395269208816742 0.5060379157473601 0.6878056459410399 -1.0341623521442058 -1.6768454144919984 -0.17526129837352805 1.5563738423724152 -0.5983455477045692 -0.8452256145132684 -0.858139098949972 0.874441462637823 -0.9597974911117381 1.5094279918831244 -0.6687182501418377 -1.1217633482003058 ]
[ -0.47412058375753363 0.17900909867635817 -0.23498065100931032 -0.09824068692872323 0.25536886239217854 0.728147554045029 0.2575562566599889 -0.2817920091850985 -0.4486024572337309 -1.9433116550843645 0.3459913532412008 0.5217655553738159 0.3972937411810629 0.9576827225031281 -0.1791100514088688 0.8690740812409155 -0.8299063598186885 0.7866235070774061 0.9319531309307734 -0.03523387058061302 -0.2254572292027483 0.7086877845333733 0.7622928654510835 1.09722965706846 -0.30291641599293706 -0.6513643859339644 -0.7397289107585068 -0.913921455474348 0.057961429117795386 2.098955699833754 -0.1868822110165839 -0.794448116532372 0.4139770633033458 -1.8513859510146122 1.1727121793325137 1.3346896802750052 0.00369822064969169 1.6605514860170318 -1.6631008363540272 -1.7961667545540465 ]
[ -0.2677163598023917 0.7972950260013517 -1.0796094543360553 -0.35352270064285773 -1.4654399277519181 -1.0961396302303241 0.3928513536564068 -0.62267124139323 -0.8023701522481058 0.5656913595503005 0.2505946233126214 0.6145751781217108 -0.2510409588800724 1.3064508830642574 0.12377533036460428 1.0689860636437045 0.9715457325775325 -0.056921609026447745 0.7655767485850522 -0.6135734199454033 0.630204583915613 -0.8348615284867622 0.6349830421388084 0.34241891608011643 0.1221293386181929 -1.7883533154509976 -0.3438242484375524 -1.3906564469642702 -1.2535093495245393 0.964482338144987 0.20573286748131914 -0.954732247624604 1.2455334887356937 -0.400010636915067 0.1961908840175889 0.8870429695508705 -0.8419114634330156 0.5598937395048466 -1.602913096387378 -1.4134558134391733 ]
[ 0.3503818093568405 -0.5802331317674684 -1.1515373540580736 0.3701441911097881 -1.7517923386785657 -1.6620416446252388 -1.046647899111532 1.1583723336374372 -0.2562737623339293 -0.3084372161731016 0.15718772179834678 1.0636439627601164 1.3213215149384956 1.385475220074148 0.2875506580898335 -0.3769760232238468 0.11753705582837604 -0.22530236292388822 -2.0012240216165655 0.2285933799506472 -1.4204581388486457 -1.4114073242567542 0.27763137209651007 -0.09214743570609574 -0.38244955561254623 -0.16747098788638146 -0.8051028671472108 2.3399261717507023 -0.12430124750602595 -2.942050916697579 -0.279907490383759 1.6457210510850164 -0.5882993708531776 0.40376831921991047 -1.1764005779388513 -0.7524653771025395 -1.1474118375522495 -0.8384274040239638 -0.35374118923930675 -0.5150252846075524 ]
[ 0.6640241584145432 -1.399426335448141 -1.973052675648738 -0.28985865616618334 -0.6956292437192251 0.3971844291950443 -0.03308910446139378 1.92099882563787 -0.5789007553776241 2.836838507326042 1.8066045425082822 1.2551115156069224 0.11045718558967862 -1.3122973832585563 -0.3425527981749826 0.8816164079051515 -0.5420498670391286 0.1518311812260801 -1.8988102644902909 -0.4244985809365467 -0.13913292508076644 -0.11258112317449172 -0.2777907850470041 -0.22266291117903256 -0.33187966488227544 2.2347613412275424 0.28855998838288743 -0.29655542587706446 -1.5269310073348759 -0.9799725113205837 0.1805860706285327 0.2718223403896341 1.1020138930121541 -0.030543776739143123 -0.9115772472654409 -3.0107989795268653 1.2976138026504318 -1.6652950495502936 1.0967799429404155 -0.17806650643731095 ]
[ 1.9411258620522296 -1.0765068734270886 0.5757300989871688 -0.5237952342336591 1.6183674810053568 0.9195114033747499 1.2122480545510412 1.0437067335386843 0.4467669314384313 2.149785745883995 -1.718793000461932 -2.2216644520904913 -2.1499682600645684 -0.5355139703808127 -0.7557785072084753 -0.2067948813623119 -0.6653167356638178 0.5454559608704057 -0.9771723471156077 0.1794539121315442 0.6767625942646441 1.1300768259929186 0.7154668119484128 0.6761766927375285 0.21359679289189099 0.6676699625334789 0.1866692680500286 1.0170256654357013 1.2208106703560677 0.3290898645239736 -0.08505501607070336 -1.1246713066739509 -0.2507890935293273 -0.7338773822935398 1.9885884500329465 -0.15155674585961934 1.8219443732710017 -0.7759928927028982 1.5192840033536756 -0.6603854593139785 ]
[ -0.14011325796223728 0.7758650290971969 0.3612452930959831 0.3597989089785835 -0.3406459660123025 -0.28367918152734495 -1.2399522666309635 -1.7680232999483438 0.08612981962098772 -1.4898080508837894 0.532516738327876 0.0003569754299051973 0.047271797601577806 0.944324085381836 0.9757142277823564 1.1642598738795868 0.8998784482423459 0.37064570935456753 -0.20404773728905262 0.5356075414423336 0.8032095461458345 1.3534277797762524 1.1253109855179875 0.701975801263445 -0.4806226380518411 -0.7640398295880485 0.2400631208513045 -0.6215479074323604 0.24148139822152329 0.185972706243535 -0.41031074063179646 0.8662297551599473 1.7154653820163765 0.17934037308520465 0.7762890576451748 0.3304322959887629 -1.4575609780225243 0.08112765021138867 -0.38774902339949646 -0.10457383523777086 ]
[ 0.7983054222435253 -1.0775751531175355 -0.616831556318258 0.1698405470844874 0.5332869327357501 0.5774648410361006 1.6233456295387392 0.455429672844056 -0.4259751811091245 0.09160941709744518 0.40764997119533136 0.07399098911292645 -0.6550848492594731 0.4293879345219865 -0.604929112009759 -0.290939701105383 -0.7399393513223728 -0.7975171040874504 0.012832792276213905 -0.8640126109681319 -0.24954912165399343 -1.6928735844883995 -0.6901838148839207 -0.23426320523112992 -0.060855666039291344 -0.47913499903332674 0.4228417580685533 0.5176149038115112 -0.1535925467127074 -0.11407097323014058 0.2543153345904593 0.7807404959788287 -1.4509942716336788 0.4293807227933577 -1.013668265799693 1.5273436307703987 0.7523495307608346 -0.23392663762347782 -0.6790325445966788 0.5599203061044499 ]
[ 1.4336295650905289 -1.2847620941917994 -0.1085360405651389 -0.9334759054330227 2.245919952616222 2.1150438595279106 0.7483682390168696 1.1650966123289546 -1.2167237793732602 0.7032670802123426 0.19807977586133726 -0.026385080875070067 -0.791130025592978 -0.22236328660895313 -1.8248184500070856 -1.757175956967656 -0.7790415169424199 -2.0430293888477915 -1.0044930747865666 -0.36669370790812433 -0.7586229227560217 -2.2417964404315787 -1.0602525331497086 -1.1020967700201991 0.08853092698704947 0.2391933810939169 -0.09756570255719188 1.1160559926659144 -1.6048983031587327 0.25837281818490543 0.44485865853090073 0.29828958153185364 -2.3116605417695473 -0.18032682637868458 -2.010451424456562 -0.03708207681188503 0.6323806934126953 -0.5047717984345714 1.1854405646601203 0.26906670073719197 ]
[ -1.3287232216621114 1.343221187073624 -0.06040752919661575 1.4156513061049472 0.15651685073320884 0.9098104517527126 -0.16298318842626255 -0.3149953346179334 1.2636427305670768 -0.32635140310515204 0.045458514642347805 -0.23494126448003783 0.0010343548702182567 -0.3046308205822393 0.89318049848948 2.055682495338825 -0.8320996113245389 1.525368027761424 0.6179779064680637 1.962349825960324 -0.048360912982462326 0.9417436282385052 1.8471972120693234 1.5846882744364128 -1.5599694037762724 -0.6815111671922791 -1.9292518833287589 -1.0866792701952803 0.8832250067739675 0.453322062728097 -1.614819791530219 -0.6682927063642976 1.824140577975149 -0.36773543065912584 0.7880252833860019 -0.017536587107287317 -0.8285493880182805 0.9446852448816032 0.08703421455738701 -0.38668338597192536 ]
layer 3 Activation
tanh
layer 4 Dense
40 20
[ 0.10467883650742664 -1.2922337597114777 0.1690507396482006 1.2837017381056919 -0.1540036690650295 -0.08120951939914331 1.3547539557594428 -0.6233636331712298 1.0175980674959206 0.021415794647331142 0.08565882874220333 0.7797533202952672 -0.8781449931653239 1.22962880692803 0.2167785039296642 -1.3242351469656621 1.084052282200704 0.03598420135132743 0.3756053835778677 -0.5399536581279225 ]
[ 2.246291654940173 1.5864218840214872 0.5512838285885172 0.38087324727207483 -1.353557665100618 -1.4347626536905203 0.9208019227866835 -1.416711855613224 0.6602917004517938 1.2147422054475883 1.1165567781547214 1.0784299090696423 0.05391670379412683 -0.18243259440142262 0.9185030346751486 -0.16904180538023117 -2.202769602199143 0.09903572606007557 0.7204887563596477 0.6211709124248221 ]
[ -0.4537713759232251 0.4412301219614624 -0.3385539342849329 -1.0121712755476793 -0.1289422361215455 1.3472103248272316 0.27181938553885665 0.3394736108853634 -1.4465256091339678 -0.27272522743266014 1.1005741052798885 -0.6274030698883963 0.11624879763139317 0.10081745695984314 -0.010643694707974124 0.12794740616337055 0.29846836765211776 -0.13408631976183244 -0.9233932440541371 0.08256402317508023 ]
[ -0.14513498488112628 0.5610670252995102 -0.31676702392046546 -0.27527558084118986 -0.03420226021640693 -0.7460643450620185 -0.04851809815863494 -0.1409001239529267 0.29074788279912533 -0.01731641919533412 0.43132851759399965 0.20702015056179351 0.3175131237916928 -0.8611450412915715 -0.4975608823493977 -0.12880973830385387 0.8380033511103346 0.11344980437061236 0.4401454500490117 0.18657765243062432 ]
[ 0.34164233920568116 0.519143667911386 0.15301435471161418 -0.13141747099416534 0.9606452481615122 0.5315950069323653 1.3258194347306511 -0.9354480304022478 -0.09862563312039899 -1.452704029662569 -0.09537398138357664 -1.8542386670963094 0.35845992051903275 -0.8892942111637654 0.042920936518471085 0.15250617486212398 -0.06938876082857537 0.15441467940578535 -0.6105084412200902 -0.2920819113190405 ]
[ -0.2678284650021078 0.1779255234632558 -0.3466813969652649 -0.3766456337764042 1.174071633923817 0.13944312828252378 2.614330219545655 -1.1653012482404133 -0.151506244300048 -3.0198313559103473 0.33117108029458114 -3.404693692162315 0.17519262157816368 -0.7306969264449067 -0.3444590864264677 0.4484245231954332 0.18277883686077037 -0.1997604963920303 -0.6107499640080147 -0.18406431767020948 ]
[ -0.29480754047549024 0.06500576509702677 -0.20835828602333464 -0.11223415173403901 0.6550081304746289 0.06653803394993893 0.3296811075907972 -0.6163084147822092 -0.2794711768632335 -0.4872429106619377 -0.23133258668073536 -0.06449132819911502 -0.7827133717903568 0.23942571375961053 -0.3474598603672623 0.37217034971571583 0.6007850125152241 -0.00564715822979015 0.6313271043125239 -0.3698475340547462 ]
[ -0.9169487875640523 0.642222049881995 0.3248622225468409 -0.3388797814138025 -0.3090040775328822 1.0014418062875432 -0.5083904808527294 0.24294574938636612 -1.4492720343440342 0.6951850014918959 -0.06724216936834085 0.08657118348461394 0.34916676725214657 -0.892665399610213 -1.394208748652098 0.33600811497564526 0.6615812896260744 0.3745913641162273 -1.3073236630225553 -1.0845723627428152 ]
[ 2.1287697539072763 -0.5918554425538671 0.08843914420546826 0.3914939860178446 0.5602111605797373 -1.0682559106190583 -0.6689577768765131 -0.771689117117484 0.7589368232592711 0.18348232727089292 0.001446693269584807 1.1585669467989128 -0.009472266095723552 -0.6190228099543711 -0.07955271543620487 -0.06538282013053962 -0.20641905499937932 -0.04585763488720989 0.2813957160901514 -0.7161678067889915 ]
[ -0.6991138411889499 -1.1004684570439989 -0.09350486981592125 0.1081957026823947 0.6114774436596883 -0.2018907856229912 0.32300752527743226 -0.6246515828267858 0.894110901792966 -0.44158026567742237 -1.5373941950504686 -0.044532646192859036 -0.04901366477791561 0.06398461813797264 -0.5618595367142115 0.21726123215527415 0.009648389412174751 -0.09878047490025442 0.9330410706017178 -0.5236083721426548 ]
[ -1.4206587887387374 0.9418488052404522 -0.36774042981497324 -0.7904215171673593 -0.6685083805654786 2.6590272333736618e-05 -0.5455375711223416 0.7550812644406979 -0.914886789352018 0.6367763737773882 0.7218279382750173 1.1268105453597699 0.05090409217224578 -0.02796221232646152 0.12161271068855976 0.09944499551417611 0.12283224807738782 0.2455131357716557 -0.09011297963465391 0.017462788607871642 ]
[ -0.9401848279142054 0.6650498452609406 0.0849998493351958 -0.8616715003623537 -1.0366665979838325 0.7363075875551593 -0.7153392950178734 1.080450524988545 -0.8049114125595601 0.7612895041849521 1.1835485940074666 0.8030839111666189 -0.05574403137601529 -0.3833294793552157 0.4790706677661679 -1.000412028122248 -0.15603428376181366 -0.15813018172279822 -1.1062256831231159 0.6149916118055115 ]
[ -1.3194005246906866 1.3056562869040906 -0.20640688199296744 -0.435252500253675 -1.9684568009479775 1.7601027305207015 -0.6826148420629659 2.00422539526438 -1.4694169143101643 0.7565850796298874 0.8369184648047255 0.6159547956953498 -0.008621399516631165 -0.6892201095009522 0.2434400237402731 0.9458173055502596 0.03823525942513307 -0.11019992948764913 -2.0716411794634886 0.34121781415544966 ]
[ -0.008076964062215367 -0.5422997723242465 0.8586363608815187 -0.1548958541600559 0.05952363036650939 -0.9232443372214892 -0.1307712838531746 -0.16762861192315784 0.06867194245597263 -0.0021482694409484713 -0.4164530720326934 0.3853967617913224 -0.029869235878815046 0.625501557933185 0.04866730880875653 0.5985503855162728 0.15300138193506369 -0.06748261581507677 -0.921479876442401 0.5170207458844822 ]
[ 2.3469545007809156 0.25671804175702423 -0.4878509465821774 -0.3068261990567008 -0.13775111381314384 -1.01236074869466 -0.7170913220898444 0.1337815490246592 0.7433517335734187 0.859004780383058 0.3607165371930562 1.216232660354059 -0.14966267580722833 -0.24081337360623126 0.5414911869097679 0.2141848779381711 -0.5800044730498933 0.10821800972447984 0.4474881628276774 0.23412302822606332 ]
[ 0.105508874453318 1.0505990220779262 -1.1308843084082199 -1.4759444110450826 0.12839841220694714 -0.23078451662715088 -0.3269311370340675 0.8513467088393616 0.39086550058054825 -0.5143021836943145 1.3667825108549316 0.0239507434033579 0.5288726327376815 -1.3451688726335405 0.5260914499544994 1.7789870991639212 -1.2853593620109487 0.24546983643978776 0.8627615350695623 0.5095699350536389 ]
[ -0.006545072246986392 -0.6440784296592493 -0.3164335576440334 0.5282387069235708 -1.6060177751615055 -0.15362366311025039 -0.9433022983557927 1.7511180901336332 0.43882597654580074 1.1230854444966851 -0.3191048186652923 0.8396990392532466 -0.3272876460490739 0.36693306502112427 0.5443137728661089 0.1564903795981877 -0.179813525410271 -0.12087920794794836 0.10083126524133691 -0.03511905453814364 ]
[ 0.8754317150700945 0.8093525454405616 -0.0047764607592009865 -0.4008276869600733 -0.6180507022264456 -1.3265795063814474 0.375366207086183 -0.2773177296669445 -0.3378739159725248 0.5524249350473767 -0.06667988720413341 0.03218110269100728 0.06704163854809328 -0.5080517643308831 -0.4198814999031896 0.23252036332632617 -0.8210198453001419 -0.13855028240676143 0.9317902354149772 0.018941664945715916 ]
[ 0.4123741129127472 0.9838926919744114 -1.161504869556447 -0.16564476997974076 0.027289423011334885 -0.20408774353708806 0.37271761053144875 -0.0830682046107251 0.8214132464581156 -0.3186061937595521 -0.22936270487720534 -0.1803122802084978 -0.5848721941240096 0.29880451558088306 0.7877315606024679 -0.03223813657847754 -0.8055162979076279 -0.5446182201506078 1.1266281482870038 0.47836487713731934 ]
[ 1.5393532052810974 0.7876473937230233 0.19219260383523817 0.05053569714015779 0.682114025325098 -1.4002275398404205 -0.24248265137524114 0.2376838213816058 1.6436834150796862 -0.5825719760876629 0.213462129110183 -0.42132266374151467 0.8064943516228539 -1.3548546963483765 -0.0643785537250848 0.08841157876483642 -0.28270412987791077 0.8117483134348961 1.1737914359875212 0.25533297530497895 ]
[ -0.5113278505072 -0.3393635518923886 0.4522031185212131 -0.5075084215158546 -0.3174090979685928 0.5276072095528047 -0.15540111310923477 0.38431001097518264 -0.3048805761408452 -0.08972363239312443 0.18622440250451655 0.411705551940898 0.2992720172217564 -0.13214971278862508 -0.5788167937635449 1.0447829779598077 0.2388891502179812 0.09913745050302757 -0.5211112001304252 -0.24526823148334498 ]
[ 0.95170320809914 1.722836011595006 -0.7950457907598265 -1.075762494011346 -0.15444136834424105 -1.0131686560236772 0.26477762391981063 -0.8202601342022156 1.0344313978980693 0.4114030647138532 1.7809419415701058 -0.4753375667845016 -0.3813404054992872 0.7215289460487179 0.7026305180714234 0.7695959260893119 -1.143407875777987 -0.11429444052316559 0.9006797789239851 -0.49332608345104817 ]
[ 1.1655024807435252 0.5135948636473259 -0.3248031799251629 -0.10642597418182713 -0.055276719182291774 -1.1230776306944528 -0.03332563437268266 -0.059674616687794314 -0.185928803335853 -0.17386786464512718 -0.2244857521854911 0.3416572024179997 0.3118530334111394 -0.31416973039366225 0.6852374938346096 -0.08048671394172104 -0.46992951188534415 -0.1676576472672372 0.9042433667423052 0.11879705123293598 ]
[ 1.6973583586411591 -0.2371413552971655 0.005803652816746286 0.8629515633526658 -0.14301218575022265 -1.3916488374576939 0.02030482936170178 -0.34987890139597894 1.0792954418376208 0.2475062366483787 -0.3440466819522984 0.9711170911183551 0.12765857374916567 -1.223132351167681 0.9718211781272067 -0.5970499781220753 -0.8444824761150155 0.09988931514929983 0.9835135539548439 -0.6602677789753713 ]
[ -0.9295677550908116 -0.6926785775501689 0.31220119021662945 0.45226967568319987 -0.06917842610438157 1.5029110874184257 -0.046611053533614694 -0.48676903075918854 -1.4577503280227395 0.5129605010026866 -0.2504316435548536 0.19951142093248467 -0.2430097855412505 0.6700339353634102 -0.24528960911674846 -0.5797917609159217 0.6019386087122538 -0.32278297814081763 -0.6981798960334472 -0.4849561666327077 ]
[ -1.2184219795456788 -0.5667548487442199 0.37500400734009204 -0.3359955015076217 0.022424443941906916 0.6198492133026104 -0.15851578367481575 -0.1219300989404218 -1.2774860311117553 0.053003082970938906 0.29762413348033073 -0.20876169497373478 0.5019161381933542 0.15965510608740635 0.45821896567985043 0.5145488997175455 1.8408207377711012 -0.09046994693072086 -1.2425856942923648 0.8912517562858625 ]
[ -1.2164376529739023 -1.0215944375896204 -0.02904141114697091 0.6821344216314675 -0.7729600583517293 1.519275331500327 -0.06650082659086934 -0.2098066057437007 -1.5906139706578828 0.5937976158649225 -0.6291815869089338 0.6100773895376275 -0.8263195377273989 1.4385556683475929 0.12394453517902196 -0.312147604851929 0.8924323913911567 -0.6064538911819858 -1.3154702274413856 -0.9114138638034988 ]
[ -0.40571668410923395 -1.7295159036139174 0.2200565562583766 1.2058650673475169 0.5423199722255959 -0.19864210692092202 -0.8635605993507146 -0.23491531738531446 0.05723089913916765 -0.15535935230566716 -1.7492674148220209 -0.38868619130762083 0.3962116572750885 0.08082986118474275 -0.7535104812317154 0.15431702768399308 2.01574044136624 -0.11927217765873058 1.1738462931979705 -0.41502723909382966 ]
[ 1.0535406286656808 -0.7554050432289294 0.11374328830333895 0.6134581581871099 0.00691953200655648 -1.3691017940187684 1.0387939556494303 -0.7746693604462993 0.5106140872726418 -0.3434033663152487 -1.5224285211200645 -1.3798816742409117 -0.00592571969769737 0.06765097556410671 -0.12345827797417992 0.5495893673760727 -0.535904955613031 0.20595587428066076 1.687427031390266 -0.0848816985778188 ]
[ 0.07154685431293022 0.09231504735003913 -1.6611265553755563 -0.2701110087278026 0.03483548262018775 -0.17491378291210827 0.036263848991235366 -0.006325437410522209 0.4642022985075263 -0.17706959304584877 0.026996109669138055 -0.1847182602530845 -0.07220317615406933 0.8080517030612282 2.8143090478560358 0.10214189891807837 -0.4806275936601214 -0.33735103162838276 0.5077147714837829 2.40507920817563 ]
[ -0.9083554622775611 -0.745973276434183 0.0904227477998512 0.42855309856317836 -0.2836124708450335 1.1040114090412998 -0.03402400059115877 -0.17865616649771582 -0.7755512603927499 -0.05307521181529494 -0.5055154372719141 0.054376072643234116 -0.6904884282839749 1.2310738168319106 -0.06278878439803245 0.03418432466152306 0.7248898016802394 -0.3998811672281574 -0.7433087009618816 -0.4478826719403077 ]
[ -0.11886840400303168 -0.6030963117476712 1.1116952216913283 0.28760158182423456 -1.0529683174891973 0.0006458958386005244 -0.758981548431319 1.0993124195314512 -1.0956542622195065 0.9280236523807202 -0.3381902273853799 0.8604250002870083 0.05239064627782237 -0.12244024287325767 -1.2288521682620763 -0.0964446134230375 1.8389519054557368 0.05125233221312915 -0.6459229353569304 -0.5333926030885046 ]
[ -0.7616577496498677 1.1906308304774795 -2.0195187613998047 -2.3757880152816955 0.2834659465721146 0.30174166277040715 -0.42487941949479924 0.36760112691721364 -0.4735536066032598 -0.5013114031138048 1.7382711200523369 0.22181580482273117 0.3031654390326225 -0.5802077529041134 0.137443204146978 2.6408509591678517 -0.5109910536086337 0.31913432971848893 -0.46744506654487933 0.4795623782651768 ]
[ 0.822006264484605 0.18323223331947602 -0.5146293933931588 -0.18629984574500513 0.18429468626476728 -0.20272521496822504 -0.05138899360394715 -0.18985626047899415 0.79913646489847 -0.19141743447783086 -0.24799217131441376 0.164625203696221 -0.21662550260863728 -0.48894167310498443 -0.8540369760444815 -1.076801796326324 -0.19305831935707546 0.05091854421910432 1.3029690181877776 -0.6480687368192664 ]
[ 0.6654334732290822 -0.015433879471790604 -0.01784714877220319 -0.15191236639116776 0.5601520721234534 -0.6296558152975128 0.37375294689278077 -0.6098187738975696 1.4818381175110547 0.029622903454882065 -0.12805538044682432 -0.9332243955879708 -0.028813898643043453 -0.0807706455875751 0.1684427580148087 0.9130843742369905 0.1916083763227256 -0.08077512693662289 1.7181829340610495 0.18171405982303676 ]
[ -0.1324946671345248 -0.5011917142425135 -0.8900956624013092 0.4111770958452186 -0.14738610386558854 -0.020619571137751622 0.5389939746914094 0.2507042216609514 0.30212215452129654 -0.582718020402804 -0.6176269664360102 -0.13545615665424549 -0.06415907851295768 0.4872207187849823 0.15476675873514054 -0.1654335918973879 -1.0503115485932422 -0.422477419340062 0.7429680256003147 -0.41949939747216947 ]
[ 0.23879700020155017 -0.3591761836716565 -0.41935652148250946 0.6848064166758497 0.781667469921481 0.31806511366783174 0.856216977342672 -0.887237206671024 0.25943818587334816 -0.8468143475427791 -0.2948577610653062 -1.235799162798767 0.078026086600872 -0.3648197409338524 0.45662149793382123 -0.6723261883140269 -0.8518594199911949 -0.1883161601971505 0.06299468900746251 0.1394539508022511 ]
[ 0.0864076509689065 -0.03949165218526163 1.114614858838041 -0.07531590106477015 -0.03734926501687274 -0.03974220678411637 -0.10946656982174614 0.1594189335803696 -0.6835717191924042 0.0378569620841186 0.3071594747239492 -0.2923669084064455 0.122571179236139 -0.5991142409174872 0.9469054606049967 0.7337639090124881 -0.1289898975186136 0.28423413919143226 -0.9760159667146721 0.9541567921314572 ]
[ 0.7371708818035948 -0.6522184477499533 -1.0326170150020508 0.4979679439933126 0.2655922643000646 -1.2929712794610586 0.5081469059648343 -0.2337729292471046 1.5273342021168936 -0.6469626338639337 -0.22033953401428313 -0.15613311029176566 0.26989177201745024 0.3380175631711922 -1.556222024450599 0.1510466002508771 -0.4806068066582348 -0.12610322956572198 0.329496526566737 -1.9956372607077126 ]
[ -0.397454562922771 0.01284290991828865 -0.42211552076991715 -0.7078368416125712 0.30022206784289646 0.727980483284519 0.4429197809875205 -0.12987638978284213 0.28930729852170883 -0.37918876938146867 0.42280599236100985 -0.6177860908130453 0.37004631092845697 -0.3053368361135498 -0.3930411123406718 0.29529744123625146 0.22546982510906524 0.5601512842141919 -0.08622803430865654 -0.6646130115541495 ]
[ 1.2483119252654002 0.7389799819382534 -0.050968711147785756 -0.3729800808801449 0.5867829181029689 -1.4761316887609768 -0.1215846523977398 0.48687327474230274 1.5074911240021602 -0.5386039632850883 0.44948779602377575 -0.36894032588046544 0.620483862503054 -1.26034868881636 -0.09298089363918348 0.16096722025828047 -0.8085249087758912 0.7693980436666259 1.2294993581315352 0.5508312402482669 ]
layer 5 Activation
tanh
layer 6 Dense
20 1
[ -1.7862063015803666 ]
[ 1.9969515246225946 ]
[ 2.2617779722209765 ]
[ -1.508839909149982 ]
[ 1.0575257472158033 ]
[ 1.8874323513873559 ]
[ -2.057234258366327 ]
[ 0.9741424593754388 ]
[ -2.3125338167912757 ]
[ -1.2344889095263682 ]
[ 0.3844947434194463 ]
[ -0.7319442611351407 ]
[ 2.1770989100314324 ]
[ -1.6917216560686084 ]
[ -0.8807753306658049 ]
[ 0.5689389490540139 ]
[ 2.1728190265285896 ]
[ 1.9706146328407932 ]
[ -1.7027117022839775 ]
[ 0.9379353976246575 ]
[ 1.7701670340163314 ]
