layers 7
layer 0 Dense
20 20
[ 0.16449403934907633 -0.25823636760925117 -0.30380047788849174 -0.03603213536891332 0.27373358990034563 0.5576366947553537 -0.0565295226406161 -0.12721322953601524 0.41139872285204243 -0.04609993197886904 0.4122021626403457 0.11560698880156978 0.03843148764167066 -0.008690730814154462 -0.3401362217207457 0.06023740121263162 0.4152219228553494 -0.17941801892582143 -0.48899824639148604 0.33942249930435786 ]
[ -0.2551445326878977 0.043827239948135685 -0.27340873231921753 -0.07080172425348748 -0.1607153413449209 -0.01584240162025018 0.19739696718684813 -0.2402319558532553 0.22470207560163824 0.324979280995135 0.2620361650956487 -0.12085165007650533 0.06448927004761412 -0.08922860944080219 0.12859425316498518 -0.06825674271258096 -0.07370257775931958 -0.31625945246069537 -0.037629508208781956 0.34092693006823216 ]
[ 0.22069679302725362 0.0038792757667980775 0.36136941492284663 -0.347840303800251 0.1960783362075038 0.19214885438632545 -0.02175685541684608 -0.3661853315534274 -0.2371297351480619 0.31420807710383003 -0.09463661474368358 0.028205888787655134 -0.2492173872307005 -0.23175693536945854 0.0448279486120106 -0.10619435929457849 0.3624491920853415 0.14586495057202117 0.12123775904593596 -0.18938878358142314 ]
[ 0.008701011082547472 0.20963522076380642 -0.22074128854716438 -0.11615045369254388 0.0794335694559821 0.27461641547057186 0.041885346477050396 0.10746942812429888 -0.09754053740800453 0.02713514915232481 -0.06996226069535035 -0.10607934200945567 0.17360321222304598 0.09462301289368273 0.20951564183054522 -0.006224934674935596 -0.07327923178756159 -0.10265115716141228 0.12659137046194816 0.1227011816182948 ]
[ -0.4714217863194726 0.2698892235393688 -0.4941514078466519 0.1950356359245939 -0.3457899173258777 0.4320648273020169 -0.37382924208477936 0.16508058698694875 -0.1883143602531891 0.3045741578291955 -0.027985742203753244 -0.4552686705521299 -0.2452893396537305 -0.053740786185031156 -0.11814467735117476 0.06492338194026367 0.11048944902954053 -0.2367179244070313 0.20090475994073562 -0.2818669780553183 ]
[ -0.19764298886406817 0.3579263947433899 0.1931905050936014 -0.023227034190541916 -0.03686611456324407 0.38268381572908133 -0.24764274324987381 -0.20791361121515434 0.233717982597759 0.14596638446627305 0.31456289021589096 -0.34258350257447034 0.23609332368600972 0.356120692279299 -0.17363830450944867 -0.04599594446494836 -0.32630160534014113 -0.04086021802961184 -0.08568130273996516 -0.1526826874892959 ]
[ -0.345207101205122 -0.2847783900679663 0.14027663737446122 -0.08619821918711891 0.25765588609344076 -0.3558875914664559 -0.06758403734166973 0.24614128461493265 0.13874026470431305 0.21625840170403324 0.0007007495904405622 -0.22982343063328162 -0.16005308682758196 0.1480376105479917 0.1425801973473926 0.3701152663419005 -0.1292723116062643 0.2382307194083246 0.16015881046034783 0.03956149632567703 ]
[ -0.1955192820413727 0.044547782449903664 -0.05505223043244571 0.17243933095208025 -0.2422925009050302 0.06640848189182429 -0.24883046339618925 -0.3261832867806177 0.08743774485752033 0.1504491342186411 0.35820122260380755 0.024433765177765136 -0.5167701346065922 0.011664234330525441 -0.19591448720550605 -0.0205376301214223 -0.14994002502804576 0.28569744546167797 -0.283326867235231 0.012798308996396418 ]
[ -0.00476214772404889 -0.24156544777555455 -0.18939610813519703 0.1764667381295199 -0.3424131138623251 0.637754472724486 0.1276677508809669 -0.5778303857275169 -0.03685732545184298 0.3512533172064285 -0.2077616511810614 0.10905768966508489 -0.3170682358181468 -0.5268527088305536 -0.06557892871026717 0.13802360580288214 0.4009974604401129 -0.13267926257961465 0.008146951874810104 -0.34505327684629 ]
[ 0.06643778130980153 -0.3107239946691849 0.17826991698063266 -0.4001854420822415 -0.3572648867348865 -0.06949593476324963 -0.17145492784695743 0.33782737735706664 -0.1282509838938101 -0.1690963498125384 -0.08427027049040182 -0.06130317180133182 0.10430811683929277 0.31408378371487755 0.44174407396779647 -0.48022791351257665 0.11356016899921509 0.1554040760321744 0.5637223705864407 -0.48513280931055847 ]
[ 0.3055679942969693 0.2614288588639703 -0.5728778241090836 -0.0585278425713036 -0.36622613382024244 -0.12162744086145963 -0.07679928248584926 0.16347090846029644 0.18259618144172546 0.3620295796252612 -0.11438981545283654 0.15605909723354372 0.11184288937658848 0.4166679448127228 -0.1602911697974132 -0.1421620498045104 0.2595454240976658 0.12967215536695964 0.2510171893704147 0.22576613439501925 ]
[ -0.18382352005827754 0.11815875117676614 -0.012978505181180636 0.5033812237624008 -0.268023068245409 -0.09843171181333968 0.0003409183498727853 0.30343194754227676 -0.3246830462224558 0.1342706429038396 -0.8946706952503828 -0.2632837553169229 -0.35015939966027654 -0.07831808452776222 -0.24933060096946455 -0.43054710708198923 -0.3105164030193263 0.29423922555225074 -0.15231645611422034 -0.11843134344302578 ]
[ -0.25562439599534137 0.13249329005111715 0.22180123187052436 0.06970341436429262 -0.006738387449311519 0.08630571110140411 -0.586910902816204 -0.008781481104442376 -0.0038600598922297856 0.21767173935465772 -0.03115856808966322 -0.34766874540032694 -0.31444830544565533 -0.07543168218254502 -0.2014897613845886 0.07183384803068374 -0.047276578794203425 -0.23498200846177963 -0.34600437311000226 0.46811865696763694 ]
[ -0.12072163987869995 0.33030070260169125 -0.3917194085999735 -0.01787250422118312 0.2955317935202717 -0.424903775863236 0.40162483462028803 -0.21074754813175559 -0.4415854380427853 -0.526278305274702 -0.35376713941759225 -0.8254441057727858 0.4873535442851531 -0.677821633046977 -0.7782120128911593 0.6274499171697645 0.059708398632461836 -0.6451018156978369 -0.5805891458783852 -0.1986173180249725 ]
[ -0.7539140317930169 -0.6759887176192186 0.09036399314528278 0.5689255519352192 0.7905467589117469 -0.04284517342910561 -0.8048680047100962 0.7683153685385573 -0.7933831075704331 -0.7677447902275876 -0.5603105974103046 -0.22345385757389122 -0.3506499300495387 0.0013067248176164494 0.6495510304987149 0.056818113024863025 -0.4397810172838844 0.040947374339116105 -0.09240862848313355 0.23766777048371546 ]
[ 0.3807796802626785 0.7799661621485724 0.7431972928804285 0.31467229512174566 0.5819988472502471 -0.2056360778305347 0.5792150240921977 -0.19933248040746124 0.9216174653079252 -0.13937418813541416 -0.5441586077992044 0.6431343741323836 -0.33450352874505873 -0.2874466821560705 0.5854269161729446 -0.04813657865847645 -0.6005460898598052 0.5555893266660374 0.5870674689398511 -0.5006790696467865 ]
[ -0.4107494495290159 0.5043608799377497 -0.041960905878320715 0.12854183953343093 -0.03667263277936461 0.26260486199566585 0.4668744432513549 -0.26244736126123164 0.1298262947729413 0.3397361938582543 -0.6819613810070556 -0.08522420687974522 -0.4165952333622076 -0.303430698641351 0.0592301185768221 -0.23270625869872075 -0.28311389597559183 0.2490573467783174 -0.3690097044761804 0.13930450324441082 ]
[ -0.07315893756867604 -0.29086615526277926 0.5063405270132545 0.3201067260902424 -0.45546397096291663 0.33747292214437397 0.22709542096960922 0.22233045762584386 -0.08716696417061932 0.32472614377786335 0.5042511799600158 0.5645127285400717 -0.49377942045911016 0.0072831033905644705 0.2963640771113551 -0.4461746858150475 -0.34798701714440394 0.2615429627418431 0.5292820217941079 0.4458823005730827 ]
[ 0.7931168869333779 0.2648152143296256 -0.2641937263387417 -0.26447252235572 -0.42703732574419184 0.7928168729035363 0.5950544798457498 -0.28826268728226523 0.2520235712819263 0.4409594500838393 0.3738755675298367 0.28194459200862787 0.38117179080173463 0.227537342792681 -0.1822520702120306 -0.12530953404770478 0.2837322469762809 -0.19307697409795266 0.17469002477800208 -0.28626848310925324 ]
[ -0.3794788626389577 -0.20291613683379023 -0.23494756709414544 -0.2510586091911718 -0.17930929389243538 0.4815685105015793 -0.28753481236433126 0.2203024637672436 -0.13239307922299037 0.3123610463577837 0.7866804907071075 -0.43313481068787085 0.2675515214047585 -0.17008288654977657 -0.04196592448495543 -0.42580631818318526 0.22430979017055191 -0.5994277217184492 -0.48886644697746606 0.6769432011379863 ]
[ 0.0462505002649145 -0.0529471433667712 -0.08165505091850245 -0.058290140535593074 0.03821736847560032 -0.06464448295272252 0.01114330264696155 0.25969718298532657 0.035334884938520425 -0.01717470913833921 0.013821009187651175 0.0019064744649989417 0.22773092316776516 0.04493343509705512 -0.0028143607859552524 -0.03079177241300823 0.09714112260252697 -0.03335036898618971 -0.0038946658609046872 0.10034200048264745 ]
layer 1 Activation
tanh
layer 2 Dense
20 40
[ 0.11842461551471756 -0.22452546361629408 0.3044759932765687 0.13473641145136694 -0.22509679352339526 0.17994411216416578 0.5448703828830092 0.3770209528960173 -0.29572891471157536 0.2688237445836668 0.33055653141131586 0.20497394960744045 0.10285255004591033 0.21871885714462433 -0.2048877749485168 -0.16556960302647644 0.09067228659030473 -0.038284816242587956 0.2768306452980545 0.33056257533516886 -0.3291511726757436 -0.38268693956507505 0.30427373250076056 -0.11478580925976502 -0.04358166037840546 0.014771594378413053 0.20847498603765435 0.4239718481498928 0.30076173655675 -0.31459499144755443 0.3229394873229041 0.14863541993546447 -0.3427108393233793 0.30212017042964034 0.32942101074025326 -0.15883263318827748 0.05213419306459469 -0.33841599455135385 -0.04992693283563711 -0.23471071221535145 ]
[ 0.0970774114472448 0.029014869547841122 -0.5309509655952473 -0.18330663499652175 0.016768945667768452 -0.19099857042540316 -0.41945105731042653 0.3676654103092367 0.07304030227541791 -0.04068177478133372 -0.416750733982779 -0.09681890569573755 -0.04060966675343817 0.4544406790558879 -0.4277576078227815 -0.2465809438140826 -0.19960555582228243 -0.019652321310369515 -0.2711691005737029 0.08152815679548969 -0.09302344729541315 -0.4215552574825496 -0.4944573504696757 -0.27612382180506717 0.30772938056062443 -0.22069184542534348 0.09887521982966027 0.01656839683833787 -0.16300506607398738 -0.029922734655499533 0.1716513379234531 -0.23085573714661012 0.31633613467378496 0.3159051638624519 0.05203240442748975 -0.12733998509906053 0.19965327694730173 0.21768890302696461 0.11530482523226725 0.20097897882968702 ]
[ -0.2458182037720047 -0.04561616274770181 -0.2868926088697745 0.16144090605663744 0.049312121229667244 -0.9078014793490137 0.43862482197184616 -0.009283350011357753 -0.48135375419947773 0.10419960326767158 -0.3901722317681581 -0.020639244876590548 -0.15937796224238324 0.0645300511628842 -0.01614342022630821 0.2401586760890621 -0.5089543081038386 -0.23516901024985418 -0.3823832969644494 0.3603734497338562 0.3799588869463983 0.15802561027831305 -0.15367522551038965 0.07112003594061556 0.037496307000518335 -0.1438703369390485 0.19354462846953047 0.35195824861502223 -0.3252004098950507 -0.2528278602590347 0.30184664333311767 0.16701757966281786 0.09821036244643502 -0.2834706376865481 0.05738033702177341 -0.26065971812895394 -0.31534622441850124 0.08672660176383097 0.04992126294123273 0.34365196707411844 ]
[ 0.4059140429625249 -0.021287579839270813 -0.3174006426509533 -0.2123461122655311 -0.29155119174061883 -0.19289022646320886 0.25289726951217667 -0.07265857195137952 -0.10597932132012815 0.23187116469409713 -0.37518677140309714 -0.3163677305529465 -0.2651931211149788 -0.0024819091264692795 -0.1313715223834947 -0.14540911266123524 -0.16457713734905835 0.04951603341387151 0.10433999466109221 -0.20582647618118907 0.19760307453839865 0.40110822754172887 -0.37406711538679627 -0.06586672860977932 0.07964319747598554 0.1720967381868903 0.24222804280880594 -0.00013639643301583846 -0.1741981947689396 0.18449741232913583 0.206468466289478 0.18867770793891514 0.1793508280174919 -0.3223238679057161 -0.27220906810146484 -0.16181840154500024 0.09167716944807743 0.2203854376816472 -0.008862370145665592 0.07166781029532365 ]
[ 0.056001804966689946 0.001717863720266468 0.10411924142190555 0.013934721911868873 -0.2437947667730139 -0.509559696072734 -0.1376974721589459 0.5433395624538417 0.019452620008053343 -0.19084631400448776 -0.17373917162283134 -0.03034005752786731 -0.4174529219444497 0.5506142335867459 0.12476022125164628 -0.09355666384348318 -0.5439742324187564 -0.46007670659666505 0.135205087937782 -0.14160789937699625 0.050726945438275384 0.2415417152873907 -0.8199667621502978 0.24407728155836428 0.4045981990523307 0.08727908276232299 -0.4010618864729998 -0.02291031711228515 -0.24534275504826272 -0.09501976004126222 -0.28238535292691297 0.17465197605591956 -0.2592391371270217 0.17379272779494317 0.1586880435023316 -0.21561372836329595 -0.2614230965361344 0.41419895620234465 0.08706072320352683 0.09818859428538086 ]
[ -0.13878460941577492 -0.19990962570586984 -0.040746534903791584 0.1760745883990129 0.2925644877415944 0.4336646509911504 -0.21604354989312205 -0.5080529732923323 -0.22360638402901625 -0.09538250518156374 0.05766558237976035 -0.42980600286276005 -0.03317481962982686 -0.3577550359054782 -0.0551892626777349 -0.027674664513604223 0.28965901330499316 0.6691827926146291 -0.28552535945110635 0.006836041213455743 0.5604444513433859 -0.03832598382381308 0.5081180645223927 -0.1319102292393968 0.01360120347275697 0.3545097470445764 0.07123296651964181 -0.050480366937808656 -0.08194588414411785 -0.04462426618191814 0.4771170244942411 -0.13533342807876225 0.48167713982827903 0.058423805601926296 0.29121983224684106 0.05468506599087705 0.3176419425255467 -0.4557770695191998 0.056363940357789376 -0.2525535859626032 ]
[ -0.4357072630618775 0.08693831910233855 -0.4066992193621487 -0.1690128639111561 -0.41437925767903705 0.2792755779005986 0.12542293718529066 0.5132973012123822 0.1913516266294799 -0.06766383980027833 0.14714337047720866 -0.019857170833349844 0.021673591807410297 0.2845266574710859 0.3026251094221167 0.11441175984227243 0.20818413047899015 -0.3694087513902722 0.18182002590446092 0.47785259349021436 -0.18513133381040422 -0.7393169561160017 -0.4054143837926352 -0.31810674763319313 0.15116838463349228 -0.01762623723592385 0.15479561995423172 0.3187575430738034 -0.26719284258240167 -0.1424776930438947 -0.24195697687614634 0.2724034359814496 -0.22825908481654805 0.3838225781008156 0.29953122462532944 0.14155510500781787 -0.07548008367162728 0.1477980300873199 0.12591984941485732 -0.08890049852060293 ]
[ -0.02233084975648603 -0.27568716522018266 0.08671698256775508 -0.142899534208722 0.3117212761990736 -0.3685281862526716 0.41074334942638047 -0.3649193948603192 0.16280331810668897 -0.01723717567812509 0.25193073689897416 0.37033567879134355 -0.29392212224218633 0.03939713927924601 0.32597136790870734 0.2823473799768358 -0.2328480486999379 0.22167679476009913 0.23423037603236946 -0.2940783777074377 0.22437372702599792 0.08272546759754366 -0.24351602064654893 -0.018279024966487756 -0.015087783034574202 -0.08045770315968141 -0.4539461040139282 0.05477343826151849 -0.24692922646587454 0.3493606022999302 -0.2562995592737325 0.07351424218610872 -0.25240483384093254 -0.2775017510873128 -0.28171286260665607 0.07292020962895102 0.02632272058964883 -0.11522375498287508 0.1793006775895103 0.29141062303922083 ]
[ -0.2159025679435799 0.30834741932211573 -0.22518334016565733 -0.23482823488663546 -0.29400891854969496 -0.31603333415552576 -0.2999514639111213 0.10504229549461208 -0.13432603794948234 -0.19496198470237053 -0.2075682840165486 -0.11367264192236748 -0.1436560154361715 -0.13137812462250695 -0.22130228824678103 0.06000007803179505 -0.2957472853286341 -0.4440978538738042 -0.2074020230514113 0.562106659514379 -0.04134327696218207 -0.5693717976115615 0.14863827217917353 -0.39334385607553396 0.47941868638951557 -0.23198124391169514 0.2670007188064184 0.25230667642541343 -0.12191423263729846 -0.29553226709930297 0.15397377333271917 0.06642921229271491 -0.05918826915181601 0.7052772782444673 0.4834292367612179 -0.1499530829485571 0.1773487741282315 0.08069210725735419 -0.025955694128758432 0.07627564170675617 ]
[ 0.1331207205905401 0.02296092764479964 0.1639364023629992 0.22483382448256747 -0.2982356175506606 -0.18860459155897064 0.07339223005471816 -0.36776112834348845 0.1583036815159684 -0.13770626399044567 0.30963326302057587 -0.08972927837021068 0.12199942858267238 -0.18636840169435384 -0.1820193476404257 -0.0944117419774943 0.4378246009431356 0.10487969985352884 0.11664186267009215 0.4250199831063795 0.1486582734991198 -0.05661379353076428 0.2351085645865982 -0.1608272706273844 -0.1519121023858753 0.1681126470978776 0.3573712468528675 0.23472986156341277 0.23832834240735082 -0.03042565281382254 0.02284376525705699 0.24568902651156294 0.2842781122813137 0.17162826303877296 0.059083662983111976 -0.02402518207106405 0.07665448238924924 0.0014995815092231019 -0.04300458349599657 -0.06797290847510727 ]
[ 0.17992663690371172 -0.3331278638903323 0.29252930443247493 0.370419193400871 0.3725964060814216 0.32018001734054197 -0.2626049419869204 -0.12750639625361798 -0.02692959294633752 0.0383187487726125 0.42869170092933 -0.013195656675995596 0.28033957887308225 -0.4148870353417681 -0.13946107775935712 0.012227965644932884 0.5265657627155715 0.008129707443162836 0.18127946930430316 -0.03271453848755891 0.4100948689816205 0.28623072256806725 0.39722041927518054 0.028863565043851323 -0.27657624437663897 0.32634054927133305 -0.2360672138520425 0.043997230274978656 0.036934391988922954 0.43383892093468035 0.31691709658244244 -0.04950177061818631 0.04199266959546605 0.0522077150906396 0.0010748587313307158 -0.16907920186806874 -0.07065473446846364 -0.05329237671792575 0.16148807308687693 -0.21951673836684252 ]
[ -0.4237529562050311 0.15636024492519482 -0.08083879756334554 0.29683261661100374 -0.050601080292607195 -0.25006970297795006 0.5417175395789936 -0.29177300431719827 -0.09938851205995197 0.26620862918949184 -0.2206666021196671 -0.03289341543611761 0.08296833841001476 0.11525455118251818 0.1643723406126212 0.11232532962842207 0.2129433711996033 -0.14668117499980335 0.020658562660953967 0.4512114798130861 -0.12105684340192367 -0.05292097496270328 0.17613470781614965 -0.3648634533955245 -0.05957584178036475 0.24838140518975987 0.2817268831282355 0.11495505502594718 -0.16822520184581322 0.028027814688901576 -0.14441738821795616 0.08054701023968172 0.04166775271089719 -0.08102419352214814 0.2029930402502531 -0.15724094151532453 -0.3634429154298381 0.14592921293528877 -0.21045286420238468 0.33650404203022505 ]
[ -0.05320023726294848 0.19787258929377652 0.3955058557200986 0.2073026090760054 0.2372456533834511 0.30228509751650867 0.29981897492405385 0.5497012555628145 0.1651388050052116 0.09607807276149005 0.4287392917592613 0.40972996760886204 0.24828335064602053 0.40158171488482797 0.1889553231601454 -0.25769979723761843 0.279999149210497 -0.3881739543976636 -0.1686226581203743 -0.265062202977631 -0.4144596962903393 -0.0831972998138144 -0.11483329184985264 0.27212438252158605 0.25039098005937227 0.23123708512546454 0.1093695577145989 0.556095361599079 -0.09374457423009312 0.09987842471612773 -0.03827639963260193 -0.23714681505050936 -0.5093211196905814 0.2374031298887666 0.027857012945886165 0.138627993350489 0.10320149853679739 -0.17829431655016748 0.14840280443332482 -0.12902449183699413 ]
[ -0.2194866994846963 0.16527292990762202 0.3170913830605172 0.014339650322531098 -0.07860356357035465 -0.1545038048794469 0.39673350997764395 -0.07797262603461601 -0.11829054798475681 -0.18219861143157717 -0.17956479335689612 0.02683091876570729 -0.04551050375229194 -0.3030838517459264 -0.05800123145606231 0.2314640345827347 0.020416908967178134 0.15734062997048753 0.09678163626147945 0.12859247711618066 0.08585478487498421 -0.06397622359184875 0.4415433907463042 -0.0072064449204127514 -0.08945044232079713 0.31939444217065077 -0.21143792688449162 0.5140249950506176 -0.019802136853476055 -0.05789787012470648 0.004379383828118327 -0.04938120570147678 0.192329241367889 0.27283478661068516 0.26735061110359953 -0.4304253259067258 0.09930453572088298 -0.22975602901494094 -0.10443217324960972 -0.049085781767957096 ]
[ -0.6359149013056327 -0.24787944391331984 0.11696661797781809 0.08912004723816692 0.2784000022711257 -0.5614560251249844 0.02921934443317811 -0.20850841622306088 -0.1374623858249912 0.10328115808445275 -0.12047814285155302 0.08832022514793167 -0.5031327972299479 -0.4603709523831783 -0.053502776003237947 -0.14495512030957608 -0.30846169067279994 0.21334858439678384 -0.5252134214244416 -0.09222644864416532 -0.14055146525907755 0.17139511011905187 -0.25173786780585405 -0.3564870329811327 -0.37634779016136544 -0.13783853238263818 0.2589613972723543 0.37362162064618754 0.0018796576228105408 0.22214715165145948 -0.35864542338467464 0.10426603589278734 0.30922649518437695 0.040387316074472525 0.4029092152252369 -0.20807527105780682 0.04202233500550262 -0.05781123881143575 0.14478671230528728 0.35209483886322557 ]
[ 0.2823326378301762 0.32819751131554603 0.17312985498928413 -0.1585361348514285 -0.025186676071144304 0.24008681821817449 -0.2901193346471061 -0.15319791485334486 0.07302788665843064 -0.20262213618957967 -0.1499017181991249 0.06347732089180602 0.11853531405389632 0.2527631855488338 -0.1512514115945716 -0.30009868264600786 -0.0586976061671547 -0.10341101412313891 0.07759708272361882 -0.10764126647371897 0.0660345118235063 -0.1887416565645971 -0.2854085773425948 0.2693971167277058 -0.15934374265304624 -0.32272785220649297 0.19372811360041534 -0.31360304584316556 0.06946484311511168 -0.16897703947515896 -0.19134502382545715 -0.2789141836516546 0.16701290320244375 0.03631268439488877 0.07095638460139572 0.2779976166724428 -0.10833337008049428 0.3771116234317872 0.0171388999475966 0.12061934095485013 ]
[ 0.2274643077353302 -0.2429283014505509 0.3054483623955177 0.018224897501685253 0.09874331805625668 0.39198884768299336 -0.09058996801727495 -0.009976493922955743 0.0739596796302835 -0.08146945654288314 0.63438237019495 -0.04986375986877294 -0.13351522039716443 -0.3236063365013983 -0.30677030000381594 0.18509605041551247 0.3991883781572467 -0.17559921655208247 0.1109863002345303 -0.2366559643788166 -0.4480342610230174 -0.2249686517568804 0.14161861598315728 -0.10804150547229262 -0.1494820574640863 -0.0752934285811742 0.2795937986262612 0.5281307250694953 -0.32938789853457073 -0.09476817608007146 0.07190929182350399 -0.3366412649861401 -0.164584439440098 -0.1696022015701936 0.13861062921575515 0.05225026667222014 0.25335959159743204 -0.0067144965104650785 -0.14189179655909565 -0.06815373139627601 ]
[ 0.2004886417967375 -0.31115210670514215 -0.5288548529350086 -0.16992793306897178 -0.16126374652494313 -0.3371654023326444 0.27681889705644164 -0.3403368947021301 -0.5436221521181467 0.4240289348570446 -0.730079590624974 -0.19895358756974635 -0.37335729486530256 -0.4801673224134518 -0.00486769342509662 -0.01707471647182671 0.04383755809917801 0.26714807147697345 -0.18936661967277216 0.5409870155004703 0.07888303019888437 -0.1747414521419883 0.13126604074564963 -0.3597987499608863 -0.2612509991004867 0.03991451064256632 0.15412500183114597 -0.3963739742240232 0.16396201797561183 -0.32999489009419325 -0.014610490389771646 0.2665873047894298 0.2840396627858743 0.055767725637677165 0.1835089418036811 0.028022874842420165 -0.06176862474012619 0.18445475235348402 -0.20998715049538222 0.41273171260305724 ]
[ 0.1574513150259361 -0.12548554620206503 -0.3789697242545591 -0.4144804025410398 -0.06004562060319264 -0.03276917321387436 0.2764619560120199 -0.03688371170975305 -0.36946354275205273 0.38362657527104527 -0.032367104425079465 -0.22667525914773864 -0.1271702130185741 -0.23338611377837873 0.2289449493703661 0.200827204943808 0.126743959271993 0.31066597672823 -0.37990502620283634 0.34947359356906144 0.08449753568056154 -0.10201838366500739 0.20639223005965157 -0.051620303957173715 -0.08289574954132257 0.09552963764760684 -0.09317839304124656 0.3558750145353721 0.1976729422014151 0.13816513664126476 0.263911181115321 0.2295782314123771 -0.0012837121592776386 -0.10273988102948846 -0.11581187500488406 -0.19624157428721173 -0.029741879824644463 -0.00267447555505414 0.297088230465439 0.11441919734225574 ]
[ 0.028055165804211888 -0.35663788948424335 0.21582043248533223 0.6999349554229911 0.08087847187507755 0.17705464661373058 -0.2640508578087253 0.11277157802969608 0.04581134281928888 -0.22456014195949867 0.3219207059333358 0.1530372789926812 -0.11925249783204565 -0.21483769374033207 -0.01860850897003655 0.12486606333915021 0.08339984424477719 -0.03926376808043709 -0.30609094611639365 -0.27834196392584387 0.029938874631380473 0.4319686335298051 0.050294352146135854 0.12910756602753454 -0.3036443040640336 0.01029709373664963 -0.19486845360985158 0.12470100719206467 -0.16336859793802463 0.352073595322521 -0.08676769248171025 -0.17390184351085153 0.22648303462776626 -0.322920618490599 -0.2176456143219407 -0.042455836880622946 0.17378300959152396 -0.013158248560785067 -0.11046384635269313 -0.1359756087498004 ]
[ -0.030465944765318418 0.005425663366297151 0.12530576979114683 0.05798122492662385 0.06230971412549445 0.1270387212832349 0.1633116164078698 0.04197743410216101 0.06770903834484468 0.019200181444108736 0.0784750284579336 0.09957967015372171 -0.011928171585985772 -0.0888678697888284 0.020866933073299305 0.0010378076306635912 0.09228877855347954 0.07177516473729104 -0.025558849213420793 -0.23012276143741037 0.008526707120638435 0.022056800809191007 0.06945008188764351 0.0032981797590856702 0.021134339287196626 -0.010598497519022464 -0.11123480131888919 0.06324258939096476 -0.026225893410693122 0.11474181761502661 -0.13223492580756635 -0.18720133741782102 -0.10966742279084814 -0.02723353465661462 0.14200267223779442 0.059500018750807404 0.12189670478528125 -0.024984117622999805 -0.044946326998893095 -0.1361929314523212 ]
layer 3 Activation
tanh
layer 4 Dense
40 20
[ 0.21352586441798124 -0.10700590709270051 -0.17545012899827697 0.2765634569422282 0.25732666340902066 0.09468246186008139 -0.008880067438854932 0.2430436053703377 0.03524661938258811 -0.16259549888456162 -0.026741845831407884 0.19814870173218102 -0.10646012154523611 -0.17290295337642855 0.0862207312613892 -0.044009631596700696 -0.31600965430939276 0.02429596806122025 0.19571421929810617 0.3531772577837473 ]
[ -0.03721007592310519 0.04200945922613643 -0.061316520310805485 0.20410764238378867 0.026829237268720007 0.07249148164613792 0.29829775222331767 0.3206775194048484 -0.04588604319231591 -0.09790926292370827 -0.19405313919837416 -0.10471135717845394 -0.2839666286047165 -0.20114011194109424 -0.07301199716883623 -0.25782575559495624 -0.12159432846880122 -0.2030054359906894 -0.22033350901057772 -0.18962481060899794 ]
[ -0.36931422265547137 0.16716430668633292 0.12783714016992412 -0.27290115917396535 -0.07892190930986966 -0.08965848842438513 -0.09351065013903616 -0.19141888745484165 0.2431117092031182 -0.20046483492081435 0.2159024702882508 -0.12605409930899572 0.2945035456753722 -0.1681766023350034 -0.3051372185120312 0.22692622534058596 0.015155984746045677 -0.04895118727627858 -0.017845128894512664 0.2872136828331042 ]
[ -0.28168341274791947 0.024243826962362974 -0.11559146382334645 0.23242247892148063 -0.29501783037983054 0.27927825570545384 -0.18878954389910796 0.09032652630851669 -0.014858847221780644 -0.13039535160241233 0.2914771403436494 0.04384157588922161 0.15467782807413463 0.06667305058324723 -0.05796984148966375 -0.23912936213194397 -0.2580292202652111 -0.17047104224626736 0.26582189123119365 0.28124054082089855 ]
[ -0.45785969177823116 0.33390356441454394 0.12044600690030041 -0.22731037689770742 0.0009567824888620654 0.028903938993094333 -0.229085671038064 -0.15066201188793077 -0.3494582443338519 0.2385118771470331 0.41290862808162704 -0.03691299482093656 0.34251828570881976 0.10339990221439777 0.14590815737400953 0.17419870702438298 0.08350432066224721 -0.23370236724606824 0.14098993119437894 0.19708925880154943 ]
[ -0.08575934203318622 0.26357423857825507 -0.3300273811244149 -0.23082623355944332 0.07938742439477842 -0.16838347059637462 0.06243768544473184 0.2869078069513268 -0.28520712195542713 -0.17307773147966182 -0.1935138932311494 -0.29946742377727936 0.21290172699189672 -0.27670502715509276 0.043299631534494586 0.30309345971223933 -0.055335331969165916 0.13499124956435812 0.3588018573301852 0.3671825808324828 ]
[ 0.2488699762133957 -0.2766387550810882 0.22380354772562064 -0.40543227327479153 0.2712760410245481 -0.07522856468938095 0.11580557502687117 -0.3282003832049293 0.055629014906107395 0.1610927690928738 0.25978656967067226 -0.09660171454363155 0.30225438428775764 -0.007040781786911683 -0.1779018490059176 0.09010097347175663 0.3092992403395363 0.23987553813262524 0.23465714907477678 -0.11823023523664834 ]
[ 0.01936760135526948 -0.01747579619294404 -0.06268180229908762 -0.24323516396926512 0.23393305460029068 0.21214772135913862 0.15698295502081158 0.37660737838762254 0.07372526625807233 -0.04351840738984822 -0.25202092605983933 -0.4451742966798747 0.22673203318872412 -0.19860780597186056 -0.28691217947711034 0.12727682707217025 -0.2511156781894268 -0.125581741732691 0.06489271322231635 -0.3702165527024839 ]
[ -0.3465647097535979 0.13796825303201596 0.02166921473298555 0.00222545075338715 0.3406679679987732 0.10562436097910821 0.19168374632701005 0.3195535814444193 -0.06773857468246638 -0.07394355580258859 -0.21708388480214727 -0.6494810781590648 0.05041440952663882 -0.3372077008913864 -0.10142367819605587 0.20751048091282182 -0.19141785210558204 -0.2626275184403716 -0.08709075682502733 0.2018643986221103 ]
[ 0.20791203784460785 -0.3360282323313685 0.2546431618955051 -0.2639425945157152 0.006488951514532088 0.11429661614014364 -0.3368872354426141 0.0061027535130831175 -0.2436847738324013 -0.17781602021107146 0.01609419911774695 0.4789849605043135 0.18198076816932407 0.1556924924867116 0.06020911330377574 -0.18290360868691666 -0.03640750641711496 0.2677014250368568 0.286208167127166 0.10492901379093589 ]
[ -0.19863816592632644 0.16724638084186672 -0.20401507634320393 -0.471667746744812 0.08637382251970231 -0.12033733188207202 0.21769188616055554 -0.07158907910819304 -0.2324000206442128 0.33992864614292995 -0.2278404947893168 -0.30442287963400955 0.3575972995406186 -0.251245323298585 -0.3387514202405143 -0.2728038267343886 -0.02735886850555401 0.1868770786931397 -0.09648404849304033 0.16532697612307223 ]
[ -0.24276708181023715 0.03842387115603468 0.1701125889611234 -0.2934466691819348 0.23404674086396235 0.09858964111954928 -0.06112918223254203 0.004215549712185412 0.14534133486203324 0.24829982342378654 0.1535417956291458 -0.6153446145536651 0.23669211977417448 -0.2016708580784117 -0.26643818901072625 0.17037017364331766 0.08360256947463231 -0.2794931872961426 -0.15710429683360605 -0.17937657610074523 ]
[ 0.09717156929438603 -0.06976821253275504 -0.3874525474331196 -0.22202230870090778 0.13678523944497373 -0.1544932094581441 0.050806621674735056 -0.34237191873582123 -0.05633176269933448 0.0766843861561765 -0.029723533896376924 0.03471145319535935 0.2938808147457294 -0.05967004082909295 0.3406564050929273 0.06472404449977401 -0.3599529265432945 0.05879272362959446 0.0018593300965232518 0.3405479249558501 ]
[ 0.32108578307522445 -0.18847297434724755 0.20085743292767239 -0.33459458150873 -0.08518645959718113 -0.07347908842683004 0.03404962257180925 -0.049944488528881 -0.11774457143014802 -0.1002967515591162 -0.31953029209458067 -0.09580741117577847 -0.09256540002523381 -0.08286954086949988 -0.07724565231685676 0.19306724215973947 -0.30668818919675306 -0.002799043310614895 -0.37693386123433564 0.04078297518530556 ]
[ -0.09496154783716988 -0.1357882934569596 0.14857688836403918 -0.3900327876478783 0.21436854088705173 0.13735139556835815 0.15353108535831364 0.0607078157701422 0.1728669729489094 -0.25278383154196726 0.3092882408400901 -0.05387964669987871 0.08386913987554573 0.07425419453081583 -0.28570943749723204 -0.0535036650037343 0.1532467807037226 0.1528532598898107 -0.34626266397503913 -0.020895800368140458 ]
[ -0.2434413066904952 -0.18551621337605909 0.03539461145882725 -0.32548406443545863 -0.2842348594634887 0.25048886722545727 -0.025350421459618924 -0.4159313243161051 -0.36924920769503095 0.19729495540714775 0.18087301178819953 0.3276217200227206 0.12074552720340302 0.08593784816798875 -0.018213015330283227 -0.06987639263553216 0.24682826448513637 -0.1799555241487752 0.23534532529003 0.11099297540810596 ]
[ -0.09213065252108689 0.3862371293442213 -0.10313283884838441 0.044605824199701584 0.22915801941198308 0.07110314556202323 0.1923190928489761 -0.3406150133736269 -0.2792867116178572 -0.21815175303751283 -0.37245880862665365 -0.04788341495959289 0.4333140665109927 -0.41325248415272847 0.044571537883690886 -0.17892056546081267 -0.04123138735095113 0.24569205850189546 0.15537705224714038 0.44900140636683983 ]
[ -0.16303734085494007 0.3879969752340999 0.25043456344621556 0.315990261688461 -0.15443198921612863 0.18898918373031837 -0.14208358749060052 -0.1646804842860125 -0.1185020908661136 -0.03928773363228255 0.13440476374681046 0.7504152572915916 -0.04215964639212728 -0.14564574859853294 -0.11689064880848221 0.1921572943792969 0.20793892135852243 0.36609307461974755 0.29882168026360995 0.33354992964571556 ]
[ 0.07742962158009316 0.3480871794760065 -0.23769683235648478 -0.10874937640841727 0.1806963003959033 0.23236956121412702 0.15389751622519 0.1377489370505359 0.2685568796260477 -0.12710710536828662 0.16551243699086188 -0.2506271766838828 0.24538523473482945 -0.22876145706105636 -0.31417972385788323 0.053962929783229446 -0.21234602265436023 -0.055772240091517926 -0.01686496885773436 0.1593159114397516 ]
[ -0.0641028330690832 -0.2809631367786158 0.27727727303251287 -0.19170981466113257 0.13318383555992183 0.12999403218582387 0.19785882435041727 -0.19657763514957705 -0.054580273364238895 -0.10715691580874565 -0.3852665928626327 -0.11869301813997686 -0.39624926822052375 0.4028212975183324 0.1162150363780965 0.11982154520207809 0.28359629416393173 -0.30189077344138254 0.05499559416469037 -0.28945919840937456 ]
[ -0.05187040950474666 0.4218993852396551 0.051593436221699936 0.17815759782738116 0.20559221747096376 0.051539803698198834 -0.20056404309021839 -0.2974286218091985 0.24543659460464623 -0.193297057328394 0.32439057685839406 0.44884029994600794 -0.08064017692793286 0.15769444103830826 0.3789928162757847 -0.1666698922500119 0.14849550097001277 -0.20889461926533237 -0.3251250639397076 0.078212863284773 ]
[ -0.3525804369183276 -0.2543303766552082 0.2185641671904334 0.23020253491527906 0.10743813934960203 0.11983668867985224 -0.14680229624393687 -0.3375926591180379 -0.2029919511762041 0.290223374648964 0.02452001313201571 0.3306883362343572 0.0396654318579999 -0.041535739196089834 -0.04844857323047178 0.11299403833022971 -0.2801321493784822 0.10738459630407154 -0.2155823857814615 0.21662775745705837 ]
[ -0.23689677232291378 -0.2734531598009023 -0.2932684049633607 -0.1199146828361107 -0.0682532263649896 -0.07194193410411491 -0.1553825087577023 -0.5814761469287183 -0.019135019145481665 0.4165193250179242 0.1262290340217936 0.2788062933443385 0.45612325095500655 0.14359992496383178 0.18793304810040418 -0.11297346631867194 0.09157436208582724 0.3484541453154652 0.45399953626569123 0.05502065760733587 ]
[ -0.2667082944262239 0.17895651367285378 0.22857528482934053 0.06805622173099074 0.07051293814965623 0.03687998555705882 0.23431883120420913 -0.1852687001420307 -0.31407390792761986 -0.13670469752287992 0.17632096408769457 -0.08631252859356299 0.17460388047446063 -0.10049825104524548 -0.22263618707471408 -0.1973374746226086 -0.05174988306948003 -0.256774752328063 0.06133406766696675 -0.10298404144848076 ]
[ -0.012965623504559378 -0.3264930688997142 -0.2069312626692949 -0.051620529099185616 0.3128698703976517 -0.06823903054514763 -0.02868871886233303 0.2423451850472585 0.28267704987087483 0.13146998856226105 -0.334139860084403 0.1166346250042632 -0.1523458490731544 0.007156384337780173 -0.011481354360129432 0.07401561744375244 -0.06281426652362053 -0.16284578676845723 -0.06616460879612326 -0.28781180958266117 ]
[ -0.16747844313369842 0.13350712927738204 0.007532493985866396 -0.19490725676706624 -0.2478117212158877 -0.037152166146987346 -0.042740743209853105 -0.2755449808591642 0.06998864737563606 -0.2938224404936045 0.02589702950232935 -0.25605282974903987 -0.1305824267028778 0.11092063955037318 -0.1528159129570957 0.23450198615663012 -0.029389596087136653 0.23908351371109948 0.23216907804551834 0.29271938275080117 ]
[ 0.4253854167171554 -0.1312083333512771 -0.3149786126505133 0.2037015848557015 0.21126305473507942 -0.06448118021930999 0.24423233302329592 -0.18569309249484153 -0.10602407036290094 -0.034657697452576804 -0.46596574562624904 -0.1796057562694104 0.141694493329126 -0.1964250835421703 0.2240644543748013 -0.1678710682406353 0.30307574426248246 -0.04431651139616091 0.27947031079326823 -0.23335268256864625 ]
[ -0.20337815552626357 -0.2750310150792093 -0.015012425170458825 -0.40745975737335555 -0.017265270633208752 0.16327734802180285 0.05764035723348506 -0.025954943486242176 0.3690666506106287 -0.3102855588020647 -0.4335004495786474 -0.055258009214723854 0.25684299462064547 0.14556775065641164 -0.3773921330841304 0.10692722923092735 0.31941709586402095 0.31029812319254346 0.00435646590348647 -0.193131820196933 ]
[ 0.33317571624258124 0.0454036950026484 -0.20802784496034668 0.027461262407010616 0.13354903251504593 -0.08675760219004328 -0.04249278013062784 0.048682870256978115 0.15839021576602866 -0.13764852305315634 -0.08365147639083387 -0.2600760283849842 0.18991019050011532 -0.17382157573427076 0.06711718397728378 0.10176882033934712 0.09850505341085913 0.1953875377590739 -0.23088849057215033 0.1231674931727388 ]
[ -0.184488546720198 0.10475981986408632 -0.09216993425999771 0.003665718445496087 -0.013045051533147152 -0.20825849496213722 -0.3432766778410557 -0.09261155002260234 -0.20079505735759332 0.2605776381883643 0.17183455289116192 0.09721496856003263 0.22408418209884765 0.21095987792447699 0.15638369967863236 0.05895985775781688 -0.17633644079486047 0.2418730476151692 -0.006111357758947947 0.2828240999999973 ]
[ 0.23582044419585316 0.054514199878143495 0.025059715721654857 0.3899561384624923 -0.0454586868609076 0.18559531212288713 -0.26839069446842384 -0.34335847761755794 -0.020901343891070814 0.33913275158097494 -0.13212412266283977 0.4254209759355644 -0.1090751735909684 -0.015481289543531583 0.11966164306514886 0.10841332505931146 -0.22045283486412873 -0.05755823389383331 0.38624102312565084 0.2964307996581777 ]
[ 0.39143104755536895 -0.36778919561722395 -0.1695329812610861 0.19268095715251415 -0.06165420812486568 -0.0583523081805424 -0.23523249296043516 -0.15613981519318287 -0.02985844849611387 0.1297997652090514 0.1093173616883378 0.4038731425770087 0.016382706801202795 0.17233492014758134 -0.202420536916301 0.16761988939234687 0.2928197382405662 -0.08625149543450222 0.06400329742006136 -0.18735414295573574 ]
[ 0.23876610451585958 -0.08399560595225668 0.12223660899917839 0.2417646119782381 0.09381772724712696 -0.1495381121018096 0.18383423726995526 -0.10976372769925662 0.1930279552041518 -0.027847028662107247 0.2148745851581607 0.3850778275766346 -0.3522338220509586 0.020180400512549754 0.31480506380120943 0.23998158874115333 0.13192397819889254 0.31898162578118633 -0.23580798010766063 0.1366978370444522 ]
[ -0.1256155829314221 -0.3361073090680468 -0.10103406014201827 -0.04872514270367221 -0.3095232564069723 0.20406457629575345 -0.0173656097769058 0.1739019327724174 -0.13762081090029657 -0.15271903787527183 -0.2495560470124276 -0.07311108242043267 -0.21437602363436822 0.04466478404943998 -0.27198726843286236 -0.11326994422305901 0.3798105964748068 -0.331422340386858 0.16675094702829696 -0.4082233353182125 ]
[ -0.08872180148305081 -0.2451358852663372 -0.11995999211506297 -0.30666939982529384 0.30509635948686015 0.022726405959234378 0.2649377998158052 0.3627707222646715 0.09093356080543744 0.10475788070180687 -0.227568746036399 -0.2690577067067821 0.030920883213287932 0.28107864837101215 0.14607434993408708 0.19275747611354896 0.3299920713996888 0.2364274347709664 -0.3495685799921644 -0.29759935171876817 ]
[ 0.0300591466873164 0.13760703776770877 -0.18315230175705488 0.0012998854348562875 0.40785461666196177 -0.024581968485552125 -0.006311269757595965 0.21555605203714231 0.19933910194530322 -0.07473140035213696 0.2627362534895918 -0.4785554247459867 0.1610095058346768 -0.22076718740018092 0.2538242212560986 -0.0930193453219812 0.1632758813328388 -0.12744281537571062 0.22783086660014526 -0.10504090195616425 ]
[ -0.15841653809638997 0.15598193481533304 -0.32905046257351694 0.03612325873666485 -0.1573421185318049 0.2086682785822548 -0.35110607702556895 0.23631494874465026 -0.20105530098947016 0.22814090781579988 -0.05697354612389443 0.07123894747006652 0.025990626714409965 0.10277865372904522 -0.10620833288697264 -0.06380975893831045 -0.007562073106766108 0.14272833020132522 0.07260716684775374 0.21242651941136934 ]
[ -0.05164765818612666 -0.22988722836475123 0.31496849249563535 0.45069960572821727 -0.23406681967063978 0.16309069135177479 0.2588232458518832 0.1447671506187346 -0.24910588448287319 -0.22136200729274286 -0.05725828837157306 0.18233827862479735 -0.23831054137001376 -0.15047902601554716 -0.14250917751887307 -0.06544983423603548 0.0432166245192893 -0.26391894432644525 0.08029481576846124 -0.31177648415874537 ]
[ 0.04373404129456081 -0.3236955950291557 0.26399564444435053 -0.14829432037626278 0.11509394868404216 -0.022335861570079576 0.15683857020190461 0.24938986374702843 -0.06361716579746986 -0.07652172167052113 0.3373644242562397 -0.07256641931686009 -0.015530414763228721 0.10440891712865324 0.015861960413185276 0.2679615980068002 0.006448964096971977 0.22488529297061263 -0.06570765675621487 0.08391088684707436 ]
[ 0.1927390614766911 -0.18498492847644346 0.25384659418098354 0.11079652054996045 0.08810286067607603 -0.0027367765674655414 -0.011126127377030537 -0.20446767288513126 -0.04456233973511958 -0.26902416131968004 0.31823155961676053 0.4455507006008894 -0.2545403689820166 0.342800980752105 0.21912312747251603 -0.18228228959688947 -0.12579099251419176 -0.036523557823041446 0.1294838946833489 -0.21147251797047578 ]
[ -0.15328242585021123 -0.08059835669149398 -0.012370437897574554 0.06368126067285589 0.056570998283525284 -0.03126435833252097 -0.05306118744643882 0.0548557824843131 -0.05796466219698273 0.059389067610152585 -0.0288208520045566 -0.05885111694217291 0.09532611174862621 -0.006908346153489438 0.016864476733684387 0.02727775567865739 0.004230840351245892 0.10895196550819566 0.023190073602565305 -0.1348549761060317 ]
layer 5 Activation
tanh
layer 6 Dense
20 1
[ 0.2814695601767232 ]
[ 0.06842497367628433 ]
[ 0.31247612377303036 ]
[ -0.3437313335268533 ]
[ 0.017247464574993134 ]
[ 0.0049256270231400785 ]
[ 0.07155182769619838 ]
[ 0.38476493213732516 ]
[ 0.00569653169937402 ]
[ 0.004155689561621524 ]
[ -0.21356479759047153 ]
[ -0.07272781605249033 ]
[ -0.4041853384517902 ]
[ 0.40988641395284386 ]
[ -0.23629901476047377 ]
[ 0.01729070615462487 ]
[ 0.42958147539672337 ]
[ -0.32327705955971137 ]
[ -0.048287893973478005 ]
[ 0.2610963365399252 ]
[ 0.0016854102810982693 ]
