layers 7
layer 0 Dense
20 20
[ -0.5495305155897546 -0.4750008578193326 -0.1209793535215559 -0.758743332399669 0.052539663546983736 -0.6418927632020353 -0.05935150176818352 -0.003599180197137186 -0.23054300787701934 0.5764030950238413 0.018465097324621937 -0.5072591038895242 -0.10842908473667268 0.19848731523139243 -0.12854703238664378 -0.29842846839640685 -0.031058885830628078 -0.21256215679976592 0.009973748074420238 0.13755000623642405 ]
[ -0.10557886635399993 -0.12665693442625697 -0.0997866230274785 -0.16736648924597022 -0.17900148242772748 0.023879769636096046 0.05168632217677174 0.34789435941673963 0.3831324099909595 -0.36677687831371214 0.05994985495245077 -0.29570129003715684 -0.37317536942695917 -0.24427351151013496 -0.3408932352462107 0.001401161821478043 0.04952317747703343 -0.3009788795660812 0.35959910248330385 -0.27796270115284516 ]
[ -0.10426956865103508 -0.2307682956934382 0.16689163434598034 -0.09538757964228281 -0.31155997331458657 0.2510930577442447 -0.2545787842903339 0.24619307505762145 0.09597647223158393 -0.02742499274475329 0.046227351015363544 -0.12426434480546165 -0.2778901332184717 -0.20215543223303795 0.10326279407360299 -0.3642658541401695 0.30681514549699035 -0.3768144754456638 0.0898972226365644 0.12416300756468908 ]
[ -0.31416789972874026 -0.44573901407600264 0.16103424799218577 -0.44134067562629686 -0.17065807162521007 0.032093406939822565 0.3642332573496071 -0.28554184871460125 -0.04419877751082376 0.11850979339580062 0.06187574164209551 0.20070103769065112 0.5285336911910185 0.4448855857612475 0.18618054559023828 0.14880469832691 0.2667226684496709 -0.48252683246158723 0.11345960838733977 -0.3682804949503622 ]
[ 0.22579206114806713 -0.094868887457103 -0.9279762415502548 0.06506699840162644 0.13979035191858102 0.0431138323055737 -0.3915874028355046 0.11151196309863755 -0.041563331570367665 0.5000230852038586 -0.03859749813166697 -0.44181181213354687 0.12691913442795622 -0.052113048068480924 -0.41386288224497914 0.3607140065645382 0.2151676114595333 -0.007626836419181214 0.14274875246845084 0.006339140146336255 ]
[ -0.052096477123198544 0.10728571842950806 -0.2652101812908952 -0.07346017497115112 -0.0705558911363932 -0.33766069809433125 0.05264740486856315 0.050089828036236274 0.37586118830452614 0.14667464841786088 -0.017040308631780503 -0.36796985062595944 0.12981919608909284 -0.38537528376601554 0.05909113995970842 -0.009878485373854388 -0.011232398246057571 -0.155012756001575 -0.21103325218729532 0.30437378095836554 ]
[ -0.01648353853772812 0.12062362120340289 0.17406049615276922 -0.17202986381125537 -0.22753694473742272 -0.028034732522036296 0.10199470255301092 -0.30776540367360733 -0.3020499296147782 0.20304796668140632 -0.2744781384663084 0.3623307471369449 0.130501588269982 0.35378861310692294 0.11957055457949627 -0.22519026062113898 0.3041223874867524 -0.19162219891040735 -0.23613724867154373 0.12249242119642807 ]
[ -0.18647661160505336 0.4207921352154708 0.32506178832977295 0.5251152194716111 -0.2957701136789871 0.4334301809037521 -0.4041088405801939 -0.11974641591204378 -0.2839666162444009 0.11506108925452659 -0.0567553659421806 0.27487844788316224 -0.5407891119912103 -0.2863201959633513 0.11713064516708484 -0.3813207547326146 -0.0364072231251745 0.5830495674237104 0.1255373808091183 -0.1560858901232506 ]
[ 0.13140380749779088 -0.07601243684539626 -0.5430832369567445 -0.2654139150900257 -0.6792570530628846 -0.19587760805640134 -0.3612701326413138 -0.30084041249488824 0.3580961829521051 -0.0920772318676374 0.11009151095565407 0.09951196791397167 -0.046786978827459906 0.03514741772843871 -0.22761869646994293 -0.1679474909211978 -0.17836131980000558 0.20703288663566952 0.01908587718410947 0.046980119972617605 ]
[ -0.2860234986134559 -0.06895296350354142 0.07320640017393325 -0.011201249390727867 0.49287053769011263 0.07673158999016384 0.20146339150165998 -0.5541189771925809 -0.14515287699391394 -0.597766332874575 -0.05661054317764515 -0.2979235848119073 0.14045144500594622 -0.4353050844957107 0.5385225279362987 -0.011457530083221762 0.40141890396441005 0.22657156454565291 0.03624822044654233 -0.3997929368890606 ]
[ -0.4554142335213298 0.1587940751560087 -0.2570832376431711 0.17725507473014698 0.10586235007875103 0.36702518792586386 -0.3296765474280845 -0.05676520387588393 -0.48838583692616333 -0.05328988502080253 0.3249393181893252 -0.0657241949637072 0.20518269871057157 0.18771436894000967 0.1424479473638344 0.3902631237508859 -0.23176633494745166 0.10710258416162624 0.005027473557714211 -0.27008256970353184 ]
[ 0.49141103090145416 0.6374668623506353 -0.40023287920301664 0.03460816064190863 0.4876477309763315 -0.10339128101891377 0.4467116215816187 -0.45819526488647583 -0.12249340114491548 -0.3598095436305685 0.28136106605320665 -0.4863637843259533 -0.024867841375225675 0.39204101893709487 -1.0236120804698245 0.23869307986776034 -0.08813932022224621 0.2908346204904423 -0.2735502327579597 0.24643100635707374 ]
[ -0.6202681554685294 -0.2617695447949292 -0.2094724717719884 -0.07762171304242357 -0.3625782277732134 -0.12229418530070349 -0.15386573217930083 0.027466473284911454 0.09717915029141852 0.6331373505243635 0.08001319663302779 -0.13375180322794172 0.21675662172638963 -0.7404808391758375 0.36652945280399846 0.3499695059059896 -0.34541048400693247 0.14131127227926268 0.09728474669016421 -0.3742979630135364 ]
[ 0.34598137227521625 -0.09090397482777055 0.3003308273921875 0.008491148268310916 -0.9689652250915806 0.24280901339500252 -0.11906561011014505 1.0196036290501098 0.5132275213599062 -0.27220772552935624 -0.5773787360315655 -0.8166004936038622 -0.019092662561826457 0.19101038150448502 0.14449691719392918 -0.10217114001920646 -1.0817912595547692 0.3000629761803578 0.34202307442658 0.4300623872443141 ]
[ -0.026199688298101965 0.13571377672209867 -0.20991337317552525 -0.20183473702247348 0.2583299419212051 0.01650444864975001 1.0061606165800157 -0.2414095685259778 0.6694581235991955 0.5038269075520806 -0.9440622920753514 0.20673532480309292 0.06356447736639273 -0.7139638253640688 -0.28147676375660263 -0.38492886542640925 0.607606416975138 0.15816966395727378 -0.6034144922782941 -0.17257377491035877 ]
[ -1.4553181515254119 1.0171989903930496 0.533107832008243 0.8875370616972484 0.22199670447454936 0.44288074445387426 0.34154107065136735 0.6376902327484432 -0.871452838734996 -0.5852134099098685 -0.8129350419473242 -0.9943303947763669 -0.160391035197169 0.17283003135573416 -0.6091570820597522 -0.3094190952005518 0.6209938667771127 0.3179397933825227 -0.5077147552691958 0.44409097843536205 ]
[ 0.058149112958850606 -0.2562732262142712 -0.7968916053520875 -0.11890764023158285 0.48058337061519985 0.39092110065146574 0.19715811970270897 0.15801687138944195 -0.1586591110287854 0.04712726169850355 0.06670692593574676 -0.4266091987486928 -0.22046782785561442 -0.1144859233686189 -0.5250676663840302 0.01098572441502269 -0.4323284622937722 0.15747544490484505 -0.3183604779403522 -0.2367565622956142 ]
[ -0.2694555002352698 -0.34030945837924187 0.26494024107195185 0.041377675333184316 0.9631904794686033 0.022221938456677214 -0.02891497669925412 -0.6383014484982906 -0.6984270034073692 0.36887669244670546 0.05348133909514813 0.881394781601137 0.007361374103535185 -0.21506659859228394 0.10780703662227258 -0.11650193581885537 0.7395730825653313 0.07212720865435408 -0.4394288427735596 0.0966466072614732 ]
[ -0.0426710564796391 0.0899922758010662 0.11941965769425915 0.05544384113953236 0.20358651744860456 -0.5114690091140436 -0.7518033413256671 -0.07963780955965491 -0.7354124511374938 -0.5830879344383864 0.3576717843860056 -0.19861719719743798 0.30732810882191436 0.5314662920632396 0.69893844478566 0.17582333516466783 -0.423729407005686 0.25367926698657467 0.6878976899977453 0.3852941003225554 ]
[ 0.38286204403285806 -0.5647408876837131 0.06184829043063101 -0.4476340564631338 -0.7187168492816133 -0.18027116481119942 0.02842833601262745 -0.5390576901851613 0.5592994151423976 0.34615194548716355 0.4828723171448496 0.658703799309121 0.3628494601527944 0.15304634923689303 0.795328848421476 0.20671730107261255 -0.041659227418733284 -0.06688518410157195 -0.1055877689981307 0.14600491324307674 ]
[ -0.04761795048337717 -0.19837109533151462 0.09464435400958746 -0.11335150733509756 0.025529824147709945 -0.2927058886092827 0.13685663352869112 0.033808730601255645 0.02243591272673253 0.048939702784055954 -0.08338422720347294 0.1334770335078555 0.1650476890059849 0.033952820549177844 0.07355105018739463 0.023314316348976023 0.14770589749619933 -0.33933554509443464 0.14683359716872418 -0.08928773878729358 ]
layer 1 Activation
tanh
layer 2 Dense
20 40
[ 0.24738343151330408 0.027583744618430925 0.6271760039932915 0.09359194033170587 0.280103052804865 0.14070811300355066 -0.29321198045613234 0.24384459269460437 -0.4091152671510394 -0.32621595863989283 0.24677845118851863 -0.04366706455015168 -0.11293338255316836 -0.02935894755372276 -0.2177328851142066 -0.2742646457706036 0.21809622584773575 0.06285218767975118 0.3837512898349194 -0.07332042467139069 0.26427283392164763 -0.11430435787127372 -0.25878631291894255 -0.26097579718625635 -0.13926075722194517 0.6300305402372806 -0.11152052043812957 0.042258938733401655 0.2168407641443558 0.13576517885222975 0.20075763340229955 -0.3069322696481665 -0.0690286212286025 0.23968049693636517 -0.11904463827635325 -0.05314638700890183 -0.053155672684483374 0.00707440296406747 0.36948938307615586 0.017224298798261976 ]
[ 0.19715096398340354 -0.37430081058382564 -0.8290576208573851 0.2497773223522676 -0.3561964250126422 -0.42705252006551464 0.5587555915265083 -0.9412443644968135 0.11123818433484986 0.23856496279207023 0.14842986320062784 0.12146180817530494 0.06138704134236129 -0.1358608832449271 0.6422662943662829 0.3343964060549269 0.08348590332666525 -0.23659130933607103 -0.3499088533208821 0.41887913988421055 0.34562818446981797 0.05866700617814102 0.26971918500606173 0.6172043765527094 0.48355428078747537 -0.06582509942219487 -0.1507247356968994 -0.10404001190114326 -0.272050317230516 -0.43119739925222633 -0.8209148540814863 -0.29507635899508505 -0.27217103769908013 0.6160581107215055 -0.4258115084902747 0.11013818144528655 -0.2971431727085839 -0.7003389044732056 -0.28981045080351736 0.942051862717608 ]
[ 0.18190181261816077 -0.03902702865329057 -0.2965299057574675 0.22034148094642364 0.13694372753806466 0.061363630482663856 0.3310060273239478 0.003540919615886034 0.367361986018764 -0.04874037081244428 0.011063928195489495 0.4221779960583382 0.24645739098864725 0.012459055879888326 0.01655271428609388 -0.23672296373574886 -0.19151283613889478 0.23092619766475175 -0.0668095337561251 -0.012971969825680538 0.3020416059323288 0.0516793682763251 0.04080935247556525 -0.05049797419061694 0.11133191265016384 -0.14545767702539633 0.1798605476119594 0.121813430948684 0.05551932245484411 0.3344186671504853 -0.1684619360122197 0.4110935464069376 -0.1974315590466035 -0.38603675009944016 0.25353912719220184 -0.07573017961060935 -0.26373610005606074 -0.1693904428347683 -0.40586904794322887 0.20384823527681273 ]
[ 0.17260819251983656 -0.29083268488355846 -0.4078203727929204 -0.20121108649511202 -0.15947009005821508 -0.2895013441296304 0.4094225156028239 -0.5086144867022625 -0.39470601395148536 0.22111401924175686 -0.21254024072722771 0.002573328665618922 0.24584501246984675 -0.03912837861267752 0.022062650291778774 0.27072076270176393 0.340204177750173 -0.19269182463658094 -0.06581305495129901 -0.2765176732745212 -0.14987143300404826 0.19130578877314836 0.10790543178158607 0.32359888978137663 0.5828440010069045 -0.2012604192646262 0.27531747693511865 0.35603596956489825 -0.18510599495223323 -0.075390891615842 -0.08633385638056335 -0.2040515086173387 0.2023533653916908 0.34756789540570626 0.018823455834732366 0.2043796527494222 -0.22857328867337418 -0.34630857634450624 0.3333911213264049 0.4971472829676242 ]
[ 0.4610721849362663 -0.39204041319823624 -0.04203486512559259 0.11160676273833792 -0.6636951241862916 -0.08190490642813457 0.5545461767040177 -0.10587214732926915 0.09628920814083668 -0.091953423567226 -0.17344993680195858 -0.37133576754079467 -0.04062578462529145 0.43645782645160613 -0.11997029236892483 0.03316622670296945 -0.13327872718767536 -0.007848767275208453 -0.4776160270329505 0.043336951186072226 0.08656348347721217 0.07796513438794839 -0.20434343303471134 0.36509955534958627 -0.35742282014899035 -0.4886650867308551 0.5213120178750267 0.21932851038282444 0.13158182553811723 0.3048139638268643 -0.12197998355664368 -0.05981195125722105 -0.02747137831567273 -0.08548607030052852 -0.3920196570584839 -0.08672945667294625 -0.032198003018404815 0.09667792052173615 0.09167530950065425 0.1716834639880035 ]
[ -0.1371596653012018 -0.11094939072493488 -0.11229061419089519 -0.14387663893540079 -0.12946683468821604 0.21647314999731734 0.19443506338813835 -0.15461005828820418 -0.1494629579562056 0.34618190398830784 -0.22890029937662332 0.19728717059742645 0.046781951120918486 0.3564571813891587 0.42231836854554916 0.11300830426193081 0.2645971965475026 0.1454595832108496 -0.16948346833328085 0.12056510545979213 0.2119421719612709 0.24769390443095238 0.22110530308174023 0.09406717416369634 0.25590005006596334 0.34148656895172413 -0.13282512360557597 0.12430099244527906 -0.1810678140933241 -0.017737497487423322 -0.31284500640522084 -0.3913534047565754 0.10746692773041244 0.42662583994799796 -0.014427832812970437 0.032415411151447186 -0.06004537550022617 0.011661286043882838 -0.07762272169259178 0.08312310414015842 ]
[ -0.056107366140915424 0.17112643021714943 0.3007270540254115 -0.22790557509519466 -0.6035177446135895 0.1344661263613208 0.22958433160932254 0.486148269856172 -0.13051914943410534 0.022928284926428726 -0.25114648040099524 -0.39236514634889325 -0.24013991544864782 -0.5556599071842481 -0.38779935203103527 0.15074316536299845 -0.06624326412067337 0.10529028925776407 0.17001397429271556 0.2551979262337251 0.5552907692530086 -0.004716754254083412 0.24595803845831213 0.3864778060965246 -0.18263763752424583 -0.03601406521759088 0.1589430590977212 -0.5090126579591912 -0.14115761818937828 0.22475433509911322 -0.05971627449484756 0.1678763505860026 0.13264461650295659 0.07243715457944638 -0.40160045359155677 -0.6506385002039209 -0.024866385645483 -0.42972507058989956 -0.003237697076048882 -0.2581024469662006 ]
[ -0.30505191687238253 -0.2611429507128622 -0.5180873275643929 0.09082944949265852 0.18396894959801027 -0.33173644633431276 -0.11904969930202736 -0.39297083384757747 -0.021107234295066855 -0.35044900664269596 0.31552076247676525 0.16644208188748486 0.6143350399805694 0.29563693846202693 0.26640723387498644 0.38002746112860614 0.25275795913059595 0.337375108443963 0.037275381614758435 0.6931070860691255 0.13097560435279917 0.3544504114303481 0.20148510270568187 0.12302775295318227 -0.098905207438183 0.4768942314672796 -0.35131665836090836 0.06650824644367173 0.08501274932810554 -0.3368869738496616 -0.18037811484332017 0.056017792968209044 0.006076023665591663 -0.060430286140889106 -0.6679998878768364 0.23564472827281274 -0.1496066442993177 -0.5288359601759022 0.2712627321153161 0.49637910205332975 ]
[ -0.47968230775995824 0.3618885824236896 0.5136927289174769 0.24420125372342796 0.15294759492385576 0.2621130116804471 -0.655242525152906 0.6702560871997439 0.16992180584421168 0.40728760665708785 0.3259830240269036 -0.09936997094981392 -0.563794580538078 0.18919739746425476 -0.01321678862277773 -0.2611266773213096 -0.30721418954022744 -0.31436626617468216 0.11288729994710793 0.11392598703547287 0.2131982085766279 -0.0018507151851814645 -0.4747391852502694 -0.252354902644413 -0.21397205665367885 0.8135701004953731 -0.20654989685521966 0.3028748738134164 0.013966407785550987 0.24882734822370137 0.21141856676911527 -0.4415871968508087 0.11520248321605361 -0.030918010412509668 -0.14287102479826036 0.2417503599297908 0.26681717410965183 0.07157860153563873 0.28342471883934983 -0.4620225719198076 ]
[ -0.13263559959525456 0.37433723521112866 0.3993998248218847 -0.08808042707561341 -0.26975572190939123 0.4758576546167746 -0.130973633801186 0.3587082000420485 0.0862063886293717 0.26357006754961254 0.08937928247563899 0.30455514723954424 -0.23499238547232262 -0.31436802194149477 -0.3713008732144961 -0.12119887259897946 -0.09942571248091452 -0.2945122071304914 -0.2058747624581495 -0.13044398827536868 0.3862251125532547 -0.2885666276138158 -0.18512678777925162 0.32970530482120636 -0.06596214785029933 0.25354199323705834 -0.08316902767377955 -0.21011525762554065 -0.20093377560763376 0.16115206894765424 0.22745519887351842 0.24198976340268852 0.22524499104312387 -0.1470451317076882 -0.041088432950183634 -0.26299806045484947 -0.03430548569081672 -0.3443290368235163 -0.000729752017042344 -0.2387963206296789 ]
[ -0.1791480288025761 0.34986035923535025 0.3873159509572515 0.13527076637927993 0.7898106599377823 -0.25494337894172 0.10977231896184436 0.07431606417811328 -0.20767569035053865 -0.11650436831400084 0.05634175897557933 0.21392813188186785 0.3283072680188676 0.2676275503505892 -0.26027418238448746 0.020662147570356917 0.25259130915729927 -0.247311838410263 -0.21354635263576555 0.08127138695852165 -0.45662370196462576 -0.20839115389180973 -0.04965239369010255 -0.5463498331658602 -0.0963978231255513 -0.2988729442128751 0.16539186088876556 0.35592254713913907 -0.10301760674711688 0.30030362261712285 0.40136206764183285 -0.17622123662380976 0.04974206507631557 -0.0802545597483715 0.6416611590304845 -0.3178429031800788 -0.07435854362827903 0.17849568421564133 0.2529815425231394 -0.3946454200580309 ]
[ 0.13446080495473356 0.41373545886478574 0.0722837027775329 -0.2589412753850096 0.2996915396206245 0.22549409998163406 0.16517380980121193 0.17942571229255996 0.15645780165186687 0.1317682928694397 -0.1228121962358706 -0.07783328004662046 -0.5335302237434512 -0.23846310088688044 0.02647705222727538 0.05390714174049169 -0.17593797148729573 -0.3386323726388546 -0.23257830630247317 -0.47470829075624227 -0.26431953898963534 0.024347645064327364 -0.06049871152395235 -0.26587864397188515 0.05593063021694649 -0.2949114364739633 0.0033778252615270666 -0.05005408487980598 -0.13919579322078973 0.4144993184459512 0.2992679981759746 -0.07385655522830596 0.12657284672883581 -0.11049922861773205 0.5609001246267619 -0.2510544489308531 -0.2778032812664252 0.20872595016356774 0.08695517471109056 -0.1917874206533457 ]
[ -0.18987166340222597 0.19966428900279587 0.2629320968352545 -0.24825789338093737 0.27987566844876716 0.2865609893993219 -0.27613594860866647 0.050360230374675144 0.305854915580056 -0.08418867899823772 -0.22084045650651457 0.2981015865724392 0.32579976565408797 0.007020540688029915 -0.46606574504389436 0.1624147055361506 0.03292088852521296 -0.12862336120422121 0.24047200789549059 -0.061584710116818486 0.11062961829297868 0.26591332822543207 -0.20166994945604563 -0.09590915676501031 -0.5992907626427956 -0.3250581728096509 -0.17787710391857958 -0.21951716646827982 0.2537585836769003 0.15531437227166592 0.1394796167347819 0.44805075903894326 -0.07313434571722759 -0.0677637947858147 0.282023534279873 -0.39166976384076674 0.03364140604878016 -0.0767882270146521 0.2185368775910149 -0.2928382245536516 ]
[ 0.25113059882400335 -0.13699105940438958 -0.3205710821551573 0.04824087790156659 0.5798264601705457 0.08616319937123532 0.28277620216659527 -0.04888833628289899 -0.24824575580373684 -0.3575959182263913 -0.07188180856059864 -0.059978986157444236 0.4854135443536051 -0.09711970031182286 -0.16778104073581646 0.13891969231315196 -0.24555015593607823 0.02562264497440924 0.2228538156958701 -0.11982602613279811 -0.21302082800843958 0.1966339465104506 -0.30935340008096834 -0.2335838131370121 -0.33887474095674885 0.11793125091647999 0.14915742588047 0.1666127119277936 0.20896920065647318 -0.05244902778232069 -0.10807762039986375 -0.05346483216633686 0.20278728396250728 -0.12670327496021358 0.07576768097296954 -0.271104532377936 0.2591133213576155 0.25926425304643586 0.19238802126626625 -0.06159422326348278 ]
[ -0.09651970722013954 -0.08945985713249192 0.12200514530355597 0.013698065579054541 0.313442044090841 0.1909077618706962 -0.25087406853788985 -0.11679874837287475 0.11438263879894946 0.16780639880970394 0.0816715212900458 0.5350482816955437 -0.12364834609744463 -0.14964403254558303 0.1579480340631886 -0.06748156515106088 0.3156342547507965 -0.02980689341848388 0.17519998973011913 -0.11908030290379237 -0.2665752595107253 -0.23368297030728793 0.15832297385002655 -0.5922852524051073 -0.07815319072971458 0.23646367333109217 -0.14718120401646742 0.2944760768975074 0.1476489833592475 -0.17303194370403135 0.2993416205696825 0.29462138234360064 0.3527190474363947 0.17352789442254943 0.1435585204656732 0.3082120388398411 0.5083602059095966 0.4251248563277297 0.35394895712064534 -0.44341842719381547 ]
[ -0.20191812080623184 0.0030007102498202354 0.11758092018651475 -0.1966234222083263 0.09456522510691791 -0.0368470164099558 -0.10577423061484817 -0.23156868032093783 -0.253209506000983 -0.4675230296194492 0.03782363605488188 -0.01114512988047333 0.16015387799973216 0.19797931665936766 -0.17219233377114337 -0.11088769137445402 0.17931910544803126 0.06327080887220433 0.11154725733893968 -0.13205346347142682 0.1483923938967264 -0.21318635793899277 -0.21369467973703185 -0.570772670290769 0.004624221103630878 0.11072301290924884 -0.012882150438026874 0.08611829697430247 0.33984696472990006 0.4136580645123584 0.009205876379353982 0.00922983324282102 0.05729753618320388 0.09570947079474786 0.2657338688251484 -0.1280684073292917 -0.18885803082655003 0.04912290893806212 0.5054818676137061 -0.2812455037705516 ]
[ 0.5649586234582951 0.1390468430269291 0.15129048049658572 0.06709063576269048 -0.5494466052270218 -0.07992350686020125 0.5356841109323567 -0.07409093158282695 0.7194387811079298 -0.12710195375174463 -0.40735412814737143 -0.02960724549646056 -0.31911041350345254 -0.032920151045654766 0.17046099056548106 -0.08987257073769524 -0.2329279280267003 -0.17980711887612424 -0.07020158382427291 -0.21476808948595152 -0.23890804830019904 -0.305919994985871 0.08337796182942919 0.3011335487079015 -0.2517319164849558 -0.6466994133183827 0.26433261512491113 -0.08712578739976805 0.017032442296344492 0.03419365479659847 0.06616032732065497 -0.3382023149933028 -0.08828411823213683 -0.07790151152142144 -0.10827125729726492 -0.714389742181107 -0.027953797357099925 -0.040748095147263616 -0.4272577573466529 0.40934463536965826 ]
[ -0.05970805430976901 -0.07419235668275642 -0.536705898704471 0.43443407672089634 0.130987758068204 -0.08475923376083537 0.19303366895657517 -0.16229749182638067 -0.027310088737923732 0.059413594834497624 -0.2285882161448784 -0.035410054850807955 -0.14077910226968007 0.20465946078087038 0.4856459050036162 0.32061269383887453 0.09809326821741556 0.26977843391268136 0.06242563402644552 0.22730643763811126 -0.2211961492263376 0.036019331756564514 0.10604789737509993 0.25742781857762276 0.8604023131976724 -0.18496354574601806 -0.1436373129491417 -0.15026249397041697 0.03167822642161714 0.12965028174750964 -0.41784637731953145 -0.39176472676259516 -0.21001073783399693 0.6320448901881478 -0.272508985860641 0.6795923015707751 0.1270197346846912 -0.40121355210937465 -0.436732226922861 0.4263428076304787 ]
[ -0.011045823056937552 -0.05265445761555726 -0.21633658759469426 -0.15846984554676835 0.1689085776179002 0.05123010912205856 0.17778070794701914 -0.11977906722807317 -0.32261111545542803 -0.4133357281315551 0.12452480481774218 0.04683991884416409 0.25687207459394557 -0.12108996277385681 -0.2745662152763514 -0.0037764644810393613 0.07710746046898247 0.3121747389459225 -0.1794927235959988 -0.21110572034446884 -0.1110174849390275 -0.22198501352231412 -0.0824202270239958 -0.3647844528016083 -0.30646768591801166 0.23724397711733466 -0.1371901461362519 0.1330732018151083 0.013569637892540487 -0.23897881161512677 0.1394807850461097 -0.027004655195862166 -0.024623128693618223 -0.388650847206239 0.2733946266164195 0.20424013829850568 0.2727680740160495 -0.10476118234773413 -0.0572577630215995 0.04531140295645272 ]
[ 0.018063403692220124 -0.12016312012677902 -0.18844242125720814 -0.19186994361028445 0.037831908893743056 -0.09730486883522012 -0.023977319053234327 -0.08231854746874663 -0.25918953394386773 -0.024500735178641302 0.09299198642854814 0.20017804446558346 0.25209116882785576 0.45508792562599437 0.015168847757589686 0.3759903194989808 -0.02680988773749695 0.2609334943054458 -0.16070785637176124 0.2865516989592302 -0.29667005116211087 0.3736717321585942 0.1782650444974665 -0.08407182422760759 0.17452794237658692 0.3836323921191618 -0.18188660862319156 0.10176371815313381 -0.09596858664026583 -0.18077566588189878 -0.1084562040271167 0.21429965568704976 0.13287422960764497 -0.160166681515849 0.008530468094800635 0.06620262333017188 -0.3108072111962367 0.33753720165006357 0.008836411648756343 0.010911645573482957 ]
[ -0.17528449251174108 0.08229734896862427 0.23531771354601747 -0.22393578226313793 0.07087520665441678 0.14158629776821552 -0.12099247486935555 0.2095761840246501 -0.0076427510559173495 0.009502418374439554 0.24815892555757502 0.11074863720919809 -0.028374574033181048 0.07548205471631753 -0.47046826717915463 -0.22541491787057824 -0.06574137581970003 -0.025307893262012437 -0.0065883300350562885 -0.03531748533019769 0.004834962525336041 -0.12108450840888696 -0.32572217700938366 -0.20589313046294558 -0.5761261481682098 0.0695633461694655 -0.10243318333638159 -0.15245741493520332 0.10795937866560848 -0.023783863633476676 0.2816523323054745 0.34725154793638824 0.1836929305249532 -0.44023155540678943 0.17425697976552215 -0.35760755207803596 0.06190264180051065 0.1459192485593279 0.17212409290027847 -0.3142174733706398 ]
layer 3 Activation
tanh
layer 4 Dense
40 20
[ 0.30791443875340185 0.17519387202724512 0.2097107033675567 -0.07855322257373226 -0.1985443435840094 -0.2570588169946403 0.004981546066387763 0.13463374997550379 -0.48091003969455537 -0.1304494044164273 0.053752513477155574 0.10582922578101432 0.2616375605969062 0.39202919188657825 -0.28452216299267064 -0.11000877304068349 -0.21412727253354857 -0.284884318832223 0.046554021819626125 -0.14018596111670323 ]
[ -0.14903640455700876 -0.5034960898082607 0.3239814974154091 0.3034850551044085 0.18093960684627888 -0.11036712230693252 0.3398739054992522 -0.15756541926341797 0.2710247384908564 0.1956455463448753 0.353633467460727 -0.1291802836651026 -0.3056065235842061 0.04492952293411385 0.33148707166135594 0.24623130678135804 0.2948443586375317 0.05548907864751928 0.1495839548810559 0.10187250697664632 ]
[ 0.32370114860758165 0.12370060555865142 0.19046656182054517 0.5791897512992646 -0.004622633327875254 -0.3614431849596076 0.3640406473210701 -0.38781103711827675 -0.31677125594764816 0.09212206539029193 -0.11725070852974774 -0.21325739185532144 -0.1423507434552214 0.2791841687307085 0.29568409810612606 0.36372899009196014 0.5228359356291917 -0.04892584865197382 -0.12849337226068225 0.1124235034368352 ]
[ -0.2174331117147291 -0.31971160273144617 -0.027548639858776248 -0.08317980496615254 0.0294614498512375 0.17066532996365186 -0.06545601148301286 0.020422077584736666 -0.06996833031585187 -0.09953421748049059 -0.06454178979483415 -0.0708244350654953 -0.2318635708996028 -0.2771750110927031 0.019998152546598744 -0.0965433021446034 -0.24018682504650074 0.25579536195368374 0.2657491111176352 -0.15360693040919973 ]
[ 0.08030872576641375 0.07723960644200496 0.41186866978515196 0.5557220577224575 0.27157084041232593 0.30297321021685775 0.10589866817906977 0.3789468899334382 0.4205960140542947 -0.24974100425750048 -0.15027468495382884 0.009755213028981904 -0.0048937757577983704 -0.14894194460565302 -0.17966692834609754 0.02708091181608672 0.21538170702882076 0.2517718185830526 -0.2867077660168734 -0.10780098838690065 ]
[ 0.05677772108587557 -0.2185985370096595 -0.01483725479568421 0.23594034066816078 -0.25911762441213476 -0.139344919827414 0.07242349796246711 -0.21944311169894706 0.31079713145327137 0.1836503877428457 -0.23730973515933826 0.24264499962158764 -0.3888213468025067 0.04346505384987525 -0.15770675333950832 0.25405981014134993 -0.01476451511975907 -0.16867902387268216 0.07218449536205837 0.12319768516970002 ]
[ 0.1620479099204039 0.05067643131739798 0.3182815300814806 -0.5014274229864092 -0.28886680731636677 -0.3762304045882118 -0.21848357064163243 0.06212613566074782 -0.3058327327957408 0.24161603969033854 0.009302689134813757 -0.13299721849171947 0.27613524070013307 0.005614740788244873 -0.2981314540667281 0.007393669756922299 -0.6162885144067097 -0.3795801496317654 0.1649330472704232 0.281385384236034 ]
[ 0.09444224032629665 -0.057284307726792535 0.1733450077250511 0.44923461510017704 0.06969814736872522 -0.41521093766623524 0.4162205776515105 -0.4571010120939033 0.2443531126679196 0.14366856197900804 -0.1695979563764697 -0.13929427183939305 0.058756019737359576 0.15759167909447508 0.2538220902553232 0.16570648640256916 0.005455158107242905 0.15959821415409955 -0.13085639302506158 -0.05169741545529483 ]
[ 0.22756238810585114 -0.2697890068089682 0.21928907721457264 -0.30067280144921044 0.2442625974669083 -0.0777811361250427 0.17350946716245175 -0.3364174283459848 -0.20539534272951926 0.22855017010813622 -0.356918733300302 0.310285050041866 -0.14569659448793618 0.04914390856645775 0.14107641068750784 0.10902317608144234 0.0561573067553959 -0.3381766237671364 -0.022886777161993343 0.15081184139980486 ]
[ 0.07279189811360554 -0.029212267443450048 0.07273222766738763 -0.19732888183198213 0.20264839111545446 0.16836891160555356 0.1395606248133877 0.1725169247076711 0.025886887518719877 0.07617246793849593 -0.1482060898190488 0.011084829192440273 -0.14167635360036565 -0.10867379140284988 -0.46243201936379463 0.413768167054217 0.257943861602107 0.0812055418603341 0.3218423720435376 -0.29873047565343835 ]
[ 0.15205884918136217 0.058514081936666816 -0.1888807374340868 0.10717416460407217 0.13334398539651762 -0.17979378977144703 -0.044687832905137566 0.06310125037808534 0.10158123095949514 0.05334308762638064 0.12564542449170293 0.17299375736152658 0.018349354710876193 -0.1365113980824004 -0.007264856573533129 0.1805063412714247 0.10259794488444343 0.4026678897702464 -0.026270838434602983 0.28752023902057494 ]
[ -0.24519458093250698 -0.2468205014025281 0.01131293488048095 0.21989452420428 -0.007268242501723582 0.18735772962541788 -0.1282310556834731 -0.14482100429209682 0.3051650834140508 0.3172445629793551 -0.00299465735340889 -0.20551123047908285 -0.4700895544272698 0.24045506177275755 -0.2815397414758958 0.33620829034861927 -0.033256736239299874 0.2381049351957994 0.07458909165181105 0.06286584159167485 ]
[ -0.33109560173881497 0.43530778609022475 -0.4697980705728306 -0.37557853918389633 0.01809048968915396 -0.12062515808335748 -0.40663836182397395 0.09857190105467434 -0.004185109978993757 0.3289936581875128 0.08954058120189408 -0.10646468939696571 0.28316760094105825 0.25287271089105756 0.21989429383765127 -0.19296307614366578 -0.13129025748787362 0.08588645203932807 -0.34132498251170434 0.07555630595884198 ]
[ 0.2641555658952395 0.024374089433663662 -0.07107384856860031 -0.1259269958266184 0.2791387010141796 0.15080219105144585 -0.3363768460755346 0.17123215118217178 -0.21750360391446055 0.15766217103356828 -0.05142502803728799 -0.39065598841866367 0.27772715802785725 -0.25079610368519456 0.28802333795056845 0.38150801068935497 0.19031869630657897 0.15640514943700032 0.2963952973902688 -0.08236510744818663 ]
[ 0.24120155320019876 -0.04376333956839314 -0.03794951855032235 -0.281142293831953 -0.07338919869900946 0.4364749460246554 -0.001955264048162042 -0.10066186359013661 0.6139312828012382 0.1135638793681311 -0.11617317625564023 -0.1622259317532573 0.012266762042633064 -0.03536186556212536 -0.4756179340540266 -0.10197813600787346 -0.42045041912942643 0.38218674179379075 0.2703187564297474 -0.4168049682495224 ]
[ -0.11973158150063816 0.1160844493153372 0.0029845111810584296 -0.16470008102036116 0.1704732177017135 0.33739882027004203 -0.06783553144601828 0.21826136771813867 -0.033662379990710714 0.14460508910326852 0.18435059572330376 0.06060413323051119 0.3216107527346135 -0.3057817630224504 0.05214960048421971 0.05415616165390687 -0.18319918168329585 0.1789168434059169 -0.1353048333594174 0.04673859732528164 ]
[ -0.269910187517572 0.13321323825583004 0.08847757397314543 -0.1607948205029346 -0.25550242192275074 0.1892211002683999 -0.36099995541296237 0.2265973934733692 0.24336104069883993 -0.08015440233646175 0.08274140372512657 -0.2527292562514855 -0.20747467911551296 0.19469016254281862 -0.05028789635577925 -0.21759801198832535 0.050484233060644965 -0.051956323850289116 -0.23666273004306482 -0.1285645516789071 ]
[ 0.01580114992552497 0.5736139833954081 -0.2851237863669746 -0.21132634120033286 0.3399599973737448 -0.17978697514552264 -0.1784865788594678 -0.18113874798387145 -0.01044089956450338 0.28857695483180007 -0.39836667997339426 -0.3657876248923493 -0.21147403246956678 -0.08711349485371883 0.293400945411932 -0.1484536702085187 -0.06441804275708704 0.3302349767390495 -0.054181840502393545 0.3852202944334687 ]
[ -0.2492794621859741 0.1773665454838989 -0.1434864684081514 0.01898799014128278 0.3489734637976932 0.011619126507174038 0.2465134427327925 -0.15863847012850954 0.07874628838083762 0.285129647930093 -0.13840890015087945 0.08764609216240885 -0.14559715759919784 -0.07162372009389023 0.022585247291339684 -0.3376145833087295 -0.054600554025694255 0.3464206070888763 -0.20284668522030477 0.25367452253655093 ]
[ 0.08533237022661042 0.1749870807350243 -0.23908837083774304 -0.039693773597753126 0.33203861607806207 0.2633809348017663 -0.10033577466658447 -0.24242086986501302 0.07216347540700534 -0.25643625290473 0.0984645866871012 -0.3287571302476013 0.20935843572864807 -0.14152821580885339 0.1701921800909592 -0.16576185914620079 -0.17742021766414648 0.47388284713019396 0.010509751410969059 0.17060979623949588 ]
[ -0.14591804461191227 -0.38547982507868855 -0.3271639154608433 0.11176187005231336 0.010848057062221554 -0.1852218382682149 0.30038004543877783 -0.3136000068897469 0.34722206327034993 -0.07329361348533074 0.2717501914157854 0.2348091970491766 -0.06133128902055351 -0.04681360216013762 0.07984610338400334 0.18862528278163504 -0.345318188383227 -0.1103173858972055 0.013357965647846833 0.14356891900290114 ]
[ 0.23198653224133098 0.06465988325523633 -0.20233946547294246 -0.1269799761063016 -0.0892338529215985 -0.2480107315231484 -0.05681241221778702 -0.015409699077910281 -0.05518290915103683 -0.0748257067698494 -0.13578462851418918 -0.024109409313518855 0.10993746349747861 -0.3754597994855169 -0.15717024584378844 0.02548015095551784 -0.23632168555535704 0.4784216970940853 -0.09444818847760296 0.38038904780303495 ]
[ 0.21590832004550312 -0.18274319205324474 -0.18339220660042002 -0.0758299449944222 -0.33460611961823683 0.21241591521577197 0.09374901333445669 0.0672805375552539 0.2734179106847764 -0.3347584698523644 -0.12738589348199775 0.19591982514631234 0.2241691246418892 -0.039464007467715174 -0.37621491113483213 0.0793589473554625 -0.1652557841422716 -0.021596452597517437 0.11834456447990314 0.05250433866653754 ]
[ -0.1891207928432543 -0.35555252013280936 -0.30851215828856987 -0.5012586982696583 -0.07970353642769719 -0.3139350296779455 -0.3418335672159824 -0.2696163849923437 0.3567708780405682 -0.02163136201419699 0.04788065703143069 0.2937176589039109 0.5906284263241806 -0.10195647364252101 0.1620268786026025 -0.4706373156160668 -0.274432419970411 0.03275794727703648 0.011018574659049419 -0.06632939959295527 ]
[ 0.13214917169505053 -0.005084637538169838 0.23561848644543695 -0.5357560556184005 -0.3396211297960079 0.27435233085287636 -0.2069933067968487 0.4990192633842794 0.37202316974729815 0.20438821648532707 0.31295886274264034 -0.08491086959611191 0.05069292174456034 0.17048725424539649 -0.5038324240785658 0.3089329676543646 -0.4317857203135132 0.3299349910594634 0.1019558602254867 -0.3046316207081605 ]
[ -0.0960331813371627 -0.03227100939535155 -0.30590248118436114 0.37338040887803936 0.502083849126396 -0.18368883979265527 0.47253391617929974 0.01662948116749797 0.4647417811858609 -0.2863434470508573 0.17420769759586638 -0.23375460840095622 -0.36809310718806515 0.09554626198219751 0.26568363166814846 -0.028958327224706454 0.14369523790494076 0.3923862019144185 0.49746525901012356 -0.043607154483872215 ]
[ 0.11630780580564899 0.036344235802921857 0.1683064180203028 0.03465552964994953 -0.21600976166166305 -0.16164203012936437 -0.06304240638292155 0.08381559229140446 -0.12607991891563766 -0.21333775791320206 -0.35894155306200914 -0.012232061871117854 0.30851739637767767 0.22063836343364132 -0.2567247984982595 0.15465827495106238 -0.06444363719883642 -0.28187217839601825 -0.1046065383813903 0.11733772149239213 ]
[ 0.000231748299722272 -0.17575063666189825 0.15974237964881333 0.12075187247378283 0.15162966944204526 0.2231745310283913 -0.26046315473766357 0.43550246054047537 -0.2237525629658444 0.05342090645591074 0.019890624243988422 -0.11930964868573285 -0.29232588159099915 -0.20305858144596528 -0.18040448172284396 -0.13907225962458167 -0.11778569258480132 -0.08616334607052106 0.2449201938584421 0.14159758661051852 ]
[ -0.33689660163843643 0.4918653591675306 -0.015507878060234325 -0.007632475866359852 0.19826258664899485 -0.1943851930481273 -0.018645950907957287 0.1312577173885578 -0.2747591086427246 0.05472655929734845 -0.21145265603007685 -0.3541432700956519 -0.11610612552595322 -0.17147514163995298 0.2643472311878691 0.26804782239104796 -0.02438397319616065 0.07730782892540015 0.15695333909949633 0.20391830086117746 ]
[ 0.13600587147052795 0.1191186004846687 0.11423572483113448 0.1564642848509971 -0.13052071087635458 -0.2596605213963194 0.06570573177288631 0.05632556437096993 -0.24268460742789874 -0.06528387905377005 0.30808340511174165 0.05989262462261466 -0.06556867511626636 0.1328877683817893 0.39261871679760013 0.3000770310331409 -0.18694481799205298 -0.28753677845805947 0.07118193685835945 -0.11727856214297852 ]
[ -0.284653433308054 0.04652803736988172 0.22065086797961023 0.14246128834615254 -0.05255212420452427 0.03410661269330178 0.04600140292799524 -0.23765508498579896 -0.10255714327238984 -0.255472332894952 0.3190333403891023 0.115473271329726 -0.40900926702037754 0.06299616627182161 0.15189868512858226 0.3808930917051705 0.3093748608772346 -0.183852371689764 -0.42845815949578053 0.39722109085035956 ]
[ -0.0677896756576925 0.20463060358985952 -0.3513360125400619 0.19505079755809432 -0.27747694003246387 0.32169760240096673 -0.05972013029720855 -0.13048252375275798 -0.13024205262955382 -0.0744681316382978 0.2247218684700681 0.260032364079978 -0.1958470455749696 0.1436454690336354 -0.023926689508170014 -0.014817700088037315 0.2438636141538958 -0.3175090837973796 -0.4396418076124471 0.4138600542543568 ]
[ 0.17191460100201406 -0.118293611364925 -0.1653704011663219 0.12902517558921076 -0.0452417981195708 -0.14698807673328412 0.008709476862540987 0.020676331849991233 -0.12982509157796024 0.21977714998859474 0.14178267817322135 0.13938411362945563 -0.2009051284684902 -0.0989355865306916 -0.12999992593630344 0.33385547802689935 0.11692313202127078 0.049524505203673 0.07032626080714571 0.13994657363264248 ]
[ 0.1917178061023679 -0.16677319306193905 -0.27830460408306007 -0.21192071405047463 0.0441027144138411 0.08387542042402076 0.21166498619810187 0.38025434210313236 0.3030910884117136 -0.24541890942836725 -0.21709985190824163 -0.3174523386591721 0.25126797313947724 0.07224309571996569 -0.17442769690599202 -0.11705803957134824 -0.3350566753766579 -0.20227194745027466 0.4900789436053314 -0.02949921034088511 ]
[ -0.08043043916033499 -0.09878860420752456 0.34675669118045016 0.45317789712409834 0.3044144460156197 -0.11636091323652685 0.34523455916158063 0.28461687908988875 -0.38172108970120994 -0.3510797290224069 0.1318050848126063 -0.015485486845756293 -0.2386235255832394 0.06100645635673789 -0.24360474266661805 0.21215453241813542 0.3955882791999035 -0.14757547797204285 -0.019324490257167468 -0.031367782208603354 ]
[ 0.002212232404002615 -0.3254864379563846 -0.3775060231312075 -0.3626739650107307 0.28185660839778903 0.4718718043987239 -0.181602506295349 0.43058856403452256 0.3077080450537254 -0.08634163280807688 -0.2995318707368938 0.17105238381825608 0.1776275381790176 -0.061491044748096704 -0.18685791888122483 -0.37224233083905195 -0.07652276661048614 0.16632883052027764 0.17689780457667717 -0.41717745344701807 ]
[ 0.2517496519713393 0.2650677924367658 -0.08879743737860397 -0.06947685573985903 -0.16881881028593854 0.10108330135926918 0.02561716274654422 -0.02506475261467763 0.14985696031190435 -0.28105007681182137 -0.2642906283008134 -0.12520954925559472 -0.15223641765592213 -0.2327066180101683 0.1599477180079118 0.11746179687561058 0.1524628714728668 -0.08625399124983188 -0.13559564794554263 0.10444071109188095 ]
[ 0.05145414647114983 0.0406294504209694 0.2315367621378633 -0.03460768339732519 -0.020200326183544958 0.13381750871089734 -0.03793689394126858 0.19949389993727842 -0.5155556391853826 0.12212474374273989 0.1590902786162377 -0.32618178540819226 -0.24404176579137374 -0.10449396130686148 0.14212191424498286 0.1308369183114058 0.21084408737452925 0.03979384065471645 -0.3749884932931123 0.042439583092476876 ]
[ 0.163570820792082 0.007124633744171084 -0.2978834758075336 0.37281958457480435 0.07245996332358051 0.08650337677657537 -0.21230423022439607 0.07318648736808778 -0.3679803268114794 0.32720775296033194 -0.05407595160200652 0.049239971623606174 -0.2667966613330769 0.16559818230899578 0.01888785240998186 0.2641743103573274 0.3235844743261317 0.17038184836505005 -0.052103545592562604 0.10807646668267158 ]
[ -0.10201318602211018 -0.2951646118265645 -0.05985627599869879 -0.5704890973366489 0.14763349397515294 0.17618780902528888 -0.2679615312190597 -0.22151668214387407 -0.15069058629774082 0.24819513354558304 0.32251512777117824 0.09678238191029775 -0.14735665363054282 0.11547536812263169 0.16748435885917892 -0.11342802567625429 -0.4901865615105677 0.16328849276218493 0.3675967409717889 0.16856347500579671 ]
[ 0.00122795044011523 0.17304220210003357 -0.022939020163975966 0.30128506101113767 0.034170111160671056 -0.10391279738725243 0.008166733898555038 -0.12382076636310158 -0.1426378159495534 0.02014877270218142 -0.03721346196348515 0.015025867041773056 -0.005564032406190527 0.015496845499143316 0.112560572849434 -0.013999733198951751 0.2036559958585206 -0.03265923761807933 -0.134215564566366 0.19263304207257437 ]
layer 5 Activation
tanh
layer 6 Dense
20 1
[ -0.0018821028019477663 ]
[ 0.0161884125031517 ]
[ -0.2916317523652097 ]
[ -0.49953970162565503 ]
[ -0.033189148225882495 ]
[ -0.1784883619707293 ]
[ -0.2716149785935713 ]
[ -0.2698517285861145 ]
[ -0.1833281045383333 ]
[ 0.027836885417742156 ]
[ -0.017175746105836585 ]
[ 0.047968847994731875 ]
[ 0.13374012186904521 ]
[ 0.014336160115374202 ]
[ 0.2194015336194427 ]
[ -0.10829246641194643 ]
[ -0.4403857036761555 ]
[ -0.1469580951638358 ]
[ -0.33014096374155993 ]
[ 0.1252443121560141 ]
[ 0.16372346607760713 ]
