layers 7
layer 0 Dense
20 20
[ -0.7618673455582112 -0.46278285735485475 -0.24314398384388083 -0.5323842340864707 1.2490245286661759 -0.43329735442536044 0.011825203732673352 0.2090529224469661 -0.33527301140658283 -0.1312095738762743 -0.2348221983269788 0.4862220049714352 0.17012146364080474 0.6530350561631296 0.2693061705813582 0.06626717743332289 -0.18687602427115435 0.035099737807090664 0.44112695941943286 -0.4725418585334881 ]
[ 0.26850264400711177 0.005701133649721097 -0.24725769084365734 -0.20996523404626027 -0.02194621180987446 0.32247705844372154 -0.05892041786996637 0.03970367779355457 -0.3858776185925104 -0.08064245260812998 -0.1330261748206818 0.05636641972203551 -0.16296993563072748 -0.12093733880934245 -0.24910055213567614 -0.2718915732633621 -0.37009154238880515 -0.32639060763512273 -0.09168564711067768 0.31007920982537135 ]
[ 0.25278389201576906 -0.10420748364153301 0.08479850138749724 -0.12334221401834283 0.2094131252505622 0.15404979880469621 0.00865173668779969 -8.961796190983495e-05 -0.21071070014146173 -0.30825087432146236 -0.31615179658517967 -0.36524775569538565 -0.10863510103859318 -0.23721809661985388 0.13944052869153872 0.3755553946981535 -0.06384976058553521 0.2630940489532804 0.31062974529521303 -0.3444650831829268 ]
[ -0.4926118887694828 0.20740000646376827 -0.39251961230927473 -0.4996731776871717 0.9065270293254186 0.17221842422361602 -0.21634773105736224 -0.4572013391134912 -0.17779543853743388 0.016081778669256717 -0.6186411121025088 -0.31822160381725334 0.34859610032235777 0.37791616096314057 0.155572815134659 -0.0987312675734516 -0.5501604503401277 -0.42300121186103934 -0.07385821860716119 -0.2951152711526783 ]
[ 0.3910800198384018 -0.7961166108980855 0.04666267078708113 -0.7390679065072278 -0.04584657081991884 0.040162534972837734 0.5999940638324587 -0.012209047799128616 -0.7534262131805134 -0.5297926210566427 0.18097804800469433 0.21427308851707014 0.9598316704097835 -0.04347940299648918 0.3436273312094508 0.6094975830935838 -0.02889751840474188 0.5568167209567518 -0.7699710096782136 -0.4834230516269723 ]
[ -0.09125378280127419 -0.045598227024716796 0.3181198648497986 -0.08280132637490813 -0.24912705697001553 -0.1493784320196965 0.2400947190294825 0.282123607282546 -0.279281770195828 -0.08424581435394958 0.13129720468199052 0.10106887288599872 0.0012797284198029595 -0.29936688291877994 0.2804505418509645 0.29763717616915075 -0.0659072879682762 -0.0460120369984241 -0.1473942757409411 -0.11315195066477399 ]
[ 0.12718748032281305 0.2692224531880351 -0.2935502316529508 -0.24235020419597877 0.21731555080717976 -0.1444283196186992 0.3472154073061287 -0.32575207702574294 -0.10439956209746516 -0.24168642091692383 0.09028679749557918 0.27652268363419574 -0.14427364063195272 -0.14354484396884246 0.06996630100591819 -0.31294826678338644 -0.27147542856173895 0.2407108006838458 0.1384452150626606 0.21719139388278513 ]
[ -0.26233843900929127 -0.022592495182582304 0.3546109429772892 0.5784184472474638 -0.5423619508791354 -0.6268915952091414 -0.07739646974124768 0.349162392465961 1.0726790423731665 0.6741578994729408 0.8870479993503368 -0.09655414441206109 -0.8928575730207828 0.3996107418156558 -0.638613425181844 -0.6088394968517903 0.8798557173625503 0.06409031014251197 0.9855136444411527 0.3209025462475175 ]
[ 0.7858354915309569 0.18326934124053834 0.1907286994338201 0.019869180922611397 0.6809127410168243 0.1205462286382672 0.6401877287545151 0.4411928418950315 0.5892703242783135 0.20360613642928377 0.8367895417838334 0.30137600080059024 0.21659583335851135 0.6930374690980464 0.48024840230393556 -0.24599724677212992 -0.3923695610092844 0.6293498083781044 0.3220745088916717 -0.42937470581168696 ]
[ 0.3135755499052332 0.052122395972340106 -0.9705638110324806 0.48607455177228515 -0.2534946809736466 0.613249049674332 1.3573180316553255 0.07121632393078979 -0.33578730505973475 -0.3102286856151992 -0.7227512707357266 2.902327907717949 -1.2328593340436136 -0.9869819627802525 0.18716683110983282 0.9998132538949407 -0.7415837229620539 -1.650603599490518 0.18745518626439614 -0.6300220962319231 ]
[ -0.3988753057368677 -0.5668893965539905 1.787137511151719 -0.14421611132992432 -0.7502130732669512 0.6994943804810805 0.06712597312879989 1.145384603695778 1.5940050795522192 1.2739108525598366 -1.354802320678441 0.4764664213109014 -0.19425247277937063 0.8356244931858724 0.49186255405149054 -0.8724157476276062 -0.5805606756331452 -1.381233392583631 -0.4468125679678629 0.17878096158404527 ]
[ 1.8008180427040141 -0.40491677659813285 -0.4917666116288215 0.4021024498776999 1.954452775140061 1.321502431747521 -0.4559405842034005 -0.4731909568959273 -0.6112350745001597 0.5922303890213361 0.2271370098618686 0.05304823615742795 -0.0985241137955064 1.8153488860979548 2.1591727822462374 -0.7177943708885173 -0.47778316159614503 -0.23493665954109533 0.599306351134663 0.020957259925018807 ]
[ -1.6488506225792114 1.0311233952850407 -0.5833714926844772 -0.7758454240453174 -1.1491688678034415 -0.7130046007292973 -0.23849606767998077 -1.3508386862599937 -1.0225093643999719 -0.7438231060083047 -1.1974921833092294 0.6791451069929807 0.6617263643742184 0.8739983565302062 -0.8636899559452047 0.7343086239526198 -0.15828011833380998 -0.3714133403421917 -2.0843509336477872 -0.2514481817686939 ]
[ -0.17026073110073994 0.02348927874893201 0.6434782694174378 -0.026307894131483878 -0.24314808495031662 0.31719146460008907 0.950083284985783 -0.07102733969538831 -0.19243780446075112 0.5585882374752583 0.013411621260171541 -1.376912451529023 0.6003990626549972 0.5982317300155887 -0.14627257899594479 0.2548761860408036 -0.31418009883684334 0.2684655164995005 0.08967682329390973 -0.3899771826384364 ]
[ -0.026783671967893986 -0.33660134798062347 -0.4415070817488398 -0.05819883291841553 0.06011895931788743 0.48984996767898903 -0.3296264057466146 0.24416537493321197 -0.1951456469087129 -0.009570424758948263 -0.07244170602379088 -0.40914581206554607 0.13104639105758145 -0.13159863728920113 0.055551132242635824 0.44184183016093637 0.014386135922069306 0.34030031409009537 0.5471353769511728 0.1207875578084221 ]
[ 0.740455813103827 -1.481956661605937 1.2733746514530375 2.172588454155188 -1.3855284228399714 0.6928328331270293 -0.10839495273937891 0.48667920141459603 0.8096479650601024 -0.23119523232864464 1.8719848838787994 0.18928313865971688 -0.812374345815419 0.9331228257004671 -0.8262056833692525 -0.4370006369488343 1.5247365508998265 0.09368122283541204 -1.041915048941658 1.5779313834761393 ]
[ 0.16730793716539477 -1.0667936664646918 0.5266475423711445 0.5758368442336256 0.5302504899023527 -0.5470039002116445 0.37258345079863786 1.0472641552723256 -0.41188426442582937 -0.34404264572528714 0.29789067398038926 0.583074078603022 0.37402892686342265 -0.5304270453238569 -0.2987771589107684 -0.5402154349614181 0.03596389558494716 0.23638158507242799 0.23586157072996738 0.2163745442139833 ]
[ -0.733282021888601 -0.264708808831511 0.1697025011893366 -1.4952077339385124 0.11779703148792446 -1.7447511805945333 -3.203660846507645 -0.31107630298799155 0.2105583955830684 -0.05167781131231703 0.9836880747121504 -1.0988584060429154 1.2506170734946138 0.7190555788994922 -0.7194359411903923 -1.446105288161894 1.1833450458893304 0.9599851289070633 0.7069308880779102 2.448027744079529 ]
[ 0.4857382280224306 1.1746576381963691 -1.4344726577171751 0.7113947874299535 -0.18807622250586606 -1.5358573301525682 0.42893016868269435 -1.3645094440851695 -0.9239273600180773 -1.1838641569519666 1.511344428576249 0.20179855804748337 -0.30528769416827906 -0.33956970268876857 0.5555484141051172 0.41414231697328435 1.314220707218068 1.3827207800702617 -0.19480431214404084 -0.18949967226572828 ]
[ -2.791699239137719 2.468863218461434 -0.5045949394301763 -1.9015013690839753 0.5317464978483005 -2.0318382781741597 1.0253278377962622 1.0670955657238521 0.8459878654882745 0.5453893258424629 -0.32029868338634787 0.043299575052419825 -0.9478963015439826 -0.06298619016746038 -1.9145921013649352 -0.3719266882375872 -0.071598658963015 -0.304805636567233 2.5505728125569407 -2.035808679865674 ]
[ -0.05980336810749915 0.1395211276820886 0.03893859575871276 -0.20123095766234472 0.35322919399866687 0.24165407919651472 -0.05762044371771768 -0.22289932817477992 -0.14889942833645584 -0.03266555486561723 -0.23467131096339006 -0.18673397666234268 0.2310606949143165 -0.1958272081475247 0.22706511126598097 0.1447920237752431 -0.1810893370086864 -0.17194710398708496 -0.06723315665080207 0.038091790790836695 ]
layer 1 Activation
tanh
layer 2 Dense
20 40
[ 0.22425312760447547 0.4264098396033825 -0.21540701128265813 -0.07315735995320545 0.05431283607340981 -0.01416421129787295 -0.013519022804052512 0.23365618559337178 -0.055510241414617446 0.29502543889355926 0.08169954053992047 -0.19098063400360699 0.8637530053792519 0.5788954986645738 -0.2866982612114994 -0.22432917006296918 0.5812469239431854 0.0801414506133228 0.08478857462203808 0.5135285070562317 0.38156858887247685 -0.1646053884199977 0.42051033879046407 0.2664422708265132 0.0804077992549839 -0.9710516318876278 -1.0784129978192274 -0.6147068457735877 0.0870725574281308 0.012769691070484812 -0.25816161219633915 0.28214691923527896 -1.0234266108875643 1.2504700387214496 0.11205867074170912 -0.9763265378744516 0.584259268204851 0.24598926069484353 0.1051467922158666 -0.017255852770946108 ]
[ -0.4870106457892946 -0.5248410386885699 0.6432097760762794 1.5155042120640074 -1.028318404183661 -0.14935022431845213 -0.8576185084163815 -0.05467162462849061 -0.2165075274003998 -0.4455408345448843 -0.35172565271061973 -0.16737763632143124 -0.2905069233724316 -0.462821692058328 -0.7773709887110889 -0.05873227407431979 -1.276756936746763 0.1685601329733116 0.41235928997349924 0.18211764887765153 -0.955486080591451 0.3401438977092301 -0.3451745569719379 0.06669530931268679 0.8742328825044374 -0.020303043429807675 1.3450562922167197 0.9035468568395741 -0.0821040047181111 0.5919890871142649 -0.558138918133339 -0.8951903270391374 -0.34074644802156623 -0.6110994433655136 -0.02508273262088554 -0.06988602893261914 -1.0268070350896508 -0.042851514811919775 0.32379311770791863 0.08673183059149858 ]
[ 0.1625310380343594 0.012757170812716651 -0.5600717457955156 -1.0418039489881104 0.20811568897321076 0.4448653173234183 -0.6102448314749666 0.4862194795230541 0.9531061632803236 -0.3712450187375636 -0.1439864998441852 0.2645523061658049 -0.27720398603703966 -0.17617264296291882 0.17392460594672424 -0.20014849868014936 0.40143006123785924 -0.359466220795629 -0.8659811164308534 -1.3190216574870735 0.3857382207818836 0.3620726725059137 0.21954405434749363 -0.13572262791939171 -0.2767330682038924 0.6776914788693074 -0.52169629452397 -0.5088255035254241 0.12772977038070144 -0.33209863443281434 -0.17882322042711213 0.3614596960840447 0.24303037670830072 0.15553895238209614 0.7066547002271802 0.22305649145909973 0.31882581508785235 -0.25389128277916506 0.2719705925795663 -0.026305602674445906 ]
[ 0.9484172442041977 0.17161167320167092 -0.07589347649371923 0.8511053398467092 0.7146831478499736 0.27507805630472193 0.0166268385906844 -0.05470967764108905 -0.4545353556590464 -0.5210716497220877 0.8326458830958572 -0.5813144262145761 0.2168241933361381 -0.23781490434629296 -0.05543998293795538 0.42136624702023967 0.4700834071972107 0.08565438577058551 0.410484063535541 -0.06160898484506367 0.7081518134209088 0.5685069504984608 0.954819543557906 -0.03350754583217001 0.12728192656752546 -1.2781359188063899 -1.063426131352057 -0.08486567611960903 -0.36098291381217296 0.2901687680197512 0.45163473229378187 0.46766871921017433 -0.731528888418183 0.21804148008741397 0.15856894988452888 -0.4795916709009792 -0.019555075325555147 0.059964807927326516 -0.6142911509424835 0.3116253000070761 ]
[ -0.4095530733963357 -0.015108999553100813 1.0659951663555196 0.17531318373046145 0.14874609392299767 -0.6247293458637645 -0.08652778058950641 0.7123204340984738 0.06122338287019546 0.9955707477456123 -1.7616219541230325 -0.2762306125368619 -1.0985920871140715 0.24932943469994137 -0.6241878072926994 -0.25487125108731606 -0.7721127292332903 -0.06556098392864114 0.2868319958691018 0.5166210439354275 -0.6062552571176271 0.3606395117741037 0.4149394769941774 0.3201574195891773 0.33050373360863233 0.33036280321527817 -0.22059393224707496 -1.1247681720318166 0.324809604511951 0.6133452898626693 0.10902033503484151 0.05354547236886743 -0.23105890782369173 0.1411061506676042 -0.031093045591607037 -0.018862360521874698 0.2701823068408332 -0.1650851143659026 0.41330677613793054 -0.05625720524295523 ]
[ 0.8307365783094333 0.07712330588900826 -0.6299278089329605 0.09837868232552568 0.9112355225800476 -0.3916253373429102 -0.20298372540680462 0.5599640950223139 -0.5690995554021457 -0.0878526274111939 -0.7305684402652238 -0.11501190982083878 -0.782322006492287 0.47883643439839507 0.2566174869581223 -0.8104229028527573 2.2705618910152294 0.091953658287001 0.10440252400708891 0.08841591655922806 1.1341190045793046 0.5305129959307806 -0.4955461438941086 0.2880275312014683 -0.10496727957320633 -0.7587946434286649 -1.3051495476257793 0.8438814056181833 0.09863650245524115 0.1490033437993304 0.09357661076048784 -0.4272293965512686 -0.6356084061089444 0.14179104223341016 0.12875217455423865 -0.3748868524774753 -0.6587632663872365 0.4969298486474213 -0.20067226409208183 -0.21498507923374158 ]
[ -0.39641660792577443 -0.47015039815504084 0.08098426892408363 0.1855781414611472 0.1254563943277735 -0.46172822518014855 -0.1731572300725568 0.431385341142499 -0.4743680935387988 -0.08798972897586899 -0.4761904148202205 -0.012487110458038929 -0.19024486868224652 -0.21712929155177021 -0.6857302033007092 -0.592719497389701 -0.03433582622352709 0.7665273743922247 -0.15375953889837446 -0.533789344968666 0.1368120207233954 1.2840396989277796 1.2370228655561493 -0.2099375085149365 0.30017674908876724 -0.3530470568939556 -1.0334582174528175 0.8424191085920322 0.22875480767787926 0.07933818779468935 -0.45890178791246966 -0.36617944353735454 -0.1635631726826153 0.01156561311217095 0.3370141461183064 -0.8676035899312279 -0.9329767492261929 -0.6697558679477935 -0.9615710155669007 0.0822166571269793 ]
[ 0.1404997992676942 0.48629290484115834 -0.2698196117490276 -0.9705001887903281 0.3165466353008334 0.022839421190645654 -0.0009827085743180563 0.23839740408858043 0.9571216439410407 -0.20427759657555525 -0.09444531828460363 0.03949338041009985 -0.1293487612002239 0.5395100937935692 -0.31505296033987895 -0.07283999688556256 0.18259622460458405 0.0037711836471429074 -1.2495665926736792 -0.41478985338915253 0.5134592856117294 1.2166689455990678 -0.12431038142080714 -0.33016930789991084 -0.15039480115007048 0.06366096998343086 -0.2753485172236216 -0.1559624677922078 -0.4269565747263236 -0.01371937796860263 0.3854943117234386 0.3141321785221245 -0.8019430581523981 0.6363606712718114 -0.04608699337284949 -0.4963429032449088 0.9009394915144451 -0.43086472556580835 -0.13181250942429182 -0.236967045620917 ]
[ 0.3243948618089412 0.15507830957593832 -0.48380634691639707 -0.8363856669578688 -0.05857882917147891 0.27178458166377856 -0.6007757351715689 0.19152966054750054 0.238882156718645 -0.789637922964155 0.11060428611607286 0.08094655140386436 -0.11643918936503303 0.4605447700646243 0.3938998318787855 -0.1362201706164568 -0.15458289970034397 -0.5048585632861525 -1.3980954188728498 -1.2096466709576361 -0.04666689614175111 0.21205234853483476 -0.9066218628498779 -0.22204964934830942 0.4622005487574672 0.49648575854867716 0.32307908227840526 0.6804759120149778 -0.21330809446948287 0.08194315371029706 0.34469825588885644 -0.06543495734545915 -0.6678465385501243 0.09802591172777789 0.8997958148573122 0.4402389717087436 0.18772162079631394 -0.6427181335634801 0.7573399157913403 0.09644174582307218 ]
[ 0.40583385925598103 -0.6717739760541909 -0.7983770956068914 -0.370843388265849 0.3233548980481885 0.0716329351420708 -0.2458731109420101 0.1353066948735766 -0.04701340677662677 -0.8232368777198673 -0.6734609358372665 0.3762556960167887 0.1748088279176303 0.1037661601976028 0.14020793140999027 -1.1542197464317296 0.0893480287577797 -0.35110024222082603 -0.7208486141878683 -0.8705588545869711 -0.49248884797562803 -0.44609234267502135 -0.9468876740400178 -0.24513187194751673 -0.1699948569800181 -0.10154999896352353 -0.3945499879406547 -0.04165378732607135 -0.1646054984078078 0.01352971070874253 -0.5218494894202557 -0.09099662550955921 -0.5699085335985877 0.67261888758902 0.5819008678969136 0.03427440590262165 -0.24836827118447913 -0.20433639942704457 -0.2556629324172037 0.12202222553520521 ]
[ -0.5112301713094073 -0.08303310459078395 0.15835031847240333 0.10795714795473543 -0.13543373442876147 0.4766996766684643 -0.0737227039064157 -0.1702947595518152 0.7846270769173121 0.31776460009441765 -0.15138265588275365 -0.13926608736917392 0.8829684210970973 -0.09801252342624438 -0.32152759647219276 0.3746866646389051 -1.2862644831786534 -0.5176451890528301 -0.3008853836074986 0.035777226931720425 -0.38096622257297424 0.8825930864896352 0.38220625568253785 -0.1814171384808007 -0.6462323924304257 -0.13370258587574502 -0.4221392767659392 -0.36989640374938726 -0.22642242118791248 -0.42878656883107163 0.5153953734976853 -0.16026362481371662 0.18277869333518346 -0.37878519462982035 -0.33125790454717424 -0.24478080769308797 0.9001034112447122 0.6748471951047685 0.3216839899529606 0.06079054705657469 ]
[ -0.1362030467609049 0.0049421498175575935 1.273555941261112 -0.5276085371106758 -0.9876673493363243 -0.5375470722447208 -0.23748831092940065 0.41954616665271827 -0.6844261016702634 1.0686207368067904 -0.3977808305507383 0.06740508535563876 -0.5196468085095011 0.016768405240193573 -0.8814423481706556 -0.07787426081388503 -1.0753752289445206 0.5230181532690515 -0.08704568733484751 -0.1519219615373727 -0.1689414085321046 0.14701946971507004 1.1427244941434669 -0.13520196178285374 0.7478404251822444 0.7778576021516005 -0.9941923706897431 -0.5203445658687799 0.19280282980069413 -0.3341194696255412 -0.38695564642334856 -0.15135055681565315 -0.44781532328759427 0.09145394888587735 0.23041169895108593 -0.9131168152115773 -0.622967494168569 -0.8803276305666118 -0.004579821245221716 -0.21943726706385366 ]
[ -0.590503405528862 0.2744901266248377 -0.27077252058482626 -0.30625415409821716 0.7309182848010016 0.574895764631624 0.3199001115625386 0.49545689050820396 -0.11439157076411698 -0.6693358997140485 -0.4344624387487989 0.26471591596122956 0.3010174207379029 -0.13387489117525794 0.392765947132046 -0.25534406579543606 0.34210906039111794 0.4000336618053001 0.6485363649186813 -0.047577908915428645 0.15878028069827432 -1.392906732209958 0.6657338488278083 0.19338120543341622 0.21284856353188816 -0.4507491829846912 0.016050100062269753 -1.1877842646485957 0.33172920825036833 -0.38429462612565235 0.21545293869302365 0.8441636633881604 0.8149105419270402 0.07764626972470802 0.4402158800735065 0.6398068392004294 0.3250950793756377 -0.5415322967956712 0.2577037554391748 -0.07956157180564295 ]
[ 0.7284973964914865 -0.5611441579612003 0.35048069390925757 -0.6455878553958299 0.1281156074819304 0.39238777466611857 0.6375546334134088 0.37714208068719984 -0.0025706022266038324 -0.3168830505508796 -0.2635792937984555 -0.15282182727339336 -0.31252006304329244 -0.3262043621720699 1.2772715228221672 -0.1921425172683648 0.35475249133129505 -0.7827264286692474 0.40078918173470607 -0.60873769377391 0.6718859858704839 -0.8656213583331223 0.37802157831511085 -0.022643696771019947 -0.013925365073215873 -0.25837377341253304 0.10376313294417455 -0.5353605064440278 0.09934289539766854 -0.15115583676314334 0.49941331601429084 0.8091500657855584 -0.12291156162282627 -0.022344851944150257 0.9264486445983375 0.3631937913079428 0.7031240401490024 -0.4092195611221023 0.22122161896443718 0.14863027652109448 ]
[ 0.758196195342068 0.29614522997070614 -0.312831398712839 0.27771757837499866 0.19981957424178381 0.009541461484188806 -0.6756237609852945 0.5786185218802883 0.06641789459042888 0.29545043442898816 -0.6461537331145595 0.24062050395685133 -0.33200204994105753 0.4117317907537344 0.2517379443214257 -0.005536308584227188 -0.19998810192311658 -0.5986143220375522 1.0404640786924395 0.351974258669862 -0.2441466626426454 -1.0717091535986196 0.8265914561289179 0.12240699157587091 0.2443191478593317 -0.10683638982216616 -0.4145381204164534 -0.04554483267833743 0.26318700896932223 0.054988375814286596 0.178053353969603 -0.6222922446738258 -0.36980605560593927 0.11918395388161757 0.8121651525229926 -0.3037086186183684 0.34015689624740847 -0.009792421916821748 0.07178154100965034 -0.18061424416671992 ]
[ -0.4263895366812563 -0.3782257260979872 -0.10900164099290434 0.4744028473335885 -0.41159304046170203 -0.45259477924828395 -0.25325930037291133 0.600989249544036 -0.4777434334687376 0.3120680180473434 0.13346486859501105 -0.5480471735504412 -0.1255918465183922 -0.23896158004036208 -0.6344680559415875 0.4281785538666505 1.0125702571997754 0.45904021652026983 0.3980969852438434 0.7299852288095708 0.1267092206767341 0.8306781119479758 0.5452830507344247 0.2406971463789809 0.0629311361902818 -0.6527900507927475 -0.4027538827399231 0.5545298375847922 0.0023889193827545067 0.028836769832113814 -0.09904676598874408 -0.2713659120573347 0.10775264318882924 -1.040553314729573 -0.4573136266146538 -0.8029078892547626 -0.5867350896683778 0.757181711387815 -0.9247234006530335 0.14261512319582095 ]
[ 0.07131363481851359 0.03920026916759316 0.1621024550627597 0.16205856105062805 -0.37230522494894663 0.6909323172658224 0.153894174082437 -0.69434346896803 0.05143016394843162 0.24582043762455244 0.9579881435061378 0.21662735130544347 0.7991514206758826 -0.24012043140004363 0.33841638573688654 0.5569203280247339 -0.8286706036056825 -0.22448130259595292 -0.08438406298111321 0.2619679872830877 -0.25330603234652194 0.1597167692965192 0.18121316605489854 0.1962581869347113 -0.06276810652702544 0.17190257395675723 0.3214875040939751 -0.3211537716237679 -0.2075111831714999 -0.15027759805900767 0.005699189358342493 0.30492849874857525 0.23850605902960081 -0.23952663099510402 -0.21927438781613506 0.4350455226914096 0.27278682024750567 0.7573511849390105 0.3705075420780981 -0.12388587782224106 ]
[ -0.8580280824326364 -0.5195274023565416 0.4827852790060733 0.31244633933014876 -0.3423949055508664 0.40444787410499383 0.015311318863308044 -0.2298827768324577 1.0768875665957938 0.7766339593585627 -0.13894530929358076 -0.1235093747587929 0.42326656639956495 -0.5807385882894921 -0.028717361968483686 -0.09610246843969472 -1.305052987923459 -0.5012064066659 -0.791064521015514 -0.2617822933541573 -0.5195830971491788 0.01837507708927348 0.3257312131048567 0.15293395314573008 -0.459367644465889 0.03605865716349263 -0.6526534811104553 -0.7479551755104743 -0.07877783844213669 0.36667831661439176 0.21893310084956757 0.4093785082909413 0.3128053034944367 -0.6028126766138594 0.26619704716195264 -0.17977439602375894 0.39546262373831015 0.72919976213683 0.0934277667205156 0.17948541956272185 ]
[ -0.12489416548300641 -0.5611127397572762 0.49790564329676745 -0.03509480449577952 0.1945460192712305 0.29618291074077013 -0.7380570313894691 0.5149878079073608 0.1986525166055372 0.5722729290791313 -0.8777088934520954 -0.2164456013928872 0.6034529340281958 0.1133445183359747 -0.6409124458954876 -0.6397479015072808 -0.792837639017725 -0.4499476000243166 -0.4105647274253778 0.676619322399174 -0.45493292260578627 0.526604248523636 -0.4747597732804562 -0.18703355753416925 -0.21152650596775757 -0.246638277108277 0.38728333109582913 0.5126318387300585 0.16756222904176796 0.13162094665564927 -0.31147730050020034 -0.4395401881058596 -1.191967346848064 0.7504100919000759 0.080670228453247 0.15051482711487982 0.12445989443942339 0.03261046127727222 -0.044554078143647605 -0.10799257873058496 ]
[ -0.08087332386556703 0.29263250609829333 0.20459354148284525 -1.3367300951825063 0.21283315318080592 0.028282484861283336 0.04539709667147318 -0.5906990128171833 0.5734800678041412 0.3562384546451262 0.5144191688495867 -0.020506036029102715 -0.40761813815125486 -0.041740016899627634 0.19094838624546104 0.30744506715136555 -0.045858983760126155 -0.587576623064944 -0.2781610587994883 -0.052543861975819325 0.057193101628439276 -1.0368892057975323 -0.09743036001576884 0.25145073045811517 -0.6659824878414481 0.3318000826334882 0.08984892642110347 -0.8950556008586237 -0.010458778835909814 0.2605194069793288 -0.25033185860641255 0.735072809066679 0.43002283740731 -0.454524320701466 -0.3202133003158882 0.5323838207323145 0.43555436341323256 0.7851584570716168 0.5778771533264946 0.21020503027485365 ]
[ 0.12689992241572995 -0.024499431199777887 -0.19304324651053298 0.30734029805568674 0.2711721124437642 -0.3183853417767013 -0.6629005723186052 0.07315321703177413 -0.2620295446059188 0.02465442875835699 -0.44677004190246944 0.08363880083505994 -0.10560145685420518 0.02237835654525056 0.11345814278091572 0.35416856929452106 0.47857585304094075 -0.11325233147399433 0.7309905317849692 0.035974400538222526 0.28489685065419723 0.10786272896329084 0.01668050672033251 0.12993334599162706 0.05399427844222898 0.15070118137200358 0.05952170502033517 -0.029750186180829807 0.33276693077498143 0.3054943655104683 0.11505356030742406 0.1762434902232075 0.14461909477905596 -0.003045379240567761 0.21035628956921829 0.14662543164753233 -0.15149523930687256 0.07360257620634658 0.056118704249675105 -0.022513889709793716 ]
layer 3 Activation
tanh
layer 4 Dense
40 20
[ -0.3564289672652597 -0.010127756550623581 0.2395272112809702 0.16597196490064065 0.6871486037492326 0.5796181252785058 -0.1656962399126366 0.20278119107165057 -0.27447741231543654 0.17175729670072448 0.41488256175961824 0.3428146515778511 -0.3267362280026676 -0.13766925261743349 -0.28821398307589624 -0.28843266041031884 -0.5466921108732085 -0.018900951766386585 -0.4425722953787049 0.4197427017032817 ]
[ -0.16105545830364335 0.16022056723029696 -0.10194698449488239 0.005113041835389292 0.11800422772030629 0.08827127761379716 0.17086750831199699 0.49906566645180417 -0.16107146376648643 0.2911823018367388 0.025327177852067402 0.09108837504960572 0.0060753845449551735 0.08497234118335717 0.756227134331818 -0.009723916585229865 -0.04590700549675094 0.08737611876479745 0.18503133568846072 -0.22753828329918308 ]
[ -0.043961782779315096 0.04404795657940125 -0.2946479411685522 0.16080969419711352 -0.3329731200985079 -0.6575483908349371 0.3201216113465344 -0.1786722922456253 0.27830523525367173 -0.10456406667368323 -0.5331860810898222 0.13973522011822967 -0.3844522798368338 1.1353778111931756 -0.18918255723457197 0.10051699374660555 0.5468858012423747 0.03006100102329974 0.43410753901703913 -0.2988729723451896 ]
[ -0.37115171792014245 -0.3778100706703838 0.32953400406244054 0.22238162215204876 -0.2980535874169251 -0.28327310482578966 0.03639601536979631 -0.3407683084805087 0.6187136014237566 0.02222267493207364 0.011415433919684977 -0.47987127353090475 -0.2525985327472911 -0.23440172751778734 -0.21080522491353804 -0.3273531523852853 0.14169834472730533 0.07960308074377276 0.013178874120403077 -0.4054623956457584 ]
[ -0.22816041504654389 -0.2952656792370663 0.18119504872981732 0.2145254390611371 0.31910794219136074 0.14590613885511036 -0.15189217584679354 -0.08753592568015926 0.16365053999561668 0.21990592784102783 -0.4422143442828614 0.04203999158282056 0.21356010859577682 -1.0410334085135966 0.014445322654519572 -0.04511893982333214 -0.37273778603013863 0.29953794776900533 -0.2962877346186144 -0.23345657266349526 ]
[ 0.26592523807699486 0.3946727353912634 -0.2387051764836306 -0.264317035000288 -0.018946684113507098 0.2642269601457924 0.4250510436234438 -0.07411829562504074 0.14781756075916674 0.3786816482546668 0.18027664571872745 -0.024676477673282127 0.4033574708439128 -0.1996660181040877 -0.14283368774100924 -0.3752328777521816 -0.07177652258228245 0.16406577199039543 0.17387678127923606 0.26034678499528957 ]
[ 0.12472129679680619 -0.28477193635794973 -0.16260008646418833 -0.2729919130187272 0.04424219933226183 -0.19839354092718797 -0.5602450415942091 0.6098154012846317 0.3054789206193094 0.24739066242252394 0.019346328453719308 0.09234136583739218 -0.2660903325472024 -0.08064680530137566 0.2001482147985239 0.023004377420102813 -0.060210336028127934 0.18190049189481022 0.1456383363316096 0.48760577455706056 ]
[ -0.32050343961672867 0.15084618579304063 0.15317263364465808 0.23892806773916273 0.3459901631103168 -0.09869631961914878 -0.33256656611865876 -0.4302282229994119 -0.1967020732449423 -0.19310723576189273 -0.39854137757177266 0.12805705921192806 0.08621420199420704 -0.25504425896948235 0.10375785390683484 -0.0484073868366208 -0.12429098780852411 0.10051086334535955 -0.7307305816985386 -0.25982331721102236 ]
[ 0.8489541625247068 0.1107808362738001 -0.6329473036338295 -0.3843878200267944 -0.07089937909179189 0.04506352895863696 0.18361317538666486 -0.0007747127094944743 -0.7170348691750749 0.19893183785043297 0.18544788917253915 0.4407813184582286 0.5917548281097829 0.22498422913658503 0.34073320381886896 -0.1150513527358481 0.2104157425811635 0.043273302669945904 -0.027035321772067168 0.027155078340650323 ]
[ 0.03276233191872784 0.09711674452119455 -0.03883977251318866 0.16864190740537477 -0.15628248042424403 -0.489323501659221 0.43759708544486575 0.07455761003738247 0.40264045545209354 -0.18512963520656806 -0.4815252598226649 0.7475873281725203 -0.4973376148615458 0.9764301228254838 -0.009760891942422505 -0.12683468513170448 0.5639481787616758 -0.22387241492933774 -0.10812058420229645 -0.59416262377949 ]
[ 0.07801948976786623 -0.4881779931350688 0.1873376430526782 -0.11761210597900452 0.10613784925791614 0.39972706501796523 0.28837063738014723 0.3719084307329095 0.01616682326777483 -0.061956084891151494 0.48501456310288016 0.10929339815137361 0.09100938167135578 -0.19893703024234316 0.25655082458716594 -0.33263024513897804 -0.6118152522215117 -0.19868177258578568 0.4017725614384641 0.8568016880146916 ]
[ -0.07458761416086761 0.29916355546471446 -0.05417643283657734 -0.05743282828304498 -0.22169503598832924 0.32868061673639537 -0.06429905213508298 0.24108242444742253 -0.15758853271048148 0.004052488164189795 0.28656366448364207 -0.10930658248751907 0.29818229617418196 0.09218540503932356 0.2854277740703985 0.19339086590529506 -0.21603278898582168 -0.03986138288525118 -0.26620717123265397 -0.2925880019240574 ]
[ 0.4024976426377722 -0.0522234981519434 0.15532963239825767 -0.15614200671356937 0.24255046041823103 -0.07592621438117159 0.7009107580711291 -0.26457810526900805 -0.057847734460815176 -0.1389618314127582 0.3946540209018967 -0.4611779699932218 -0.2345483451724059 -0.0016323121775644184 -0.13251498067227413 -0.3452233582274839 -0.43316607074265134 -0.13801074988855516 0.2270518274843321 0.6320246034625289 ]
[ -0.35124317017664236 0.03733113301823626 0.03974136457806185 0.1605870479320769 0.0374139892116442 0.10150073057507839 0.09884484824919362 -0.22234471103300085 -0.6242313521126802 -0.16254453640623498 -0.00996574124510233 0.1742361685394938 -0.7261543447485338 0.0623015174919283 -0.3374553932044132 -0.18291250435011883 -0.11633429890048134 0.24584120621360114 -0.21788890819454274 0.0598447008158102 ]
[ -0.2737735525248984 -0.4566194586415806 -0.45447166352682333 0.20956661129218845 0.14024168031969467 0.36865136414041577 -0.5143975515209368 0.3822858803434021 0.06083876607016763 0.1906864673466413 0.5906688598203966 -0.10970011281189114 0.19598471419732683 -0.3980411421819743 0.40313745165512116 -0.1318482737139247 -0.1832403777916562 -0.19944750121080007 0.16939640707532025 0.18868964668727298 ]
[ -0.04771883018142484 0.12853905697413917 -0.18114231080576274 -0.013136951942305677 -0.0683268498947041 -0.09822584005861223 0.21818053609759952 0.5449977530830392 0.13566747088241912 0.31280840893619694 0.22177036651894974 0.0001620322839500899 0.25104439799878925 0.10137074093912435 0.14597580165673366 0.03253989755548269 -0.09694147880115855 -0.2758524847628537 0.8064672202781569 -0.062742643640546 ]
[ -1.1150429253583038 -0.8456306997480232 0.5757494985052968 0.5217997661943808 0.29333627856931543 0.5427711893278827 -0.814073222531414 0.4684669697089753 0.04868551018130673 0.06957473575986736 -0.0063700317705695855 1.3392855080311938 -0.6168874565892662 -0.579317214049559 -0.500415648181356 -0.40442741571147495 -0.22044561556413905 -0.17362085353405682 -0.3454701329798218 -0.047416881944868504 ]
[ -0.229546464559066 -0.056693669341400105 0.3252546542066062 0.2412511663392113 -0.21518338039483123 -0.16741094020172675 0.046781669026685624 -0.11317578587283679 0.2648019241323021 -0.1661960829763906 -0.46370517394687893 -0.005504718584208158 -0.3793455000039678 0.1277352773911842 -0.39015373957319766 0.2884033845374619 0.32489127015388225 -0.12589175120136614 -0.2608773508996692 0.476565334334833 ]
[ 0.08214042804529519 -0.6364311739811922 0.5127832836943953 0.1872025906476474 -0.04804131973515716 0.009331939559464207 -0.15286408978379065 -0.12504039738376468 0.5637116835612328 0.10405121043024448 -0.3526140723463566 -0.9127771792649075 -0.2298133831736588 0.34193478707342656 -0.19128630161526902 -0.06027171295447861 0.7366517208895008 -0.39604644919284493 -0.2968655560963805 -0.427944420565369 ]
[ -0.1918553816860182 -0.4275084736956537 0.1026233849734118 0.048248055224016324 0.21329675072289303 -0.44147245314359507 0.14296393855432224 0.2919775385800378 0.028127915960032474 -0.2740582846859327 -0.26910655216739615 -0.1879874444565017 -0.5466937171108592 0.3654516753523235 -0.11614252759554368 -0.5945717748326803 0.2228208468901521 -0.3902059169133319 0.22015741323554666 0.3992306174467548 ]
[ -0.6540669662769031 -0.16441392767373247 -0.10292698620822123 0.10678338135497854 0.3140071081369802 0.3158897470275425 -0.6454331755468741 -0.26514808807352136 -0.027711687580639015 0.17773682688057216 -0.03396999311844591 0.4055935029125798 0.13656679242705125 -0.2706755170617257 -0.2867460949820007 -0.12447158773840002 0.4702510541649958 -0.3165935993177439 -0.8500752301782075 0.0958189413269085 ]
[ 0.8667220163087344 0.43080471153936745 0.49563600924978707 0.15786960131818287 -0.11913213540555102 -0.4254735072616063 0.17391776622316624 -0.4535471675715576 -0.4327163256423103 -0.22722660387327115 -0.3392837604363465 0.8416754946672593 -0.22876141493111968 0.23243033503327687 -0.1831825586144736 0.6716148640507085 0.21714683607006355 -0.2962116021694725 -0.4078675227014017 0.1264323274196824 ]
[ 0.15339637044826757 0.2770134733281083 0.016469670909056086 0.26818186489636486 0.1741974860934854 -0.4450915053425712 -0.5991894306465926 -0.15517516890958874 0.5654619948562775 0.4089683801395987 -0.47107915293171415 0.6204693555573662 -0.12149004945198773 -0.08506733161175475 0.3482931671095771 0.6371863676862988 0.5312775535825995 -0.13912434237032936 -0.1411239261964793 -0.2849110041899922 ]
[ 0.15393375944686444 0.22585358689368282 -0.08910842163203825 0.36256792888858647 -0.15585871401073212 -0.4174203028923628 -0.1517177538282959 0.25701640002012854 -0.12876705904310154 -0.09102632696497644 -0.16421341256792246 -0.15008089928613438 -0.4034547897099687 0.12562375768971104 0.15769121906953087 -0.20223031493277216 0.4272453233095599 -0.03778946524704248 0.021915252597233873 -0.4719581463930796 ]
[ -0.25174554903249907 -0.514563420039458 0.22486799133175842 0.3744506142479075 0.32529850514960695 -0.2967679605299902 -0.030782434220355533 -0.17422307428412823 0.296154419096415 -0.38403988985509435 0.07382420430456786 -0.04382123198645876 -0.05393198242991291 0.48360756582108555 -0.3023751276176008 0.3243824418202695 0.12068457301637378 -0.22749295120510335 -0.21270438303412736 -0.165227345782121 ]
[ -0.3295938706799666 0.19589022595788577 0.0509938269879238 -0.3904118818923928 -0.2506570040861092 0.04188107892460094 0.45463032461684505 0.3953353244428187 -0.28356298525583423 -0.08830736496584866 0.892563785667273 0.024911102315140182 0.16118231812904568 0.513366839659814 0.4676702668474378 0.2547369105082885 0.28983433366879696 -0.02337617484576043 0.4442240048030553 -0.12272382936975128 ]
[ 0.5341865702446565 -0.4360512641162837 0.17204379153070531 -0.231793567029702 -0.3928786113680148 0.4211282309827252 0.15978520549808733 0.45914234657354214 -0.5744457932449393 -0.23361755986297833 0.4393186850508862 -0.6668337221394167 -0.4853837955992742 0.39110747367176757 -0.19028501443183735 -0.5491102638626676 -0.48666908235225304 0.32161011890478325 0.07246545250962383 -0.19328026209564345 ]
[ -0.21302230645517956 -0.8679258114310524 0.9460446314838966 0.25198967538785827 0.3668288450395075 0.6443154069406245 0.42080201832145286 -0.8716046172281422 -0.2764555599707282 -0.32314562113510753 -0.41080184134810815 -0.7611030334990585 -0.2901336702083878 0.12255517560144015 -0.6755980283998362 0.010159282202374411 -0.29595078898777827 0.6077665298783892 -0.15781749824105906 -0.25435726989307955 ]
[ -0.15685401072772354 0.3320481738340662 -0.013555605254553928 0.17523719726095568 -0.2382111797401279 -0.07556998255983975 -0.12058069932661371 -0.04993816630611339 0.08796978798110085 -0.14200198598971037 -0.1387304424616049 0.10244960267638496 0.2424454005121288 0.05310575785884867 -0.13860089562232286 -0.04928665884781999 -0.14379765976743944 -0.42556308655601893 -0.07425653014630121 -0.19524834140153874 ]
[ 0.24771151830110194 0.196922424414549 0.043019228422945206 0.4701678809905357 0.13611621097285165 -0.29064616648574715 0.15202986534932333 -0.50684329820361 -0.28346487137694093 -0.39903701081688164 -0.13638527328276429 -0.03788854016423662 -0.34677100005210865 -0.04584212370193701 -0.4515406315483674 -0.2019159942031728 -0.26066613303735253 0.3074452648714512 -0.4596017701100787 -0.5196950745026294 ]
[ -0.09209233094635066 0.25877089666328673 -0.12960701633320199 -0.14517554695171678 0.30359455668031526 -0.10009539416147524 -0.2185028245895829 0.0993101732386319 0.32178884076654096 0.31452951942347973 0.26505352596346354 0.0028517328804108185 0.37142774019538655 -0.18501139914283563 -0.03859791195798613 -0.05967821891101808 -0.0440154305200126 -0.3052899928959948 0.07910841815809654 0.13594093101624 ]
[ 0.00010354632949353008 0.5149192739552982 -0.19639406921931288 -0.17814761305385066 0.16215456463317238 0.042535977339403355 -0.4694662470495422 0.32525974971478677 0.4047069695759995 0.4294144764528493 0.2640328153198697 0.21133583168316505 0.35201168014180306 -0.33376168381100646 0.4003156928621001 -0.12883894836468518 0.012015130878606168 0.016239458660146085 -0.018971108078212957 0.016402171153884256 ]
[ -0.22407503852227184 -0.05218095256537016 -0.3397732009360509 0.23545593108489596 -0.3818858882664269 0.5390039054277552 -0.013459375675422493 0.7693250227782447 0.35667420739685674 0.2802696026875739 -0.08241198671163988 -0.2121974325661279 0.4018366712406764 -0.25641837342285356 1.065345366258587 0.5798255027738021 0.12485403589216768 0.22624295102599332 0.680286019296073 0.033942820357459075 ]
[ -0.2884910600861398 -0.15517816810441687 0.35386050643518047 -0.05596444134495281 0.3852187965813303 0.4692681596949528 -0.2694487121659039 -0.02645168638517325 -0.2663218198700002 0.14038472666926127 0.19156528831634698 0.26842357540268225 -0.15989370988510507 -0.004697923488594701 -0.11907308974523274 -0.3064419372249977 -0.1624417105581573 -0.017720635511272505 -0.7017859088843342 0.23757880349412513 ]
[ -0.01655525806600208 0.10362002061900369 0.09954823140333481 -0.08135954425737997 0.22001562136287245 0.2123303438516752 -0.08669313326551113 -0.5777866555381209 0.3178471958294814 -0.032639535289718004 0.07463081980018685 -0.019282233397755862 0.45690650495607255 -0.4470999220439327 -0.39602410740734195 0.14794897491753345 -0.19090339398691525 0.18680620463382008 -0.17804236045477026 -0.4875814470896149 ]
[ -0.7142609297824025 -0.05264673220906782 -0.46058676154388456 0.1870294763686441 0.11645376872302236 0.4183577916797074 -0.26257549273078873 0.7788053167874331 0.23192284821857953 -0.014710845844140702 0.4440435548910029 -0.45957372660093754 0.3472614025754608 -0.15061401446971753 0.08961226919364594 -0.5081417636786574 -0.6150375065361676 0.31078124049793004 0.3214821715765187 0.12764567553707173 ]
[ 0.27709013917371916 0.3217566130946852 -0.40922476004582087 -0.42746843206295254 0.3973055996202917 0.23522891013549074 0.2555263482828161 0.8676880317832723 0.17000577534108355 0.2676557763956878 -0.0192532041451349 0.8386600453776122 0.5993959887461833 -0.2572432015705291 0.5996427791980128 -0.5249422574374452 -0.07532341602206286 -0.18131617694936064 0.215434129909506 0.015827190103810725 ]
[ 0.17305824506510334 0.39776257497551215 0.23172931220742626 0.16313073702728126 0.10540109845910083 -0.0008828979463915946 0.1196109230747403 0.461401656449082 -0.32782549139015044 0.1692588192705927 0.14334002685264394 -0.29904045341584723 0.021506273109175234 -0.10412445297224998 0.23144800287730424 -0.4542565668837723 -0.0265542711125573 0.14617754068019753 -0.24321616208621394 0.3298083770441305 ]
[ -0.07441377746576434 0.7027914151527904 -0.48888480686105895 -0.14308025288445966 0.10183158505688401 0.0958755546727774 -0.0011359704342217914 0.44621029639112586 -0.5954836770626685 0.10199477860260338 0.7804026900224817 -0.11130010479374831 -0.2085943624610442 0.8417177146011144 0.291199760190453 -0.2994811713683392 -0.11340618186624463 0.23820295594364033 0.5933697745620128 -0.6708467110199722 ]
[ 0.12578776623229693 -0.16204018914303522 -0.018616121547994288 -0.1462059601253409 -0.15336444849622097 -0.17666254943873816 0.27627876183113537 -0.19102799749541935 0.27098532923064234 0.12149236379278097 0.05329352919668452 -0.07201222173614424 0.2182820803628945 -0.3159868346671459 0.17912452482642705 0.007854704072953493 -0.05378056089393752 0.14378772557750738 0.09803977377971355 0.18891893175595578 ]
[ -0.19356464327127518 -0.2252263318201986 -0.09222194683939428 0.2394630149919416 -0.015657871280038236 0.08674333045181602 -0.07668051373240889 0.22516649126199528 -0.003299124877198381 -0.08190374133806147 0.14204508621598566 0.10552129271574996 -0.0020389713261775694 0.06654573325257811 0.16534015787708653 -0.006878043679390676 0.04142149122867393 -0.20957976943139675 -0.007351783155514378 -0.8529114560077227 ]
layer 5 Activation
tanh
layer 6 Dense
20 1
[ -0.22234210449268546 ]
[ -0.01776271351666795 ]
[ 0.025423311620173493 ]
[ 0.02379718192062741 ]
[ 0.015390154605408268 ]
[ 0.03020590781438188 ]
[ -0.018286127496270094 ]
[ -0.0153427537919526 ]
[ 0.01814554425641536 ]
[ 0.006009334379755968 ]
[ 0.03952907794487977 ]
[ -0.2549428809682504 ]
[ -0.05192772077443402 ]
[ 0.006041446979732303 ]
[ 0.01806789666677421 ]
[ -0.05613873779241884 ]
[ -0.012346761500873904 ]
[ -0.012075226597477225 ]
[ -0.002223995805421851 ]
[ 0.08645400741235174 ]
[ -0.07716428623671573 ]
