layers 7
layer 0 Dense
20 16
[ 1.1042161021959713 0.953305304361434 0.3419626314054704 1.4086624216380679 -1.1600525486204836 0.41246171405807336 0.45023352573284103 0.8329980538326794 -0.039825085485154364 0.6201525326502211 -0.2926537810746059 0.07900806453982626 -0.6053519949736071 0.1505435383495523 -0.6217678752632747 0.02064235529333885 ]
[ -0.0757884092839557 0.45380834101518436 0.4028979215341839 0.31956169702374215 -1.0245446477061901 1.200137517341801 0.5198548322993894 0.3783263221694241 -0.3138768501373619 0.4146632613693377 -0.9544843393532314 0.3326144474993364 0.8923622834796018 0.017811727847925483 0.14029110265947534 -0.2676667421734874 ]
[ 0.16911712652451155 0.13142747945505773 0.26463201818828475 0.2701074461682321 -0.7570725475054335 1.530805138594834 0.5071732122585446 0.043384173574978924 -0.28630511369951955 0.0815472234471892 -0.44874887655124146 -0.20299335057408552 0.9839296853125463 -0.07759027146887681 0.06419210110226879 -0.14419091887046054 ]
[ 1.4004933337936198 0.5509453186225228 -0.17225056044095022 0.9143763700009998 -0.8514594675779599 0.2632057951373566 0.28599109521438887 0.9268171492083105 0.9961824688673282 1.4629414054190295 -0.8598886158781817 -0.763165113614179 0.06383142883849514 0.1897338280989026 -0.26734343996257315 0.27437282386603046 ]
[ -0.3179636119884399 0.039780476335625425 0.031275427320147 0.3091596527500036 0.5701022621790234 -1.2176907443891813 0.21609379702764567 0.9269696851469716 0.07685373890348945 -0.5123790348139105 1.4583885657466102 0.8002998767394287 0.7519456787689426 -0.48373990492107904 0.5213646937108887 -0.904293725378689 ]
[ -0.07264158711577184 -0.4563373216610973 -0.2680396578366401 -0.3638053364779136 0.49338274154126505 -0.9879839111772014 -0.2224239998785075 0.01115453830725613 0.3266280845881173 -0.2384941058999317 0.9111560129185851 -0.3933203265135231 -0.8686176928987874 0.4153456995809541 0.013807190102103852 0.3171091695369094 ]
[ 0.3540020681500327 -0.304005939582299 -0.23182498874397342 -0.24388768851771747 1.1983045546505524 -1.43922949250799 -0.7536690313229018 -0.2538931957811183 0.3899118681372686 -0.35373559397495835 0.8052776819127866 0.056478625799521384 -0.4699260165040115 0.525620445863668 0.05141518474780679 -0.2977962262072737 ]
[ -2.135624276472736 -0.5692057305552928 -0.08041607979264805 -0.9061048408528014 0.5183079966386206 -0.47579287326054814 -0.36878948596418987 -1.0806570763461496 -1.4004486955576212 -1.4854837295323722 0.24860999936897463 0.5235791339752016 -0.07584935493799295 -0.44893005402531305 0.35055836388475825 -0.4673437472813718 ]
[ -0.5849408111554149 0.7795625689578354 0.18812661018648766 0.5880025485039563 -0.09181126370773633 -1.0544833695834857 -0.3978459595663495 0.9622318302741766 -1.5007082422910543 -0.35282145037512186 0.009364786126560302 1.0327406282144433 -0.2981682044987683 -0.7273626734987636 -0.2984780997612566 -1.3055545298642284 ]
[ -0.3564256426391411 -0.4029942623325142 -1.3329536066777274 0.08211677412440706 0.11118496000036555 0.12496717828532324 -0.4185225833260519 -0.4747352794250429 0.6214066518471048 0.018180633427333826 -0.6752356694058221 1.2320223279438611 -0.7170949240254851 -2.4742123851167395 -1.2621610360134867 -1.2611619092151922 ]
[ 0.6043382013466568 0.8152712563995076 0.24424867054779237 -0.393723804686708 0.29885684091546183 1.172985458529355 -1.063492270322284 0.24967411882203658 0.0630286424494229 0.1400922835534969 1.1625477257531918 0.5524610634077234 0.30279221170243964 -1.2926398474300853 -0.37005451928109906 1.0646717398504235 ]
[ -0.32969578053804655 -2.624678304269716 -2.300185481462869 -3.533441940431999 3.240824397566694 -0.1597446722936823 1.5337655920860598 -3.1736475017528027 -1.1019514047453447 -0.7191943030370341 2.3010154521972233 -1.366471834503886 0.942036201808524 0.15711155461282258 3.0564950764418004 1.124599716938457 ]
[ -0.529840890280582 0.597569271840265 0.5100131039565415 0.5258881285737852 -0.06115722633495634 -1.177749214408449 -0.08746139516237258 0.9031291852956216 -0.44839649952065 -0.6689188769464619 -0.6348380140596139 0.5468272140521554 0.3772527772411264 0.9859699852923947 -0.6478005379277967 -1.2641911846639227 ]
[ -0.39916286894229025 -0.24700308172217925 -0.4377817512175042 -0.15712892654228205 0.09661220667639875 -0.971873793507174 -0.8249037298664675 -0.19014638368327644 1.8873345448209005 0.01822052443472758 0.24411613257791973 1.4544752798441776 -1.5441001092529347 2.493413541262709 -0.44194451914246935 -0.5617772238443717 ]
[ -0.09655355333674413 1.022854258840735 0.06422129830544447 -0.3764896592217254 0.5082281732526324 1.2806309059836716 -0.6663721551685364 0.13408401162213582 -0.48776613673567626 0.0772410484616099 0.65890706634696 1.4755114725078955 0.16730055269620725 0.07606992702855883 -0.5491084616108267 1.269659761880919 ]
[ -0.23180582153222462 -2.506759709403781 -2.718737188574826 -3.1366727621567128 3.0782840804221183 0.6630901916313812 2.1628467633845867 -2.79362160267789 0.16091019724927746 -0.7732638736450727 0.5512702436326835 -1.4317251297446034 2.94838324365971 1.142242480595911 2.0025693387745878 1.1726388801971004 ]
[ -0.5272225672206777 0.5139802371316309 1.0414379730874745 0.7784943731061242 0.4340976634953023 0.507961042104186 0.17764102173634513 -0.10667421014840556 2.2513056262052222 -0.7249153414290243 1.4498076336723273 -0.4541213117732262 0.30916109786541646 -0.15695226880617727 0.08758971339629457 0.647852376002668 ]
[ 0.22821724912654576 0.6836332398516202 2.9875159283584827 0.46010195419167516 -0.47063837344331405 2.0799476394522194 2.4123429546592376 -0.2762853533232904 -3.464745412863808 0.014151742435080524 1.0718826653206506 -3.1002461274894877 3.4537069541996326 -0.6345938788731179 1.4524296971074535 2.1683210715031382 ]
[ -0.09480171634934338 -2.1471727832681746 -0.4098423469104624 0.47015275416607744 -0.4205921709132969 -3.1924934384344357 2.4336013888322974 -0.09988508180326638 -0.26267331306313796 -0.053023073863713556 -3.5903667529315286 -2.7009802564148297 -0.18476439196029965 0.7602087930591269 0.5972923225466256 -2.318151937836522 ]
[ -1.157967790132866 2.875868941901017 2.6835519020975935 2.85106080400982 -3.3471504626612942 -0.9101641632247448 -2.7865463782757005 2.4441445574073892 -0.7636017624957482 -0.8729074539867318 -1.459196216118148 1.4275537333601933 -2.4797399278767958 0.08207304350362 -2.8034906242676816 -1.5596088791891995 ]
[ 1.8353478580137637 0.02317898324051056 -0.08124441222945733 0.4724710302821543 -0.5137432558789257 0.7455923351570083 0.3067403532432281 0.7374938392635924 1.2044696871742737 1.5650028098298074 -0.46924286778144636 -0.6593675336927416 0.15215866040783557 0.4592378403772005 -0.367273724502819 0.5478699853986262 ]
layer 1 Activation
tanh
layer 2 Dense
16 32
[ 0.32206140513737674 0.7367669240321875 -1.6025227873511592 1.0861614802737376 0.42901133173557726 2.466989719446182 -0.2538711640899148 -0.7472061543650074 0.9789759494285746 -1.454190310285818 -0.2222081001646293 -0.4112967600248942 -0.07569666856831149 0.5613865593775457 -0.46912280713622106 -1.373446304898834 0.5771390512677905 -0.2044242716300571 0.9854161118991458 -2.1620299475177376 0.7421551096543768 2.0920745526063023 -1.6529626485949744 -2.1123029261688364 -0.4416557353209611 -1.8912865587637102 0.4971829614280044 0.5640348906544875 0.6923887037452613 0.48808879438150765 -1.6967103747409884 -1.5935107571926639 ]
[ 1.000734214570543 1.6760784499600874 0.14748202164425656 0.003440010742648091 -0.05594689857413379 0.16313311332635802 -0.345073864055618 0.7081935547852121 1.4414023616020368 1.2954317029945865 1.196721561514518 0.3939349321338036 -0.35159393567293923 1.120402575973429 2.8450525233200192 1.897612243614369 1.3669511428296026 0.6614424165177301 0.2592790238209534 -1.3139351478951227 1.447962230804104 -0.3596060725361297 -0.15110717128733436 0.47406438840957815 -2.1572556695328933 -0.3104831786429237 3.2651389011586374 2.00923069871305 2.6834515811461173 0.49276268807214463 -1.2093386412740927 -0.6246853214140237 ]
[ 2.2025089708570276 -0.9263917432711437 0.9543316768850326 -0.5203621459434872 -3.0101919083448423 -0.13528106020329375 -0.19831881240203458 -1.7987359876825053 1.1909740030559737 1.2575168126346057 -0.7815575912767385 2.971437953224712 0.0970258246274289 0.43740304970604404 1.3253591071576425 1.0510206998832423 1.3592662254074976 -2.137948844100536 -0.04293721262225464 -0.5236223150373409 -1.5285425399194583 -1.2428383583269207 0.7634215273340373 0.7875822964406609 -1.079172133195939 0.9380415106030853 -0.23689357954783716 1.074173075337445 1.5307393320149596 1.440383856415909 -0.9427550298426587 1.2179003893388198 ]
[ 0.10046219777670841 -0.9076780290324027 -0.6721187190896528 0.4922176814633397 0.1914315606109233 0.7580351505949611 0.646971605996277 1.668232234522102 1.6191557402220207 -0.00925365583462319 2.184496049524756 0.15943499908714306 -1.9051578167722254 1.8974514063786936 -0.8278543093052915 1.7248792267721091 -0.6492681410199356 -0.8543730755360747 0.06838784272081241 -2.2790566516960222 -0.6878684711679623 0.09719904980912161 -0.33063678790203554 -0.8598574606968449 -0.8265222892259783 -0.2221583945672266 -0.9239709266298627 -1.1899695378073702 2.040631477974205 4.4658500126894864 -2.0811453724635656 -0.5473706194444471 ]
[ 1.4151542823963108 0.2683114827880514 0.5111688396816211 -0.8326385730597672 0.16133703222622398 -0.5253578069199712 0.07669297978126112 -1.9070769961773162 -1.8583574572043715 0.1417369679930595 -2.325642587605329 0.08479217481425762 0.38791142792766137 -2.9178116958393523 0.11932583931022392 -1.0296253573677026 -2.2925319848373067 2.1876230304226096 -0.2479896671712388 1.4666848189751758 0.13680720148138037 -0.277172216309756 0.49169790089701787 0.6158690319757577 1.9511461076434897 0.7106901126900648 -0.9884832787084111 1.2688451381385224 -0.6696001834366478 -1.334156616358661 1.6580524829627759 1.2824330662286703 ]
[ 0.25214860170777986 2.120419732028138 -0.07339225122659393 0.6739000353278963 1.9793513254083648 -0.2951967497145063 -1.5465902416522939 0.663676412318058 -0.519775215383118 0.5174174133253321 -0.7326255018579784 -0.5048626874947304 0.7441634835046714 -0.6285686959588318 0.1617913686538229 -0.6715579407387797 1.292564217700883 -0.18898604331885507 0.624540411050556 0.30976839052106914 2.1066289784930716 -0.39814324462686407 -0.8516058981828863 0.4374947920612951 -1.11841511193175 0.1293201699714852 1.2239690318625722 1.8736567091853944 -0.78128336687861 -1.1852170782296727 -0.0026804040753306696 -1.0587548052549076 ]
[ 0.9835755860963021 -1.7814342676601347 -0.1442884717754875 0.5636387763812724 -0.5521809301501988 0.007701533359085126 -1.231749158668993 -0.8063408573321451 -0.3179305624613574 -1.4794216469153827 -0.14578638150584808 0.20500501384022812 -0.20806224241354032 -0.4499740041667553 -0.6612781388757836 -0.9698480651838168 -2.262657033488691 -0.4854406624930519 0.43520672441386954 0.2486007607118496 -2.306676701656701 -0.13637542669112374 -0.46765259810391924 -0.10408204424002435 0.08120349036513909 -0.32820522007329966 -1.451599094541409 1.1693478788225145 -0.8870302954236636 0.07752396872754679 0.3700556242882618 -0.3462366478486256 ]
[ 0.13660082787775385 0.3015018139919191 -0.9316443085716528 1.4963855964362145 0.30918707519554256 1.4003367084798481 0.46096119680805925 -0.17211541864775687 1.6031713494010373 -0.7844017815523101 0.33664588961054814 -0.6006681029044559 -0.8243817907478328 -0.02628050219636357 -0.011412754900810592 0.272233316088295 1.6835310881248962 -0.5534928580946076 1.2215777215543346 -1.1632776658247375 0.6580909035660761 1.1047638955050803 -1.2485086852591638 -1.4922816622216084 -1.9610610138529265 -0.9922488914141394 -0.0918159988328067 0.04729436269494663 1.2792514804192878 0.19115746438658268 -1.1749022421053246 -1.362182858178107 ]
[ -0.41121727985135753 1.6342189646898633 -0.6509505317452685 0.5239731230893662 0.5498052371748788 0.6694608747190754 1.0363468041650723 -0.7262460147931237 -0.291002889342132 0.11809303929308063 0.9662662389844319 -1.8704296107443967 0.3488870730974917 -0.5382218720305327 -0.3972028539364743 -0.27710536028625454 -0.007814564536404408 1.173409159654891 0.08846287859653876 -0.09045457338050746 1.3151275402582268 0.8403527363788249 -0.3390449362219152 -1.1538093145511121 -1.9098536447898131 -0.6741460388821024 -0.10301421606807216 -0.7582733795759394 -0.07029597889130748 -1.1689994625258011 0.29109896791203876 -1.0648885090566258 ]
[ 0.8614800218160863 0.708010233331283 -1.4426132232550697 1.5191057823417558 -0.13913225783672692 1.7377108009701088 -0.03917004868649364 -0.2978738335845363 0.6751710978982802 -1.5637598257638516 -0.09804459937698046 -0.1670198605969037 -0.4816678726720524 0.5518462987953904 -0.266064311474444 -1.346402389065154 0.11193291448507085 -0.34329799604370026 2.2233073036408517 -1.5203441682573664 0.5066085792967178 1.4414970598459576 -2.31130133014526 -1.3037766319262225 -1.8322823156839585 -1.3483534875902223 0.35450946861537186 0.602986023292059 0.8241306901113874 0.3841796049182497 -1.6782065578288579 -2.052071544908096 ]
[ 1.5574492425276851 0.021171160419651152 -0.7510414840504603 0.20060003564367912 2.156710206684275 0.831574925217768 0.34774303265421785 1.2990436769994445 -0.263704631959332 -2.4407060306790607 -1.0573230424308375 2.1156358523688135 -4.011013158897674 -1.8391402801417873 1.381405286865176 -2.683285147435731 0.21140850608983877 1.285190784861516 -0.8312800889392675 0.2561332498653975 0.38413643817955445 0.3197023621959023 -0.7950658008136262 -0.729975062434979 1.1823751016897388 -0.6819865923972752 -1.2433690894298417 0.8489535695389885 -0.8392495625060438 -0.36645285226823415 0.9606600095603289 -1.053172313289941 ]
[ -1.5854503529061434 0.2577652283717593 0.910540933276067 -0.02324452733315247 0.9756721667207323 -0.8563293278330654 2.9949126956877703 2.272221146326726 0.5363178950623542 -0.5322009413505965 1.2272501075522284 0.7469453950412313 -0.9167913474253139 0.5509671869727 1.2287057672138901 -0.3138517907950837 -0.015659218255614508 3.013323399257948 -0.2957697629806358 -0.28968335541992174 -0.005822280502955751 -1.3013927840042518 -0.052838916266070325 1.5783285651571137 0.1943577828227806 0.8934470045241941 -0.3384238383299029 -1.7728530589484226 0.7360717463664698 0.3253843553135783 -0.2363644614482774 0.07341227173411104 ]
[ 2.091097336453566 -0.9088229968603366 0.06270978629431195 0.6608335362077784 1.133751593946715 -0.16043294942558325 -1.2873716522285599 1.9462923968581944 0.08618812143411551 -0.7669671852804382 0.8933681104763794 1.7143983160746987 -2.114101473081934 -0.3666501752981879 1.876119319400407 -0.4430219798507988 -1.6465830226805602 -0.7106055361477445 -0.19092098013762138 0.502890106622729 -1.1401610004467229 -0.7410464265490166 -0.9875861970155048 0.3546801281344003 0.7618263097251977 0.3194476703374128 -0.9368679181354422 1.2958265999629481 -0.9677669206570676 0.10757030686745914 0.586285064696509 -0.6851868880591387 ]
[ -0.2467600653895245 -0.26826547715214527 -0.5266283752812692 0.09399069543107516 -1.0297545032497901 0.5051446284442186 0.06181122226957694 -1.1138683311808675 -0.8401108621645057 -0.14693838138756837 0.510094409970453 1.0585859331304486 -0.4830537587571108 -0.053786545396119906 -0.5761264302797952 0.3608138085628767 1.150004756479424 -0.127365687331106 0.10584376581756758 0.3939151374009712 -0.5496496294043143 0.7707973566377022 0.09177060966112423 -0.5241609857415549 0.14662456528094714 -0.2713516335362008 0.3567786224880664 -0.12503246674887092 -0.06514888031164673 -0.7546448658592202 0.03857985122249055 0.11501871857388896 ]
[ 0.993403937152329 -1.264572148607015 -0.2625679371447885 -0.5685496367692603 -0.39275964097040356 0.2382495947098436 -1.0448268453459084 -0.6763116781307164 -1.3378649946786265 -0.02516228529662833 -1.335218591865688 0.4352104664917362 -1.0169542514377485 -1.321501793736719 -0.5396743503613058 -1.7659503546474042 0.4367193335460884 0.46004049127921115 -0.5420585100620228 0.20149739246251422 -1.3160625410240947 0.23426442649216744 0.5104953035863763 -0.5492614525569539 2.091932892448345 -0.21361319052453775 -1.4838711419948558 0.49339025770069983 -0.9277793171000754 -0.7460082879888321 0.7585288383927116 0.09087143882130347 ]
[ 0.902310612463799 0.3969293625392732 -0.07176512413968163 0.2113779241228341 2.2460540561388656 0.267387120746046 -1.4479505782246052 1.391015372522196 -0.09543696554692083 0.17723602759415252 -1.8625364539217342 0.11853954817573886 -0.705635807667602 -0.38196271881464877 0.17821832386613176 -0.47469551436656765 1.2134225083691028 -0.6608387172777779 -0.2969946104827491 0.3330358789059248 1.0779324401173105 0.7066711831083056 -0.13959857142305418 -0.2453364428116111 0.07545192073023434 0.13935219629323542 2.0305893863292273 1.6157327636022782 -1.0527021970109387 -0.27355145382954665 0.424093901132345 -0.14871525060756285 ]
[ 0.17476735561365683 0.5172323015493293 -1.3740849043344154 1.6409754895334776 0.3858792880432463 1.7238028640858103 -0.027335622879541527 -0.20138567474272984 1.4475234909446975 -1.6256171287133432 0.04564916926688848 -0.4047264812872591 -0.21578930716258266 0.31321468121294793 -0.030109578468999088 -0.7862283831705139 0.5017383958996354 -0.17663759504484294 1.8022371538049233 -1.8245156610047963 0.46529927461817927 1.2236301481740512 -2.123064115269719 -1.5778333239311175 -1.5040892967596766 -1.7374793384677212 0.6932925059776551 0.297974303672849 0.7190394211094345 0.3100374527065688 -1.9256524078001147 -2.094727358839021 ]
layer 3 Activation
tanh
layer 4 Dense
32 16
[ -1.1313374976844977 0.20248985228656796 0.45784733408867484 1.293813199149504 0.20359659475417302 -0.7054895135485802 -0.6253281476185009 1.1878311723188297 0.4240985015715781 -0.4371467571394689 -0.7835891132171637 0.3188133097192579 -0.30041998907870954 0.7050254080250745 0.43493515911135966 -0.060378478134850797 ]
[ -0.6137509039220646 0.46763674985069903 -0.09145309403796359 0.2963979249022905 0.229420243091256 -0.4595990389307317 -0.6457152491050376 0.2685843056286517 0.8028999321313892 -0.09949577568539339 -0.023406211026679447 -0.19438698798082843 -0.3460791835027123 0.6319347752897946 0.29660331583726096 -0.3546438970578538 ]
[ 0.928579993804589 -0.6935524328111187 0.5233128565410287 -1.0882730710231814 -0.9730000405248411 -0.48347550848521925 0.44259551065281055 -0.9521669827659589 0.11371672185333406 -1.6554856328037062 0.6342993043916825 -1.0510023642022308 1.3356051458934137 -0.03192586123938885 -0.8805110822913123 0.6885758337108692 ]
[ -1.1673188255893499 0.5448168782110704 -0.48691750481849794 1.3867795918643038 1.513608028291216 0.5637138274594268 -0.8558772432287769 1.417144461067867 -0.5374188076207023 0.8527654328503845 -1.1473878971256624 1.0655797017484818 -0.7537835463279552 0.5235830187238062 0.7418496152745898 -0.9567009202598111 ]
[ -0.08577975956657936 0.1965734058953678 -0.06176143289017717 -0.15865460416810212 -0.6329919595838721 -0.20864827792801327 -0.21867871681941292 -0.037615194891773694 -0.6029230919871366 1.0140653904254968 0.14416318849067808 0.030239393534229244 0.25659153752452 0.19132430797286412 0.5807351789590763 0.5016061794301874 ]
[ -1.1063674688290568 1.0347791877056425 -0.10787359663208612 1.1154213843915557 1.4789709883769013 0.3437805161366559 -1.1556002851621627 0.7222970712750388 -0.3850531227056834 -0.2785572896103041 -0.47571511903045843 0.8038582341015263 -2.161505888652654 0.41296434372929797 1.3985734317881802 -1.050602133383984 ]
[ -0.37726587748174994 -0.3527361883346623 -0.09336704945722618 0.004380780328589813 -0.8646875807659071 1.345757124268729 0.4900307765580012 0.017843167810627003 -1.1664209242435835 -0.923324802759434 -0.5869843149769346 1.4068126249241315 0.4447752086722459 -0.5530528568253963 -0.3685836188461036 0.25551132936125204 ]
[ -0.19075129600552027 -0.10256057175926213 -0.594418558940582 -0.3906959830559843 -0.4523375971582941 0.36459149641504923 0.8047583906703628 -0.17901185003548353 -0.7762490094259247 -0.3181237917694498 -0.0938548548306655 0.36309245979914345 0.494377811039511 -0.23143202713756206 -0.12092153240391294 0.5972028757169662 ]
[ -0.5955137050360139 0.3850620083279257 -1.6879302592624215 0.3366542776292445 0.419096008789784 1.1811698504143433 -0.035577814837556315 0.2730718385674694 -0.8545169511489624 -0.3952888831205477 -0.5585105858580371 1.3733338749935344 0.011066819452441387 -0.8863704972344343 0.5947880106025694 0.7961045932342016 ]
[ 0.4600289521796926 -0.725846718458331 0.9782331953828036 -0.5795146080776651 -0.7852791526506189 -0.5532190251831463 1.224786651700779 -0.9103723457378063 0.5820805714016402 -1.2436680434307044 0.5160868327419169 -1.1412094272992084 0.7021751209306144 1.9864751688097735 -1.2854544434498583 -0.25710025643881673 ]
[ 0.2394858434823334 -0.7929886963010204 0.003983149179931886 0.05687234302007286 -0.4663363571414989 -0.4454923989529708 0.24769124797063027 -0.3861256523753814 -0.3871625499755999 0.2638058296030774 0.920702001950495 -0.5651920399104818 0.5355792558377689 -0.16393748139734715 -0.722746102918414 0.43581860610252227 ]
[ 0.07443205883734351 -0.7001199677417504 -0.3932102775660099 0.04145845362830187 -0.45042144413435037 0.04737326500720663 0.8294807905817556 -0.613973449110024 -0.7156640619891051 -0.48760634741882497 0.570705938513106 -0.06289440402745584 0.8487719130615903 -1.476968870475605 -0.060213052935601925 0.8327639660028141 ]
[ -0.21931408231404653 0.01844365224971977 1.1510439682186626 -0.27832827179228886 0.8547984524686126 0.5553135182428894 0.0179093509672153 0.18702931677162318 2.05445548302366 -0.11546690178887903 -0.09281408255141459 -0.2478970606727618 -0.8766214494633597 1.0851335212841218 0.054159795707681146 -0.4618029261919715 ]
[ 0.10033587401108499 0.12169977009227825 -2.16072653765764 0.19381934472323523 0.3392152174708847 1.3419151518637222 -0.08905214092608728 0.34025805581940866 -0.9584741707761651 -0.2789210682546241 -0.40823801222030726 1.100396015195788 0.10138935613416279 -0.8182287899793786 0.34150184007051954 0.574612344252737 ]
[ 0.12360445947568441 -0.3433072249694123 -0.729466680413964 0.46567040556573513 0.324341460505027 0.15186642098709893 0.6716793760655579 -0.15276950367589018 -0.8492354575591611 -0.8654000561918354 0.26339593435368347 0.7700013969610949 0.4680381102719954 0.05862784445883674 -0.24135752811570646 1.1687646370208606 ]
[ 0.6323120207787252 -0.4351367763801781 0.29388816025265696 -0.9399486449513936 -1.1578986991613964 -0.5322658350365731 0.9174980016109898 -0.6681644819999999 0.5077993423782177 0.0074677771882589155 1.1337458270445298 -1.313396650684403 1.1647895693810337 0.3814094895561982 -0.7443640055174098 1.2014281386613779 ]
[ -0.25638522323273183 0.37436512886617285 0.04853550161481673 0.5101222254044486 1.0679256449698473 0.3987403302585111 -0.9134080461240633 0.1788207102522391 -0.5460541550475371 0.3256440012368883 -0.07341440961766824 1.4487090582452233 -0.22702306089436744 0.23414942334697542 0.6242571588774447 -0.5651802978822716 ]
[ 0.8127366138049559 -0.8180743045934585 0.1848710261152322 -0.6159362284695862 -0.46937545880273673 0.205980789085034 1.1200016436053288 -0.8813297574728113 -0.6127218598572207 -0.8967866033150748 -0.20709002482632088 -0.1731350663283475 0.3352038891630273 -1.6213623486925832 -0.08138461717361074 0.5589395874169691 ]
[ -1.0827270574490748 0.48779192892099094 -0.2618145761592489 1.555837695420758 0.9530375226347693 0.04917023349925676 -1.3940754343056996 1.0336101233134294 -0.11713892448805403 0.509721056730573 -1.1945260927986365 1.064406577699898 -0.3146562736454694 0.5879114080374827 0.31518582057279015 -0.9731620570792616 ]
[ 0.5159273764320299 -0.409864963962115 1.750820451623657 -0.30567669568427425 -0.3752759176116151 -2.1549231554799313 0.4702310231626426 -0.6142154404520916 1.3668445621489964 0.24237665429850302 0.3336580455216275 -3.1985407030541078 -0.5253486388624823 0.5179813687576281 -0.561256152209016 -0.31002489120311605 ]
[ 0.40440031408144866 0.851847266366461 0.3415405983779842 0.24945352896579567 0.26398348936342064 -0.6063271242169859 -0.15556198041770716 0.41730390490125974 0.6118585904438948 0.43761589401030965 0.17695417038686265 -0.45156056239028963 -0.4371964470545166 1.056842264354095 0.2768445470869425 -0.9459972888697132 ]
[ -0.3980220419659811 1.2817327863813717 -0.4151351128993468 0.3692352261165313 0.9747093728523146 0.11094313615979697 -0.8517166094733951 0.3971255264967575 -0.13569305832534037 1.0304555325624407 -0.7809231809967851 0.6667714748517772 -1.9073417547556895 0.11711165456239335 1.3872735073576725 -1.3702477597495757 ]
[ 1.3064061453658662 -0.6435851887941495 0.5224128677174408 -1.8404575662909475 -1.1588302805344175 -0.8484483241115405 0.6668197511138747 -1.693936945961262 0.6060147505022372 -1.0728832152684193 1.4959187410491466 -1.1539092582965678 0.6597624212342421 -0.3544193314554308 -1.045239763276116 0.4538447672936154 ]
[ 0.2998062252486385 -1.5470887497224168 -0.11494697089455534 -0.2900421867047457 -2.150764351414931 -0.007023341201217646 2.0594031037138847 -0.5301993715963511 -0.24294808568324114 -0.5994900791562816 0.11698879089874882 -0.34071127819669705 1.9272176848247142 -0.39847673335323497 -1.23730819780145 1.3782154222280052 ]
[ -1.0280985082337784 0.13543789272996856 0.7209005959232632 0.35447385173510915 0.19637422252408876 -0.020160672153262248 -0.12432025622362886 0.3366898716399201 0.5776075617071768 -0.7765378325053818 -0.26767931507713627 -0.8698722390763844 -0.6517119457756403 0.16891465488861243 0.7477422498260793 0.3630588525091172 ]
[ -0.02487729741434737 -0.6518846731610742 0.10430268517418934 -0.28923244556677685 -0.907776226721402 -0.13069081638463204 1.1771332886050823 -0.5592598239025728 0.18807421477799663 -0.4990037194590715 0.5544169076652878 -0.7334889133586334 1.3741969627008417 -0.590442635804366 -1.1015077241240396 1.103102469886985 ]
[ -0.35946970370688713 0.3236699748272888 -1.0910300622970437 1.085096938884598 0.48121038029674723 0.48455617685735153 0.08014944845180551 0.5743071536957848 -0.0145382521480419 -0.3100254211395325 -0.026336051610660556 0.5262013939466655 -0.45302849483632157 0.44782042373434555 0.34163967766289915 -0.6275483449345234 ]
[ -0.009227882145970923 0.2079491281082862 0.7052972846727075 0.22865876902798848 -0.4523770331885668 -1.1815092832949754 -0.22263861341704433 0.7719405031876252 1.666315366317565 0.6242247820961206 -0.7928244409900856 -0.3818322537183128 0.19268942475829232 0.5525978471058829 0.34385204093134386 -0.5594645573427394 ]
[ -0.23062342268046265 0.2944276064047293 -1.777055412047431 -0.15071663508433092 0.3726212810709074 1.552687430208143 -0.5340660276762665 0.1379508527996708 -1.57464513015999 -0.2944767786809054 0.12384050611672748 0.916304566092388 -0.022107171184727086 -3.017215306362583 0.03127455900068899 -0.685993595734541 ]
[ -0.1226293300291843 0.021893635673010368 -1.5176379220163851 -0.08143982674281453 0.42662138833845753 0.715798716783534 -0.9806831627566253 0.09988459234703483 -1.2370384325567005 -0.2191440641086227 -0.4923836043359775 0.43164577642140745 -0.0823765650977984 -0.27903216755260046 0.3214177300063045 -0.2902837569552558 ]
[ 0.2135262207347986 -0.5168020386943363 1.6656970615099536 -0.43348827454209277 -0.6767608095115571 -3.020074270184484 0.5445598068553192 -0.42711745597675166 1.174142179424271 0.12550593328715462 0.6663105420948595 -3.2418690726598878 -0.5708499122335722 0.5507552891557207 -0.7013467886211089 -1.2179824853859205 ]
[ 0.7160999679039592 -0.3929513264204731 -0.1264139146596374 -1.0952491376115576 -1.2455972207354302 0.04031273392731543 0.7075503281442613 -0.6196238941498836 1.5760751372750188 -0.6196017745782274 0.9395914266022121 -0.9310782849856671 1.1622089286416908 -0.9012452936474539 -1.4932993139534418 0.6485392844059302 ]
[ -1.095964582762109 0.6860417137237594 -0.20256976017934325 1.4523366809412814 0.6274663664399505 0.5263765773187125 -1.0510877533386747 1.1708796800420616 -0.4757769505872735 -0.03104860533568462 -1.1518077889816523 1.3544018933954953 -0.4352039868824775 0.34527556273429044 0.8686774791981223 -0.431950446109851 ]
layer 5 Activation
tanh
layer 6 Dense
16 1
[ -0.19501744740135726 ]
[ -0.15359835083697104 ]
[ 0.02114144360534377 ]
[ 0.29050781415407656 ]
[ -0.062463079607209045 ]
[ -0.04168492128060223 ]
[ 0.11214027969595192 ]
[ 0.32014157691276335 ]
[ 0.04191400874658889 ]
[ -0.17784701166795047 ]
[ -0.08844790755585596 ]
[ -0.13978969027471352 ]
[ 0.13308999052971715 ]
[ 0.03214369503227402 ]
[ -0.244920231057735 ]
[ 0.06044023333813816 ]
[ 0.2892166474899148 ]
