layers 7
layer 0 Dense
20 20
[ 1.3789533925648239 0.628641702566103 -0.3308636724037309 0.04618985832943842 0.07147329771236849 0.25138041932789446 1.1738769891955607 0.3538127843031118 -0.05431453944664594 -0.1441065762660126 0.2417056545679147 -0.8594585893076696 -0.16358492521712195 -0.7516399509633116 -0.010862798038021145 0.16611503574631784 0.028061751099359662 -0.38128190400889683 0.9315741359427643 -1.2041150308238266 ]
[ 0.3083437423020988 -0.18361357175543697 -0.3483798262944771 0.23137679700074618 0.12977377556784017 0.061026065537854064 -0.20541138374121448 -0.2816002823955503 -0.33476764576511236 0.061856856771519475 -0.3388994646814095 -0.31228353065381714 -0.145512443227512 -0.2845723699342333 -0.03998612839218692 0.2567052940448063 -0.23452674890301775 0.2596918823011318 -0.34341316750371703 -0.3802233744552442 ]
[ -0.3667878334156919 0.09789950350565006 0.06508988180301661 0.36464167100854655 0.10706378263010147 0.1995149280005561 -0.1744725347298363 0.29811539191656067 0.1492515982714735 -0.09397409270925819 0.048936507337916886 0.17035439908311054 -0.325984708077363 0.26276603498469786 0.12611291291927687 0.20568043354736681 0.3333605126084356 0.27473745853348924 -0.26951595073002516 0.2571468783188272 ]
[ 0.6929290107649924 -0.026908998775978254 -0.21803694503435364 0.0719459809534136 -0.068232744319992 0.22258730745212227 0.7279110526858332 0.10628475075620966 -0.403683896629798 0.11713915056497166 0.04595428773871656 -0.837090364504155 0.029086898691784654 -0.3971384296390068 -0.5751334042816689 0.4218621335817643 0.06364594497122063 0.14543461723879025 0.5474382478085993 -0.6313967924176589 ]
[ 0.32273073464861013 1.1263513053078025 -0.178807234167142 0.26511534893327726 -0.49791529152006914 0.18996001551087335 0.21909827395521944 0.8710749080538868 -0.20917940725685769 -0.7124720841797567 -0.36363127513717264 0.15661817726017208 -0.5778142448056738 -0.09516011361196693 -0.9076441424044557 0.4779000427985938 0.3451645821113578 0.643424385072815 0.4648142144466548 -0.24753473400423787 ]
[ 0.29518582359535417 -0.24100963258283375 0.19493622852004805 0.12919845999242505 -0.06688090523326032 0.2984366400985237 0.15684206944186466 -0.3378136131557119 -0.28675966620890636 0.3759147423610755 -0.3146991364834707 0.36510261151643214 0.0577586839282175 -0.3350585944219722 0.18640393575197856 -0.22382335981383944 -0.11290892463659041 0.13852824557324953 -0.17678830216875768 -0.23312944648844242 ]
[ -0.2825745397226469 0.3714669735148749 -0.11835801978888222 -0.3137009294566028 0.12662889181246753 -0.32798283617897556 0.24280978119055183 -0.22556823403031223 -0.17915557823993858 -0.03170480654915947 -0.19404942919152315 0.13538897151394455 0.2911028806652888 -0.33998416854062524 0.08877433310389092 0.2532818453103268 -0.3103052124939088 -0.044788100006083416 -0.3850924231651427 0.09193359965021433 ]
[ 0.20241811556354022 -0.16988817337535247 0.5375687819982189 -0.7965614141823433 0.31451502387873004 -0.23156291814249466 -0.5131310070813041 -0.8101239780510496 0.6250113108389995 0.31199277104227635 -0.5002294497389779 0.8246492430987935 0.7800875333909963 0.35007965360546106 1.1093954268141806 -0.5758756384714162 -0.590991134766742 -1.1837792577483466 -0.34331316556364594 1.1083826744722312 ]
[ 1.5726137061624368 0.9782913247083171 0.7437373086853742 0.6771480558256048 1.9693728331056677 0.2455699411269265 0.0741534957492689 -0.709840185839787 -0.5317080961446655 0.40286647474527154 -0.11653011338115359 1.8310048925679943 -0.7914825318648765 1.2879481476884345 -0.19696821991142255 -0.19017239643119868 0.644653498972617 -0.7128617231891083 0.30085072352485454 1.5581475360774524 ]
[ -0.3289640832497692 0.05679978202405294 0.005911502240404892 -0.38832518957086676 0.25200317148226165 -0.13770184459744667 0.876879233953459 -0.6280372573042403 0.01715608347353156 0.33370336728584954 0.032125590724993144 -0.47211315297283485 -0.22667381552174193 -0.10426158904868696 0.14144522320061248 -0.36877020036450153 -0.089256011331564 0.01865911870356382 -0.1345227065226784 0.14219527635169862 ]
[ 0.4242133251575918 -0.1960909698850246 -0.5362598592536754 0.600632177916496 -0.16336230188679504 -0.7684029072780428 -0.20868957970862365 0.8798117836421578 -0.2096906689354011 -0.31373266508636305 0.05547570182941156 -0.14494559922007802 -0.03336789852212526 -0.8296599095112547 -0.05580474792766561 0.7188881860583486 0.12542902187064428 0.006395379691793641 0.13241390284606133 0.44212456770964337 ]
[ 0.7480410482262096 0.4237462280459091 -0.4601740773035708 -0.27653214801222975 -1.571504479430154 -0.6002625039154051 0.7014295189296846 -0.3666610976148408 2.1844056982575095 0.5086415116043513 -0.6911246877643793 -0.040186761426039545 -0.6316621016914705 0.513300796596496 0.2335513836358938 -0.07349864869861457 -0.5602180811839502 -0.8549583904625115 -0.7596099007664464 0.7824315411349396 ]
[ 0.9880087597022591 -0.1817543039013277 -0.2536845368527766 -0.19391278805252807 -0.3923163601363624 0.07226355177441099 -0.15975496444772389 0.5425015506829826 0.45158316838501394 -0.4335288891312256 -0.580665000900636 -0.12088931312430694 -0.07981829158693962 -0.26111972568811276 -0.3821767873726693 0.027751980191180952 -0.45137132994700724 -0.11648177963955206 1.040304510611369 -1.2045564096739814 ]
[ 0.644568865424319 -1.0950757199554673 0.17686587175759366 -0.1916196574115532 0.014715051203529908 -0.22357507732429693 -0.03368423504787431 0.48598731147337865 -1.5402761418998026 -1.3838753075518255 0.9401618874816283 0.29094488005932734 -0.08629450864648215 -0.3454883280645661 1.192068922411698 0.7838186442160457 -1.1514032104321068 0.9832184665975009 0.9087292976571952 0.2131457355703189 ]
[ -0.044163046255433706 -0.050806688406142816 -1.1993684681519492 -1.5742267244878994 -0.3427355548623206 -0.9161969408791776 0.16754525291405448 -1.979100501532272 0.8080862071377668 -0.6924545436667836 -0.4158586204473821 -0.04043318698391185 0.9829384819817762 -0.33499205790114794 -0.5372205253648508 0.48093896279488973 0.8099145470717076 1.0212682269762157 -0.6603233220378113 -0.14825250221287115 ]
[ 0.878603121346764 0.7816076955673061 0.4019580063943244 1.5762416038445943 -0.1822219996687437 -0.23576456196607995 -0.8413532884286534 -0.28796715644006676 -0.7440283555181061 0.7239485269467615 0.029139338227826654 -0.6752663097813948 1.677791755072321 -1.067600613141868 0.8219521208302945 0.2608195302479252 1.3449047150165045 -0.5433489907329686 1.4677942049953105 -1.5990346691547184 ]
[ 0.12056905365347231 1.4122942507966891 -0.9697111496094624 -0.6821321959360913 -0.8443046317044163 0.1141099659241776 0.051180429330851505 0.6509794622551746 0.8586914352962693 -0.38280562147086944 0.7161419651450484 -0.68992830971927 -0.34327074322615975 -0.27500413417653163 -1.2678399815213446 0.6351729922900465 -0.7011964678897531 0.3447791543368072 0.2324600904376914 -0.6674723073428186 ]
[ -0.29904607457315113 -0.17360190403921966 -0.5680826852873702 0.15436510088946756 -0.34690297561769823 -0.13140226795853674 -1.2844533627034351 0.4903700211951024 1.4260686089421029 1.6572031773851983 0.0723959787131615 0.43839205636097817 1.0532273678771953 -0.4263616212078217 -0.7122231230942606 -0.8176954233059875 1.4915891126796983 -1.0202854833409167 -0.9222385032168191 0.22209921167383728 ]
[ 0.4931273391032747 0.2594309104329728 1.8738271169034808 1.1303981138972716 0.10346395004893182 3.127824959857322 1.3174728405637552 1.2296279844640612 -0.3870321787885136 0.8141305434435049 0.8657034353355695 -0.0004996664893066581 -1.8567789040605895 2.049145820553085 1.445650181105293 -2.455612193779615 -0.6694259148502933 -0.22979531138532996 -0.4320544081883875 -0.5143090719734237 ]
[ 0.984421415408405 -0.32275554929915323 1.530546783981953 0.06743763963154427 2.538900538153073 -1.0015100433764248 -0.5046426546663005 -0.88959550817616 -0.21145340186463488 0.45699229942994224 1.4581902975637981 0.7409597384541641 0.2946166097421764 -1.0762687653138283 1.854962403530395 -0.9468583859896385 -0.8869762747464156 -1.8623995405214864 0.733019899743463 -0.5756632444186717 ]
[ -0.22228004815280705 -0.2732207582574873 0.1145682469461765 0.20864014038923678 0.018269801353095208 0.17068744585152798 0.1695561020570777 0.02333056869533874 -0.3287824164743106 -0.0729709594040101 0.15134226701723347 -0.43866576306784333 0.03154320707315213 -0.04641775783727499 -0.06571929099791449 0.1413371598411124 0.13668683573896537 0.3480955920976034 -0.051722853670229885 -0.20519919199288603 ]
layer 1 Activation
tanh
layer 2 Dense
20 40
[ -0.06703147334652265 -1.267573637973123 1.0460109803583038 0.6430951974882685 -0.5888212545815417 -0.22022615715069646 0.4383285215734631 0.8411788364348249 0.6105021808326714 -0.37714679422971337 -0.00013232797082492204 -0.47556836897110527 0.26993746064751306 -0.4955280487870792 -0.24858354247166464 -0.12390394068808513 -0.027986931507565822 -0.7496886065774422 -0.18473034699692162 -0.18619609503286458 0.056372369587019494 -0.2661795947184288 0.016069696762334926 0.6780514620280698 -0.31494543714774026 -0.47839137932989517 0.4533463044933003 0.7591530862056198 -0.03680397317944965 0.6729047825264642 -0.16985621294536524 0.34151718586846813 -0.36909264653865526 1.1499542515968915 0.8463027465298054 0.018974950189790823 0.186967244226476 0.8146791760506799 0.41398266791675264 0.07976949595319542 ]
[ 0.15820635030416078 -0.959041690451799 0.10191575092791677 0.5454206760465855 -0.036688059771775444 0.08143998794313208 -0.13464287928507213 -0.3243053703534584 -0.33055831489131215 -0.9797089664468565 0.5089779282098327 -0.9634846972522609 -0.5201804396301781 0.02237393260078779 -0.25558875668764225 0.19906217014591807 -0.11134025545542502 -0.9077933236948071 0.23202047267960946 -0.14947428352795813 0.5212405022485559 -0.4973456265696432 -0.6000451402435019 -0.05255951529893081 0.06408710294459631 -0.42859171682297226 -0.5157556757361356 -0.49141198404001707 -0.48365730201798324 0.483257221698197 -0.057138838780864475 0.4447160183913922 -0.012771181136326793 0.20976244484884163 0.23869836380745268 -0.6899301450017111 -0.014356096023703522 0.41659240690430693 -0.7099830664325931 -0.07110863264864371 ]
[ 0.5183177915874302 0.3297909500528642 0.5341080495508661 -0.05928434814949404 -1.5450186440599503 0.4303360432094057 0.21692635559655774 -0.16700109567273982 -0.7782609535905711 -0.7913108780616169 0.3834044836788606 0.7052980586787574 -0.6561280842682161 -1.1564886691935967 -0.30955985261949687 -0.2522712547714795 -0.42846490183491104 0.9871392025413613 -0.5239756624781806 0.6571854250570723 0.26841675082756083 0.8465475755619426 0.5566960496558808 1.5028686240557998 -1.1402828422941649 -0.1990242663060742 0.54817723651689 0.38042392361952143 0.006404719072056758 -0.18416192261265904 0.04253810867934517 -0.7265190135799026 -0.24955513678177035 -0.42119578443110534 -0.4880883408803658 -0.5064050856590099 0.2262691139284483 0.6738712359896067 -0.4261768046893823 -0.1016341602625649 ]
[ 1.1074722933617345 0.0939283899501274 0.31733865960875624 -0.9785885086073128 -0.1037802125631473 -0.11229267244709372 -1.2933119169829577 0.5807292560890275 0.25155473362495767 0.009477674567558492 -0.19195191894800498 -0.2599044236097275 -0.6250421932698024 0.09684778244549871 -0.6086562204415904 -0.29351833473738415 0.6167028532572217 0.5748141221479819 -0.19884446617234117 -0.4750744039105756 -0.19697265945512413 0.4023873635780411 0.6211050962026455 0.06481634074782877 -0.17946999504053385 0.24553898451320755 0.36000646451255697 1.0977715453688752 -0.04675818001995188 -0.5286522612831961 0.13601856695169476 -0.46794481990507275 -0.5762971638386248 0.07676084781849621 0.6462224919287678 -0.6337488449067139 0.7780480372758156 -0.5874677766284122 0.4706635803887283 0.11796593471342852 ]
[ 0.8152387680309385 -0.07288908823387963 0.5614736078836451 0.36825729614816205 -0.9087496880223178 -0.2515164979928006 0.2659401767205171 -0.6230346074644384 -1.1535942327173254 -0.6410535161081443 0.6922695629632813 1.2523496986471756 -0.05755929562717047 -0.5107006666627248 0.07339983284656638 -0.4704164535669138 -0.13391658123574052 0.044074258501753935 -0.9038952587577594 1.3235249986136346 0.23359556829819123 0.3346874466373812 0.046010773317162974 0.5877764164098419 -0.3907858673131615 0.21521030395043156 0.584493840464897 0.5508378144475812 -0.009956776481799361 0.4020586312302218 0.023679384954458278 -0.4924780815556166 -0.4364265621971546 -0.9979133020217588 -0.688027217936456 0.2387516583507804 1.8575555413623737 1.6180148975544542 -1.0680644149820688 -0.4786371998492189 ]
[ -0.30124957124119045 -0.4288617027092691 0.364102185938932 -0.040776594741750626 -1.7964200456590194 0.010626162336498528 0.4645526260375244 -0.3153247236100357 -0.021314227699842026 -0.22157508538042714 -0.4842525220976043 -0.5392083372317942 -0.45149083387327793 -0.4411584801195489 0.15655746916617946 0.523675987953229 0.6948580923036791 0.3861601492266358 -0.24308939691963205 -0.9468303920421076 0.33482019227218646 0.5340064608710094 0.2515926501345158 0.846226053679091 -0.47815899309182475 0.26544345400847363 0.29638609272551136 0.33568546558772 -0.3202514792564227 0.2980244368709858 -0.5068841049249522 -0.27073984903575443 -0.3532525610611826 0.009578870971099442 -0.45058370435876155 -0.5342470525993953 0.05074727294091205 -0.493655657696258 -0.18850893423626058 -0.08783431081521006 ]
[ -0.18538809943668755 0.1581891527935119 0.7877105468339407 0.26588378260146767 0.3418561253837238 -0.6324544246583536 0.5536450122945237 0.5309091065274237 0.024604298303342265 0.9567950188069655 -0.5084950692064307 0.5656882145576737 0.5402502423532894 0.16101750392219635 0.3136289309105178 0.14700471508338492 0.07723903009314048 0.7207689681499795 0.6457794461288869 0.6253923837157398 -0.13433439762980193 0.2608455816962163 0.5257895906517774 0.4738410138474496 -0.13651760535955818 0.505630080848266 0.7833957543585358 -0.06254584849116324 -0.4428112781899575 -0.3594706086139938 0.16149594847182594 -0.47300980135745796 -0.9735182960270198 -0.19347424657112458 0.1942462242881097 -0.8970316049582232 -1.0204789649264328 0.025153114203945424 0.6617195894522906 0.4539314771500965 ]
[ 0.5804526932559047 0.672619322856491 0.2931690074476619 0.29694119797023055 0.1440860633275736 0.467107965381767 -0.6871863995289246 0.4369554640356837 0.031764003888789964 -0.5332039285112912 0.8728791311609624 -0.16189906118492237 -1.2626252835157303 -0.33131878068171944 -0.8104760547647157 1.3048196525074685 0.9832745595934829 0.38597756347741274 -2.293011094135084 -1.2088873549368515 -1.4243441507381822 0.3255153498420096 -0.5115045248066711 0.1943790594661826 0.4833364296465581 0.16080793048152203 0.24552368076207678 1.935927803845542 0.08078388771328776 -0.31721622217329115 0.6427424073331296 -0.6043917266316274 -0.6387657183685973 -0.03201279616701824 1.3129462656531627 0.22566365628730076 -0.5578120966674825 -0.3335343037707402 0.34894997717131826 -1.8007507540753187 ]
[ -0.37335588196717795 -0.7248954325084929 -0.6810580123004645 -0.36202973996216153 0.3780723516544031 0.05791202091882669 -0.7146967904045246 -0.20907215149751576 0.11290280874220507 0.1633446875047816 -0.10508072037657948 -1.9610470152590351 -1.215770980140231 0.5437161666916425 0.2474273714756325 -0.7052754238871525 -0.5201514285175408 -0.12329305124194262 0.6104606340259662 -0.9236167403710013 0.4938502947718553 -0.011771118360735846 -0.650454292484912 0.010273925499916724 0.40810862053847763 0.0182224932744186 -0.5421169739610914 -0.620341075632034 0.03561720447563716 -0.14051558412395498 -0.6155805303596719 0.27567028007744293 0.6749639834357796 0.4977936292832434 -0.8490316098964283 -0.4741318006948822 -1.3286574589602969 -0.6609389335026133 0.17606845996702103 1.045464240621207 ]
[ 0.021864730906563875 -0.8162233086501661 0.041017292022917845 -1.2497407800195743 -0.6153957584537582 0.5842662790670446 -1.1017956334450805 0.09373685020823987 0.18517618949170617 -0.49214525403517 0.5699902455226693 -0.03268176818692183 -0.470119758927342 -0.24005917834223928 0.7567902160731411 -0.08138659906158881 1.008249174768955 0.8134021923340016 0.19741097474334587 -0.49270055195798484 0.6847009179441479 0.15484165586665544 0.12616613461733261 0.15385261452094248 -0.35953557430039934 0.21826995254241602 0.451652263968444 -0.7580107957294054 0.1786762702645875 0.17096929084139822 -0.5084963772758608 -0.17211573444854256 -0.012318749376734967 -0.21792981151096485 0.302178751012078 -0.7184272179888103 0.8525989250371478 -0.32012561320163596 0.6965370459353137 0.7046159857726917 ]
[ -0.2747089816133456 1.067936549976678 0.4986318436260765 0.14910681825191227 -0.022623785423959174 0.147023525930724 0.004277166741367555 0.37412502473443476 -0.6688666432644531 -0.6150254298716195 0.02098767835743229 0.8657288066736281 0.2680926313676038 -0.09856797565138078 0.1292872288658607 -0.0982561787734322 -0.0460869846665331 0.4183944585382378 -0.7293542492746758 -0.2071958707168625 0.15687902052806843 0.5006565689224949 -0.07568830709356764 -0.1810769851087745 0.19481745565627723 0.4541307960640659 0.1398743126984392 0.08586944621681154 -0.38175261041488545 -0.07891601507314149 -0.2656402441897109 0.03036899059438608 0.23630875647021157 0.27853243138228134 0.22660075868804386 0.15713152763782579 0.11577893351947284 0.39291387439428677 -0.418764368838308 -0.18485232343496003 ]
[ -0.013351315412801292 -0.55675740302567 -0.13203995387791972 0.08366946649929749 -0.6945682230579473 -0.09763616472058474 0.1765724084506893 -1.1618281035135118 0.021168424789972936 -0.3460222074082047 0.057686751997316155 -0.18208562696972289 -0.45041146836887863 -0.3408706817201769 -0.9786971897725051 -0.7610936014083388 0.1565079795801837 0.7624375487497264 -0.4030605213255195 -0.03222967852585897 0.18279454836455816 0.04157226603639659 -0.06313835678905504 0.573639103178228 -0.4792201088036372 -0.3298955215820759 0.6169713910936346 0.025924031485066813 1.1868222016202599 1.0885522719256908 -0.7267272795877179 -0.3443889974400807 0.29530541931327564 0.11302227402350846 -1.4972835992770561 1.2595946395291442 0.9922749775507861 -0.3815789469545558 -0.559120840060082 -0.09794220533665564 ]
[ -0.6217215946408717 0.5070497326479741 -0.7221799981078133 -0.5927844468617807 0.08108671040953763 0.550921792400926 -0.41130079991975854 0.8204168699372045 0.2179378641728159 0.3966700177744526 0.26512010189991936 0.027468830647555616 0.5843034270118499 0.06042088224737884 0.5731019262698924 -0.3475261206271142 -0.07627863579358321 -0.1993900120096337 0.38027465114262776 0.10195137379236632 0.5901726179501355 -0.03618385473930898 0.21566534922801892 -0.3501275056682291 -0.07532772177688105 0.013236579053065377 -0.7470818323367167 -0.16974104975838042 0.20608473184813966 -0.006058026128955268 -0.11382137316558802 0.2619566224108386 0.8714208402808917 -0.4423970764357079 0.33067643546726266 1.3470340562914813 0.6548916789143616 -0.1517112987666197 0.04837200673880122 -0.07137822302867723 ]
[ 0.250287985699929 -0.20732052482816818 0.024274546206273333 0.28373814865893493 -0.8927092149851692 -0.22113908706294488 0.5103749784471581 -0.7812268043862339 -0.6426037077522737 -0.005182165545187266 -0.3011837050702426 0.30862925750668657 -0.4444046204166237 -0.3938579852915074 -0.07681584589296374 0.0887640996002458 0.18503194403787315 0.003962875257400071 0.2157140300086682 0.14362382543519753 0.2643544965198885 0.020427733924680478 0.2862029349582842 0.8043748373603192 -0.7669051854938446 -0.3530466553429048 0.48932450032204866 0.16151074442405378 -0.14830997831949314 0.6752493986170143 -0.06988581377523952 0.09800611180924913 -0.38805899648562064 -0.469713272157361 -1.2449445320890924 0.04248756647901656 -0.41170749761789593 -0.07118026880018274 0.6114979282267721 0.2691122419521671 ]
[ -0.43601457043079705 0.5803137056449156 0.2297784154589298 -0.7124937275482919 -0.9090143187669164 -0.6666800836015989 0.27373609402483573 0.2282188988587202 -0.0005195519078779551 -0.4514261625460672 -0.5271002313924685 1.0680299746612885 0.13655846997032095 -0.6565377704840185 -0.2880678153825531 -1.167294439243379 -0.6658146824438009 2.087422339522587 0.019651339376883438 0.9618856385600096 0.23112891974607355 1.5111299309729844 0.3260639358766797 0.6257375905130766 -0.29439541080996307 -0.3617854481525866 1.3889381581583045 -0.5007346661949155 0.4382259264682357 -0.7246078825841485 0.02841497925267474 -1.50756662438135 0.821609225473013 0.44546720008137025 -0.4853006650497433 1.7996510152715817 0.14149455383156115 1.0146106032481794 -0.5177172904911855 -0.6359977763958141 ]
[ 0.5311298346152118 -0.19514320542016228 0.4172491000789488 0.45703151978371337 1.0722099463878636 -0.2020836754637638 -0.02357752955658116 -0.14730011521156486 0.22809067719126216 0.0653106506707094 -0.385228871744476 -0.20646504120729836 0.6876682588428332 0.6186682729579733 -0.28469944288358773 0.33085905474381583 -0.2624842334037553 -0.7316808439111389 -0.51952357927148 0.605633866384132 -0.35806603879465565 -0.24934553812807025 0.16085402719578173 -0.8745984227473299 1.1694650974569611 0.07088710117409554 -0.68781199274092 0.6221218919191327 -0.0014823564737069532 -0.16975123462345293 0.4787629292865248 0.49826265750056414 -0.5069012193579677 -0.024549780098982815 0.24369727918038941 0.21091824000299716 0.401279671857284 0.2908591039889924 -0.04313507040834292 -0.6141586395480374 ]
[ -0.6143384335909288 -0.8784704250738448 -0.4772056233633542 -0.8090333978948508 0.011144748522530272 -0.2666450133746452 -0.6695249832832809 0.5683231940526433 0.10982392855486536 0.5351937633167088 -0.19101257189336934 -0.9077523725599553 1.005827194993422 -0.0239978078073061 0.2964816330628374 0.22316076586211905 1.7348216591054102 -0.15463867153238894 0.5618178488216243 -0.38927323605669556 0.045063988718150365 -0.40180299164179606 -0.28875554701631706 -0.8237216521036338 -0.006622294580106791 0.5562701794780363 -0.5510054844755391 -0.4322197071993699 0.1918719598085414 0.1474017385737836 -0.7330915482059167 0.14131798074706164 -0.010882777684074309 -0.4207341705211174 -0.23931531706172893 0.6349457484331019 0.9374271906648853 -0.7228519461355893 0.0250777664986952 0.7205274452537274 ]
[ -0.699285259802921 0.772755277887051 -0.6675780746568538 0.9242061353183809 -0.3616306037853094 -0.4830374191941097 0.18439959126336133 0.3871965018460501 -0.7490512333430168 -0.4715364529341257 -0.2554973178980456 1.179603390007681 0.4895518874713007 0.11130844895893928 0.004678610161230942 0.5435761707734876 0.12029342280991101 -1.367321437557123 0.45719458815971503 0.7133636442598743 -0.039841800603563744 -0.4849746231863853 -0.03988704549450773 0.3495939037440714 -0.12379898093512592 0.09928025456399688 -0.4928681402810923 -0.34318724337939166 -0.5107497709397479 0.32387640081049507 0.12526086395789532 0.7755265427549715 -1.223021583896662 -0.4073530009894425 0.3088925412210222 -1.0957367738634132 0.29027703601897165 -0.7703388434053249 -0.8600076659131325 0.10020037246109423 ]
[ 0.35926327761136706 -0.34186148143622136 1.1773541702793333 1.0374854433165548 -0.21218831983734462 0.03856538035371753 0.7231703801140408 0.22068395845226824 0.9767485198824156 -0.3517637639439351 0.3578614078947476 0.3672133200183872 0.053543367284638155 0.33690420463399573 -0.4547209309558276 -0.07878005386525587 -0.6841288995140907 -0.22863867069994737 -0.5581296952672021 -0.16188581189107185 -0.5450165868398925 -0.05792682849345734 -0.060873507001198264 0.15718706580460992 0.08508248251342718 0.3204534556795556 -0.49864383617790065 0.4151908514989495 -0.4515098900753017 -0.09318999514097412 -0.2660600628550603 0.049981414196669884 -0.46905667909179793 0.9746642201330452 0.5935448739944863 -0.06118882086229669 0.24548393466619758 0.8174678925210782 -0.6325383627022859 -0.8269972824253151 ]
[ 1.088532013884628 -0.6332149323240575 0.7061535624817737 0.31625534392543686 -0.040316781652706746 0.032644266819224825 0.5920746319181495 0.29748737982946766 -1.304256160518095 0.5377588476526701 0.7804480807441244 0.5994841450233466 0.48716928763332573 0.2516578682296483 -0.3856599109621467 -0.023732740854820265 0.26553098935775604 -0.6783447139298381 0.16906612696418433 -0.3033894549403936 0.39906535698616535 -0.6395726086138909 -0.140685472975482 0.303116677004234 -0.3126094197820775 -0.7727821639145428 -0.014172159208501827 0.9965024471137875 1.1906723909071557 1.0677265276437657 0.40454297182245014 0.06993558128050342 0.29213223535499944 -0.4010664891757939 0.2588377185210404 0.6748757787793189 1.3012033091034891 0.3245817755362203 0.4308132527381017 0.5373379068699609 ]
[ -0.3428585289658663 0.3796781305540547 0.14182350872459565 0.021688345047216662 -0.038218589107512406 0.03157559031283798 0.31301170172213916 1.0253280023843427 -0.09166803955259752 0.6087076132615217 0.03435163223521715 0.45661297895916886 0.8119803567127111 0.27896992113803015 0.4642326026368565 0.5526069725346007 0.7347284814462517 0.08741484893078083 0.1031789684034652 0.0971110874612307 -0.3483539876074126 0.053998947262501325 -0.023956148679365685 -0.07734200334555617 0.28977030339390764 0.5053225960938159 -0.011954605105176671 0.11565822315593755 -0.3696407006933212 -0.44250785053652575 0.2590876647537547 0.07999883584746581 -0.5494370744576003 -0.004391865433489267 0.9204039636186159 0.05020680625602153 -0.5731004622706467 -0.09905079380277086 0.756889353405186 0.15649835908524984 ]
layer 3 Activation
tanh
layer 4 Dense
40 20
[ -0.5706081535224534 0.3473781887722663 0.43013643453546496 -0.24679342914349406 0.4132896637276255 0.1467020607541611 0.6936040888646929 0.20036440301532385 0.3242874914789336 0.4028470540686357 -0.10604944271997531 -0.5957548068541634 -0.13031140971683952 0.16440141846907327 -0.10062570615160657 0.20997772763815617 1.1201014065471397 -0.06831578971171355 0.5989913686645236 -0.10448919218248955 ]
[ 0.06199187808191057 -0.3609117639884341 0.5856268782143097 0.4109369095375478 -0.28267890958972 0.12729439204044046 0.5192549024312654 -0.30282398704318775 -0.040911088521501375 0.09482603742438893 -0.8661496707975314 -0.04109601388835311 0.6347046384596216 0.9773734363125998 -0.412593686858959 0.5537257964263346 0.21606876255433904 -0.6059218058236863 -0.3684875343475227 -0.2616998063066747 ]
[ -0.862947562834316 0.12487626603975922 -0.040997128688260984 -0.5405302139182327 0.3370346904331369 -0.0013125887010827068 0.2439169137541303 0.30236980718392165 -0.22870377602922728 -0.2468093627069335 0.01280023207918868 -0.4947036198522263 -0.3020644579721976 0.055027261809133865 0.024829515797034886 0.34256593946537084 0.384749458739277 0.011164385157978627 -0.011078960954915333 0.14251709207734584 ]
[ -0.3604461560970943 -0.4375567614223775 -0.2848843306837167 0.6859966075506955 -0.30732730783855583 0.2419096876297097 0.041737855097101276 0.26048295260558696 0.45251982783091127 0.7632574692021574 -0.013450272901822083 0.5129046905673277 0.09867953505515771 0.12368508192709231 0.3338994339498939 -0.02829573844795168 0.00251455091033011 0.4789585966986785 -0.3487596438401231 0.5617157602110004 ]
[ 0.4425533387215362 0.8595645347675489 -0.26790581563055726 -0.048305204875016994 0.15429268123653794 -0.03699646244422033 -0.24538369970807586 -0.22059854735725262 0.08881158169781786 0.12763618449455374 -0.25308970333444425 0.5287567132233083 0.722564314463708 0.9128238085525413 0.3721117580359733 -0.3845960414023884 -0.11551158097215432 0.8963848936925336 0.4897171029007369 0.3070226486911734 ]
[ 0.06501148463294525 0.4950454113840869 -0.4283401598439984 0.2201294338479605 -0.02394808335526828 0.6252712594413733 -0.28204081635476985 0.41242489106558605 0.8831364458929964 0.2610456168094536 0.3019694654755151 0.03419066642577875 -0.048932034798222626 0.06931362541516116 0.4064380766884732 -0.279206605695621 0.4507893037269518 -0.0038728714411644383 0.18859284216976327 -0.21198153070491083 ]
[ -0.412969059890224 -0.030852055009646197 -0.27196562854078105 0.4022223598591072 -0.4808533404048721 0.232220481925566 0.10367527453575193 -0.20427010853663688 0.4047441808413436 -0.26787006945410324 -0.21462925493112706 0.24583410988684545 -0.14809935566883795 -0.25680057944963885 0.15172766981584063 -0.5021078271263553 0.1178618348787257 -0.12620038641017928 -0.3086107105022129 0.06686835946217286 ]
[ 0.10644013879384646 0.5482451487744447 0.309644186382082 0.31081554182953763 0.18204806770057086 0.05404674046011661 0.5424296076029751 0.18346243670376686 -0.6498867080540257 -0.4798075035612827 -0.07642335457294858 -0.015616583096908644 -0.015474399110287557 0.4890355195636972 0.14148269144274592 -0.5183268562619722 0.2913543583093388 0.2307330243219077 -0.33334584537820633 0.25323465286234303 ]
[ -0.3974291009275777 0.7709652950603882 -0.37360720845138606 -0.1338033699371348 0.3495344262094678 0.25815992438535884 -0.3911697181589666 -0.09937666991080997 -0.47025600560704467 -0.17135063113373528 0.038849025961140385 -0.11180604128627247 0.10685974468264199 -0.20082471318347353 0.3840208249925289 0.29400922394329976 -0.15483551504135312 -0.06021837907223965 -0.7353160659178327 0.147497147188564 ]
[ 0.7884872752384909 -0.03912060551220485 -0.19618055208952345 0.5505440726165617 0.17611766361118805 -0.6559002041811662 -0.2903827118418444 -0.4604211238857956 -0.28844592455965345 -0.3822783355346157 0.293621933259702 0.05500160392310774 0.4824513711430323 0.3867587938527951 0.337691336082196 -0.15215878320119042 -0.20211283844565578 -0.12045857998452969 -0.08654557917113839 0.5405095623550596 ]
[ 0.35690905890432806 0.45281291648135347 -0.06780008704107059 0.01753024296953598 -0.029287700922643874 1.022569700824259 -0.34897499034968804 0.7119661312327955 0.7238041215589167 0.2918030684151159 0.06984334199775102 0.14558294430782898 0.15776786343196114 0.010974815209934829 -0.028095708012419063 -0.20689874156632238 0.4128728513962298 0.24475991286556503 0.007611490026529939 -0.19275773223724668 ]
[ -1.0704468486834007 -0.27515972388217685 0.07650994980746309 0.30537753410913404 -0.26995956352982176 0.616791824208259 0.3540302390612847 0.7862445123036149 0.01081388983781308 0.29617983144824755 -0.5201705236474812 -0.32129313958250333 -0.11834845328223331 -0.8341470931895731 -0.23460934821047816 -0.5309833877746682 0.7123308193398179 0.5396469530591916 -0.4632177509840907 0.8434753574869392 ]
[ -0.14142243454248798 -0.5227994954892915 0.2298224031185632 0.1788795159125434 0.12700016686897542 -0.48949814677940223 0.057663113067337554 -0.5042142565294488 -0.29721835572408306 -0.9341538463254486 0.38344312616182946 0.21502905699126498 0.5144069633283586 -0.1843208476880641 0.17437042819308723 -0.7240378045811573 -0.032165054456636345 0.4024862421609327 -0.42370383736811507 0.5508818045342301 ]
[ 0.7330486883757297 0.5761358783685266 0.04613810111437916 0.006212334208826882 0.11972695225073424 -0.13349358203758743 -0.510865495163169 -0.02258278202775055 -0.036700905636844736 -0.27505234203218837 0.1911610423647584 0.39491844861645004 0.3852252848945978 0.1786954873771607 0.8414080530646001 0.162360077387207 0.19689916573745284 0.10048977532889049 0.4835873850096956 0.17677147321622635 ]
[ -0.1144661299825026 0.030528931145817575 -0.20066372298509236 0.47610583280013385 -0.07917677689944375 -0.6775762992389456 0.11228942667011485 -0.21684866974092126 -0.28164131340390175 -0.25879181188672823 0.20123833313549833 -0.2812207972282089 -0.10731863417780518 -0.10847629974365175 0.17816148095788018 -0.49984897255857746 -0.5794041294422785 0.35139148928063424 -0.05776287602704247 -0.38179591883727987 ]
[ 0.40670223161809615 0.28587641385958407 0.6434384245934334 0.29128030631798935 0.13035727456727936 0.5986709035164084 0.09316917739892605 0.41025704063569784 -0.24294595106447764 0.3899929458343066 -0.42509651813697197 0.11549700576322604 0.40977993881252317 0.239688046949119 0.232315810370438 0.03371505457296028 0.2639000621052271 0.3217522665024615 -0.5061203264243557 -0.2175472404781068 ]
[ -0.3345109060253544 -0.3476431541236708 0.6783057431966465 -0.07867761065899333 0.15367278184928276 -0.27009788182708855 0.3461058622932356 0.37083869249694773 -0.773619293098561 -0.7667795810414759 -0.4842796359564145 -0.5228032719633684 -0.2098365376258745 -0.10037942326385187 0.43987133229839587 -0.27620176999923346 -0.18001508784346854 0.2433102303973953 0.17242387693526878 0.48504360646692823 ]
[ -1.1367224466791088 0.11781878879294876 0.1745517887867107 -0.3184665634883729 -0.2218603035816502 -0.22638327342883813 0.35157727293305396 -0.09712354216682534 0.04515423573193912 0.09779569733786252 -0.3804670143130071 -0.8081101348735903 -0.4943157277515249 0.029283056421532873 -1.4305799106928219 0.6886889248554348 -0.2036371638526769 -0.9447298767492811 -0.35641459414216525 -0.41101549642466423 ]
[ 0.10503197291602892 -0.42497070277431137 -0.5481671589052602 0.20630869371752308 -0.23898163566544373 -1.3429021730952926 -0.2629457911559698 -0.3836398235713368 0.10043232901204392 -0.42994718291765915 0.4049763148849279 -0.43873224842312714 -0.08048457916669202 -0.439581693372786 0.3920762315256958 -0.5081438305098637 -0.6196840905486503 0.005174207438687684 0.6192716366800471 -0.4659731252301652 ]
[ -0.7231317334247208 -0.5552405796787824 -0.1029851031181166 -0.19769930804607502 -0.2522323892948569 -0.08604806985999452 0.4603654080059822 0.2673534885752775 0.0584793799879912 -0.6599648177789003 -0.23552997572074197 -0.2273747051082343 0.5109883949888756 -0.834752121332789 -0.3718667847710509 -0.5693112362029734 0.11583982808751164 0.36412869638252243 -0.14162076526045037 0.6473015486328553 ]
[ -0.030886703645973627 -0.8069005926446241 -0.25314829613223966 0.3561654731558974 -0.36635810153494675 -0.3531155607060887 -0.04219642944401605 -0.39436320462243246 0.8394422995374252 -0.2056396293066999 0.4766898232385327 -0.028215318184926726 -0.42453818817033945 -0.23585050767480725 -0.05701211470358006 -0.39638668970497604 -0.14974669579158678 -0.09350395307495986 0.5643223852928195 -0.29568775759258015 ]
[ -1.0662573417776513 -0.07254607720254523 0.24681270844365666 -0.2465826010565869 -0.2704277185433191 -0.13954418317443215 0.5381637954388278 -0.406913239022604 -0.3374394281031087 0.18596056029334113 -0.1764455913855918 -0.3723971506521159 -0.34339801231463973 0.01876380882451321 -1.1493989338849235 0.5746201978615868 -0.004101624498448 -0.3279865370380512 -0.36028601721587405 -0.3362487790183331 ]
[ -0.531539701698908 0.12636338739869338 0.07856914035678042 0.05586874649505258 0.16740976764618065 -0.5302197411470361 1.063700493959238 -0.13933497156222374 -0.6852643202799668 -0.12117823402957353 -0.37540267595405047 -0.3116370005160182 -0.2453754640385929 0.158931083140701 -0.6448059629567823 0.364519158037485 0.33675760226138735 -0.2127253106005955 -0.33807637993601597 0.20006489969570618 ]
[ -1.0364559631767605 -0.5555594548890551 0.6727712619918447 0.4929015814218556 -0.04162708490282112 -0.02246237261801038 0.5118483790702314 0.13505173892109232 0.1279848269236264 0.2642630130116707 -0.05907651301262659 -0.31347566959091555 -0.5036099471248751 -0.4948190809149574 -0.6027639082013869 0.5832380030658899 0.12258325495210681 -0.5081155219401541 -0.18436483812389312 -0.45878052949697934 ]
[ 0.8091420111570038 0.08095433502859056 -0.4475725913154734 -0.22535369372390474 0.1610853871187929 0.12047519699819274 -0.4731517300118038 -0.0566358869609476 0.09450360969912507 -0.3868248872193135 -0.1394607609322865 0.6230406668252337 0.7080731261059713 0.4291472779709298 0.7084370598215509 0.18616347386732002 -0.16352823371960648 0.8654205912819901 -0.1420799833260889 0.2707968321378446 ]
[ 0.3414254955424837 0.3330194375302981 0.5496713659953112 0.4769938424390897 -0.0531786172070296 -0.23080188831884466 -0.17835606009481406 -0.3938597483501174 -0.8763684315603728 -0.28811522988753124 -0.14944113973878814 0.05043900024813608 -0.06486428300295186 0.18802805440616877 0.010002236780663424 0.5371051447230235 -0.10527062977965954 0.11679906869663548 -0.6586366697979077 -0.3622015564286489 ]
[ -0.6526050035499676 -0.3599537052545407 0.0037953766506015436 -0.05092239357240903 -0.24900858969486378 -0.02861593315524557 0.33667316862888247 0.185631757884479 -0.3588366847953818 0.06978606007197544 -0.601819741253104 -0.35889250551823454 -0.436706183806425 -0.18413222148066466 -1.3687984206489252 0.5245477139569651 0.2630575695409707 -0.1194936030321493 -0.48384074818271755 -0.1535641025520183 ]
[ -0.12475857913030454 0.2291061100972896 0.5621880176482147 -0.6896192709468091 0.1068722670753693 1.0525224497744565 0.17068485588346563 0.7827308834838729 -0.09438499443282064 0.291032892743944 -0.004308233974702825 -0.10960873340364581 0.1126162915459553 0.3825249780659219 0.12573437806673377 0.1580103328715436 0.6914420160957518 -0.027350935088045 -0.36212317013157674 0.21373701801879227 ]
[ 0.1559956485787512 0.15225545291890166 -0.020953636252176278 -0.8006310638122058 -0.3856338922101526 0.3601991112510769 0.29839028311274735 0.6294349352306845 0.1798695169193361 0.16716451524317513 0.3553655862302214 0.037051610570502116 0.2943123612571972 0.037721118911839054 -0.43492058633439296 -0.6165276212540648 0.21626350204443498 -0.19707466255418155 0.2340246347209249 0.902487555530142 ]
[ 0.18709388290760148 -0.7341196072874541 0.32265408827592107 -0.5517806106913763 -0.29390728903092783 0.15670832558128028 -0.27799379984346095 0.40441007172775145 1.0408655465121888 -0.03896766584950932 0.7119489998072397 0.13264559490666863 -0.37986766012519324 -0.5340578650490009 0.3357148833216206 -0.38809876546257366 0.5480724717658052 0.4801438179899544 0.3660105095044566 0.5533585785368805 ]
[ 0.13430042749366217 0.5499972896359168 -0.10968874148642498 0.18669215486709406 -0.07217499128618945 0.3111335514962919 0.2344172714185542 0.044023115070952884 -0.10167663269105226 0.29140210638592456 -0.7507079061121269 0.07100490625895951 0.3969216839766813 0.571749313417112 -0.08445629237243066 -0.062445476877568705 0.5234124131062632 0.48138989292862844 0.16269713351171622 0.17733360903228154 ]
[ 0.6646843639546091 -0.016894049202982313 -0.1666083704169532 0.24802474681632622 -0.07585342156905857 -0.24291808921579042 -0.5258286410557604 -0.11647580127205864 0.0629372359377023 -0.26243530832788103 0.2547181002200264 0.38703479516403283 0.7319669455200523 0.03642904136671351 1.186152380796492 -0.282136178848008 -0.16993945095134697 0.2914091570101267 0.7341244090412978 0.05171709690798847 ]
[ -0.03990906494260259 -0.18570340650178258 -0.7437642061957588 -0.28691000370029357 -0.5219496030743004 0.2159307019361308 0.09306388000224684 0.15786641558555034 0.03658067210066201 -0.002059189006928576 0.028968456853196222 0.19677036821127378 0.4334676424244613 -0.09445390407629901 0.3787136714074038 -1.0470515538337357 -0.2750107803651536 0.345428760861243 0.48514876262761114 -0.13079419851174187 ]
[ -0.22877891921726065 0.5393605209519265 -0.17527139698698804 -0.20587897994662885 -0.3170187117389229 0.317733477788159 -1.0267512465855377 -0.23934342222870755 -0.21939148622940094 0.18424698475261647 0.08932154628734387 0.1506196433360074 0.22088975633077132 0.03335984859537745 0.03558973442151555 0.4421119436737094 -0.3153180334969807 -0.17142418339110604 -0.049410125369458886 0.23221229092445012 ]
[ -0.1991657885002071 0.96996381389825 0.2671489069674177 0.4970159678901631 0.2862556818671608 0.33678808644909713 0.05017625626788029 0.6786833735854165 -0.39396202029221794 -0.12448446668901095 -0.09511134863551121 0.18318700212913033 0.0188887476832518 0.7494740360999299 0.4427105387556892 -0.4166824360237074 0.5581816793955438 0.66929070836032 -0.3860471583180924 -0.06900514368808408 ]
[ -0.2663656956803563 0.05536834041715762 -0.41420695726648066 -0.9046703447015532 -0.2827148694144901 0.4604998370017752 0.048783143972611 0.2887256267370392 -0.20714439608251123 0.06607715059608825 -0.4258336732785123 0.2391571747828029 -0.06414444803017343 -0.331490770256684 0.315879533518002 -0.67324779785521 0.2397133319672051 0.1418873341340713 0.16445370484955957 0.6103520001100157 ]
[ -0.5844702130453236 -0.25643174953565 1.0896363603535486 -0.7231306980375937 0.15314329186314665 0.13129331632624597 -0.04938660696737902 0.8203791633623131 0.30635717037346477 -0.5134692074796366 0.39535155409101386 -0.5077540903779857 -0.28515703807871606 -0.6610411531203528 -0.04735085521128815 -0.353919346995188 0.6142076554313981 0.10032319527296626 0.11350844691833238 0.7362345678066904 ]
[ -0.946512340596304 0.37852012997242057 0.04618369330402746 -0.16083948996203598 0.103542327187629 0.029895863919993867 0.3114495867636224 0.25376705618402917 0.21896169683243888 -0.15072298099343512 0.016711218959788905 -0.3253871547131974 -0.24144441813550213 -0.23834926461250625 -0.19337453240184366 -0.02875329841052836 0.7968163193298275 0.40085715532491567 0.5739694216633097 -0.3820406536128778 ]
[ 0.2679468366524991 0.34965865585620554 0.093030409839479 0.45731017878317465 -0.014858205778149289 -0.2251912439725018 -0.02942504260231829 -0.29068666721697506 -0.2996465574119686 -0.28986675444045074 -0.34826538431141385 -0.4143475162543009 -0.21565312118305635 0.38248800723914633 0.28932146987853635 -0.2690603108150361 -0.2699366808445651 0.2341689747453405 0.3654004477554161 -0.09294231156682091 ]
[ 0.06609657449973891 -0.608326266494041 0.2379342471607283 0.22312445776782444 -0.2727334062931454 -0.8245160013121863 -0.3444567330174979 -0.24186707082695647 0.36097923635846113 -0.6906166174942834 0.044656573944659925 -0.4399400291587447 0.30757259055145214 -0.39684663250124785 0.617938302275636 -0.6154699362783891 -0.10416586883389524 0.009146457141877258 0.7420022173416414 -0.2022203286564566 ]
[ 0.08590456539873437 0.12114011508103477 0.7725857250288943 0.3611578679188762 0.07834879610872288 -0.0069514392938203945 0.14434923158805923 0.038876072519910425 -0.8021691481423755 -0.5579619468576817 -0.14463561937179994 -0.032117384879213395 0.15457583855895096 0.34397142922520124 0.037960292748936746 -0.30569101155605605 -0.02768560888323708 0.055798987860923514 -0.3291367501359812 0.1919359317167178 ]
layer 5 Activation
tanh
layer 6 Dense
20 1
[ -0.04793694200947557 ]
[ -0.06286734935299443 ]
[ 0.141214138806068 ]
[ -0.0824522534139861 ]
[ 0.01631213251579808 ]
[ -0.036338487666570066 ]
[ 0.04708193316205362 ]
[ 0.11784226478919509 ]
[ 0.034317112291048966 ]
[ -0.14828679501400044 ]
[ 0.003058275383574216 ]
[ -0.14519545966602712 ]
[ -0.03299210359781037 ]
[ -0.19745180133934334 ]
[ 0.055330548440545 ]
[ -0.08485936365248412 ]
[ 0.0036879206751906125 ]
[ 0.14943664776515847 ]
[ 0.03656725062485045 ]
[ 0.06338646521277223 ]
[ 0.24681913437282807 ]
